<unk>	0
<s>	0
</s>	0
、	-3.18972
。	-3.31701
n	-3.41524
の	-3.84192
。\	-3.88635
が	-3.94615
は	-4.40984
で	-4.43057
に	-4.44313
も	-4.57402
,	-4.71941
を	-4.75529
と	-4.82075
▁1,	-4.98437
\	-4.9897
です	-5.02299
▁2,	-5.13643
い	-5.43677
▁	-5.45401
▁2,,	-5.5466
し	-5.6004
▁1,,	-5.7389
ので	-5.78133
て	-5.84384
か	-5.84431
な	-5.86478
!	-5.90492
でした	-5.91363
から	-5.95355
1	-5.96806
2	-6.01487
して	-6.02387
(	-6.12971
なので	-6.17977
ました	-6.25473
る	-6.26176
ます	-6.29242
や	-6.34073
た	-6.36984
とても	-6.37452
購入	-6.38226
お	-6.3882
でも	-6.39196
ですが	-6.39218
り	-6.40458
3	-6.43766
って	-6.44152
...	-6.44387
く	-6.45404
?	-6.46416
)	-6.48773
ら	-6.52765
には	-6.53061
ー	-6.53235
この	-6.60783
つ	-6.61737
また	-6.63602
ス	-6.63637
ない	-6.6471
!\	-6.6556
。,	-6.72403
した	-6.73638
する	-6.78845
購入しました	-6.7937
商品	-6.81399
日	-6.83704
、\	-6.85066
少し	-6.88989
5	-6.89926
サイズ	-6.93382
かな	-6.9346
ん	-6.94222
き	-6.94493
さ	-6.9464
4	-6.95645
と思います	-6.96635
けど	-6.97379
・・・	-6.99052
〜	-6.99353
なら	-6.99584
ル	-7.00133
のですが	-7.00394
まだ	-7.00774
!,	-7.02487
ちょっと	-7.02929
いて	-7.03012
しました	-7.03084
いい	-7.04056
より	-7.06502
・	-7.07857
色	-7.08308
す	-7.0847
本	-7.09494
します	-7.12378
ただ	-7.13543
」	-7.14357
にも	-7.14775
かなり	-7.14807
物	-7.15395
「	-7.15411
分	-7.15447
可愛い	-7.16116
一	-7.16698
着	-7.17015
リ	-7.18437
だけ	-7.18668
10	-7.19874
み	-7.2137
う	-7.2471
もう	-7.26359
cm	-7.27263
良い	-7.28454
ですね	-7.29113
ト	-7.29422
では	-7.29553
M	-7.29576
ま	-7.30039
め	-7.30212
円	-7.30428
用	-7.30503
ね	-7.30824
品	-7.31318
います	-7.31321
いた	-7.32004
使用	-7.32102
L	-7.32147
残念です	-7.325
ず	-7.32699
中	-7.32895
だったので	-7.34338
だ	-7.35291
何	-7.36099
あまり	-7.36362
なく	-7.36541
という	-7.37749
個	-7.38139
まで	-7.38534
【	-7.38955
他の	-7.3915
ません	-7.39217
カ	-7.3968
ク	-7.40048
あ	-7.40156
イ	-7.40673
すぐに	-7.41134
コ	-7.41237
良かったです	-7.42
これ	-7.42062
よ	-7.44122
S	-7.44305
水	-7.44363
こ	-7.445
っ	-7.44708
発送	-7.45051
ため	-7.45459
見	-7.45593
感じ	-7.45854
よく	-7.45922
ほど	-7.4605
ましたが	-7.46692
として	-7.46857
o	-7.47801
しか	-7.47815
だった	-7.48805
くらい	-7.48818
ラ	-7.49246
った	-7.49365
わ	-7.49434
ア	-7.49504
商品は	-7.49659
こと	-7.49796
ン	-7.50136
注文	-7.50926
-	-7.51344
対応	-7.52445
いました	-7.53618
大	-7.53663
だと	-7.54175
いる	-7.54224
回	-7.54395
など	-7.54457
そう	-7.55247
なかった	-7.55339
交換	-7.55532
すごく	-7.55728
足	-7.56486
...\	-7.56513
)\	-7.56575
6	-7.57354
時	-7.57355
デザイン	-7.57515
レビュー	-7.57886
ッ	-7.58245
出	-7.58275
今回は	-7.58444
ば	-7.58714
いつも	-7.58908
え	-7.5917
年	-7.59477
-20	-7.59586
T	-7.59674
手	-7.59808
人	-7.59878
ド	-7.59881
!!	-7.60593
もう少し	-7.61119
今回	-7.61203
を購入しました	-7.61377
マ	-7.61426
そうです	-7.61757
だと思います	-7.6264
ないので	-7.62844
大変	-7.63269
初めて	-7.633
すぐ	-7.64014
味	-7.64015
あり	-7.64115
ご	-7.64205
その	-7.64588
のか	-7.64736
全く	-7.64821
事	-7.65324
枚	-7.656
使って	-7.65749
♪	-7.66165
同じ	-7.6632
以前	-7.66758
満足です	-7.67241
購入しましたが	-7.68575
本当に	-7.68654
かも	-7.69229
点	-7.69367
?\	-7.69466
後	-7.69518
外	-7.69634
のに	-7.69761
ある	-7.70036
がある	-7.70227
ると	-7.70236
よかったです	-7.70547
☆	-7.71181
タ	-7.71368
A	-7.71674
でしたが	-7.717
使い	-7.72168
を購入	-7.72234
たら	-7.72252
やはり	-7.72886
気	-7.7295
】	-7.73382
月	-7.73624
目	-7.73747
使う	-7.74257
かわいい	-7.74524
残念	-7.75169
用に	-7.76172
もの	-7.76363
のは	-7.76424
今	-7.77215
チ	-7.77463
センチ	-7.77548
リピ	-7.77608
どう	-7.78007
これは	-7.78196
セット	-7.78383
...,	-7.78652
ケース	-7.79055
下	-7.79127
数	-7.79154
写真	-7.79191
プレゼント	-7.79327
黒	-7.79488
上	-7.79607
したら	-7.79746
んで	-7.79886
ロ	-7.79918
袋	-7.79936
ブ	-7.80033
リピート	-7.80133
いいです	-7.80182
度	-7.80467
前に	-7.8101
方	-7.81565
レ	-7.81987
時に	-7.82011
時間	-7.82014
安い	-7.82359
.	-7.82639
とっても	-7.82757
感	-7.83263
ように	-7.83946
届きました	-7.84437
今まで	-7.84647
できる	-7.85358
もっと	-7.85471
前	-7.8609
私は	-7.86346
届いて	-7.86582
いたので	-7.86815
ませんでした	-7.86978
利用	-7.87689
れ	-7.88573
になりました	-7.88586
白	-7.88759
笑	-7.89344
20	-7.89902
全然	-7.90353
なかなか	-7.90477
受注番号	-7.90512
ような	-7.90548
購入して	-7.90558
け	-7.9124
ち	-7.91332
価格	-7.91552
/	-7.9173
すると	-7.91876
良かった	-7.91883
せ	-7.91951
7	-7.92297
ピンク	-7.92351
タイプ	-7.92483
可愛いです	-7.92781
るので	-7.93051
充電	-7.93289
シ	-7.93352
期待	-7.93642
取り付け	-7.94181
買って	-7.94216
所	-7.94285
・・・,	-7.9433
があり	-7.94395
ようです	-7.94491
ミ	-7.94682
キ	-7.94726
エ	-7.94747
ところ	-7.94767
8	-7.94864
とか	-7.94883
値段	-7.95007
なくて	-7.95091
フ	-7.95278
購入した	-7.95345
しています	-7.95443
ム	-7.95482
している	-7.95854
やっぱり	-7.96117
サ	-7.96472
だし	-7.96902
?,	-7.96995
早く	-7.97183
ありがとうございました	-7.97191
む	-7.97531
e	-7.97815
違う	-7.98119
メ	-7.98255
高い	-7.9868
二	-7.98946
の方が	-7.98946
じ	-7.98978
不良品	-7.99122
効果	-7.99406
等	-7.99635
と思いました	-8.00037
12	-8.00052
i	-8.01021
しましたが	-8.01422
返品	-8.02075
ウ	-8.0214
確認	-8.02353
になる	-8.02535
B	-8.02837
よかった	-8.03193
パ	-8.0393
満足	-8.04676
こちらの	-8.04782
子	-8.04949
力	-8.0514
サイズが	-8.05498
使いやすい	-8.05523
作り	-8.06289
小さい	-8.06322
び	-8.06609
残念でした	-8.06823
なし	-8.06904
と思い	-8.06935
あと	-8.06989
だけで	-8.0714
っと	-8.07222
面	-8.07665
100	-8.07755
便利	-8.07815
E	-8.0822
入れ	-8.0824
性	-8.08288
ジ	-8.08636
と思って	-8.08661
傷	-8.08798
・・・\	-8.08863
前回	-8.0896
体	-8.09103
届いた	-8.09289
ツ	-8.09522
普段	-8.09583
ナ	-8.09599
a	-8.09654
部分が	-8.09661
しっかり	-8.09976
良く	-8.09989
しかし	-8.10395
ヶ月	-8.10669
へ	-8.11206
靴	-8.1182
★	-8.12519
カバー	-8.12683
しない	-8.12688
ますが	-8.12837
内	-8.13122
連絡	-8.13572
30	-8.13761
C	-8.14145
ビ	-8.14172
モ	-8.14179
生	-8.14873
々	-8.15238
なのに	-8.15262
よい	-8.15386
箱	-8.15568
特に	-8.15808
商品の	-8.15843
一度	-8.15847
付き	-8.15933
週間	-8.15968
日に	-8.16046
もなく	-8.16313
私の	-8.16339
になって	-8.16358
たい	-8.16359
値段相応	-8.16455
到着	-8.16517
いましたが	-8.16606
私	-8.16634
取り	-8.16979
なのか	-8.17154
9	-8.17157
バ	-8.17408
O	-8.17425
代	-8.17468
15	-8.17748
!!\	-8.1792
商品が	-8.18698
なる	-8.18962
画像	-8.1898
テ	-8.19341
問題	-8.19381
。。。	-8.19451
ぶ	-8.19504
いるので	-8.1962
入り	-8.19684
先	-8.19773
柄	-8.19921
たので	-8.20437
だから	-8.20473
量	-8.20557
れて	-8.2068
ニ	-8.20936
しても	-8.21034
台	-8.21188
配送	-8.21445
質	-8.21548
でしょう	-8.21807
品質	-8.21873
非常に	-8.22413
使える	-8.22476
結局	-8.22713
大きい	-8.22734
型	-8.23036
デ	-8.23079
良いです	-8.23081
さん	-8.23101
色も	-8.23306
一番	-8.23549
素材	-8.2355
通り	-8.23627
食べ	-8.2365
これから	-8.23707
んですが	-8.23788
方が	-8.2388
結構	-8.24064
収納	-8.24079
グ	-8.24227
かった	-8.24334
11	-8.24367
見て	-8.24442
気持ち	-8.2446
きました	-8.24572
しかも	-8.24672
口	-8.24693
スト	-8.24785
気に入りました	-8.25071
よう	-8.25352
位	-8.25542
:	-8.25551
ダ	-8.25662
ガ	-8.25669
買い	-8.26007
程	-8.26233
なって	-8.2634
形	-8.2679
にしました	-8.2688
ど	-8.26906
やすい	-8.27012
買いました	-8.27409
使用して	-8.27628
付け	-8.28955
こんな	-8.29201
...。	-8.29255
色が	-8.29361
自分で	-8.29695
車	-8.29769
あった	-8.29875
つけ	-8.30071
ブラック	-8.30322
になります	-8.30529
たくさん	-8.30547
オ	-8.30614
助かりました	-8.30677
なかったので	-8.30838
と思う	-8.31135
洗濯	-8.31197
m	-8.31409
小	-8.31625
使えない	-8.32357
まず	-8.32562
;	-8.32566
それ	-8.32778
毎日	-8.32871
薄い	-8.33051
切れ	-8.33074
ないです	-8.33483
楽	-8.33588
G	-8.33667
I	-8.33745
ケ	-8.33872
24	-8.33991
不	-8.34049
ろ	-8.34201
ずっと	-8.34292
とは	-8.34371
そのまま	-8.34397
くて	-8.34524
れば	-8.34707
履いて	-8.34864
】\	-8.3495
大満足です	-8.35005
s	-8.35018
のような	-8.35075
ダメ	-8.35077
ボ	-8.35239
星	-8.35256
梱包	-8.35266
ショップ	-8.35336
店	-8.35663
赤	-8.35822
D	-8.36042
三	-8.36273
になり	-8.36339
♪\	-8.3639
カラー	-8.36415
・・	-8.36621
ちゃんと	-8.36791
買った	-8.36842
メール	-8.36896
評価	-8.36905
されて	-8.36914
ないと	-8.36954
長	-8.36979
ネ	-8.37756
早速	-8.37786
組み立て	-8.37797
デザインは	-8.37834
ぐらい	-8.37934
持ち	-8.37986
紙	-8.38051
げ	-8.38334
セ	-8.38583
一つ	-8.38717
私には	-8.3878
大きさ	-8.38782
ありません	-8.39089
できない	-8.39127
よりも	-8.39256
ポ	-8.39507
通	-8.39854
入って	-8.40048
気に入って	-8.40084
状態	-8.40085
ズ	-8.40147
音	-8.40304
色は	-8.40427
なり	-8.40532
リー	-8.40553
みると	-8.40809
べ	-8.40882
おり	-8.41068
ではなく	-8.41138
プ	-8.41653
送料	-8.41699
本体	-8.41967
以上	-8.42067
そ	-8.42203
しません	-8.4221
ハ	-8.4238
すぎて	-8.42615
P	-8.42629
13	-8.43197
便利です	-8.43224
指	-8.43504
使いやすいです	-8.44075
kg	-8.44137
大きく	-8.4424
キロ	-8.4449
w	-8.44595
半	-8.45247
ものが	-8.45286
効果は	-8.45429
商品を	-8.45479
23	-8.45595
たり	-8.4599
くる	-8.46642
すぎ	-8.46662
問い合わせ	-8.46908
安く	-8.47032
しまい	-8.47296
為	-8.47355
ポイント	-8.47449
毛	-8.47466
にくい	-8.47675
しい	-8.47689
ゴム	-8.47873
なりました	-8.4794
実	-8.48207
普通の	-8.48215
のでしょうか	-8.48497
製品	-8.48547
用に購入しました	-8.48564
を見て	-8.48625
これで	-8.48663
してます	-8.49127
生地	-8.4919
予定	-8.49194
履き	-8.49261
買う	-8.49271
みて	-8.49352
満足しています	-8.49449
サイズは	-8.49576
つき	-8.49815
種類	-8.49892
かわいいです	-8.49982
書いて	-8.50076
使っています	-8.5013
しまいました	-8.50183
落ち	-8.50195
れる	-8.5039
グレー	-8.5047
らない	-8.50563
電話	-8.50735
地	-8.50813
ている	-8.50925
美味しい	-8.51062
お店	-8.51172
んだ	-8.51207
ゴ	-8.51336
光	-8.5174
かったです	-8.52214
内容	-8.52338
不安	-8.52444
他	-8.52594
服	-8.52694
でしょうか	-8.52751
自分	-8.52901
きて	-8.52943
できません	-8.53098
きた	-8.53287
イン	-8.53586
匂いが	-8.53596
やすく	-8.53613
いない	-8.5367
にして	-8.537
包装	-8.53826
着用	-8.53925
とも	-8.54033
身	-8.54077
ぐ	-8.54604
的に	-8.54619
正直	-8.54742
必要	-8.54907
助かります	-8.54969
大丈夫	-8.55176
同	-8.55187
風	-8.55239
作	-8.55411
間	-8.55589
合	-8.5584
ポケット	-8.55844
味が	-8.55982
ック	-8.56176
バッグ	-8.56269
ながら	-8.56291
何度も	-8.56336
十分	-8.56454
とにかく	-8.5646
説明書	-8.56588
送料無料	-8.56835
可愛くて	-8.56904
25	-8.57054
のかな	-8.57123
していて	-8.57137
のもの	-8.57177
喜んで	-8.5726
ふ	-8.57575
ではない	-8.57587
思ったより	-8.57591
感じです	-8.57608
部	-8.57614
がありました	-8.57619
g	-8.57728
気に	-8.5774
ときに	-8.58079
・・・。	-8.58111
雑	-8.58324
なんて	-8.58342
母	-8.58368
R	-8.58485
食	-8.58861
心配	-8.59002
ブルー	-8.59019
としては	-8.5905
できました	-8.59109
着て	-8.59215
別の	-8.59271
ール	-8.59615
用の	-8.59994
ベージュ	-8.60118
凄く	-8.60132
いますが	-8.60255
そして	-8.60399
された	-8.60505
夏	-8.60655
▁́	-8.60661
書	-8.60746
家族	-8.61056
汚れ	-8.6108
つけて	-8.61082
バー	-8.61098
l	-8.61114
なかったです	-8.61544
長く	-8.61858
この商品	-8.61941
しまった	-8.6198
50	-8.61988
時は	-8.62076
好み	-8.622
別	-8.62265
簡単に	-8.62271
を購入しましたが	-8.62335
_	-8.62359
ベルト	-8.62508
冬	-8.62705
まり	-8.62761
14	-8.62817
入	-8.62874
ペ	-8.62885
がっかり	-8.62928
パン	-8.63164
ようで	-8.63274
臭い	-8.63288
うーん	-8.63451
じゃない	-8.63498
メール便	-8.63552
ノ	-8.63605
入る	-8.63636
ています	-8.63666
きちんと	-8.6404
ピッタリ	-8.64095
こちらで	-8.64164
ホワイト	-8.64189
カー	-8.64308
デザインも	-8.64356
なぁ	-8.64499
ピ	-8.6471
飲み	-8.64723
ボタン	-8.64866
ウエスト	-8.65017
かと	-8.65027
行	-8.65064
注文しました	-8.65257
カード	-8.653
仕事	-8.65371
味は	-8.65375
ぼ	-8.65403
かけ	-8.65478
ものを	-8.65483
無い	-8.65674
注文した	-8.66054
メーカー	-8.66073
直	-8.66152
持って	-8.66163
食べて	-8.66324
ット	-8.66339
があります	-8.66382
花	-8.66441
ほとんど	-8.6654
中に	-8.66563
まったく	-8.66738
付	-8.66752
商品です	-8.66762
~	-8.66765
若干	-8.66882
式	-8.67086
出来	-8.67181
髪	-8.67208
仕方ない	-8.67251
大きめ	-8.67269
お値段	-8.67455
結果	-8.67483
ぎ	-8.67508
違い	-8.67528
欲しい	-8.67607
切り	-8.67634
何か	-8.67675
W	-8.67814
普通	-8.68213
られて	-8.68253
ことが	-8.68286
やっと	-8.68306
嬉しいです	-8.68342
、1	-8.68368
いたら	-8.68459
ひ	-8.68472
悪い	-8.69419
歳	-8.69475
見た目	-8.69586
こんなに	-8.69639
]	-8.69685
臭	-8.69802
みたいです	-8.69906
無	-8.70021
っている	-8.70028
もあり	-8.70036
しまって	-8.70051
裏	-8.70226
!!,	-8.70302
合わせ	-8.7031
16	-8.70385
のため	-8.70417
でき	-8.70459
だけど	-8.70657
バック	-8.70874
ライト	-8.71083
K	-8.71142
思い	-8.71264
生地が	-8.71316
p	-8.71381
なった	-8.71501
方は	-8.71616
肌	-8.71666
ワ	-8.71725
販売	-8.71736
H	-8.71868
期待して	-8.71988
感が	-8.7205
かもしれません	-8.72098
注文して	-8.72105
考え	-8.72284
中の	-8.72434
みたら	-8.72708
初	-8.72739
購入し	-8.72822
てしまいました	-8.72895
500	-8.73
布	-8.7301
発	-8.7303
布団	-8.73054
部分	-8.73074
自分の	-8.73075
使った	-8.73414
新	-8.73501
はありません	-8.7352
のみ	-8.7356
息子	-8.73608
しまう	-8.73638
合わない	-8.73981
のある	-8.74111
色々	-8.74257
があって	-8.74428
イメージ	-8.74469
22	-8.7451
板	-8.74684
早い	-8.74821
使用する	-8.74833
ロー	-8.74984
角	-8.75
注意	-8.75089
したい	-8.75211
表示	-8.75421
問題なく	-8.75426
穴	-8.75503
品物	-8.7554
t	-8.75584
感じで	-8.75598
らず	-8.75613
(^	-8.75676
高	-8.75775
効果が	-8.75844
u	-8.75975
肉	-8.76058
石	-8.7619
シール	-8.76221
かと思います	-8.76317
名前	-8.76449
安くて	-8.76487
首	-8.76543
とき	-8.76651
香り	-8.76702
していた	-8.76781
変え	-8.76862
なん	-8.76883
♪,	-8.77035
いません	-8.77048
気がします	-8.77353
ないし	-8.77402
肩	-8.77476
おすすめ	-8.77703
機能	-8.77721
リング	-8.77749
ッと	-8.7776
無く	-8.77778
が悪い	-8.77805
ソ	-8.7789
購入してみました	-8.77897
厚み	-8.77959
だろう	-8.78171
なければ	-8.78228
になった	-8.78266
ありました	-8.78278
装着	-8.78306
ばかり	-8.78327
長い	-8.78389
飲んで	-8.78643
好き	-8.78816
あります	-8.78942
なくなりました	-8.78965
かなぁ	-8.79031
ネット	-8.79034
美味しく	-8.79035
ベ	-8.79088
の商品	-8.79096
こちら	-8.79108
者	-8.79213
と同じ	-8.79276
丸	-8.79469
シャ	-8.79501
され	-8.79562
があるので	-8.79627
重	-8.79669
サイズで	-8.79696
ギ	-8.79775
座	-8.799
間に	-8.80011
せて	-8.80036
mm	-8.80062
したところ	-8.80309
すぎる	-8.80426
程度	-8.80596
ぴったり	-8.80618
すれば	-8.80764
単	-8.80814
気に入っています	-8.80828
パンツ	-8.80892
できます	-8.80911
良いと思います	-8.80936
しばらく	-8.8099
まって	-8.8106
物を	-8.81085
在庫	-8.81193
&	-8.8134
と一緒に	-8.81341
解	-8.81352
買い物	-8.81409
ありませんでした	-8.81419
みたいな	-8.81438
まぁ	-8.81609
全	-8.817
希望	-8.81724
再	-8.81768
タオル	-8.81815
気分	-8.81819
好きな	-8.8182
乾燥	-8.81932
顔	-8.81937
N	-8.82093
を使って	-8.82157
最	-8.82275
ブラウン	-8.82302
ひとつ	-8.82399
耐久性	-8.82465
手に	-8.82584
いいと思います	-8.8293
倍	-8.83043
試	-8.83171
長さ	-8.83197
購入する	-8.83251
初めての	-8.83257
購入したのですが	-8.83307
ヒ	-8.83437
子供	-8.83557
っぽい	-8.83795
確かに	-8.84196
使えません	-8.84292
ラッピング	-8.84309
サイズも	-8.84346
会	-8.8436
安心して	-8.8443
19	-8.84478
掛け	-8.84507
今日	-8.84566
段	-8.84579
への	-8.84627
マット	-8.84634
だけに	-8.84641
付いて	-8.84785
ちょうど	-8.84823
朝	-8.84823
頭	-8.84865
26	-8.84889
ても	-8.84921
を入れて	-8.84952
夜	-8.84981
不満	-8.84999
られる	-8.8509
けれど	-8.8513
引き	-8.85147
で購入	-8.85155
k	-8.85248
びっくり	-8.85345
の部分が	-8.85444
粉	-8.85576
いまいち	-8.85586
元	-8.85639
部分の	-8.85682
iPhone	-8.85791
主人	-8.85881
無し	-8.85986
きます	-8.86017
普通に	-8.86069
りました	-8.86373
全部	-8.86401
されている	-8.86417
見え	-8.86419
y	-8.8659
紐	-8.86644
ちゃ	-8.86699
小さく	-8.86804
伸び	-8.86939
キー	-8.87255
全て	-8.87256
つか	-8.8729
当	-8.87383
抜け	-8.87504
身長	-8.87562
みたい	-8.87638
がない	-8.87638
調整	-8.87683
合う	-8.87719
苦	-8.87751
しまいます	-8.87829
記載	-8.87967
ティ	-8.88034
送	-8.88062
リピートです	-8.8821
追記	-8.88224
F	-8.88234
粒	-8.88453
18	-8.88545
電池	-8.88587
デザインが	-8.88597
こちらは	-8.88641
c	-8.88706
金	-8.88728
ること	-8.88782
感じました	-8.88872
洗い	-8.88942
される	-8.88992
そうな	-8.89007
猫	-8.89037
のように	-8.89061
ついて	-8.89092
意味	-8.89306
計	-8.89317
28	-8.8961
のお	-8.89683
届くの	-8.8971
届き	-8.89775
るのが	-8.8979
と言って	-8.89807
空	-8.89907
来	-8.8992
クリーム	-8.89926
線	-8.89958
底	-8.90009
立	-8.90187
スマホ	-8.90203
ざ	-8.90235
ブラ	-8.90311
胸	-8.90386
ということで	-8.90534
欲しかった	-8.90611
と思っています	-8.9071
グリーン	-8.90772
ラン	-8.90778
気が	-8.90856
いく	-8.90894
的な	-8.90902
わかりません	-8.90952
いたのですが	-8.90956
カット	-8.91132
無理	-8.91303
物が	-8.91401
おいしい	-8.91412
ライン	-8.91469
17	-8.91487
ネットで	-8.91493
残念な	-8.91601
80	-8.91637
場	-8.91676
ート	-8.9174
と言う	-8.91875
商品も	-8.91878
面倒	-8.91903
安いので	-8.91914
の方	-8.91917
商品でした	-8.92042
指定	-8.92052
×	-8.92198
140	-8.92267
出来る	-8.92355
端	-8.92378
シート	-8.92406
X	-8.92519
状態で	-8.9271
。(	-8.92832
『	-8.92955
替え	-8.93001
』	-8.93016
たいです	-8.9312
おまけ	-8.93167
がなく	-8.9327
40	-8.93406
これを	-8.93573
できて	-8.93583
次	-8.93583
化	-8.93615
で購入しました	-8.93699
固定	-8.93729
出て	-8.93824
革	-8.93909
多少	-8.93953
とりあえず	-8.94033
会社	-8.94058
ほ	-8.94164
過ぎ	-8.9438
27	-8.94415
なのですが	-8.94499
ヤ	-8.94502
150	-8.94554
はず	-8.94619
ホ	-8.94761
が少し	-8.948
外れ	-8.94856
止め	-8.94963
色の	-8.9504
今後	-8.9505
こう	-8.9512
パー	-8.95164
めて	-8.95246
強	-8.95277
ことを	-8.95367
差	-8.95392
後に	-8.95749
るし	-8.95751
油	-8.9579
低	-8.9583
いろいろ	-8.95853
じゃ	-8.95867
したので	-8.95919
悪く	-8.96023
説明	-8.96078
込み	-8.96259
取	-8.96291
細	-8.96473
様	-8.96535
が入って	-8.9662
アップ	-8.9663
ター	-8.96679
させて	-8.96742
そこ	-8.96757
つく	-8.9676
なんか	-8.96794
半分	-8.96804
気になる	-8.96825
21	-8.97032
色合い	-8.97092
匂い	-8.97104
最近	-8.97119
全体的に	-8.97367
丈	-8.97421
なります	-8.97556
せず	-8.97755
場所	-8.97884
ありがとうございます	-8.9789
したいと思います	-8.98092
難しい	-8.982
見た	-8.98341
しっかりしていて	-8.98343
再度	-8.98481
余裕	-8.98533
シャツ	-8.98989
はとても	-8.99081
時の	-8.99104
ディ	-8.99305
要	-8.99344
時期	-8.99443
お願い	-8.99468
変更	-8.99529
約	-8.99546
小さめ	-8.99749
☆\	-8.99831
ライ	-9.0002
リピです	-9.00049
号	-9.00119
写真と	-9.00201
印象	-9.00208
幅	-9.00217
前の	-9.00359
頃	-9.00439
をして	-9.00467
使ってます	-9.00517
d	-9.00528
綺麗に	-9.0054
送って	-9.0056
製	-9.00577
番	-9.00682
に入れて	-9.00791
字	-9.00857
コン	-9.00985
したのですが	-9.01017
わからない	-9.01129
ください	-9.01135
履く	-9.01276
家	-9.01374
が多い	-9.01385
試して	-9.01523
その他	-9.0155
使えます	-9.01561
重い	-9.01624
シンプルで	-9.01655
しく	-9.01678
納得	-9.01696
ります	-9.01758
値段も	-9.0184
−	-9.01857
60	-9.0193
蓋	-9.01977
サイズを	-9.02002
イマイチ	-9.02013
ところが	-9.02073
袖	-9.02139
いただけ	-9.02341
すること	-9.02344
即	-9.02357
たいと思います	-9.026
するので	-9.02729
ずに	-9.02739
気に入ってます	-9.02812
短い	-9.02869
温	-9.02933
変	-9.03007
心	-9.03019
使え	-9.03056
使います	-9.03118
すごい	-9.03161
ひどい	-9.03171
レビューを	-9.03182
安っぽい	-9.03304
がっかりです	-9.03349
着る	-9.03351
使っている	-9.03473
やすいです	-9.03695
出来ない	-9.03719
部屋	-9.03825
残念ながら	-9.0388
オススメ	-9.03895
実際に	-9.03897
話	-9.0394
とのこと	-9.03961
素	-9.04033
1000	-9.04047
うまく	-9.04093
が悪く	-9.04097
ップ	-9.04219
オイル	-9.04262
いいですね	-9.0428
反応	-9.04382
付けて	-9.0439
明	-9.0439
感じます	-9.04467
がとても	-9.04543
使用しています	-9.04582
いないので	-9.04661
があった	-9.04731
○	-9.04737
作業	-9.04757
安かったので	-9.04825
もある	-9.04851
ということ	-9.04933
取れ	-9.04968
弱	-9.05055
脱	-9.05145
側	-9.05158
あって	-9.0526
色で	-9.05305
みました	-9.05311
の中で	-9.05335
のほうが	-9.05349
寝	-9.05377
軽い	-9.05461
私が	-9.05476
高く	-9.05481
有り	-9.055
していました	-9.05527
熱	-9.05581
薄く	-9.05589
値段が	-9.05705
友人	-9.05722
な感じ	-9.05744
回目	-9.05824
皮	-9.05827
上げ	-9.05835
&#	-9.05848
楽天	-9.05857
したいです	-9.05923
予約	-9.05952
の物	-9.05955
楽しみです	-9.05966
濃い	-9.05994
お世話	-9.06124
大きな	-9.06141
金額	-9.0617
生地は	-9.06286
引っ	-9.06457
文字	-9.06565
届く	-9.06581
この値段	-9.06785
ーター	-9.0682
割れて	-9.06843
買いましたが	-9.06874
みましたが	-9.06884
体型	-9.06894
前から	-9.0693
画面	-9.06982
一緒に	-9.07043
V	-9.07077
ほぼ	-9.07226
娘	-9.07342
周り	-9.07388
ペン	-9.07416
糸	-9.07436
ではありません	-9.07479
しまったので	-9.0749
うちに	-9.07535
木	-9.07623
まあ	-9.07715
返	-9.0782
箇所	-9.07823
U	-9.07858
そうで	-9.07983
ませんが	-9.08013
かかる	-9.08041
が出て	-9.08209
かもしれませんが	-9.08219
入れて	-9.08247
お得	-9.08345
と思った	-9.08411
りません	-9.08479
ガッカリ	-9.08494
音が	-9.08527
しっかりした	-9.08657
ング	-9.08745
さらに	-9.08784
あげ	-9.08833
匹	-9.0893
沢山	-9.09073
やや	-9.09099
書き	-9.0926
お店で	-9.09303
最悪	-9.09335
追加	-9.09522
チャ	-9.09617
傷が	-9.09624
リボン	-9.09711
パック	-9.09899
サイズの	-9.09912
ちゃん	-9.09958
か月	-9.09977
があれば	-9.10001
有	-9.10001
出来て	-9.10073
そんなに	-9.10241
動き	-9.1039
(^^)	-9.1045
しっとり	-9.10612
ボリューム	-9.10701
切	-9.10907
自体	-9.10927
ネジ	-9.10933
この商品は	-9.10955
仕上がり	-9.10961
だったら	-9.10979
クッション	-9.11193
円で	-9.11713
フィット	-9.11791
見える	-9.11793
横	-9.11899
オレンジ	-9.11974
信	-9.12023
軽くて	-9.1215
ネイビー	-9.12206
質感	-9.12249
丁度	-9.12263
ブーツ	-9.1228
レース	-9.12283
まま	-9.1235
その後	-9.12362
何も	-9.12409
学	-9.12483
^)	-9.12575
青	-9.12595
一回	-9.12626
してくれ	-9.12626
割れ	-9.12645
合い	-9.12746
機	-9.12823
スカート	-9.12837
自	-9.12951
現在	-9.13024
^^	-9.13045
電	-9.13101
もちろん	-9.13116
生地も	-9.13121
90	-9.13179
旅行	-9.13194
・・・・	-9.13217
ビックリ	-9.13423
汗	-9.13547
美	-9.13566
??	-9.13636
安心	-9.13673
タイプの	-9.138
腰	-9.13852
均	-9.13904
ゴールド	-9.13905
系	-9.13937
張り	-9.14164
失敗	-9.14201
お試し	-9.14245
っち	-9.1439
運	-9.14508
出して	-9.14511
29	-9.14512
真	-9.1454
手間	-9.14679
ものは	-9.14748
安	-9.14775
用に購入	-9.14789
ろう	-9.15033
楽しみ	-9.15145
お買い得	-9.15175
子供が	-9.15268
足の	-9.15278
分かり	-9.15298
もよく	-9.15305
を入れる	-9.1532
使い勝手が	-9.15349
方には	-9.15354
実際	-9.1537
表	-9.15422
子ども	-9.15425
可愛く	-9.15431
120	-9.15535
使用した	-9.15667
+	-9.15765
商品自体は	-9.15784
,"	-9.15946
っぱ	-9.1596
どんな	-9.15965
茶	-9.1599
^	-9.16
知	-9.16068
体重	-9.16202
を購入して	-9.16267
この値段で	-9.16278
さんの	-9.16286
えて	-9.16342
も良く	-9.16361
にくく	-9.16417
良かったので	-9.16451
残り	-9.16463
おすすめです	-9.1666
今は	-9.16678
子供の	-9.16679
プラスチック	-9.16709
産	-9.16722
かない	-9.16892
正	-9.16909
間違い	-9.17008
レベル	-9.17127
印	-9.17229
していましたが	-9.17243
方法	-9.17284
が多く	-9.17536
せる	-9.17602
常	-9.17821
を探していました	-9.1785
味も	-9.17858
目に	-9.17874
速	-9.17896
れた	-9.17917
あたり	-9.17925
はない	-9.17988
さが	-9.18073
試しに	-9.18099
というか	-9.18146
けて	-9.18154
☆,	-9.18255
との事	-9.18327
について	-9.18336
がついて	-9.1846
カップ	-9.18518
写真の	-9.18577
時間が	-9.18585
ピン	-9.18666
難	-9.187
リン	-9.18744
今度は	-9.18798
いただき	-9.18848
一枚	-9.18871
検品	-9.18998
0	-9.19032
130	-9.191
してから	-9.19156
いです	-9.19182
靴下	-9.19357
表面	-9.19367
穴が	-9.19421
に購入しました	-9.19494
高さ	-9.19501
平	-9.19692
きれいに	-9.19731
ありましたが	-9.19806
薄	-9.19813
かけて	-9.19888
的には	-9.19905
両	-9.1996
レンズ	-9.19966
携帯	-9.19976
おります	-9.20071
後ろ	-9.2023
`)	-9.20242
食べた	-9.20291
ケーブル	-9.20315
ッチ	-9.2034
何度か	-9.20506
あれば	-9.20514
値	-9.20518
感じでした	-9.20541
心地	-9.2055
受け	-9.20588
ロン	-9.20667
テープ	-9.20859
丁寧に	-9.20868
LED	-9.2092
向き	-9.20923
ちなみに	-9.20937
合わなかった	-9.20955
くれる	-9.21094
深	-9.21121
わり	-9.21138
いつ	-9.21139
配達	-9.21307
定	-9.21334
白い	-9.21337
財布	-9.21362
ガラス	-9.214
いいのですが	-9.21416
綺麗な	-9.21432
ちょうどいい	-9.21481
と思いましたが	-9.2151
部分に	-9.21522
してる	-9.2153
が必要	-9.21535
ゲ	-9.21744
健康	-9.21752
るのに	-9.21801
まる	-9.21806
使えて	-9.21813
今回の	-9.21815
のために	-9.21828
荷物	-9.21848
ゴミ	-9.21898
少々	-9.22013
脚	-9.22117
大きさも	-9.22192
痛	-9.22206
コー	-9.22231
加工	-9.22249
OK	-9.22309
このお値段	-9.22338
売って	-9.2237
チェック	-9.22432
上に	-9.22513
足が	-9.22706
色違い	-9.2273
嫌	-9.22773
きつい	-9.22847
自体は	-9.22865
ならない	-9.22874
親	-9.22937
急	-9.23043
簡単	-9.23054
使い方	-9.23093
あるので	-9.23128
腕	-9.23227
f	-9.23229
どこ	-9.23241
てしまい	-9.23247
たち	-9.2327
一週間	-9.2339
バッテリー	-9.23413
下の	-9.23483
問題ない	-9.23493
、「	-9.23521
近	-9.23539
ゆ	-9.23559
は無い	-9.23611
多	-9.23616
新しい	-9.23677
→	-9.23738
ときは	-9.23741
実物	-9.23838
しっかりして	-9.23949
名	-9.23966
際	-9.23972
女性	-9.23993
ステ	-9.24048
???	-9.2406
初心者	-9.24078
売	-9.241
以前から	-9.24211
割	-9.24236
土	-9.24238
を買いました	-9.24306
ものの	-9.24349
二つ	-9.24364
棚	-9.24367
続けて	-9.24456
強い	-9.24475
圧	-9.24492
70	-9.24498
いませんが	-9.24541
h	-9.24562
シャンプー	-9.24643
冷	-9.24683
使い心地	-9.24711
が一番	-9.24785
物は	-9.24792
香	-9.24899
全体	-9.24973
ファスナー	-9.25058
LL	-9.25104
オススメです	-9.25109
見た目は	-9.25164
を見	-9.25326
この価格	-9.25341
合って	-9.25357
場合	-9.25535
縫製	-9.25546
気に入った	-9.25823
気になります	-9.25949
大人	-9.25999
やって	-9.26001
なお	-9.26021
,2	-9.26079
たっぷり	-9.2612
友達	-9.26216
ラー	-9.26238
ナー	-9.26248
そんな	-9.26257
余	-9.26306
掃除	-9.26324
開封	-9.26341
ーン	-9.26451
透け	-9.26473
引	-9.26517
たのですが	-9.26612
るのは	-9.26645
目の	-9.26782
くらいの	-9.2683
近く	-9.26853
器	-9.26918
かもしれない	-9.26958
が良い	-9.26974
ワン	-9.26995
ω	-9.27041
......	-9.27047
わけ	-9.27054
シュ	-9.27168
巻	-9.27273
位置	-9.27331
おしゃれ	-9.27362
格	-9.27492
の部分	-9.27499
てしまう	-9.27502
のかもしれませんが	-9.27505
テーブル	-9.27596
オー	-9.27615
成	-9.2763
いただきました	-9.27728
際に	-9.27776
がよく	-9.27792
絶対	-9.27814
行き	-9.27842
経	-9.2792
どの	-9.27936
ストラップ	-9.27936
!!!	-9.27939
こちらを	-9.28039
ことは	-9.28163
わかりませんが	-9.2824
フル	-9.28284
b	-9.28364
香りが	-9.28416
なんだか	-9.2843
開けて	-9.28442
..	-9.28448
ヨ	-9.28465
ける	-9.28519
食べる	-9.28588
買わない	-9.28676
こちらの商品	-9.2869
多い	-9.28842
トイレ	-9.28863
人は	-9.28865
ミス	-9.2905
目が	-9.29136
サー	-9.29151
お気に入り	-9.29156
が良く	-9.29178
キャ	-9.29202
だめ	-9.29293
肌に	-9.29295
良かったのですが	-9.29356
でしたので	-9.29401
折り	-9.2943
不良	-9.29444
様に	-9.29448
ヘ	-9.29506
みます	-9.29619
いっぱい	-9.29644
待って	-9.297
点灯	-9.29781
みた	-9.29785
と言われ	-9.29829
厚	-9.29836
塩	-9.29867
これなら	-9.29888
コンパクト	-9.29899
部分は	-9.29985
張	-9.30085
セール	-9.30154
流	-9.3032
ペラペラ	-9.30379
と思いますが	-9.30455
悪	-9.30502
てしまいます	-9.3052
剤	-9.30522
違って	-9.3055
すっきり	-9.3057
爪	-9.30575
得	-9.30599
到着しました	-9.30721
違和感	-9.30733
せっかく	-9.30755
調	-9.3079
られ	-9.30814
買え	-9.30829
接続	-9.3083
結	-9.30847
人には	-9.31159
*	-9.31268
タン	-9.31293
動	-9.31335
店舗	-9.31439
以下	-9.31522
実感	-9.31569
過ぎて	-9.31598
和	-9.316
丈が	-9.31633
思っていたより	-9.31663
主	-9.31676
押し	-9.3169
シワ	-9.31767
最高	-9.31826
変化	-9.31848
壊れて	-9.31992
思います	-9.32001
安いし	-9.32002
なの	-9.32036
大満足	-9.32081
読み	-9.32088
配	-9.32093
お腹	-9.32105
れない	-9.32159
いたり	-9.32175
なさそう	-9.32183
設置	-9.3221
薬	-9.32235
ビニール	-9.32261
こういう	-9.32393
今のところ	-9.32399
対策	-9.32417
飛び	-9.32456
慣れ	-9.32464
かったので	-9.32485
雨	-9.32627
使っていた	-9.32641
ピー	-9.32721
読んで	-9.32865
使えませんでした	-9.32865
Y	-9.32893
を買って	-9.32928
はずれ	-9.32954
るように	-9.32983
ですよ	-9.33034
っています	-9.33095
っこ	-9.33145
裾	-9.33236
ったら	-9.33298
マイナス	-9.33327
お勧め	-9.33412
なんとか	-9.33427
シー	-9.33432
消え	-9.3345
込んで	-9.33475
疲れ	-9.33492
来た	-9.33497
ザ	-9.33557
入らない	-9.33573
あったので	-9.33696
後の	-9.33895
差し	-9.33911
今回も	-9.33913
ったり	-9.3402
小さな	-9.34062
嬉しい	-9.34063
待ち	-9.3412
ほしい	-9.34131
料	-9.34156
耳	-9.34293
うちの	-9.34339
してしまいました	-9.34426
お安く	-9.34541
せいか	-9.34641
くなって	-9.34687
バランス	-9.34712
が違う	-9.34716
ですし	-9.34758
犬	-9.34841
,1	-9.34897
記	-9.35017
しようか	-9.3505
出来ました	-9.35052
右	-9.35067
になっている	-9.35069
それでも	-9.35072
方の	-9.3508
だったのですが	-9.35124
固	-9.35133
なかったのですが	-9.35171
ックス	-9.35209
茶色	-9.35219
緩	-9.35287
曲	-9.35413
中身	-9.35418
大きくて	-9.35437
よかったので	-9.35438
他の方のレビュー	-9.35457
モノ	-9.35493
日目	-9.35546
祝	-9.35661
コーヒー	-9.35688
がありません	-9.35741
出産	-9.35747
剥がれ	-9.35759
液	-9.3582
シリーズ	-9.35848
の方は	-9.35862
屋	-9.35899
具	-9.35922
メールで	-9.36003
スター	-9.36112
ショック	-9.36259
おいしく	-9.36261
くれて	-9.3629
透明	-9.36367
フード	-9.36398
スッキリ	-9.36438
置き	-9.36525
歯	-9.36549
乾	-9.36572
違いました	-9.36575
機会	-9.36588
ょ	-9.36592
テレビ	-9.36602
安かった	-9.36672
出す	-9.36703
なくても	-9.36723
アン	-9.3681
売り切れ	-9.36877
出し	-9.36894
レー	-9.36921
当たり	-9.3695
ていました	-9.37139
は少し	-9.37152
プラ	-9.37214
が届きました	-9.37245
ケーキ	-9.37267
早くて	-9.37278
%	-9.37305
元気	-9.37454
日で	-9.3749
ハズレ	-9.37572
[	-9.37597
輪	-9.37717
頼んだ	-9.37804
最初は	-9.37863
゚	-9.37888
工	-9.38098
ぽ	-9.38148
電源	-9.38269
なくなり	-9.38318
合いませんでした	-9.38332
翌日	-9.38343
多く	-9.38369
見た目も	-9.38449
写真より	-9.38466
ぬ	-9.38605
使いやすく	-9.38614
は全く	-9.38626
臭いが	-9.38681
開	-9.38711
安っぽく	-9.38731
部品	-9.38825
ずれ	-9.38832
注文しましたが	-9.38864
商品に	-9.38884
プレゼントに	-9.38936
PC	-9.38965
焼き	-9.39044
クロ	-9.3908
商品到着	-9.39112
れません	-9.39158
買ってみました	-9.39206
ほうが	-9.39237
ほしかった	-9.39245
まあまあ	-9.39277
もらえ	-9.3931
すべて	-9.39311
隙間	-9.39331
先日	-9.39345
がっかりしました	-9.39427
ゆったり	-9.39561
もない	-9.39666
豆	-9.39696
入荷	-9.39749
やり	-9.39766
左右	-9.39777
中国製	-9.39885
履き心地	-9.39957
上がり	-9.40026
の使用	-9.40041
純正	-9.40081
無駄	-9.40186
チェーン	-9.40264
調節	-9.40335
満	-9.40385
そうなので	-9.40395
使わない	-9.40397
らしい	-9.4041
ード	-9.40416
思った	-9.40583
事が	-9.40591
細い	-9.40686
吸	-9.40689
こんなもの	-9.4069
広	-9.40697
来て	-9.40717
キャンセル	-9.40722
作りが	-9.40806
カメラ	-9.40828
扱い	-9.40842
乳	-9.40941
違います	-9.40966
国	-9.41007
いただいて	-9.41012
探して	-9.41024
分からない	-9.4122
コレ	-9.41263
友人に	-9.4136
半年	-9.41364
の為	-9.41375
作って	-9.41379
重さ	-9.41416
素敵	-9.41421
可能	-9.41487
個人的には	-9.41492
現	-9.41533
が無い	-9.41561
づらい	-9.41567
を購入し	-9.41609
にしましたが	-9.41653
しないと	-9.41662
類	-9.41703
玉	-9.41742
ハイ	-9.41783
なんで	-9.41824
肌触り	-9.41866
ュ	-9.41877
訳	-9.41939
不可	-9.42045
気になって	-9.42081
思いました	-9.42087
。。。,	-9.42104
購入したので	-9.4212
断	-9.4217
軽く	-9.42269
ものでした	-9.42351
素敵な	-9.42353
二度と	-9.424
08	-9.42401
メーカーの	-9.42456
っぽく	-9.42506
表記	-9.42522
折れ	-9.4258
ッシュ	-9.426
ベッド	-9.42623
回り	-9.42635
しまうので	-9.4266
履いた	-9.42665
200	-9.42677
と思い購入しました	-9.42679
除	-9.42684
結婚式	-9.42711
比べ	-9.42733
無料	-9.42785
られた	-9.42793
があったので	-9.42806
の中	-9.42878
入っていて	-9.42927
左	-9.42927
毎回	-9.42969
黄色	-9.42973
したり	-9.4301
ドレス	-9.43126
09	-9.43159
片	-9.43214
アイ	-9.43229
いい感じです	-9.43237
キッチン	-9.43242
小さくて	-9.43247
落ちて	-9.4332
の購入	-9.43382
使用感	-9.43429
新品	-9.43509
シンプル	-9.43545
伝	-9.43629
葉	-9.43816
しますが	-9.4387
たって	-9.43883
できるので	-9.43887
DVD	-9.44001
縫い	-9.44071
の中に	-9.44121
これからも	-9.44219
正解でした	-9.44245
を選びました	-9.44248
具合	-9.44306
返信	-9.44306
他店で	-9.44373
ザー	-9.44403
ないように	-9.44433
が付いて	-9.44508
本日	-9.44509
も良い	-9.44512
自然	-9.44621
つです	-9.4471
このお値段で	-9.44752
メールが	-9.44816
ここ	-9.4485
迅速	-9.44867
冷凍	-9.44869
返事	-9.44902
私も	-9.44938
頂きました	-9.44973
になってしまいました	-9.45017
他店	-9.45024
しょうがない	-9.45076
などの	-9.45121
の大きさ	-9.45124
ロック	-9.45146
かかって	-9.45162
効	-9.45173
辛	-9.45181
らしく	-9.45215
シルバー	-9.45256
強く	-9.45322
床	-9.45329
お尻	-9.45362
32	-9.45469
バラ	-9.4547
ジェル	-9.45499
合わず	-9.45538
開け	-9.45547
少ない	-9.45591
漏れ	-9.45797
きたので	-9.458
なくなって	-9.45848
太	-9.45891
はじめて	-9.45917
始め	-9.45933
取れて	-9.45969
リア	-9.45971
何より	-9.46003
一目惚れ	-9.46111
セットで	-9.46113
ずつ	-9.46117
これが	-9.46134
一部	-9.46142
のメール	-9.46284
驚きました	-9.4631
止	-9.46408
送り	-9.46418
改善	-9.46532
迷いましたが	-9.46536
の色	-9.46551
付属の	-9.46575
ことに	-9.46647
残	-9.46658
レッド	-9.46725
などは	-9.46758
パッケージ	-9.46786
コード	-9.4683
はかなり	-9.46844
思え	-9.46846
飲む	-9.46863
膝	-9.46968
お勧めです	-9.46979
店で	-9.4701
想像	-9.47013
できませんでした	-9.47035
友人の	-9.47077
特	-9.47088
しているので	-9.47119
かわいくて	-9.47129
ミリ	-9.47158
備	-9.47177
ショップで	-9.47211
かわ	-9.47215
あまりにも	-9.47224
ともに	-9.474
"	-9.47402
の問題	-9.47436
無事	-9.47476
たの	-9.47495
美味しいです	-9.47564
は初めて	-9.47576
早	-9.47701
くらいです	-9.47769
値段の割に	-9.47832
黒い	-9.47875
コスパ	-9.47892
達	-9.479
を探して	-9.47977
として購入しました	-9.4799
可愛いけど	-9.48025
明るい	-9.48077
されました	-9.48163
的	-9.48243
父	-9.48261
通常	-9.48274
短く	-9.48392
いませんでした	-9.48436
可愛かった	-9.48443
糸が	-9.48658
キズ	-9.48659
出荷	-9.48682
縫	-9.48711
消	-9.4872
なもの	-9.48737
とおもいます	-9.48745
冷え	-9.48774
確	-9.48933
つもり	-9.48995
微妙	-9.49022
値段なり	-9.49197
置いて	-9.49254
きれいな	-9.49278
去年	-9.49289
頂き	-9.49292
遠	-9.49301
って感じ	-9.49326
ほつれ	-9.4935
足り	-9.49368
試着	-9.49432
壊れ	-9.49481
切って	-9.49608
v	-9.49629
ミニ	-9.49676
考えて	-9.49684
捨て	-9.49715
サイド	-9.49742
問題ありません	-9.49768
下げ	-9.49803
トップ	-9.49841
柔らかい	-9.49886
ボロボロ	-9.4992
の長さ	-9.50017
によって	-9.5012
できず	-9.50182
言い	-9.50229
ジャ	-9.50314
るか	-9.5032
いると	-9.50352
腹	-9.50372
はあまり	-9.50395
◎	-9.50462
このまま	-9.50513
みたいで	-9.50597
上の	-9.50628
ピアス	-9.50667
動か	-9.50686
ヒール	-9.50686
の為に	-9.50728
いくら	-9.50885
しようと	-9.5094
厚手	-9.50987
保証	-9.51034
なくなる	-9.51053
保	-9.51063
遅く	-9.51105
短	-9.51143
設定	-9.5125
があると	-9.51332
られない	-9.51381
わかり	-9.51444
傘	-9.51495
XL	-9.51525
クラ	-9.5158
いい感じ	-9.51583
先に	-9.51587
ないのですが	-9.51613
防	-9.51618
損	-9.51632
クオリティ	-9.51635
びっくりしました	-9.51662
000	-9.51674
ものと	-9.51696
普段は	-9.51726
できた	-9.51897
友達の	-9.51949
x	-9.51969
社	-9.51987
かかと	-9.51994
-01	-9.52051
ダイエット	-9.52075
泣	-9.52157
がないので	-9.52159
初め	-9.52186
思っていた	-9.52311
いいので	-9.52341
期間	-9.52361
あれ	-9.5239
友達に	-9.52418
似	-9.52449
価格が	-9.52484
からの	-9.52494
万	-9.52527
痛い	-9.52538
使おう	-9.52568
お気に入りです	-9.52653
タグ	-9.52689
アイロン	-9.52721
のサイズ	-9.52739
インク	-9.52742
時計	-9.52761
加	-9.52777
31	-9.52796
がいい	-9.52808
見えて	-9.52825
サイト	-9.52841
おらず	-9.52842
暖かい	-9.52852
ファ	-9.52869
どれも	-9.52964
感は	-9.52999
オシャレ	-9.53019
立て	-9.53137
問題なし	-9.53153
んだけど	-9.53188
さっそく	-9.53269
言う	-9.53295
おもちゃ	-9.53302
商品が届きました	-9.5341
一日	-9.53488
形が	-9.53533
の連絡	-9.53544
を購入した	-9.53545
便	-9.53626
綿	-9.5363
仕様	-9.53631
細かい	-9.53632
邪魔	-9.53686
たくない	-9.53705
。"	-9.53719
ショックです	-9.53739
雰囲気	-9.53743
交換して	-9.53784
いろんな	-9.53816
それに	-9.53865
後悔	-9.53957
感じが	-9.53965
である	-9.53966
同時に	-9.54033
金具	-9.54247
米	-9.54261
キツ	-9.54268
材	-9.54306
イイ	-9.54453
だが	-9.54465
同様	-9.54496
次は	-9.54567
ために購入しました	-9.54625
骨	-9.54643
お花	-9.54668
目立つ	-9.54671
包	-9.5468
とても残念です	-9.54719
洗って	-9.5476
検討	-9.54774
曜	-9.54802
かどうか	-9.54812
汚れが	-9.54827
どおり	-9.54921
立ち	-9.54923
届かない	-9.54927
メール便で	-9.54933
もありません	-9.54942
不足	-9.54959
大きすぎ	-9.55029
どうしても	-9.55147
低い	-9.55147
処理	-9.55183
よいです	-9.55187
を持って	-9.55198
状	-9.55205
使いやすさ	-9.55277
もち	-9.55287
春	-9.55382
誕生日プレゼント	-9.55382
キレイ	-9.55384
(*^^*)	-9.55386
明るく	-9.5551
背	-9.55519
破れ	-9.55548
ボール	-9.55549
直し	-9.55583
予備	-9.55586
見えます	-9.55589
緑	-9.55637
がかなり	-9.5566
直接	-9.55676
下に	-9.55715
重ね	-9.55727
,3	-9.55817
履け	-9.55829
使い始めて	-9.55851
料理	-9.55932
連	-9.5598
となって	-9.55991
壊れました	-9.56029
ロング	-9.56132
安定	-9.56146
カラ	-9.56149
快適	-9.56272
確認して	-9.56273
つけた	-9.56324
という感じ	-9.56362
椅子	-9.56382
削	-9.56412
我慢	-9.56469
いても	-9.56486
くれ	-9.56517
困って	-9.56536
インナー	-9.56556
おいて	-9.5657
明らかに	-9.56583
コート	-9.56593
込	-9.56597
(>_<)	-9.56646
れます	-9.56769
お値段も	-9.56801
見えない	-9.56859
最悪です	-9.5687
嬉しかったです	-9.56881
鼻	-9.56931
空気	-9.56959
36	-9.56968
は良い	-9.57004
ではないので	-9.5703
通販	-9.57053
最低	-9.57059
はないです	-9.57149
というより	-9.57154
買い替え	-9.57184
中で	-9.57229
収	-9.57242
塗装	-9.57251
すぎず	-9.57272
言って	-9.57316
壁	-9.57336
良いのですが	-9.57375
みよう	-9.57388
くらいで	-9.5742
ちょ	-9.57472
ソー	-9.57472
ゴムが	-9.57519
共に	-9.57525
破損	-9.57544
サン	-9.57546
出来ません	-9.57547
片方	-9.57584
疑問	-9.576
ダメでした	-9.57615
にならない	-9.5762
人に	-9.57682
160	-9.57687
触	-9.57778
してみました	-9.57779
値段のわりに	-9.5779
パーツ	-9.57806
季節	-9.57922
不明	-9.57932
装	-9.58022
の味	-9.58083
日の	-9.58085
ですので	-9.58105
かかりました	-9.58122
つける	-9.58145
いいかな	-9.58156
可愛かったです	-9.58202
綺麗	-9.58203
110	-9.58228
ランプ	-9.58253
くれた	-9.58255
この価格で	-9.58266
丁寧で	-9.58281
ほかの	-9.58314
出産祝い	-9.5834
使い勝手	-9.58344
ナチュラル	-9.58361
しよう	-9.5841
種	-9.58428
買わ	-9.58438
しませんでした	-9.58451
かっこいい	-9.58529
ケット	-9.58597
だと思いました	-9.58601
75	-9.58604
文	-9.58606
柔らかく	-9.58631
スーパー	-9.58775
更に	-9.58784
塗り	-9.58789
って感じです	-9.58795
るのか	-9.588
を入れ	-9.58903
値段の割には	-9.58926
保存	-9.5898
購入です	-9.59002
に行く	-9.59128
そちら	-9.59154
干し	-9.59173
美味しかったです	-9.5918
古	-9.59271
古い	-9.59291
皆さん	-9.59334
タイ	-9.59399
フィルム	-9.59446
仕	-9.59452
四	-9.59452
枕	-9.59481
増	-9.59482
と思っていましたが	-9.59484
買ったのですが	-9.59488
帰	-9.59528
と感じました	-9.59541
悩んで	-9.59551
娘の	-9.59553
写真通り	-9.59557
色々な	-9.59581
このショップ	-9.59598
又	-9.59602
かさ	-9.59631
それと	-9.59643
しながら	-9.59694
逆に	-9.59696
商品届きました	-9.59715
分かりませんが	-9.5979
予定です	-9.59797
シミ	-9.59838
やめ	-9.5986
といって	-9.59861
おく	-9.59933
”	-9.59959
ちょうど良い	-9.59963
渡	-9.59974
縮	-9.59985
文句	-9.60017
転	-9.60038
違った	-9.60043
色味	-9.60044
経って	-9.60075
引き出し	-9.60094
自転車	-9.60137
人気	-9.60169
申し	-9.60221
入った	-9.60222
完全に	-9.60286
日本	-9.60357
していない	-9.60381
好きです	-9.60391
もいい	-9.60457
充分	-9.60483
つぶ	-9.60635
鍋	-9.60675
他に	-9.60681
だいぶ	-9.60708
ものです	-9.60771
へのプレゼント	-9.60795
扱	-9.60798
よりは	-9.60803
干	-9.60861
専用	-9.60868
予想	-9.60879
歩き	-9.60973
見る	-9.61038
なぜ	-9.61066
それなり	-9.61101
対応が	-9.61106
れました	-9.61127
をしました	-9.61129
保護	-9.61152
補	-9.61203
とはいえ	-9.61281
何とか	-9.61283
乗	-9.61301
っちゃ	-9.61363
もらい	-9.61365
としても	-9.61496
を履いて	-9.61562
ワンサイズ	-9.61571
抜群	-9.61614
力が	-9.61649
自宅	-9.61652
厚さ	-9.617
くなり	-9.61767
ありがたいです	-9.61796
今年	-9.61824
色違いで	-9.61915
操作	-9.61918
レビューを見て	-9.62019
以前に	-9.62022
サイズを購入しました	-9.62031
たかった	-9.62045
幅が	-9.62073
近所の	-9.62086
してくれる	-9.62126
ボタンが	-9.62132
両方	-9.62153
レビューに	-9.62206
しゃ	-9.62268
番号	-9.62295
測	-9.62311
火	-9.62402
ページ	-9.6243
23.5	-9.62465
口コミ	-9.62496
込む	-9.625
07	-9.62521
に合わせて	-9.62526
みんな	-9.62535
かんじ	-9.62589
と思ったら	-9.62629
管理	-9.6263
かかり	-9.62699
側の	-9.62712
持	-9.62712
33	-9.62713
もらって	-9.62714
面倒なので	-9.62721
(*	-9.62741
楽しみにして	-9.62766
保育園	-9.62803
入っていました	-9.62829
観	-9.62831
ぁ	-9.6284
硬い	-9.6286
主人の	-9.6291
散	-9.6295
お品	-9.63014
ジュ	-9.63023
クリア	-9.63069
直ぐに	-9.63096
印刷	-9.63109
残って	-9.63109
したのに	-9.63139
チャック	-9.63146
居	-9.63231
感謝	-9.63243
貼って	-9.63269
える	-9.63283
あとは	-9.63323
甘い	-9.63401
揃え	-9.63417
なのかな	-9.63432
明るさ	-9.63511
注文し	-9.63611
おいしいです	-9.63667
ねじ	-9.63672
切れて	-9.63697
安全	-9.6374
たまたま	-9.63754
毛玉	-9.63754
歩く	-9.63777
クル	-9.63796
生地の	-9.63813
を買う	-9.63815
38	-9.63842
パソコン	-9.63851
ギフト	-9.63852
;)	-9.63895
探	-9.63904
しっかりと	-9.63975
初めて購入しました	-9.64044
下さい	-9.64103
ワイン	-9.64109
優しい	-9.64111
到着して	-9.64125
る事	-9.64308
ですか	-9.6431
とても可愛いです	-9.64367
売り	-9.64369
カビ	-9.64391
にくいです	-9.64491
とても気に入りました	-9.64504
どちら	-9.64523
他の商品	-9.6453
着心地	-9.64563
使用していた	-9.64565
を確認	-9.64568
安さ	-9.64588
続け	-9.64638
客	-9.64688
ぴったりでした	-9.64711
プレ	-9.64714
後は	-9.64818
高級感	-9.64931
うち	-9.6496
お値段以上	-9.64995
プロ	-9.65001
ないと思います	-9.65071
締め	-9.65143
▁2,2	-9.65173
の上に	-9.65176
甲	-9.65193
レビューで	-9.65215
欲しいです	-9.65248
変わり	-9.65284
二人	-9.65322
送料が	-9.65403
敷	-9.6541
ですよね	-9.65462
USB	-9.65551
体に	-9.65565
脂	-9.65568
意	-9.65626
一本	-9.65629
方も	-9.65726
畳	-9.65728
見たら	-9.65767
超	-9.65805
マン	-9.65833
していますが	-9.65856
を使用して	-9.65856
やすくて	-9.65888
お風呂	-9.65893
たく	-9.65896
聞	-9.65899
まらない	-9.65982
判	-9.66007
ないのに	-9.66095
ければ	-9.66148
に近い	-9.66157
期	-9.66206
であれば	-9.66248
に出	-9.66297
ことも	-9.6641
変わらない	-9.6646
貼り	-9.66501
あんまり	-9.66502
早かったです	-9.66506
同じような	-9.66519
重宝しています	-9.66562
帯	-9.66585
フィ	-9.66601
しっかりしている	-9.66616
きっと	-9.66618
画	-9.66634
こんなもん	-9.66758
ますね	-9.66887
とても良い	-9.669
める	-9.66931
使いにくい	-9.66949
ようと	-9.66966
安物	-9.6701
はちょっと	-9.67021
可愛いし	-9.67026
しま	-9.6705
からは	-9.67087
価格も	-9.67111
-02	-9.67144
良さそう	-9.67167
していただき	-9.67207
少	-9.67207
42	-9.6721
お友達	-9.67226
で購入した	-9.67433
カン	-9.67458
-03	-9.67542
利用させて	-9.67676
無かった	-9.67724
比較	-9.67738
履	-9.67773
いなかった	-9.6795
痩せ	-9.68008
どれ	-9.68069
この商品を	-9.68096
はありますが	-9.68101
ブラシ	-9.68124
最高です	-9.68139
られません	-9.6824
これだけ	-9.68273
容量	-9.68288
しかない	-9.6831
細身	-9.6838
役	-9.6852
実物は	-9.68528
ストレッチ	-9.68552
気にならない	-9.68666
奥	-9.68743
に戻	-9.68779
迷って	-9.68789
向	-9.68816
はしません	-9.68823
購入しています	-9.68835
▁2,,2	-9.68882
たくて	-9.68894
最初から	-9.68927
書かれて	-9.68942
重宝	-9.6895
仕事で	-9.68979
修理	-9.69036
ついた	-9.69133
女	-9.69171
以外	-9.69184
300	-9.69202
自分用に	-9.69205
使いたい	-9.69227
ぱ	-9.69232
こちらに	-9.69249
してください	-9.69252
プリ	-9.69293
乗り	-9.69321
半額	-9.69343
絵	-9.69349
を注文しました	-9.69351
書いてある	-9.69375
もったいない	-9.69399
は初めてです	-9.69439
が楽しみです	-9.69593
ると思います	-9.6961
放	-9.69684
繋	-9.69725
03	-9.69725
写真を	-9.69734
長時間	-9.6974
-04	-9.69778
何度	-9.69791
チョ	-9.69811
それが	-9.69818
安いから	-9.69907
気に入ったので	-9.6995
迅速な対応	-9.6996
山	-9.7002
根	-9.70043
未	-9.70068
ハン	-9.70086
防止	-9.70098
くれました	-9.70132
好	-9.70211
付ける	-9.70247
かなと思います	-9.70282
方が良い	-9.70344
到着まで	-9.70361
サラサラ	-9.70388
使うと	-9.70396
使えそうです	-9.70407
ミシン	-9.70408
分かりません	-9.70408
感じる	-9.70469
かず	-9.70527
値段は	-9.70541
野菜	-9.70553
のかもしれません	-9.70563
注文から	-9.70581
大きかった	-9.70598
45	-9.70598
減	-9.70602
使えそう	-9.7064
お値段が	-9.70644
留め	-9.70755
注文してから	-9.70831
安価	-9.70875
薄くて	-9.70876
ずれて	-9.70881
頂いて	-9.70907
不具合	-9.70914
きつく	-9.70944
が少ない	-9.70953
商品が届いて	-9.70972
不良品でした	-9.70998
手元に	-9.71027
ショックでした	-9.71029
させていただきました	-9.71067
で使用	-9.71098
必要な	-9.71103
気になりません	-9.71175
頂け	-9.71176
月に	-9.71176
翌日に	-9.71198
使わ	-9.7121
ティー	-9.71262
ワイ	-9.71276
とのことで	-9.71285
65	-9.71324
頼	-9.71332
満足してます	-9.71404
商品説明	-9.71419
聞いて	-9.71448
キャップ	-9.71471
お願いしました	-9.7157
きましたが	-9.71573
ダー	-9.71596
以前は	-9.7162
マー	-9.71645
思って	-9.71662
中身が	-9.71667
たた	-9.71677
なのでしょうか	-9.71713
粗	-9.71719
写真では	-9.7172
送りました	-9.71803
ような気がします	-9.7181
買って良かったです	-9.71817
別に	-9.71824
しようと思います	-9.71932
お茶	-9.7195
理由	-9.7202
ッド	-9.7205
まとめて	-9.72095
すでに	-9.72159
シンプルな	-9.72171
お安い	-9.72236
ヌ	-9.72258
53	-9.72276
限り	-9.72344
知り	-9.72382
などで	-9.72396
まとめ買い	-9.72408
`	-9.72423
使ってみて	-9.72453
喜んでくれました	-9.72454
丁寧	-9.72463
あた	-9.72487
と思ったのですが	-9.72499
可愛いので	-9.72513
とおり	-9.72524
06	-9.72587
思う	-9.7262
頼んで	-9.72639
いいかも	-9.72685
はまだ	-9.72707
上がって	-9.7272
落	-9.72722
が悪いのか	-9.72779
ありますが	-9.72792
取って	-9.728
の時に	-9.72866
上手く	-9.72903
手で	-9.7293
巻き	-9.72942
シルエット	-9.72969
シーズン	-9.72969
始めて	-9.73013
刺	-9.73022
縦	-9.73036
旦那	-9.73037
しており	-9.73066
いけ	-9.73069
だらけ	-9.73074
プレゼントしました	-9.73075
入っていた	-9.73106
イス	-9.73125
しやすい	-9.73175
とした	-9.73193
ひと	-9.73194
真ん中	-9.73206
.0	-9.7324
サービス	-9.73315
におい	-9.73331
ピッタリでした	-9.73392
痛く	-9.73412
が無く	-9.73422
歳の	-9.73428
まし	-9.73567
やすさ	-9.73585
使用しました	-9.73588
うれしいです	-9.73593
肌が	-9.73606
今日届きました	-9.73612
信頼	-9.73629
アル	-9.73639
適	-9.73687
我が家	-9.73699
数日	-9.73753
ーム	-9.73777
モン	-9.73779
取付	-9.7382
楽しめ	-9.73839
わない	-9.73863
のものを	-9.7389
づ	-9.73903
サンプル	-9.73929
が欲しくて	-9.73944
日本製	-9.73978
感動	-9.74038
見ると	-9.74062
までは	-9.74081
が良かったので	-9.74121
同梱	-9.74122
の上	-9.74158
治	-9.74164
発送も	-9.74206
活躍	-9.74217
参考に	-9.74259
玄関	-9.74302
するのに	-9.74333
連絡が	-9.74344
伸縮性	-9.74359
隠	-9.74363
62	-9.74372
注文番号	-9.74401
感じられ	-9.74404
仕事用に	-9.74442
参	-9.7447
暖かく	-9.74484
商品だと思います	-9.74516
パール	-9.74572
最初	-9.74579
になるので	-9.74666
ワンピース	-9.74753
やら	-9.74759
スプレー	-9.74771
マイ	-9.74776
-08	-9.74796
着け	-9.74797
応	-9.74867
事を	-9.74915
閉	-9.74968
イヤ	-9.74973
スペース	-9.74993
良くて	-9.75003
忘れ	-9.75051
動作	-9.75087
色を	-9.75124
48	-9.7517
対	-9.75193
メン	-9.75216
いけない	-9.75226
-1	-9.75294
スイッチ	-9.75341
という感じです	-9.75357
だと思って	-9.75369
能	-9.75374
化粧水	-9.75395
感じがします	-9.75404
口に	-9.75407
柄が	-9.75432
スク	-9.75457
たけど	-9.75478
買ってよかったです	-9.75483
天	-9.75539
悪いです	-9.75574
組立	-9.75589
,【	-9.75598
落ち着いた	-9.75614
気になりました	-9.75618
してました	-9.75631
仕方	-9.75745
ショ	-9.75796
赤ちゃん	-9.75837
▁1,,1	-9.75869
検索	-9.75898
筆	-9.75899
届きません	-9.75923
こちらも	-9.75957
心配です	-9.7597
置く	-9.7598
せめて	-9.76023
使いました	-9.76025
を考えて	-9.76034
35	-9.76038
お金	-9.76076
それぞれ	-9.76108
んです	-9.76165
こちらのショップ	-9.76234
被	-9.76251
るのも	-9.76255
ゼ	-9.76293
にある	-9.7632
発送も早く	-9.76335
ストーン	-9.76384
寒い	-9.76394
割り	-9.76422
贈	-9.76515
済み	-9.76537
場合は	-9.76578
大好きな	-9.7661
酸	-9.7662
バン	-9.76746
させ	-9.76821
を買った	-9.76835
ドライ	-9.76852
!?	-9.76997
れず	-9.77022
しわ	-9.77023
▁2,,1	-9.77113
背中	-9.77167
▽	-9.7717
ファー	-9.77193
いただいた	-9.77232
バリ	-9.77284
綺麗で	-9.77284
紹介	-9.77415
ボトル	-9.77425
派手	-9.77455
安く購入でき	-9.77456
多分	-9.77478
フィット感	-9.77525
ぺ	-9.77584
出産祝いに	-9.77614
眠	-9.77629
-09	-9.77639
ショップに	-9.77671
届くまで	-9.77671
∀	-9.77738
薄手	-9.77746
一切	-9.77758
長持ち	-9.77829
メールを	-9.77831
向け	-9.77832
安心です	-9.77904
-05	-9.77907
屋さん	-9.77949
進	-9.77984
反	-9.78003
レビューを参考に	-9.78042
とても可愛い	-9.78061
er	-9.78196
時には	-9.78241
-06	-9.78262
05	-9.7827
大丈夫でした	-9.78287
れている	-9.78304
ちょっとした	-9.78314
依頼	-9.78412
人が	-9.78486
上下	-9.78523
ふわふわ	-9.78524
キラキラ	-9.78558
色でした	-9.78701
していません	-9.78743
お店に	-9.78743
以上の	-9.78759
ウェ	-9.78803
下着	-9.78814
と思っていた	-9.78827
パープル	-9.78854
襟	-9.78882
お店の	-9.78898
少なく	-9.78977
しっかりしています	-9.7898
980	-9.78982
とれ	-9.78997
オフ	-9.79004
ファン	-9.79033
つくり	-9.79089
もともと	-9.79127
ガー	-9.79164
はありませんでした	-9.79175
感覚	-9.79182
スタ	-9.7923
通りの	-9.79233
誰	-9.79242
筋	-9.79278
フリー	-9.7929
さに	-9.79319
欲しく	-9.79322
については	-9.79327
52	-9.7933
崩れ	-9.79343
変な	-9.79346
の色が	-9.79356
遅い	-9.7937
離	-9.79379
行って	-9.79381
刺繍	-9.79388
コンパクトで	-9.79413
来ました	-9.79422
元々	-9.79423
きれい	-9.7947
),	-9.79477
カバーを	-9.79516
届いたので	-9.7955
-07	-9.79566
んですね	-9.79584
今までは	-9.79667
御	-9.79678
55	-9.79759
丈夫	-9.79804
ブランド	-9.79859
わかる	-9.79889
詰め	-9.7991
細く	-9.79918
我が家の	-9.79945
この値段なら	-9.7995
さえ	-9.80013
決	-9.80029
リビング	-9.80042
このような	-9.80066
幅広	-9.80084
状況	-9.80114
関係	-9.8015
是非	-9.80154
ーズ	-9.80199
為に	-9.80234
狭い	-9.80261
ないか	-9.80351
開き	-9.80361
剥	-9.80382
のせい	-9.8039
強度	-9.80397
他の方のレビューに	-9.80457
様子	-9.80468
使用しましたが	-9.80618
化粧	-9.80685
草	-9.80847
バッチリ	-9.80849
評判	-9.80883
個人	-9.80897
来る	-9.80911
両親	-9.80918
を考えると	-9.80945
業	-9.80957
模様	-9.8096
>	-9.80983
ーーー	-9.81027
いるのですが	-9.81061
脇	-9.81067
子供に	-9.81097
ではなかった	-9.8112
していただけ	-9.81146
こちらの商品は	-9.8117
だな	-9.81186
ではありませんでした	-9.81227
02	-9.81235
様な	-9.81276
秋	-9.81327
男	-9.81331
ラック	-9.81335
会社の	-9.81357
ここで	-9.81383
だと思う	-9.81399
していたので	-9.81403
原	-9.81468
73	-9.81537
んですけど	-9.81553
乾き	-9.81602
海外	-9.81629
買いません	-9.8164
剥がれて	-9.81749
容器	-9.81766
つもりです	-9.81828
一人で	-9.81841
充	-9.81898
に使用	-9.81902
対応も	-9.81924
01	-9.81948
パッド	-9.81991
悪くない	-9.82025
アレルギー	-9.8203
なったら	-9.82034
選択	-9.82045
毛が	-9.82092
届かず	-9.82143
信用	-9.82191
モデルさん	-9.82195
72	-9.82196
部屋に	-9.82247
部分も	-9.82284
弱い	-9.82308
焼	-9.8238
がありますが	-9.82412
時点で	-9.82449
丁度良い	-9.8248
使いづらい	-9.82514
ところに	-9.82515
簡単で	-9.8257
キツイ	-9.82571
ローズ	-9.82618
商品で	-9.82632
ストレス	-9.82649
初期不良	-9.82716
不便	-9.8277
(^-^)	-9.8282
かなと	-9.82855
という事	-9.82866
カワイイ	-9.82892
わたし	-9.82897
購入できて	-9.82998
甘	-9.83014
83	-9.83049
ぞ	-9.83115
壊れた	-9.83191
次回	-9.83217
以前の	-9.83236
刺激	-9.8331
よかったのですが	-9.8332
お願いした	-9.83327
金属	-9.8334
ですかね	-9.83361
ビー	-9.83395
ベビー	-9.83429
おりました	-9.83445
飲	-9.83457
集	-9.83465
おいしかったです	-9.83512
気になっていた	-9.83554
作品	-9.83582
言われ	-9.83595
ごと	-9.83634
千円	-9.83692
支	-9.8376
情報	-9.83775
の量	-9.83777
映	-9.8379
完了	-9.8383
買える	-9.83833
完成	-9.83835
挟	-9.83869
心配でしたが	-9.83933
チュ	-9.83933
られました	-9.83947
しております	-9.83976
はじめ	-9.83994
してほしい	-9.84019
苦労	-9.8402
魚	-9.84021
もらいました	-9.84053
ボード	-9.84057
選べ	-9.84064
使用後	-9.841
乗せ	-9.84133
盤	-9.84165
極	-9.84174
サイズを購入	-9.84202
お願いします	-9.8427
柔らか	-9.843
版	-9.84326
道	-9.84425
プリント	-9.84468
いれば	-9.84502
保管	-9.84503
買い物でした	-9.84561
ものより	-9.84609
事に	-9.84705
持ち運び	-9.84708
もありましたが	-9.84714
買	-9.84722
は無理	-9.84742
余り	-9.84749
浮	-9.84844
ボックス	-9.84861
ほつれて	-9.84875
いま	-9.84957
を探していて	-9.8496
などに	-9.84968
分け	-9.85017
ぴ	-9.85158
準備	-9.85165
とてもいい	-9.85242
感想	-9.85278
練習	-9.85283
香りも	-9.8529
接着剤	-9.85327
で買った	-9.85341
必ず	-9.85413
タイヤ	-9.85424
ふた	-9.85457
と比べて	-9.85479
洋服	-9.85481
充電でき	-9.85523
をする	-9.85604
悩み	-9.85607
内祝い	-9.85665
もし	-9.8567
が欲しい	-9.85691
方に	-9.85775
はなく	-9.85789
これまで	-9.85988
サイ	-9.85991
理	-9.86051
49	-9.86095
寒	-9.86179
オン	-9.86225
効いて	-9.86237
=	-9.86246
なくなった	-9.86255
にしては	-9.8628
持ち手	-9.863
痛み	-9.86333
たまに	-9.86352
ることができ	-9.8638
のまま	-9.86401
はっきり	-9.86424
J	-9.86441
それほど	-9.86453
に関しては	-9.86498
においが	-9.86528
突	-9.8659
誤	-9.86594
シリコン	-9.86597
親切	-9.86672
長め	-9.86682
手が	-9.86685
開いて	-9.86709
つま先	-9.86716
ィ	-9.86717
すら	-9.8672
目的	-9.86773
ーション	-9.86781
形も	-9.86795
凄い	-9.86806
を買いましたが	-9.86838
数回	-9.86872
喜んでもらえました	-9.86875
こちらのお店	-9.86908
梅	-9.86909
楽しみにしていた	-9.86924
or	-9.86976
良	-9.86976
原因	-9.86985
札	-9.86986
度目	-9.87015
着れ	-9.87034
円の	-9.87065
ご飯	-9.87079
になっています	-9.87122
みようと思います	-9.87163
してしまい	-9.87174
04	-9.87193
酒	-9.87263
来年	-9.87305
移動	-9.87346
かと思い	-9.87355
混	-9.87373
程度の	-9.87385
破れて	-9.8739
しみ	-9.87436
不安です	-9.87477
さすが	-9.87492
なしです	-9.87518
回目の購入です	-9.87609
の際	-9.87638
時も	-9.87677
にしても	-9.87706
さすがに	-9.87727
飛	-9.87739
が増え	-9.87755
軽	-9.87801
口が	-9.87877
が出る	-9.87882
たった	-9.87893
一応	-9.87896
だけに残念です	-9.8794
に対して	-9.87948
使用でき	-9.87949
精	-9.87969
裏地	-9.87994
曲がって	-9.87996
届いたのは	-9.88001
いたのに	-9.88028
スムーズ	-9.88039
近くの	-9.88053
上から	-9.88133
このお店	-9.88155
クーポン	-9.88167
入ります	-9.88168
▁1,,2	-9.88172
太い	-9.88197
飾り	-9.88308
やすそう	-9.8832
本人	-9.88354
アウトレット	-9.88406
機種	-9.88418
きません	-9.88424
の香り	-9.88427
やすかった	-9.88437
しょう	-9.88516
たのに	-9.88523
スーツ	-9.88563
37	-9.88566
とは思いますが	-9.88573
モデル	-9.88585
ようですが	-9.88632
勉強	-9.88646
使っていますが	-9.88681
充電器	-9.88749
薄め	-9.88784
駄目	-9.88866
前回は	-9.8887
無いので	-9.88896
ここまで	-9.88914
同じ商品	-9.88963
絶対に	-9.88963
ませ	-9.88977
ガッカリです	-9.88982
針	-9.88998
つい	-9.89008
どちらも	-9.89016
末	-9.89033
一年	-9.89036
だったのに	-9.89101
使用している	-9.89107
入っている	-9.89132
かつ	-9.8922
が全く	-9.89229
タイツ	-9.8924
はある	-9.89253
るような	-9.8927
効果なし	-9.89317
斜め	-9.89327
なのは	-9.89386
ニー	-9.89392
手触り	-9.894
系の	-9.89419
39	-9.89439
暑	-9.8945
取っ手	-9.89679
諦め	-9.89704
もありますが	-9.8974
アー	-9.89751
素晴らしい	-9.89801
保湿	-9.89807
が多いので	-9.89828
母に	-9.89843
他のショップ	-9.89869
こない	-9.89885
上品な	-9.89899
仕方がない	-9.89902
させていただきます	-9.89952
購入します	-9.89962
冊	-9.89962
子供も	-9.89976
押	-9.89995
先が	-9.90001
負担	-9.9008
予想以上に	-9.90082
ネイル	-9.90105
捨てました	-9.90136
休	-9.90136
実際は	-9.9015
99	-9.90167
r	-9.90205
今まで使っていた	-9.90234
消費	-9.90249
寝て	-9.90278
TV	-9.9028
ぃ	-9.90327
虫	-9.90364
されていた	-9.90526
良いもの	-9.90534
昼	-9.90566
高かった	-9.90586
なぜか	-9.90647
カリ	-9.90749
センチの	-9.90759
児	-9.90769
パワー	-9.9077
と一緒に購入しました	-9.90854
一ヶ月	-9.90986
ことができ	-9.91041
ゆる	-9.91051
もらえる	-9.91071
早かった	-9.91095
よね	-9.91109
ついていて	-9.91114
に置いて	-9.91195
取り付けて	-9.9122
量が	-9.91249
関	-9.9126
んだろう	-9.91277
実家	-9.91281
昔	-9.91298
フレ	-9.91327
による	-9.91342
貼	-9.91346
までに	-9.91354
の方に	-9.91394
一言	-9.91445
!!!\	-9.91491
ショップの対応	-9.91542
不安でしたが	-9.91543
チン	-9.91543
お祝い	-9.91549
の下に	-9.91568
愛用	-9.91594
歳の娘	-9.91625
浮いて	-9.91679
用として	-9.91681
人の	-9.91695
光沢	-9.91711
&#9825;	-9.91712
起き	-9.9172
小さすぎ	-9.91737
意外と	-9.91751
太もも	-9.91772
買い物ができました	-9.91775
勘違い	-9.91793
ようなので	-9.91846
取り寄せ	-9.91925
ヘッド	-9.91929
おまけの	-9.91938
デザインで	-9.91953
を購入したのですが	-9.91964
ポン	-9.91971
とてもいいです	-9.91987
性能	-9.91988
してもらえ	-9.9199
フラ	-9.92016
!」	-9.92132
締め付け	-9.92142
チョコ	-9.92185
ないかな	-9.92189
周	-9.92192
率	-9.92199
頼まれて	-9.92225
と比べると	-9.92306
気に入り	-9.92311
灯	-9.9232
●	-9.92323
代わりに	-9.92336
ダウン	-9.92348
返品も	-9.92432
るもの	-9.92461
室	-9.92514
CD	-9.92532
レイ	-9.92537
キャスター	-9.92585
最適	-9.92593
折	-9.92647
終	-9.92696
人で	-9.92766
砂	-9.92772
ダンボール	-9.92783
せい	-9.92825
愛用して	-9.92843
43	-9.92886
っきり	-9.92888
認識	-9.92905
それを	-9.92942
Z	-9.92947
おき	-9.93032
も同じ	-9.93046
重く	-9.93054
使い物になりません	-9.93071
外側	-9.93087
写	-9.93141
マットレス	-9.93193
工夫	-9.93245
it	-9.93289
頂いた	-9.93323
イエロー	-9.9336
いるのか	-9.93362
そういう	-9.93362
63	-9.93394
ほんとに	-9.93426
男性	-9.93436
を受け	-9.93511
といった	-9.93549
お値打ち	-9.93614
組	-9.93685
はないと思います	-9.93769
いいのに	-9.9381
主人が	-9.93824
とこ	-9.93852
ソフト	-9.93862
てます	-9.93896
歩いて	-9.93934
滑り	-9.93936
仕上げ	-9.93965
汚	-9.93991
も無く	-9.93992
酷い	-9.93997
育	-9.94008
ツヤ	-9.94009
もらった	-9.94027
かん	-9.94031
変わって	-9.94034
飽き	-9.94063
のない	-9.94067
慣れて	-9.94109
ほうがいい	-9.94146
届いた商品	-9.94147
仕事用	-9.94161
さら	-9.94176
酷	-9.94184
感じは	-9.94197
丁度いい	-9.94204
過	-9.9421
バイ	-9.94261
食べられ	-9.94272
頑張って	-9.94284
激	-9.94287
かわいく	-9.94354
ないけど	-9.94423
可	-9.94457
良くない	-9.94465
57	-9.94467
カ月	-9.94478
戻	-9.94521
たところ	-9.94526
使いましたが	-9.9453
不思議	-9.94534
目で	-9.9456
願	-9.9458
なんですが	-9.94593
血	-9.94614
大好き	-9.94657
あきらめ	-9.94661
フォ	-9.94687
まれて	-9.94712
みる	-9.94724
2.	-9.94727
素敵です	-9.94757
たまま	-9.94758
飲め	-9.94758
かた	-9.94781
福袋	-9.94802
&#8252;	-9.94875
梱包も	-9.94979
当然	-9.95049
天板	-9.95057
フォー	-9.95072
助	-9.95121
週	-9.95166
いいもの	-9.95168
いろいろな	-9.95226
ほどの	-9.95228
られている	-9.95253
値段で	-9.95305
すぎます	-9.9536
済	-9.95431
98	-9.95453
まった	-9.95479
作りは	-9.95532
コンタクト	-9.95638
見つけて	-9.95638
ネックレス	-9.95641
こちらを購入しました	-9.95667
贈り物	-9.9568
だけの	-9.95742
エア	-9.95794
スーパーで	-9.95835
ホルダー	-9.95902
品物は	-9.95908
と思ってます	-9.95932
;\	-9.95945
と思うので	-9.96001
して頂き	-9.96004
を送って	-9.96013
窓	-9.96018
に比べて	-9.96063
豊富	-9.96065
まさか	-9.96074
おいしかった	-9.96137
たぶん	-9.96182
かれ	-9.96189
するのは	-9.96197
にくかった	-9.96223
欲しかったです	-9.96241
したもの	-9.96242
塗って	-9.96245
段ボール	-9.96297
ネジが	-9.96309
24.5	-9.96363
もあって	-9.96378
すべき	-9.96426
した方が	-9.96507
かかった	-9.96541
めの	-9.96617
を作る	-9.9667
はいて	-9.967
度に	-9.96723
なるので	-9.96731
ようになって	-9.96772
厚く	-9.96794
購入したのに	-9.96897
買おう	-9.96919
冷蔵庫	-9.97053
歩	-9.97067
付く	-9.97067
以上に	-9.97146
ショップさん	-9.97153
手帳	-9.97155
かも知れません	-9.97182
ズレ	-9.97217
娘も	-9.97229
おかしい	-9.97269
シェ	-9.97293
紫	-9.97313
棒	-9.97354
すと	-9.97355
同時購入	-9.97372
使用し	-9.97375
仕方なく	-9.97423
ギリギリ	-9.97441
並	-9.97454
欲しくなり	-9.97461
娘に	-9.97461
かって	-9.97475
間違って	-9.97483
到着した	-9.97486
業者	-9.97509
にも関わらず	-9.97528
オマケ	-9.97531
67	-9.97578
五	-9.97618
夫	-9.97681
果	-9.97686
良い商品	-9.97754
発注	-9.97759
レン	-9.97776
してみましたが	-9.97809
さんに	-9.9785
ところです	-9.97869
それは	-9.97872
ある程度	-9.97908
家の	-9.97908
勝手に	-9.97914
興味	-9.9792
買います	-9.97935
洗	-9.97995
自分が	-9.98034
到着後	-9.98063
の間	-9.98119
誕生日	-9.98162
印鑑	-9.98229
浴	-9.98269
ような感じ	-9.98286
ショップの	-9.98308
ならず	-9.98322
分の	-9.98328
回目の	-9.98331
カル	-9.98368
入れる	-9.98417
なー	-9.98448
限定	-9.98457
妻	-9.98579
高いので	-9.98579
含め	-9.98592
・・\	-9.98596
っぽ	-9.98605
求め	-9.98614
ゆとり	-9.98624
何回か	-9.98633
調子	-9.98633
もうちょっと	-9.98675
ブリ	-9.98729
成分	-9.98766
ダン	-9.98779
払い	-9.98826
白く	-9.98841
何回も	-9.9894
をみて	-9.98981
良さそうです	-9.99042
テン	-9.99074
箱に	-9.99128
カバーが	-9.99146
しなくて	-9.99157
売っている	-9.99199
出来た	-9.99199
他にも	-9.99248
グル	-9.99284
めっちゃ	-9.99337
買ったのに	-9.99358
パット	-9.9936
甘く	-9.99406
終わり	-9.9941
これでは	-9.99415
マシ	-9.99439
もあるので	-9.9946
ジャケット	-9.9947
なのが	-9.99475
走	-9.99485
56	-9.99489
82	-9.9949
知って	-9.99545
の高さ	-9.99546
スープ	-9.99623
扉	-9.99631
主人に	-9.99632
伸びる	-9.99644
ばかりで	-9.9966
良し	-9.99728
ポーチ	-9.99729
をつけて	-9.99771
外出	-9.99772
こちらの商品を	-9.99789
ではないです	-9.99824
履きやすい	-9.99831
もう一つ	-9.99837
なったので	-9.99886
かなと思いました	-9.99892
跡	-9.9993
踏	-9.99944
の私には	-9.99976
現物	-10.0002
丁寧な	-10.0004
ものすごく	-10.0007
のが残念です	-10.0007
煮	-10.0008
昨日	-10.0009
^^;	-10.0015
形状	-10.003
書いてあった	-10.0032
お米	-10.0042
がありましたが	-10.0042
法	-10.0045
ドア	-10.0046
送った	-10.0049
バス	-10.005
期待していた	-10.0051
フタ	-10.0056
問題ないです	-10.0061
汁	-10.0062
学校	-10.0062
フレーム	-10.0067
スムーズに	-10.0067
かなー	-10.0071
派	-10.0075
炊	-10.0075
髪の毛	-10.0077
の良さ	-10.0078
ようやく	-10.008
頼みました	-10.0083
届けて	-10.0085
レス	-10.0087
ml	-10.0092
もう一	-10.0092
シーツ	-10.0095
を使っていましたが	-10.0096
個目	-10.01
たん	-10.0103
久しぶりに	-10.011
カーテン	-10.0113
柄も	-10.0114
プラス	-10.0114
ほしいです	-10.0114
ドル	-10.0116
re	-10.012
93	-10.0125
送られてきた	-10.0127
届いていません	-10.0128
使い始め	-10.0128
ようと思います	-10.0128
にもかかわらず	-10.0129
処	-10.0129
価	-10.0136
大きいので	-10.0139
購入後	-10.0141
そこまで	-10.0141
シューズ	-10.0148
初めての購入	-10.015
窮屈	-10.0152
コメント	-10.0156
寝る	-10.0161
?」	-10.0163
足りない	-10.0167
ごろ	-10.0168
処分	-10.0169
雑な	-10.017
ピンクの	-10.0171
マジックテープ	-10.0175
商品自体	-10.0178
起	-10.0181
になりそうです	-10.0183
ジャー	-10.0186
製造	-10.0191
の娘に	-10.0191
理解	-10.0198
54	-10.02
を見ると	-10.0204
録	-10.0205
涙	-10.0206
参考	-10.0208
ずらい	-10.0209
61	-10.0218
他社	-10.0219
ウン	-10.0229
使い勝手は	-10.0229
泡	-10.0231
まして	-10.0234
行く	-10.0237
大きいサイズ	-10.0238
ひっ	-10.024
旨	-10.0242
ですから	-10.0244
海	-10.0246
されていて	-10.0246
期待しています	-10.0248
ちゃう	-10.025
すこし	-10.0258
食べました	-10.0258
タッチ	-10.0259
最初に	-10.0264
41	-10.0267
丈夫で	-10.027
相当	-10.0273
コストパフォーマンス	-10.0275
選び	-10.0276
た瞬間	-10.0278
ケア	-10.0284
こちらで購入	-10.029
部分を	-10.029
内側	-10.0292
滑	-10.0292
る感じ	-10.0296
64	-10.0305
効果がある	-10.0308
可愛さ	-10.0313
するのが	-10.0315
卵	-10.0316
愛	-10.0316
やつ	-10.0316
娘が	-10.0323
置	-10.0326
脱げ	-10.0326
発送が	-10.0327
拭き	-10.0336
みえ	-10.0338
買いたい	-10.0339
フック	-10.0342
スポンジ	-10.0344
家に	-10.0347
度と	-10.0349
ように思います	-10.0349
デザインは可愛い	-10.0349
によっては	-10.0351
外れて	-10.0354
っていた	-10.0358
探し	-10.036
今年は	-10.0361
ほう	-10.0361
高め	-10.0362
ちょっと残念	-10.0362
34	-10.0364
詐欺	-10.0366
好評	-10.0368
暗い	-10.037
に惹かれて	-10.0373
濃	-10.0373
ビックリしました	-10.0374
があったら	-10.0376
取る	-10.0377
密	-10.038
大切に	-10.0385
っていました	-10.0392
今までの	-10.0394
っていて	-10.0395
ゆう	-10.0401
羽	-10.0401
落とし	-10.0402
品質は	-10.0404
オーダー	-10.0405
溶け	-10.0406
ひどく	-10.0408
みたいに	-10.0411
ので星	-10.0414
おかげで	-10.0415
店舗で	-10.0416
声	-10.0417
▁1,2	-10.042
他社の	-10.0421
・・,	-10.0421
バイク	-10.0425
思	-10.0425
選	-10.0426
大変でした	-10.0427
もらう	-10.0433
してしまった	-10.0436
大きかったです	-10.044
を見つけ	-10.0442
活用	-10.0443
固い	-10.0445
78	-10.0449
使いやすくて	-10.0452
なと思いました	-10.0453
が少なく	-10.0456
っか	-10.0459
イメージと	-10.046
ないといけない	-10.0462
注文後	-10.0466
防水	-10.0474
美味しかった	-10.0476
守	-10.0478
けっこう	-10.0478
そこそこ	-10.0479
が入っている	-10.048
リピーターです	-10.0483
58	-10.0484
ヘア	-10.0487
接着	-10.0487
わる	-10.0488
換え	-10.049
いいな	-10.0491
のに残念です	-10.0492
値段が安いので	-10.0496
お店の方	-10.0497
次第	-10.0502
辺	-10.0508
ちゃいました	-10.0514
十分です	-10.0516
47	-10.0523
買い換え	-10.0525
ショート	-10.0526
送られて	-10.0537
わかって	-10.0538
足首	-10.0538
続	-10.0539
接	-10.0539
がっかりでした	-10.0548
麺	-10.0548
トリートメント	-10.0548
使い方が	-10.0549
のうち	-10.055
湿	-10.0551
に入れる	-10.0558
雪	-10.0562
69	-10.0563
っくり	-10.0564
イル	-10.0566
辛い	-10.0567
大喜び	-10.0567
good	-10.0567
した感じ	-10.0568
洗う	-10.057
リュック	-10.0573
チェ	-10.0576
閉め	-10.0578
疑	-10.0581
移	-10.0584
制	-10.0585
擦れ	-10.0589
デカ	-10.0591
出る	-10.0595
インチ	-10.0596
開ける	-10.0596
いらない	-10.0597
色と	-10.0601
が悪かった	-10.0602
待	-10.061
記入	-10.0614
ぷ	-10.0619
使ってみた	-10.0619
切れ味	-10.0625
買ったので	-10.0626
取り外し	-10.0631
選びました	-10.0631
値段以上	-10.0632
はみ出	-10.0635
部屋の	-10.0638
みたところ	-10.064
次回は	-10.064
あけ	-10.0641
訳あり	-10.0642
万円	-10.0645
っぱなし	-10.0647
の購入です	-10.0653
悩みましたが	-10.0655
はしない	-10.0657
いいのか	-10.0658
のでしょうが	-10.0658
上部	-10.066
ウォー	-10.0662
いざ	-10.067
汚れて	-10.067
髪が	-10.068
高い買い物	-10.0689
楽天で	-10.0689
購入を	-10.0693
お湯	-10.0694
挑戦	-10.0695
ネック	-10.0696
嫌な	-10.0699
持っている	-10.0703
となりました	-10.0718
キン	-10.0719
縫製が	-10.0722
出来ます	-10.0725
とても良かったです	-10.0725
再購入	-10.0726
ダイヤ	-10.0728
今から	-10.073
カバン	-10.0732
ができて	-10.0734
店頭で	-10.0737
付属	-10.0741
クリスマスプレゼント	-10.0746
お買い物	-10.0747
になっていて	-10.0747
合わせて	-10.075
66	-10.0751
安く買えて	-10.0752
商品が届く	-10.0752
届くのが楽しみです	-10.0755
限	-10.0759
100%	-10.0763
小物	-10.0764
わりに	-10.0766
さっぱり	-10.0767
もあります	-10.0768
けば	-10.0771
解凍	-10.0777
持つ	-10.0778
お店の対応も	-10.078
フェ	-10.0781
喜んでいました	-10.0781
住	-10.0784
もう一度	-10.0787
可愛らしい	-10.0787
たびに	-10.0789
素材が	-10.0797
が必要です	-10.0799
言えば	-10.0801
値段も安く	-10.0802
晩	-10.0805
明日	-10.0807
費	-10.0809
になると	-10.081
どうしよう	-10.0815
縁	-10.0825
丈夫そう	-10.0825
の違い	-10.0828
決定	-10.0836
良いですね	-10.0842
切る	-10.0845
帽子	-10.0849
甘さ	-10.0852
どんどん	-10.0854
破	-10.0856
の説明	-10.0856
95	-10.0858
ブル	-10.0859
載せ	-10.0861
なりません	-10.0872
方がいい	-10.0872
後悔しています	-10.0875
つかない	-10.0878
使用感は	-10.088
日後に	-10.0885
とは思えない	-10.0885
?)	-10.0887
以外は	-10.0888
バンド	-10.0891
付けた	-10.0896
??\	-10.0899
失敗した	-10.09
してほしいです	-10.0902
ハンガー	-10.0903
ッタ	-10.0907
詰	-10.0908
たかったので	-10.0909
それで	-10.0912
届いた商品は	-10.0917
撮	-10.0917
'	-10.0917
2〜3	-10.0924
ダボ	-10.0924
使っていません	-10.093
調べ	-10.0931
マスク	-10.0934
などを	-10.0934
間違え	-10.0935
の感想	-10.0937
丈は	-10.0938
出し入れ	-10.0941
高すぎ	-10.0941
生地で	-10.0942
鏡	-10.0946
息子の	-10.0947
利	-10.0948
小さかった	-10.095
球	-10.095
ムラ	-10.095
あわせ	-10.0953
他のレビュー	-10.0954
大きさは	-10.0954
お肉	-10.0957
机	-10.0961
それも	-10.0962
ゃ	-10.0962
取れる	-10.0962
失敗しました	-10.0964
使ってみました	-10.0966
苗	-10.0966
51	-10.0972
※	-10.0975
ボディ	-10.0976
容	-10.0979
利用しました	-10.098
湯	-10.0981
リモコン	-10.0985
キング	-10.0993
92	-10.0995
クリップ	-10.0996
国産	-10.1002
混ぜて	-10.1005
使えるので	-10.1013
第	-10.1014
いつもは	-10.1015
抜き	-10.1015
良い買い物	-10.1016
伸びて	-10.1018
に見えます	-10.1018
すぐに届きました	-10.1019
続き	-10.1021
ic	-10.1022
途中で	-10.1028
公	-10.103
木の	-10.1035
を参考に	-10.1036
その日	-10.1037
ぶり	-10.1037
決めました	-10.1038
ものなので	-10.1039
価格で	-10.1043
↓	-10.1044
食感	-10.1048
用途	-10.1052
楽しく	-10.1053
論	-10.1054
発生	-10.1056
黄	-10.1057
あっても	-10.1061
今年の	-10.1067
暑い	-10.1068
思ってた	-10.1071
耐	-10.1074
中国	-10.1075
図	-10.1079
缶	-10.1079
なれば	-10.1083
洗え	-10.1088
縫い目が	-10.1089
楽です	-10.1094
やすいので	-10.1099
取れました	-10.11
せずに	-10.1103
当日	-10.1107
な感じです	-10.1109
マグネット	-10.1112
入金	-10.1114
手を	-10.1114
ハード	-10.1119
二度と買いません	-10.1122
高いです	-10.1125
もついて	-10.1125
られます	-10.1126
同じもの	-10.1129
吸収	-10.113
フォン	-10.1135
なんとも	-10.1145
キレイに	-10.1147
きれいで	-10.1149
やわらか	-10.1151
作った	-10.1151
元の	-10.1155
視	-10.1161
最初の	-10.1167
ったので	-10.1168
(*^	-10.1169
不快	-10.1171
縫い目	-10.1173
降	-10.1174
程度で	-10.1175
使ってみましたが	-10.1176
製の	-10.1177
ラメ	-10.1182
にぴったり	-10.1184
やすかったです	-10.1185
アンダー	-10.1185
迅速で	-10.1187
が多かった	-10.1194
とても満足しています	-10.1197
各	-10.1199
以内	-10.1199
ひも	-10.1201
温度	-10.1202
逆	-10.1203
アレンジ	-10.1212
思い切って	-10.1216
安定感	-10.1225
なっている	-10.1225
遊び	-10.1227
くさい	-10.1229
死	-10.1229
クリ	-10.1233
科	-10.1234
職場	-10.1235
と書いてあり	-10.1236
不安定	-10.1237
ベスト	-10.1239
ワイヤー	-10.1239
パイ	-10.124
返品したい	-10.1241
鍵	-10.1244
丈も	-10.1249
員	-10.1249
かれて	-10.1249
断然	-10.125
つかって	-10.125
使用していますが	-10.1252
受け取り	-10.1262
記載されて	-10.1264
こちらを購入	-10.1276
リピートしました	-10.1277
ぜひ	-10.1277
さま	-10.1278
二重	-10.1283
掲載	-10.1284
^)/	-10.1286
倒れ	-10.1289
既に	-10.1293
とても良いです	-10.1296
思った以上に	-10.1302
ないですね	-10.1303
抜	-10.1305
ありえない	-10.1306
スタイル	-10.1307
荒れ	-10.131
通りに	-10.131
のが楽しみです	-10.1316
価格は	-10.1318
るだけで	-10.1319
感想です	-10.1319
お手頃	-10.132
艶	-10.133
と違って	-10.1333
本目	-10.1336
使い捨て	-10.134
われ	-10.1344
くれます	-10.1346
スタンド	-10.1346
箱が	-10.1346
魅力	-10.1348
形は	-10.135
キュ	-10.1351
になったので	-10.1351
Д	-10.1356
2000	-10.1356
ここの	-10.1357
刃	-10.1361
はわかりませんが	-10.1362
とても気に入って	-10.1365
良かったと思います	-10.1367
所に	-10.1368
決め	-10.1369
行った	-10.1371
800	-10.1372
連絡も	-10.1372
経過	-10.1372
妹	-10.1381
^^\	-10.1384
喜ばれました	-10.1385
欄	-10.1386
定価	-10.1389
幸	-10.1391
わけではない	-10.1394
59	-10.1399
ならば	-10.1399
メイン	-10.1402
かす	-10.1403
目立ち	-10.1406
と合わせて	-10.1407
ON	-10.1407
減ら	-10.1413
トラ	-10.1415
注文したのですが	-10.1416
今度	-10.1416
連絡を	-10.142
<	-10.1421
ペット	-10.1423
凹	-10.1426
入園	-10.1449
思ってたより	-10.145
リピします	-10.145
トロ	-10.1452
するのも	-10.1461
共	-10.1462
急いで	-10.1462
失敗でした	-10.1465
色んな	-10.147
たま	-10.147
ニット	-10.1471
小さいので	-10.1476
77	-10.1482
広い	-10.1483
ところで	-10.1491
洗った	-10.1493
なってしまいました	-10.1493
注文したのに	-10.1494
嫌い	-10.1495
家で	-10.1497
46	-10.1498
こちらから	-10.1501
切り替え	-10.1505
チーズ	-10.1516
ないため	-10.1519
落ちる	-10.152
日間	-10.152
71	-10.1521
何とも	-10.1523
とのことでした	-10.1524
ション	-10.1525
メイク	-10.1525
買えばよかった	-10.1526
商品には	-10.1527
お店の対応は	-10.1533
角度	-10.1535
ブカブカ	-10.1536
正解	-10.1537
入学	-10.1539
上で	-10.154
,[	-10.1542
GOOD	-10.1546
困	-10.1549
昨年	-10.1554
のほう	-10.1556
組み合わせ	-10.156
食事	-10.1564
使いたいと思います	-10.1567
値段が安い	-10.1571
全然違う	-10.1575
内側の	-10.1576
スタッフ	-10.1577
田	-10.1578
んー	-10.1582
使い続け	-10.1582
スニーカー	-10.1583
んでしょうか	-10.1602
あるように	-10.1602
丁寧な対応	-10.1606
束	-10.1608
部屋着	-10.1611
まわり	-10.1612
泊	-10.1619
用に買いました	-10.162
できれば	-10.1625
件	-10.1629
の息子に	-10.1631
破け	-10.1632
神	-10.1635
^_^	-10.1638
的にも	-10.1641
敷き	-10.1642
トラブル	-10.1644
が弱い	-10.1647
入れられ	-10.1647
判断	-10.1652
ニオイ	-10.1653
吸い	-10.1655
アイボリー	-10.1656
取り付けました	-10.166
折れて	-10.166
かと思って	-10.1661
飼	-10.1661
(;	-10.1668
重量	-10.167
当て	-10.167
商品ページ	-10.1671
写真とは	-10.1672
綺麗です	-10.1675
横に	-10.1675
務	-10.1677
パンプス	-10.1677
電話で	-10.1677
76	-10.1678
十	-10.1679
して欲しい	-10.1687
語	-10.1687
送料無料で	-10.1697
回答	-10.1697
飲んでいます	-10.1702
HP	-10.1702
変わった	-10.1703
これからの季節	-10.1704
情	-10.1706
しなければ	-10.1712
返品交換	-10.1713
室内	-10.1713
お出かけ	-10.1714
購入したいと思います	-10.1714
言うこと	-10.1716
取り出し	-10.1735
電気	-10.1737
ファスナーが	-10.1741
リピしました	-10.1743
運動	-10.1748
いるのに	-10.175
・・・・・	-10.1751
付いた	-10.1756
スリム	-10.1762
手持ちの	-10.1762
入りました	-10.1765
若	-10.1766
振り	-10.1766
ダブル	-10.1767
する事	-10.1767
していたのですが	-10.1773
購入して良かったです	-10.1778
中古	-10.1781
拭	-10.1781
購入を決めました	-10.179
家具	-10.1791
><	-10.1794
ズボン	-10.1794
使っていて	-10.1796
匂いも	-10.1796
念	-10.1801
皆さんのレビュー	-10.1804
秒	-10.1804
いくつか	-10.1809
なんだ	-10.181
少しでも	-10.1813
あると思います	-10.1814
お店の対応	-10.1816
金具が	-10.1818
まだまだ	-10.1823
存在感	-10.1824
サポート	-10.1825
しろ	-10.183
至	-10.1831
こちらの方が	-10.1835
自分には	-10.1837
劣化	-10.1837
なくなったら	-10.1838
使いやすそう	-10.1845
つきました	-10.1849
相手	-10.185
名入れ	-10.1851
来ない	-10.1851
ハンドル	-10.1854
ヶ月で	-10.1857
していただきました	-10.186
席	-10.1863
リーズナブル	-10.1863
厳しい	-10.1864
段階	-10.1869
使わせて	-10.1871
しにくい	-10.1872
便秘	-10.1874
言えません	-10.1874
おけば	-10.1876
ほんと	-10.1879
野	-10.1879
匂いは	-10.188
同じものを	-10.1883
プレート	-10.1884
ゅ	-10.189
在	-10.1894
にて	-10.1896
ドライバー	-10.1903
注	-10.1908
冬は	-10.1909
開けた	-10.1911
遅れ	-10.1911
クリスマス	-10.1914
某	-10.1922
厚い	-10.1924
病院	-10.1928
価値	-10.1932
範囲	-10.1933
大きいです	-10.1935
購入したもの	-10.1938
ミルク	-10.1939
造り	-10.1939
フィルター	-10.1944
88	-10.1944
想像していた	-10.1951
探していました	-10.1957
前後	-10.1958
今回初めて	-10.1959
みなさん	-10.1961
使うのが楽しみです	-10.1966
東	-10.1971
食べてくれ	-10.1988
ないのか	-10.199
めちゃくちゃ	-10.1993
苦手な	-10.2002
急ぎ	-10.2002
安っぽいです	-10.2003
探していたところ	-10.2007
側面	-10.2007
洗剤	-10.201
使いやすそうです	-10.2012
本物	-10.2012
と言われました	-10.2014
安いです	-10.2015
お得です	-10.2018
おまけに	-10.2019
思ったよりも	-10.202
贈りました	-10.2022
なんとなく	-10.2026
されていました	-10.2029
本当は	-10.203
☆2	-10.2035
両面テープ	-10.2036
させて頂きます	-10.204
の様な	-10.2043
デスク	-10.2046
内容は	-10.2056
身体	-10.2056
可愛いのですが	-10.206
サプリ	-10.2064
使うこと	-10.2066
大事に	-10.2067
お弁当	-10.2069
自動	-10.2072
as	-10.2073
作りが雑	-10.2077
難い	-10.2078
かと思いましたが	-10.2079
教えて	-10.2081
le	-10.2082
含	-10.2089
が欲しかったので	-10.2092
賞味期限	-10.2096
染	-10.2099
才	-10.2102
メッセージ	-10.2106
わざわざ	-10.2107
作れ	-10.2108
順	-10.2113
3000	-10.2114
基本	-10.2115
市販の	-10.2117
に決めました	-10.212
休み	-10.2122
怖い	-10.2122
発色	-10.2123
レギンス	-10.2124
バラバラ	-10.2126
開閉	-10.2126
時間がかかり	-10.214
シン	-10.2142
▁s	-10.2146
飲んだ	-10.2147
74	-10.2148
以前購入した	-10.2151
ソール	-10.2152
いれ	-10.2153
貰	-10.2153
遊んで	-10.2155
送る	-10.2159
相	-10.216
al	-10.2162
買えた	-10.2166
追	-10.2175
ma	-10.218
中身は	-10.2181
バスト	-10.2186
言葉	-10.219
ことはない	-10.2193
眼	-10.2195
まるで	-10.22
しっかりした作り	-10.22
まぁまぁ	-10.2202
不要	-10.2204
食い	-10.2206
インテリア	-10.2207
きれ	-10.2207
レザー	-10.2207
なあ	-10.2209
よくわかりません	-10.221
利用しています	-10.2215
とても喜んで	-10.2225
皮膚	-10.2229
ステンレス	-10.2234
中々	-10.2236
つきます	-10.2239
必須	-10.224
教	-10.2244
接触	-10.225
感じた	-10.2251
ツルツル	-10.2251
買えて	-10.2252
しようと思って	-10.2255
なさ	-10.2255
妊娠	-10.2257
iphone	-10.2257
とても可愛くて	-10.2264
痛くなり	-10.2264
エン	-10.2265
組み立ては	-10.2268
磨	-10.2268
状態です	-10.227
返金	-10.227
を作って	-10.227
ro	-10.2271
ヒップ	-10.2273
こちらのお店で	-10.2277
それなりに	-10.2277
パウダー	-10.2279
書いた	-10.2279
お金を	-10.2283
んじゃない	-10.2289
生活	-10.229
デニム	-10.229
着せ	-10.229
出来ず	-10.2291
潤	-10.2296
使えました	-10.2301
ベタベタ	-10.2307
盛り	-10.2309
初回	-10.2314
割高	-10.2323
欠け	-10.2324
1.	-10.2324
ついている	-10.2331
女の子	-10.2335
サンダル	-10.2335
(^^;	-10.2338
異	-10.2341
読	-10.2342
かわいいし	-10.2342
乗って	-10.2344
牛	-10.2345
華やか	-10.2347
通勤	-10.2347
価格相応	-10.235
この値段でこの	-10.2351
積	-10.2352
辺り	-10.2355
識	-10.2363
傾	-10.2363
には不向き	-10.2364
節	-10.2368
とは言え	-10.2369
コットン	-10.2375
にならず	-10.238
96	-10.238
を入れた	-10.238
助かっています	-10.2381
中敷き	-10.2381
放置	-10.2381
配線	-10.2384
どこに	-10.2384
の対応は	-10.2384
美味しかったので	-10.2385
だけでなく	-10.2388
イメージ通り	-10.2389
追加で	-10.2392
一人暮らし	-10.2392
感じません	-10.2396
を考え	-10.2401
普段使い	-10.2402
と違い	-10.2407
義	-10.2414
姉	-10.242
大活躍	-10.243
非常に残念です	-10.243
腐	-10.2437
いい買い物	-10.2438
後日	-10.244
使うので	-10.2442
間違えて	-10.2444
驚	-10.2446
この店	-10.2447
かせ	-10.2447
滅	-10.2448
ヒビ	-10.2455
ロール	-10.2457
見えません	-10.2466
値段の割りに	-10.2467
の位置が	-10.2468
とても使いやすいです	-10.2468
つけられ	-10.2472
愛用しています	-10.2477
レンジ	-10.248
勢	-10.2482
例	-10.2482
微妙に	-10.2484
ニング	-10.2486
まない	-10.2488
使えなかった	-10.2493
省	-10.2493
チープ	-10.2494
水分	-10.25
厚め	-10.2503
84	-10.2506
のせいか	-10.2509
お値段なり	-10.2511
購入したいです	-10.2514
夏に	-10.2518
カーキ	-10.2519
目立ちます	-10.252
外す	-10.2525
驚き	-10.2526
ゎ	-10.2528
の価値	-10.2531
発売	-10.2536
選べる	-10.2536
とても便利です	-10.2539
待た	-10.2543
じゃなく	-10.2544
見つけた	-10.2544
振	-10.2545
始	-10.2552
品切れ	-10.2554
すると思います	-10.2566
一人	-10.2566
見かけ	-10.2566
下がって	-10.2568
少し大きめ	-10.257
サイズ購入	-10.257
風味	-10.2573
納	-10.2574
と記載	-10.2579
苦手	-10.2582
アウト	-10.2585
コツ	-10.2589
ソックス	-10.2589
ついでに	-10.259
側に	-10.259
敷いて	-10.2594
正規品	-10.2601
大変満足しています	-10.2603
170	-10.261
向いて	-10.2614
級	-10.2616
をお勧めします	-10.2616
をかけて	-10.2617
ボンド	-10.2618
を選択	-10.2618
選ぶ	-10.2618
一個	-10.2618
年前	-10.2622
それから	-10.2628
低価格	-10.264
ビーズ	-10.264
気にいって	-10.2642
以外に	-10.2642
入りません	-10.2643
然	-10.2643
スポーツ	-10.2644
(^_^;)	-10.2644
でしょ	-10.2644
作りもしっかりして	-10.2645
園	-10.2653
ガッカリしました	-10.2655
危険	-10.2655
瓶	-10.2655
整理	-10.2656
取り付ける	-10.2659
▁2,,[	-10.2667
値段相当	-10.2669
スプーン	-10.2673
今後も	-10.2674
歳の息子	-10.2677
印象です	-10.2678
材質	-10.2679
ソファー	-10.268
ジャスト	-10.2684
変わらず	-10.269
また機会があれば	-10.2694
石鹸	-10.2696
購入させていただきました	-10.2702
純正品	-10.2704
着けて	-10.2708
▁^	-10.2709
みたいと思います	-10.271
そのもの	-10.2712
食器	-10.2713
聴	-10.2713
経ち	-10.2714
文句なし	-10.2714
と思うのですが	-10.2714
生地もしっかりして	-10.2716
ガード	-10.2718
使用してます	-10.2719
聞き	-10.2723
くっついて	-10.2724
楽しい	-10.2724
というのは	-10.2727
糖	-10.2729
させて頂きました	-10.2736
取れない	-10.2738
貼る	-10.2739
ar	-10.274
まれ	-10.275
きれいです	-10.2753
、、、,	-10.2757
閉じ	-10.2759
復	-10.276
ダイ	-10.2763
も一緒に	-10.2769
に見える	-10.277
タイト	-10.277
たほうが	-10.2776
☆4	-10.2777
税	-10.2778
ティッシュ	-10.2781
繰り返し	-10.2783
大丈夫です	-10.2788
投	-10.2789
かしら	-10.279
と考えて	-10.2795
68	-10.2796
過ぎる	-10.2796
調べて	-10.2813
;)\	-10.2818
満足しております	-10.2821
ロゴ	-10.2822
ないもの	-10.2823
水着	-10.2826
水槽	-10.2832
以外の	-10.2833
通常の	-10.2834
整	-10.2835
恐	-10.2836
写真と違う	-10.2837
使用します	-10.2838
ウィッグ	-10.2843
本当	-10.2845
優れ	-10.285
トル	-10.2854
弾	-10.2854
宅	-10.286
故障	-10.286
といった感じ	-10.2861
本来	-10.2864
不親切	-10.2864
合わ	-10.2864
なんと	-10.2879
400	-10.2881
IN	-10.2895
年以上	-10.2895
ビュー	-10.2896
最悪でした	-10.2896
実際の	-10.2908
用意	-10.2914
カレー	-10.2918
地味	-10.2919
二枚	-10.2925
安くても	-10.2928
もっと早く	-10.2933
勝	-10.2936
届いたら	-10.2936
リピはないです	-10.2942
を発見	-10.2943
2014	-10.2943
当方	-10.2945
シック	-10.2946
可愛	-10.2949
納期	-10.295
薄いです	-10.2953
なきゃ	-10.2962
易	-10.2968
付いていて	-10.2969
内側に	-10.2975
座って	-10.2977
状態でした	-10.2978
周りが	-10.2979
返答	-10.298
っていう	-10.2983
低反発	-10.2986
規	-10.299
予想通り	-10.2991
商品名	-10.2992
フライパン	-10.2998
カタログ	-10.2998
気がする	-10.2998
編	-10.3
書く	-10.3004
ポスト	-10.3009
ベース	-10.301
Q	-10.301
よろしくお願いします	-10.3016
お得な	-10.302
少量	-10.302
お客様	-10.3021
喜	-10.3023
とても気に入っています	-10.3026
試しましたが	-10.3031
欲	-10.3031
始末	-10.3034
効き目	-10.3036
こちらのショップで	-10.3036
きり	-10.3037
期待を込めて	-10.304
たとき	-10.304
新しく	-10.3042
当たる	-10.3043
チクチク	-10.3046
ちょうどよく	-10.3047
毎	-10.3048
怒	-10.3058
香りは	-10.3058
感触	-10.3062
いいですよ	-10.3063
回転	-10.3069
北海道	-10.307
以前使っていた	-10.3071
すみません	-10.3072
許容範囲	-10.3076
85	-10.3077
気味	-10.308
そのうち	-10.3091
大き目	-10.3095
になっていました	-10.3099
ジュース	-10.31
越	-10.3105
プル	-10.3106
医	-10.3106
チャー	-10.3111
とっても可愛いです	-10.3111
直して	-10.3111
とてもよかったです	-10.3118
600	-10.3121
だけなので	-10.3126
97	-10.313
というのが	-10.3131
ちょうど良かったです	-10.3133
されていない	-10.3133
ママ	-10.3134
時間がかかる	-10.3134
だと思い	-10.3136
径	-10.3137
ることができました	-10.3137
彼	-10.3142
思っていたよりも	-10.3142
サイズ感	-10.3145
ないのが	-10.3147
いたところ	-10.3149
ハート	-10.3152
でしょうね	-10.3154
以降	-10.3155
その点	-10.316
負	-10.3161
改良	-10.3163
79	-10.3174
探していた	-10.3176
&#8252;&#65038;	-10.318
換	-10.3188
スタンプ	-10.3192
ラク	-10.3194
発送メール	-10.3196
ガーゼ	-10.3199
2015	-10.32
証	-10.3203
肝心の	-10.3204
切れる	-10.3206
上品	-10.3213
しっかりとした	-10.3217
送料込みで	-10.3227
中途半端	-10.3228
と思われます	-10.3229
に入れた	-10.3232
デコ	-10.3237
うえ	-10.324
気をつけて	-10.3242
^*)	-10.3243
の対応も	-10.3243
いいかもしれません	-10.3244
のが残念	-10.3248
検討中です	-10.325
リップ	-10.3252
感じがしました	-10.3252
込め	-10.3255
定期	-10.3257
のものは	-10.3258
下半身	-10.3266
割に	-10.3266
裂	-10.3272
箱を開け	-10.3273
皿	-10.3276
問題ありませんでした	-10.3277
寸	-10.3277
しっかりした作りで	-10.3279
に比べ	-10.3281
高くても	-10.3281
書かれている	-10.3281
出した	-10.3283
商品が届いた	-10.3285
出せ	-10.3286
ジェ	-10.3287
飾	-10.3289
包丁	-10.329
こっち	-10.3292
不満です	-10.3292
が遅い	-10.3292
を付けて	-10.3297
と書かれて	-10.3298
遅かった	-10.3301
許	-10.3302
貼り付け	-10.3303
ホームセンターで	-10.3304
レイン	-10.3305
活躍しそうです	-10.3308
アイテム	-10.3309
あっという間に	-10.3309
こんなこと	-10.3309
あん	-10.3311
太め	-10.3312
十分な	-10.3315
小ぶり	-10.3318
用品	-10.3321
荒	-10.3328
遅すぎ	-10.3335
迷い	-10.3339
したくて	-10.3343
買い直し	-10.3344
ノン	-10.3344
いなかったので	-10.3345
病	-10.3346
付いている	-10.3346
載って	-10.3347
遊	-10.3351
解消	-10.3359
すり	-10.336
感激	-10.3371
掛	-10.3373
ドット	-10.3376
お味	-10.3376
簡単でした	-10.3376
言	-10.3378
留	-10.338
(*^_^*)	-10.3384
複数	-10.3387
値段的に	-10.3388
示	-10.3388
されています	-10.3391
使い続けて	-10.3392
他の色も	-10.3395
座り心地	-10.3396
に比べると	-10.3397
のではないか	-10.3399
可能性	-10.341
しないので	-10.3411
気がしました	-10.3416
電球	-10.3416
メッシュ	-10.3417
になりません	-10.342
雨の日	-10.3426
してしまう	-10.3428
at	-10.3438
何年も	-10.3441
ことにしました	-10.3441
初購入	-10.3442
覚	-10.3443
割には	-10.3444
つもりで	-10.3448
週間ほど	-10.3451
クロス	-10.3453
暖	-10.3455
打	-10.3456
あす楽	-10.3459
z	-10.3459
お値段相応	-10.346
いるうちに	-10.3462
トン	-10.3462
箸	-10.3465
非	-10.3465
グラ	-10.3467
うれしい	-10.347
だったのか	-10.3471
膨	-10.3471
アロマ	-10.3474
ぅ	-10.3478
痛いです	-10.3486
できないので	-10.3487
とてもかわいいです	-10.3488
ちゃんとした	-10.3491
午前中	-10.3496
ノー	-10.3497
取説	-10.3497
好評でした	-10.3499
割引	-10.35
構造	-10.3501
して欲しいです	-10.3502
44	-10.3504
したこと	-10.3505
ショルダー	-10.3509
分かって	-10.3509
カジュアル	-10.3509
滑り止め	-10.3511
出来上がり	-10.3514
落として	-10.3516
友人へ	-10.3519
動く	-10.3521
お洒落	-10.3522
ほしく	-10.3525
つにしました	-10.3527
週間以上	-10.3536
痛くて	-10.3543
収納力	-10.3547
良かったかな	-10.3548
だけあって	-10.3549
のではないでしょうか	-10.3551
ジャストサイズ	-10.3551
場所を	-10.3555
千	-10.3558
165	-10.3559
するために	-10.3559
と思っていたのですが	-10.3561
とありますが	-10.3562
商品が届きません	-10.3566
途中	-10.3569
ベット	-10.3581
になってます	-10.3584
有る	-10.3585
商品が届き	-10.3586
迷った	-10.3594
ちょうどいいです	-10.3597
クッキー	-10.3598
伸ばし	-10.3598
快	-10.3601
個人的に	-10.3604
&#128	-10.3605
倒	-10.3609
期限	-10.3609
癖	-10.3611
幼稚園	-10.3617
いきます	-10.3618
取り扱い	-10.3618
ちゃち	-10.3622
麦	-10.3624
作動	-10.3624
一緒	-10.3626
するため	-10.3626
ミラー	-10.3628
させる	-10.3631
クレーム	-10.3636
記念	-10.3637
肌触りも	-10.3638
安くなって	-10.3641
戸	-10.3643
ニア	-10.3643
ホール	-10.3645
何だか	-10.3645
芯	-10.3649
よさそう	-10.3651
フローリング	-10.3668
グラム	-10.3672
まだ使用していませんが	-10.3675
頑丈	-10.3676
送料込み	-10.3679
着物	-10.368
あげて	-10.3685
できそうです	-10.3685
特別	-10.3686
想像以上に	-10.3689
ボン	-10.369
ディー	-10.3693
房	-10.3694
なくなります	-10.3698
ガス	-10.3701
溶	-10.3704
といいな	-10.3711
お得感	-10.3711
がついている	-10.3716
張って	-10.3724
鉢	-10.3726
捨てる	-10.3732
枠	-10.3733
喜ばれ	-10.3735
86	-10.3739
イベント	-10.374
何故	-10.3746
梱包も丁寧	-10.3747
作る	-10.3753
使ったら	-10.3758
ころ	-10.376
べき	-10.3763
分かる	-10.3763
してくれて	-10.3765
裁	-10.3765
""	-10.3769
あったのですが	-10.3769
しっくり	-10.3774
割と	-10.3774
更	-10.3777
その分	-10.3779
近所	-10.3781
浅	-10.3783
ボルト	-10.3784
上品で	-10.3786
▁b	-10.379
アリ	-10.3791
アルミ	-10.3794
あるのですが	-10.3795
トップス	-10.3795
ジン	-10.3796
キャッチ	-10.3796
度目の購入です	-10.3797
広く	-10.3799
擦	-10.38
跡が	-10.38
料金	-10.3802
紺	-10.3804
面白い	-10.3807
色落ち	-10.3812
安心しました	-10.3815
出産内祝い	-10.3819
こともあり	-10.383
レット	-10.3831
イマイチでした	-10.3831
払	-10.3832
もう買いません	-10.3837
が好きなので	-10.384
当たって	-10.3841
決して	-10.3848
ふき	-10.3849
ラッキー	-10.385
われて	-10.3852
ぴったりです	-10.3852
むしろ	-10.3854
SD	-10.3861
プチ	-10.3861
お揃い	-10.3863
チャレンジ	-10.3868
二回目	-10.3868
マーク	-10.3882
基	-10.3887
UV	-10.3894
静か	-10.3897
してみます	-10.3899
ォ	-10.3904
細かく	-10.3905
体調	-10.3905
ポリ	-10.3905
試した	-10.3908
買ってよかった	-10.3915
かけた	-10.3917
入ってる	-10.3918
重視	-10.3924
つかえ	-10.3928
231313	-10.3929
洗顔	-10.3931
始めた	-10.3934
責任	-10.3935
重宝しそうです	-10.3936
de	-10.3936
増え	-10.3937
わからず	-10.3939
仕切り	-10.3939
こちらで購入しました	-10.3941
気になった	-10.3947
少しずつ	-10.3949
小さいです	-10.3951
ch	-10.3954
夕方	-10.3955
柔らかくて	-10.3961
座面	-10.3963
次回も	-10.3964
乾燥肌	-10.3967
裏側	-10.3968
適当	-10.3971
バター	-10.3974
使い勝手も	-10.3975
値段が高い	-10.3976
87	-10.3981
動いて	-10.3982
を選んだ	-10.3987
覚悟	-10.3993
お菓子	-10.3994
老	-10.3995
して下さい	-10.3997
中学生	-10.4004
ユ	-10.4005
銀	-10.4008
見せ	-10.4009
ちょうどよかったです	-10.4017
!!!!!	-10.4023
使用中	-10.4023
あげる	-10.4024
喜んでいます	-10.4024
検	-10.4028
見つけました	-10.4032
封筒	-10.4035
ふかふか	-10.4035
コスト	-10.404
ガン	-10.4042
オムツ	-10.4042
塗	-10.4043
考	-10.4044
1.5	-10.4044
ホントに	-10.4047
158	-10.4048
マッサージ	-10.4048
したほうが	-10.405
普段使いに	-10.4053
イライラ	-10.4055
皆	-10.4056
ホコリ	-10.4062
ふんわり	-10.4062
ショーツ	-10.4062
継続	-10.4062
意見	-10.4067
太く	-10.4068
害	-10.4068
22.5	-10.4068
家庭	-10.4069
タンク	-10.4073
するべき	-10.4076
使い道	-10.4076
エコ	-10.4077
入らず	-10.4077
偽物	-10.4083
気を付け	-10.4086
`*)	-10.4089
ステキ	-10.4098
鳴	-10.4102
毎年	-10.4102
iPad	-10.4102
経験	-10.4102
さほど	-10.411
なってきたので	-10.4113
望	-10.4114
いきなり	-10.4115
キャメル	-10.4115
このシリーズ	-10.4116
画像より	-10.4116
きつくて	-10.4117
太って	-10.4118
レシピ	-10.4122
ペア	-10.4123
このサイズ	-10.4128
失	-10.4128
次の日に	-10.4134
お安いので	-10.4135
薄さ	-10.4138
00	-10.414
減り	-10.414
連絡して	-10.4143
致しました	-10.4143
個人差	-10.4145
乱	-10.4149
でこの値段は	-10.4151
何故か	-10.4153
先端	-10.4161
円以上	-10.4167
円ショップ	-10.4174
値段通り	-10.4174
頻	-10.4176
格好	-10.4186
上がる	-10.4188
延	-10.4189
つけました	-10.419
素人	-10.4191
収まり	-10.4194
ようになりました	-10.4199
なかったり	-10.42
年末	-10.4202
戦	-10.4203
焼け	-10.4205
使ってる	-10.4206
つけると	-10.4209
おやつ	-10.4209
ばっちり	-10.421
いけません	-10.4213
かわいいけど	-10.4217
せば	-10.4219
穿	-10.4223
パイプ	-10.4227
タイトル	-10.4228
ビス	-10.423
寝心地	-10.4234
一気に	-10.4238
になってしまい	-10.4243
エラー	-10.4248
撮影	-10.425
小さいサイズ	-10.4252
友人の結婚式	-10.4253
数年	-10.4259
−1	-10.426
ホームセンター	-10.4263
書け	-10.4264
プレゼント用に	-10.4265
コーティング	-10.4271
出ない	-10.4277
固め	-10.4282
か所	-10.4282
隠れ	-10.4284
加え	-10.4297
貧	-10.4305
受	-10.4306
他の方も	-10.431
よさそうです	-10.4314
無地	-10.433
ランク	-10.4339
ジョ	-10.434
宅配	-10.4344
ポット	-10.4346
アクセサリー	-10.4346
おそらく	-10.4353
優	-10.4354
組み立てて	-10.4357
孫	-10.436
づらく	-10.4361
ることが出来	-10.4365
施	-10.4367
自分用	-10.4369
と思い購入	-10.4369
影響	-10.4374
を探し	-10.4374
なくなってしまいました	-10.4379
入ってました	-10.438
予	-10.4383
を見つけました	-10.4385
ようでした	-10.4385
変わる	-10.4386
絶	-10.4387
濃く	-10.4387
ふくらはぎ	-10.4388
すぎた	-10.4388
分けて	-10.4389
づけ	-10.4396
おススメ	-10.4402
入りませんでした	-10.4405
コネクタ	-10.4415
が弱く	-10.4422
いい加減	-10.4434
とっても可愛い	-10.4434
役に立	-10.4443
混ぜ	-10.4443
飲みやすい	-10.4443
開く	-10.4446
鉄	-10.445
になっていた	-10.4452
男の子	-10.4457
どういう	-10.4464
キレイな	-10.4465
硬く	-10.4467
方向	-10.4467
ゆるい	-10.4475
頑	-10.4476
中央	-10.4477
感想は	-10.4478
遅れる	-10.4478
替	-10.4478
なんでしょうか	-10.4484
短め	-10.4489
気に入っている	-10.4489
欠	-10.4492
商品到着後	-10.4497
パネル	-10.4499
やめました	-10.4499
出来ませんでした	-10.45
いかない	-10.4504
植え	-10.4507
独	-10.4513
鳥	-10.4513
次の日	-10.4516
なので仕方ない	-10.4518
(?)	-10.452
直す	-10.4536
巾	-10.4541
ればいい	-10.4542
AN	-10.4542
それ以外は	-10.4544
効き	-10.4548
切れました	-10.4549
出来るので	-10.4551
うちの子	-10.4552
重ねて	-10.4554
簡易	-10.4555
迷	-10.4555
未だに	-10.4558
親指	-10.4559
おしり	-10.4559
を探していたので	-10.456
私の場合	-10.456
淡	-10.4562
似たような	-10.4567
少し大きい	-10.4568
使用していません	-10.457
円くらい	-10.4571
照	-10.4574
易い	-10.4577
みたのですが	-10.458
あくまで	-10.4583
ましょう	-10.4583
〓	-10.4583
きたら	-10.4586
物足りない	-10.4588
組み	-10.4591
機能性	-10.4591
はいって	-10.4596
吸盤	-10.4599
ために購入	-10.4601
歴	-10.4604
完璧	-10.4604
買ったけど	-10.4609
乾く	-10.461
st	-10.461
消臭	-10.4612
洗濯機	-10.4613
流れ	-10.4615
ガタガタ	-10.4618
症	-10.4618
さないと	-10.4618
買って良かった	-10.4621
ワンピ	-10.4623
合皮	-10.4626
が付いている	-10.4632
画像通り	-10.4635
大量に	-10.4637
どころか	-10.4652
なってしまい	-10.4655
食品	-10.4661
気をつけ	-10.4662
かわいかったです	-10.4662
人目	-10.4662
明記	-10.4664
狭く	-10.4667
消耗品	-10.4668
商品について	-10.4669
置け	-10.4672
別物	-10.4673
チャーム	-10.4674
はがれ	-10.4674
5000	-10.4677
されない	-10.4678
あげました	-10.4681
どこか	-10.4685
使いにくいです	-10.4687
生まれ	-10.4696
フルーツ	-10.4696
直後	-10.4697
すっごく	-10.4703
落ち着いて	-10.471
夏場	-10.4712
とても便利	-10.4714
どうかな	-10.4717
まくり	-10.4719
騙された	-10.4719
運転	-10.472
買った方が	-10.4721
肩幅	-10.4725
っとした	-10.4726
楽しみにしています	-10.4729
良い感じです	-10.473
鮮やか	-10.4734
うす	-10.4734
ようなもの	-10.4746
世	-10.4746
考慮	-10.4746
届いた時	-10.4746
日に注文して	-10.475
日焼け	-10.4751
入っていませんでした	-10.4752
絞	-10.4753
可もなく不可もなく	-10.4753
小分け	-10.4758
韓国	-10.4765
クール	-10.4765
額	-10.4769
当たり前	-10.4769
編み	-10.4771
活	-10.4772
読む	-10.4772
ぜんぜん	-10.4775
切った	-10.4781
癒され	-10.4782
パサパサ	-10.4789
д	-10.4789
んじゃないか	-10.4791
寒く	-10.4794
菌	-10.4796
かかります	-10.4797
着れる	-10.4798
こぼれ	-10.4806
日にち	-10.4806
きつかった	-10.4808
出張	-10.4809
まらず	-10.4812
いまいちでした	-10.4814
手作り	-10.4815
わかります	-10.4816
プール	-10.4818
苦労しました	-10.4819
買わなかった	-10.482
商品画像	-10.482
改めて	-10.4833
それだけ	-10.4833
★2	-10.4837
思わず	-10.4841
した後	-10.4844
買うこと	-10.485
セン	-10.4853
されてる	-10.4855
伸びない	-10.4855
買ってしまいました	-10.4855
掛かり	-10.4862
¥	-10.4868
触れ	-10.487
小さかったです	-10.4872
コンセント	-10.4875
お薦め	-10.4876
のが残念でした	-10.4879
筒	-10.4882
かわからない	-10.4887
写真のように	-10.4889
百	-10.489
レンタル	-10.489
枚目	-10.4896
恥ずかし	-10.49
ストレート	-10.4905
蒸	-10.4905
上げて	-10.4916
安いから仕方ない	-10.4921
起こ	-10.4921
全く違う	-10.4924
ワンコ	-10.4928
困りました	-10.4929
ベリー	-10.4932
年齢	-10.4937
諦めました	-10.4939
履ける	-10.494
繊維	-10.4941
かぶれ	-10.4943
隠れる	-10.4943
丈夫な	-10.4946
離れ	-10.495
股	-10.4956
変形	-10.4958
89	-10.4959
気軽に	-10.4963
分厚い	-10.4964
大量	-10.4966
カール	-10.4967
た方がいい	-10.4967
°	-10.497
とても可愛く	-10.4971
保温	-10.4974
ノート	-10.4974
不愉快	-10.4978
感があります	-10.4979
汚い	-10.4981
渡す	-10.4981
恥ずかしい	-10.4982
頻繁に	-10.4985
暮	-10.4985
安物買いの銭失い	-10.4985
まだ届きません	-10.4987
潰れて	-10.4988
かわいかった	-10.5
テンション	-10.5
染め	-10.5002
認	-10.5005
っちゃいました	-10.5011
いないのに	-10.5017
支え	-10.502
出てくる	-10.5021
手軽に	-10.5026
壊れる	-10.5026
だったため	-10.5028
日本語	-10.503
るために	-10.5032
埃	-10.5036
必需品	-10.5037
ホット	-10.5037
台目	-10.5038
るのが楽しみです	-10.5038
考えると	-10.5041
きつめ	-10.5042
着られ	-10.5044
簡単な	-10.5048
殆ど	-10.5051
よくない	-10.5057
荷	-10.5073
姿	-10.5073
浮き	-10.5074
を選んで	-10.5075
曲げ	-10.508
ョ	-10.5081
真っ白	-10.5081
ギャ	-10.5082
ありがたい	-10.5082
子供用	-10.5085
大好きです	-10.5093
前髪	-10.5095
着れない	-10.5099
無難	-10.51
羽織	-10.5103
ベル	-10.5104
ユニ	-10.5104
抑え	-10.5105
無かったので	-10.5109
習	-10.511
ごめんなさい	-10.5111
お中元	-10.5111
送料込	-10.5116
売ってる	-10.5117
いままで	-10.5119
冬場	-10.5127
ユー	-10.5127
営業	-10.5129
安っぽさ	-10.5133
94	-10.5135
傷だらけ	-10.5139
請求	-10.514
純	-10.5146
バレ	-10.5151
ついていました	-10.5153
化粧品	-10.5153
格安	-10.5154
問	-10.5159
瞬間	-10.5161
算	-10.5162
スライド	-10.5162
知人	-10.5169
ショッピング	-10.517
モニター	-10.517
オリジナル	-10.517
買えば良かった	-10.517
安価な	-10.5175
庫	-10.5176
スーパーセール	-10.518
グリップ	-10.5182
その時	-10.5188
なくなったので	-10.5189
このタイプ	-10.5189
使い物にならない	-10.5193
もう二度と	-10.5196
と思ったけど	-10.5198
午	-10.52
手袋	-10.5201
違	-10.5202
取れません	-10.5204
スマート	-10.5204
値段もお手頃	-10.5207
頂	-10.521
下地	-10.5216
入っているので	-10.5217
センター	-10.5217
ぜ	-10.5218
言えない	-10.5221
軽いので	-10.5222
センス	-10.5222
180	-10.5223
授乳	-10.5223
まだ使っていませんが	-10.5223
手書き	-10.5228
事前に	-10.523
給	-10.5237
th	-10.524
ジッパー	-10.5247
波	-10.5251
洗濯したら	-10.5253
開封して	-10.5257
加減	-10.5257
使い易い	-10.5257
タブレット	-10.526
天然	-10.526
ハンド	-10.5262
出てきて	-10.5267
発送まで	-10.5268
またリピします	-10.5272
ニキビ	-10.5275
お勧めできません	-10.5282
見栄え	-10.5282
ブレスレット	-10.5283
▁the	-10.5283
込んだ	-10.5284
ホック	-10.5284
ようになり	-10.5289
カラコン	-10.5294
時々	-10.5299
難しく	-10.5305
添付	-10.5309
登	-10.5312
そもそも	-10.5312
手続き	-10.5313
硬くて	-10.5313
ボーダー	-10.5313
入学式	-10.5315
覚え	-10.5321
気持ちよく	-10.5321
重たい	-10.5325
横幅	-10.5326
プチプチ	-10.5328
目立たない	-10.5329
ミックス	-10.5329
るようになりました	-10.5331
もうすぐ	-10.5331
凹み	-10.5338
甘み	-10.5343
ベタ	-10.5345
年生	-10.5345
まさに	-10.5346
描	-10.5351
できなかった	-10.5351
鞄	-10.5358
ルーム	-10.5365
握	-10.5366
ぶかぶか	-10.5366
相性	-10.5368
改善され	-10.5371
踵	-10.5373
いる方	-10.5382
直しました	-10.5383
ネーム	-10.5386
硬さ	-10.5391
初日	-10.5392
枯	-10.5396
涼	-10.5401
読め	-10.5402
はずなのに	-10.5404
下がり	-10.5405
値段も手頃	-10.541
づつ	-10.5411
掃除機	-10.5414
出番	-10.5419
助かってます	-10.542
安いのに	-10.542
ペットボトル	-10.542
都合	-10.5422
味付け	-10.5425
渋	-10.5427
無視	-10.5429
メガネ	-10.5442
予防	-10.5451
思った通り	-10.5452
クセ	-10.5455
違う色	-10.5457
OFF	-10.5458
独特の	-10.5458
未だ	-10.5466
安いもの	-10.5478
安かろう悪かろう	-10.5481
我が家では	-10.5484
頼まれ	-10.5487
(^_^)	-10.5489
完	-10.5492
沈	-10.5496
陰	-10.5496
送られてきました	-10.5498
購入してよかったです	-10.5501
バルブ	-10.5503
おしゃれな	-10.5504
都	-10.5509
もいいし	-10.5511
粘着	-10.5514
ナビ	-10.5515
困る	-10.5515
ゴワゴワ	-10.5519
人間	-10.5522
京	-10.5527
ゼロ	-10.5532
相談	-10.5534
太さ	-10.5537
履き心地も	-10.5538
背もたれ	-10.5542
ゾ	-10.5542
甲高	-10.5542
寸法	-10.5543
一般	-10.5543
ポンプ	-10.5547
co	-10.5547
今では	-10.5551
のようなものが	-10.5554
ッツ	-10.5556
スーツケース	-10.5558
に対応して	-10.5558
悲しい	-10.556
態	-10.5564
アクセント	-10.5574
バカ	-10.5578
履いている	-10.5579
使えなくなりました	-10.5581
囲	-10.5581
挿	-10.5581
合わせやすい	-10.5582
ジャン	-10.5584
育て	-10.5586
階	-10.5586
買い物が出来ました	-10.5587
この評価	-10.5588
シルク	-10.5589
と書いてあったので	-10.5591
ることなく	-10.5592
体質	-10.5596
よかったかな	-10.5597
あちこち	-10.5605
られませんでした	-10.5606
とは思いません	-10.5609
最後まで	-10.5612
カード入れ	-10.5614
するとき	-10.5615
大きすぎて	-10.5616
着れません	-10.5624
ホース	-10.5628
先方	-10.5629
電動	-10.563
封	-10.5633
だんだん	-10.5636
洗浄	-10.5636
手頃な	-10.5637
住所	-10.5639
高級	-10.564
載	-10.564
調理	-10.5645
欠けて	-10.5651
有名	-10.5656
機会があれば	-10.5666
子供たち	-10.567
食べれ	-10.5672
持続	-10.5676
微妙な	-10.5677
900	-10.5678
忘れて	-10.5679
になってしまった	-10.5681
クリーニング	-10.5683
アルバム	-10.5683
伝票	-10.569
前回購入した	-10.5691
当初	-10.5694
食いつき	-10.5696
ラベル	-10.5698
題	-10.5698
楽しんで	-10.5699
お返し	-10.57
併用	-10.5704
こそ	-10.5705
衛	-10.5707
なにより	-10.5707
マチ	-10.5708
届け	-10.571
納品	-10.571
ホールド	-10.5713
塗った	-10.5714
ed	-10.5715
さらさら	-10.5719
即納	-10.5721
締	-10.5722
標準	-10.5722
卓	-10.5722
軽さ	-10.5724
造	-10.5725
痒	-10.5728
劣	-10.5729
あがり	-10.5731
中心	-10.5734
行け	-10.5734
諦めて	-10.5736
を使用していましたが	-10.5737
吐	-10.5738
貼れ	-10.5738
しようと思い	-10.5741
私的には	-10.5742
気になりませんでした	-10.5743
吹き	-10.5744
縫い付け	-10.5744
ねぇ	-10.5749
ダークブラウン	-10.5755
使おうと思います	-10.5756
163	-10.5758
やわらかく	-10.576
作成	-10.5761
生産	-10.5768
豪華	-10.577
抱っこ	-10.577
炎	-10.5778
並べて	-10.5786
PS	-10.5786
頼み	-10.5788
枚数	-10.5789
一回り	-10.5791
いつまで	-10.5793
実物を見て	-10.5794
焦げ	-10.5795
とは違い	-10.5806
してもらいました	-10.5808
総	-10.5809
勧められ	-10.5821
立って	-10.5827
データ	-10.5834
残る	-10.5836
ことはありません	-10.584
写真で見るより	-10.5842
このお値段なら	-10.5848
供	-10.5852
変わりません	-10.5853
毛穴	-10.5857
パジャマ	-10.5858
履けない	-10.5859
安っぽく見え	-10.586
いいなぁ	-10.5861
押す	-10.5863
咲	-10.5866
一体	-10.5873
送付	-10.5876
ヴ	-10.5881
が好きで	-10.5886
違うもの	-10.5897
修正	-10.5898
いきません	-10.5898
戻って	-10.5899
選んだ	-10.5901
靴底	-10.5906
そろそろ	-10.5906
ミント	-10.5906
馴染	-10.5912
アダプター	-10.5915
ソファ	-10.5919
購入者	-10.5921
商品が届かない	-10.5923
押さえ	-10.5923
産後	-10.5928
勉強になりました	-10.5929
ャ	-10.593
使ってません	-10.5936
期待していただけに	-10.5943
でかい	-10.5944
なりませんでした	-10.5947
だけに残念	-10.5947
カッコ	-10.5952
まだ使ってない	-10.5952
術	-10.5954
カッター	-10.5954
になりそう	-10.5956
動画	-10.5963
年間	-10.5969
不自然	-10.597
払って	-10.597
ヘビロテ	-10.597
確実に	-10.597
るべき	-10.5972
155	-10.5975
煙	-10.5978
与え	-10.598
と思っていました	-10.5983
手首	-10.5985
商品の到着	-10.5986
胸元	-10.5993
珠	-10.5994
上手に	-10.5995
ちょうどよい	-10.6004
使えず	-10.6006
歪んで	-10.6007
にすればよかった	-10.6008
システム	-10.601
北	-10.6011
一瞬	-10.6019
愛犬	-10.6028
液晶	-10.6035
ニュー	-10.6043
回目の購入	-10.6053
グラス	-10.6058
スティック	-10.6065
呼	-10.6067
んじゃ	-10.6068
履きやすく	-10.6068
貰え	-10.6073
グラグラ	-10.6076
度目の購入	-10.6077
履けません	-10.6078
マグ	-10.6081
とても良かったので	-10.6083
まずまず	-10.6083
兄	-10.6084
とは違う	-10.6087
ズレて	-10.6088
キット	-10.6095
剥がし	-10.6099
壊	-10.61
うるさい	-10.61
個体差	-10.61
詰め替え	-10.6103
ることもなく	-10.6106
浅い	-10.611
広がり	-10.6114
取引	-10.6116
予想より	-10.6118
はがれて	-10.6123
七五三	-10.6125
キツく	-10.6127
包装紙	-10.6127
et	-10.6131
うどん	-10.6139
固く	-10.614
バスタオル	-10.6144
何の連絡も	-10.6146
職	-10.6148
説	-10.6155
買おうか	-10.6167
安っぽい感じ	-10.6168
士	-10.6174
もう買わない	-10.6177
★4	-10.6181
滴	-10.6182
新鮮	-10.6184
また利用したいと思います	-10.6186
食べています	-10.6188
硬	-10.619
英語	-10.6191
突然	-10.6191
歩け	-10.6195
目立た	-10.6198
網	-10.6199
知らせ	-10.62
気泡	-10.6202
着丈	-10.6205
ベランダ	-10.6207
吸水性	-10.6207
ヨーグルト	-10.6208
過ぎず	-10.6215
ではないでしょうか	-10.6219
細め	-10.6219
結婚	-10.6222
あったかい	-10.6227
植	-10.623
ペーパー	-10.6232
見られ	-10.6233
ウム	-10.6238
フロント	-10.6249
になってしまう	-10.6249
きっちり	-10.6249
使いたかった	-10.6257
グリ	-10.6261
届いたものは	-10.6264
塗る	-10.6271
レール	-10.6273
決めて	-10.6278
を探してました	-10.6282
留め具	-10.6285
ちゃった	-10.6285
インソール	-10.6285
つかず	-10.6288
されており	-10.6298
ウチ	-10.6298
工具	-10.6302
AC	-10.6302
穴が開いて	-10.6302
時間がかかりました	-10.6303
開始	-10.6308
想	-10.6323
使えば	-10.6323
環境	-10.6324
遣	-10.6324
中敷	-10.6324
効く	-10.6324
謝罪	-10.6332
釣	-10.6332
ふつう	-10.6333
センサー	-10.6333
生地が薄い	-10.6335
ワンサイズ上	-10.6338
友	-10.6338
確認メール	-10.634
小銭入れ	-10.6346
勧め	-10.6348
七	-10.6349
お肌	-10.6364
定番	-10.6366
ゆるく	-10.6366
押して	-10.6378
巻いて	-10.6382
ヤマト	-10.6382
落ち着いた色	-10.6385
受付	-10.6386
レモン	-10.6393
再生	-10.6395
粘着力	-10.6398
投稿	-10.6399
過去	-10.64
また利用したいです	-10.64
“	-10.64
盛	-10.6406
メッキ	-10.6408
余計に	-10.6408
華奢	-10.6417
内部	-10.642
期待外れ	-10.6424
経ちますが	-10.6439
買い足し	-10.6444
打ち	-10.6454
悲	-10.6456
ついていた	-10.6457
割れた	-10.646
刻印	-10.646
走行	-10.6462
申し訳ない	-10.6467
不味い	-10.6468
購入してしまいました	-10.6482
断念	-10.6486
ストック	-10.6489
のが大変	-10.6491
選んで	-10.6492
研	-10.6493
お値段の割に	-10.6493
イヤホン	-10.6493
値上げ	-10.6498
帰って	-10.6505
重み	-10.6505
固くて	-10.6508
満足度	-10.6509
障	-10.6509
手入れ	-10.6516
敏感肌	-10.6519
キュー	-10.6523
友人へのプレゼント	-10.6523
命	-10.6527
抵抗	-10.6527
長財布	-10.6528
ハンカチ	-10.6536
お得だと思います	-10.6542
はっきり言って	-10.6554
取れた	-10.6556
動物	-10.6558
ダーク	-10.6559
ポール	-10.6566
直ぐ	-10.6571
比較的	-10.6577
漬け	-10.6586
久々に	-10.6587
揚げ	-10.6587
重宝してます	-10.6593
取り替え	-10.6595
ナット	-10.6601
統	-10.6604
一緒に購入した	-10.6607
似て	-10.6612
泡立ち	-10.6614
ヵ月	-10.6614
と思っていたら	-10.6615
に惹かれ	-10.6618
衣	-10.662
こども	-10.6623
履かせ	-10.6624
大失敗	-10.6631
と思われる	-10.6632
遅れて	-10.6636
長すぎ	-10.6637
そんなこと	-10.6638
カッコいい	-10.664
たくさん入って	-10.6646
余裕があり	-10.6646
上の子	-10.6646
使わず	-10.6648
働	-10.6648
月末	-10.6648
シングル	-10.6649
馴染んで	-10.6656
蛍	-10.6656
そうな感じ	-10.6658
腰痛	-10.6662
手配	-10.6665
&#10071;	-10.6665
散歩	-10.6666
凸	-10.6674
夫婦	-10.6674
お皿	-10.6677
入っていない	-10.6678
カバー力	-10.6679
いらっしゃ	-10.6682
終了	-10.6682
ストッキング	-10.6684
揃って	-10.669
ちがい	-10.6697
値段が値段	-10.6704
寄	-10.6706
フリル	-10.6708
付け心地	-10.6711
迅速に対応	-10.6713
寄り	-10.6717
剥げて	-10.6718
値段が値段なので	-10.6718
無理やり	-10.6725
粗悪品	-10.6726
ヶ所	-10.6727
困ります	-10.6728
自宅用	-10.6733
想定	-10.6735
また購入したいです	-10.6738
後悔しました	-10.6742
端子	-10.6744
アイス	-10.6748
よくわからない	-10.6753
ゆっくり	-10.6754
初期	-10.6762
迷惑	-10.6768
と思える	-10.6769
*)	-10.6775
似た	-10.6776
オール	-10.6782
先生	-10.6786
ハサミ	-10.6787
小学生	-10.6787
グッズ	-10.6787
バージョン	-10.6787
迷わず	-10.6787
六	-10.6796
マウス	-10.6796
問題はありません	-10.6798
んですか	-10.6802
みないと	-10.6803
否	-10.6804
刻	-10.6812
にはなりません	-10.6815
じゃなかった	-10.6816
飲み続け	-10.683
ファイル	-10.6841
チップ	-10.6842
だから仕方ない	-10.6843
毛布	-10.6845
暗く	-10.6846
キャン	-10.6847
広告	-10.6849
使いやすかったです	-10.6857
にたどり着きました	-10.6859
完全	-10.6861
購入させて頂きました	-10.687
1〜2	-10.6881
ポチ	-10.6882
高価な	-10.6884
使うのが	-10.6884
控え	-10.6886
痒く	-10.6886
異なる	-10.6886
us	-10.6889
庭	-10.6892
カロリー	-10.6893
になってしまいます	-10.6893
考えれば	-10.6898
悪かった	-10.69
ピチピチ	-10.6902
その上	-10.6903
カーペット	-10.6905
SH	-10.6907
感じられませんでした	-10.6911
つなぎ	-10.6921
んですかね	-10.6926
ラベンダー	-10.6928
発売日	-10.6932
スリッパ	-10.6937
と言った	-10.6938
カニ	-10.6943
抱	-10.6945
考えたら	-10.6948
高級感があり	-10.6953
ラーメン	-10.6956
療	-10.6973
168	-10.6973
が出た	-10.6979
不器用	-10.6982
出ている	-10.6983
安いので仕方ない	-10.6989
歌	-10.6991
染み	-10.6998
期待してた	-10.7005
164	-10.7005
与えて	-10.7005
■	-10.7008
@	-10.7009
Good	-10.7009
酸味	-10.7012
チャン	-10.7013
伸縮	-10.7022
兼ね	-10.7023
聞いた	-10.7026
させてもらいました	-10.7033
購入しようと思います	-10.7036
保護フィルム	-10.7038
レビューを書いて	-10.7041
ing	-10.7043
これが一番	-10.7045
商	-10.7054
案内	-10.7056
背面	-10.7063
質問	-10.7066
大容量	-10.7069
尚	-10.7072
〜〜〜	-10.7074
お届け	-10.7074
可愛いくて	-10.7075
裏面	-10.7077
短すぎ	-10.7078
めんどくさい	-10.7082
想像通り	-10.7087
災	-10.709
西	-10.709
卒	-10.709
入らなかった	-10.7093
詳細	-10.71
シンプルなデザイン	-10.7102
返送	-10.7102
の誕生日に	-10.7104
多数	-10.7108
どうやって	-10.7109
軽減	-10.7109
錆び	-10.711
歪	-10.7112
US	-10.7118
易く	-10.7119
値段は安い	-10.7119
問い合わせたところ	-10.7121
軟	-10.7126
映像	-10.7126
構	-10.7134
浸	-10.7144
一目ぼれ	-10.7145
こちらにしました	-10.7145
使用してみました	-10.7147
温かい	-10.7148
花柄	-10.715
杯	-10.715
カフェ	-10.7151
size	-10.7154
危ない	-10.7155
そば	-10.7158
いかにも	-10.7159
使ってみると	-10.7162
不可能	-10.7164
あるのに	-10.7168
嘘	-10.7171
卒業式	-10.7172
いい商品です	-10.7174
ut	-10.7177
ありがとう	-10.719
使ってみます	-10.719
ビジネス	-10.719
いきたいと思います	-10.7195
してもらった	-10.7197
決済	-10.7204
付け替え	-10.7205
詳しく	-10.7209
二度と買わない	-10.721
交換してもらいました	-10.7217
液体	-10.7219
根元	-10.7228
方がいいと思います	-10.7239
丁寧な梱包	-10.7242
排	-10.7244
くれません	-10.7246
エアコン	-10.7247
チェア	-10.7253
ゲーム	-10.7257
ハッキリ	-10.7263
申し分ない	-10.7264
使いこなせ	-10.7273
美味しさ	-10.7273
以来	-10.7273
には向かない	-10.7273
どうにか	-10.7276
ナイロン	-10.7282
炭酸	-10.7282
合った	-10.7284
期待していましたが	-10.7285
and	-10.7287
仮	-10.7291
お手入れ	-10.7296
注意書き	-10.7299
噛	-10.7299
ゥ	-10.73
とは思えません	-10.7301
程よい	-10.7304
焼いて	-10.7304
同僚	-10.731
姿勢	-10.731
担	-10.7318
おむつ	-10.7318
隅	-10.7318
トマト	-10.7319
暗	-10.7328
理想	-10.7328
もしくは	-10.7334
探していたら	-10.7338
売れ	-10.7341
取れてしまいました	-10.7344
たくて購入しました	-10.7355
列	-10.7355
使用できる	-10.7357
ロット	-10.7363
廃棄	-10.7365
タイミング	-10.7365
対象	-10.7365
にすれば良かった	-10.737
従	-10.7374
久	-10.7374
タバコ	-10.7374
ぉ	-10.7374
ようとしたら	-10.7376
たくなる	-10.7381
しっかりしてる	-10.7382
目立って	-10.7389
hi	-10.7393
マンション	-10.7394
ひざ	-10.7394
輸入	-10.7395
ナッツ	-10.7406
ゴミ箱	-10.7407
欠品	-10.742
酢	-10.7421
輝き	-10.7421
決め手	-10.7421
しっかりとした作り	-10.7426
郵便	-10.743
利用したいと思います	-10.743
終わって	-10.743
ビニール袋	-10.7438
ER	-10.7438
使い物になら	-10.7442
風呂	-10.7447
挙	-10.7449
お土産	-10.7449
未使用	-10.7451
菜	-10.7458
この手の	-10.746
魅力的	-10.7466
自由	-10.7468
対応も早く	-10.7472
値上がり	-10.7472
***	-10.7476
堅	-10.7477
敏	-10.7477
特典	-10.7478
減って	-10.7478
が欲しかったのですが	-10.7483
月中旬	-10.7487
言う事	-10.7493
洋	-10.7494
いちいち	-10.7496
覆	-10.7496
開け閉め	-10.7498
わかりやすく	-10.75
書き込み	-10.7512
クローゼット	-10.7515
終わった	-10.7515
付属品	-10.7519
頂ける	-10.7524
衝撃	-10.7524
異常	-10.7526
まとめ	-10.753
飾って	-10.753
みなさんのレビュー	-10.7533
コンビニ	-10.7534
慌てて	-10.7543
開けたら	-10.755
電波	-10.7554
出来れば	-10.7554
悩んだ	-10.7558
ストッパー	-10.7558
6000	-10.7575
また購入したいと思います	-10.7577
ものを探していました	-10.7578
ジーンズ	-10.7581
盆	-10.7581
清潔	-10.7591
フワフワ	-10.7591
醤油	-10.7591
嬉しく	-10.7592
買ったもの	-10.7593
パーティー	-10.7595
交	-10.76
蔵	-10.76
悪すぎ	-10.7606
祖	-10.761
お勧めしません	-10.7619
祈	-10.7619
ゆるゆる	-10.7621
聞こえ	-10.7629
故	-10.7632
を利用して	-10.764
いまだに	-10.7644
プリン	-10.7644
早めに	-10.7648
無くなり	-10.7657
揃	-10.766
試してみた	-10.7662
八	-10.7667
入れ替え	-10.7672
お礼	-10.7679
退	-10.7686
芋	-10.7686
スピード	-10.7686
気にならなく	-10.7691
軽量	-10.7703
くださり	-10.7715
予想以上	-10.7718
正常	-10.772
店頭	-10.772
症状	-10.7725
ことにします	-10.7728
震	-10.7734
キラキラして	-10.7735
宅配便	-10.7735
引っ越し	-10.7735
小型	-10.7736
しまえば	-10.7744
可愛らしく	-10.7745
が悪かったのか	-10.7748
期待していたのですが	-10.7753
司	-10.7754
薄かった	-10.7757
超え	-10.7759
致します	-10.7761
感じられません	-10.7768
やり方	-10.777
餅	-10.7773
気にせず	-10.7773
一般的な	-10.7775
写真の通り	-10.779
0.5	-10.7801
イラスト	-10.7802
異なり	-10.7807
集め	-10.7809
景	-10.7812
遮	-10.7812
反省	-10.7813
カッコイイ	-10.7823
入院	-10.7823
UP	-10.7833
意外に	-10.7842
条件	-10.785
喜んでくれる	-10.7856
並み	-10.7858
配慮	-10.7861
レンチ	-10.7861
験	-10.7866
パスタ	-10.7879
承知	-10.788
買うべき	-10.788
わからなかった	-10.7881
木目	-10.7882
良好	-10.7882
舞	-10.789
頭皮	-10.7898
ようになった	-10.7919
惜	-10.7919
忙しい	-10.7921
上がった	-10.7927
ものが届きました	-10.7932
意味がない	-10.7937
代金	-10.7938
んですよね	-10.7938
不評	-10.794
華	-10.7948
豚	-10.7948
あえて	-10.7951
値段を考えると	-10.7954
二の腕	-10.7959
冷凍庫	-10.796
二度目	-10.796
言え	-10.7963
惑	-10.7968
暖かさ	-10.797
かえって	-10.7971
避け	-10.7976
取付け	-10.7979
買ってしまった	-10.7985
----------------	-10.7988
付けられ	-10.799
スカスカ	-10.7998
レビューを書く	-10.8
メモリ	-10.8001
私には合わなかった	-10.8012
んでしょうね	-10.8017
買い物をした	-10.8018
良い商品だと思います	-10.8023
価格が安い	-10.8025
ぽっちゃり	-10.8028
成長	-10.8029
私には合いませんでした	-10.8031
パッキン	-10.8046
につられて	-10.8051
で買うより	-10.8054
薄すぎ	-10.8056
ver	-10.8056
ドライヤー	-10.8058
美味しそう	-10.8058
折りたたみ	-10.8068
友人の出産祝いに	-10.8071
ッパー	-10.8071
即決	-10.8072
つまみ	-10.8082
小銭	-10.8083
ほうが良い	-10.8084
摂	-10.8088
有りません	-10.8092
ネジ穴	-10.8095
することにしました	-10.8097
シャワー	-10.8098
冷たい	-10.8102
購入いたしました	-10.8103
催促	-10.8108
照明	-10.811
んですけどね	-10.8111
壊れてしまいました	-10.8113
サラダ	-10.8118
噛み	-10.8119
体系	-10.8125
フラワー	-10.8128
子供達	-10.813
補強	-10.8132
母の日	-10.8134
ゴルフ	-10.8136
700	-10.8137
齢	-10.8143
様子を見	-10.8151
局	-10.8167
織	-10.8167
お蔵入り	-10.8168
週末	-10.8169
すっぽり	-10.8171
持っていますが	-10.8172
をかける	-10.8178
柱	-10.8178
ほこり	-10.8178
拭いて	-10.8186
手数料	-10.8188
オーガニック	-10.8188
損した気分	-10.8189
有難うございました	-10.8189
速度	-10.8195
落とした	-10.82
引っ掛け	-10.8207
ホント	-10.821
値段が安かったので	-10.8211
音楽	-10.8219
静電気	-10.8229
材料	-10.8231
いただく	-10.8233
―	-10.8239
自己	-10.8239
砂糖	-10.824
歩きやすい	-10.8247
和室	-10.8251
思っていた以上に	-10.8252
布地	-10.8255
丈が短い	-10.8257
寿命	-10.8259
チョット	-10.8265
宅急便	-10.8269
ドラッグストア	-10.827
丸見え	-10.8271
仲	-10.829
迎	-10.829
の悪さ	-10.8294
つるつる	-10.83
開いた	-10.8302
表紙	-10.8302
言わ	-10.8304
提	-10.831
寄せ	-10.831
唯一	-10.8311
問題なく使用でき	-10.8317
する予定です	-10.8319
ブレス	-10.8319
紛失	-10.832
世界	-10.8321
配送業者	-10.8326
カートリッジ	-10.833
月下旬	-10.8331
実用的	-10.8332
二度目の購入です	-10.8337
よく見ると	-10.8353
とは思って	-10.8356
受注	-10.8361
真っ黒	-10.8361
ir	-10.8362
を想像して	-10.8364
微	-10.8371
島	-10.8372
怖	-10.8372
半袖	-10.8375
良品	-10.8375
訂正	-10.8382
エンジン	-10.8382
わかりやすい	-10.8398
妙	-10.8402
わかりにくい	-10.8405
厚みがあり	-10.841
気づき	-10.8414
▁to	-10.8415
持った	-10.8418
仕方ありません	-10.8421
維持	-10.8423
ヒモ	-10.8425
内容量	-10.8426
チューブ	-10.8434
厳	-10.8462
何にでも	-10.8472
リュ	-10.8477
日で届きました	-10.8481
馴染み	-10.8482
清	-10.8485
最安値	-10.8486
の付け根	-10.8486
覚悟して	-10.8488
パンパン	-10.8491
無くなったら	-10.8495
域	-10.8496
凝	-10.8496
燃	-10.8496
味わい	-10.8499
受信	-10.8501
フェイス	-10.8501
旧	-10.8506
迫	-10.8506
電子	-10.8514
不備	-10.8516
随分	-10.8518
道具	-10.8519
悔	-10.8521
協	-10.8527
答	-10.8537
楽しみに待って	-10.8538
結婚祝い	-10.8538
片付け	-10.8538
湿気	-10.856
中古品	-10.8568
弁	-10.8569
ひび割れ	-10.858
長袖	-10.8583
全然違います	-10.8585
ファンデ	-10.8587
溜	-10.859
潰れ	-10.859
暗め	-10.8596
ちぎれ	-10.8598
痛くなる	-10.8599
袖口	-10.8608
に出会え	-10.8612
甘味	-10.8613
牛乳	-10.8613
股上	-10.8621
BOX	-10.8621
即買い	-10.8624
借り	-10.8626
安く購入出来	-10.8629
おかしく	-10.8633
ァ	-10.8635
その旨	-10.8643
アメリカ	-10.8643
案	-10.8661
溝	-10.8664
報告	-10.8669
はやく	-10.867
中国産	-10.8671
クレンジング	-10.8674
馬	-10.8685
ガンガン	-10.8686
怖くて	-10.8688
ビタミン	-10.8696
こういった	-10.8696
技	-10.8696
ハーフ	-10.8706
ra	-10.8714
穴があいて	-10.8717
半信半疑	-10.8717
に関して	-10.8721
問題はない	-10.8725
もしかしたら	-10.873
到着も早く	-10.8749
偏	-10.8749
毛羽	-10.8754
相応	-10.8757
埋	-10.877
のが難点	-10.8771
に向けて	-10.8772
旬	-10.878
待った	-10.8791
無駄な買い物	-10.8793
久しぶり	-10.8795
片側	-10.8796
嫁	-10.8803
川	-10.8824
オリーブ	-10.8824
展開	-10.8824
映え	-10.8847
価格の割に	-10.8847
見つかり	-10.8859
一杯	-10.886
買ってみた	-10.8863
ラップ	-10.8864
佐川急便	-10.8867
味噌汁	-10.8867
はないかと	-10.8868
逃	-10.8878
ボトム	-10.8878
良心的	-10.8878
しかたない	-10.8885
お詫び	-10.8888
しょっぱ	-10.889
が壊れたので	-10.8894
おもい	-10.8909
すばらしい	-10.891
路	-10.891
ッキング	-10.8921
錠	-10.8921
拝	-10.8932
彫	-10.8932
熟	-10.8943
肘	-10.8954
貴	-10.9031
劇	-10.9042
賞	-10.9074
騙	-10.9084
曇	-10.9097
県	-10.9118
射	-10.9129
腫	-10.9185
伊	-10.9219
暴	-10.9241
我	-10.9251
麻	-10.9264
拡	-10.9309
及	-10.932
迄	-10.932
∇	-10.9332
粘	-10.9353
概	-10.9399
餌	-10.9422
停	-10.9434
ェ	-10.9454
浄	-10.9456
枝	-10.948
唇	-10.948
芝	-10.948
去	-10.9507
兼	-10.9519
焦	-10.9524
師	-10.9548
駄	-10.9552
却	-10.956
懐	-10.9607
繊	-10.9618
販	-10.9626
辞	-10.963
吹	-10.9657
吊	-10.9677
輸	-10.9685
⌒	-10.9712
僕	-10.9736
隣	-10.9759
殺	-10.976
露	-10.9771
鮮	-10.9778
謳	-10.9783
#	-10.9829
誠	-10.9841
芽	-10.9878
譲	-10.9902
福	-10.9958
演	-10.9962
層	-10.9986
胴	-10.9998
息	-11.0007
資	-11.0084
晶	-11.0132
煎	-11.0157
伸	-11.0214
致	-11.0257
南	-11.0268
毒	-11.0293
因	-11.0305
軸	-11.0305
漢	-11.033
界	-11.0392
狭	-11.0407
導	-11.0418
影	-11.0456
診	-11.0456
句	-11.0481
刈	-11.0507
氏	-11.0508
泳	-11.052
尿	-11.0557
偽	-11.0595
輩	-11.0597
炒	-11.0597
市	-11.0609
吉	-11.061
肝	-11.0635
項	-11.0674
邪	-11.0687
亡	-11.07
幼	-11.0713
扇	-11.0726
趣	-11.0791
攻	-11.0791
j	-11.0805
薦	-11.0805
沸	-11.0817
喉	-11.087
怪	-11.0896
悩	-11.0921
栓	-11.0936
改	-11.0944
云	-11.1016
紅	-11.1053
氷	-11.1056
到	-11.113
永	-11.1152
著	-11.1165
呆	-11.1165
勤	-11.1176
糊	-11.1178
肥	-11.1178
蜜	-11.1192
漂	-11.1192
夕	-11.1193
胃	-11.1219
危	-11.123
渉	-11.1233
使	-11.1256
遅	-11.1259
儀	-11.1261
忙	-11.13
竹	-11.1302
芸	-11.1329
門	-11.133
蝶	-11.1343
鉛	-11.1344
潰	-11.1421
飯	-11.1464
設	-11.1466
帳	-11.1548
此	-11.1581
狙	-11.161
貨	-11.1624
剃	-11.1652
q	-11.1681
双	-11.171
団	-11.1721
奨	-11.1724
徳	-11.1724
勇	-11.1753
炭	-11.1839
弟	-11.1869
謝	-11.1894
裸	-11.1898
農	-11.1912
祭	-11.1913
労	-11.1926
修	-11.194
凍	-11.1954
徴	-11.1957
垢	-11.1986
謎	-11.2001
管	-11.2029
|	-11.2046
谷	-11.2061
松	-11.2075
就	-11.2075
存	-11.2104
彩	-11.2105
仏	-11.212
陽	-11.2135
但	-11.215
区	-11.215
推	-11.2195
茎	-11.221
功	-11.2225
券	-11.224
ヽ	-11.2271
奮	-11.2286
湾	-11.2347
互	-11.2408
茹	-11.2454
告	-11.2477
幾	-11.2517
隔	-11.261
王	-11.2626
必	-11.2634
途	-11.2656
館	-11.2673
株	-11.2674
既	-11.2678
婦	-11.2705
採	-11.2737
郵	-11.2752
報	-11.2768
救	-11.2833
営	-11.284
桜	-11.2849
掴	-11.2865
寂	-11.2865
院	-11.2879
準	-11.288
響	-11.2881
尾	-11.2881
街	-11.2914
称	-11.2914
詳	-11.2927
胡	-11.293
睡	-11.2946
絡	-11.2947
且	-11.2978
象	-11.2993
宮	-11.2995
険	-11.2995
堂	-11.3011
候	-11.3027
鶏	-11.3044
丼	-11.3044
◯	-11.306
奇	-11.306
晴	-11.3061
尻	-11.3108
静	-11.3139
夢	-11.3143
旅	-11.3158
函	-11.3159
陶	-11.3159
撥	-11.3159
届	-11.3173
船	-11.3193
⇒	-11.3209
泥	-11.3209
只	-11.326
述	-11.3293
叩	-11.3293
≦	-11.3293
償	-11.331
憶	-11.3327
複	-11.3351
≧	-11.3395
倉	-11.3428
縄	-11.3446
濁	-11.3514
往	-11.3548
建	-11.3549
舌	-11.3549
誕	-11.3549
伴	-11.3618
褒	-11.3618
〇	-11.3618
貝	-11.3653
殻	-11.3688
唐	-11.3705
緒	-11.375
臓	-11.3775
珍	-11.3791
掻	-11.3811
朱	-11.39
塊	-11.3918
嬉	-11.3931
ぇ	-11.3966
蟹	-11.3971
旦	-11.3972
闘	-11.399
魔	-11.4026
皺	-11.4026
甥	-11.4062
求	-11.4073
欧	-11.408
◆	-11.4098
察	-11.4098
展	-11.4116
姜	-11.4117
興	-11.4117
肢	-11.4117
耗	-11.4171
棄	-11.4172
藤	-11.4172
宿	-11.4172
垂	-11.4185
如	-11.4208
併	-11.4234
廃	-11.4245
比	-11.4336
柔	-11.4337
免	-11.4338
境	-11.4338
寿	-11.4357
梱	-11.4373
慢	-11.4394
灰	-11.4395
校	-11.4431
舐	-11.4432
君	-11.4508
頬	-11.4565
沿	-11.4584
談	-11.4602
禁	-11.4622
磁	-11.466
栗	-11.4661
錆	-11.4716
爆	-11.4758
稼	-11.4758
昆	-11.4797
腸	-11.4836
酵	-11.4874
領	-11.4875
継	-11.4894
練	-11.4914
犯	-11.4915
戴	-11.4934
仰	-11.4975
抗	-11.4994
輝	-11.5014
籍	-11.5034
沖	-11.5035
典	-11.5074
繰	-11.5094
↑	-11.5115
穀	-11.5135
貸	-11.5155
ゞ	-11.5155
蛇	-11.5175
─	-11.5179
尖	-11.5237
嗅	-11.5298
操	-11.5317
痕	-11.5339
△	-11.534
究	-11.536
覧	-11.5401
努	-11.5402
蚊	-11.5402
←	-11.5422
膜	-11.5422
宛	-11.5443
覗	-11.5443
季	-11.5443
慣	-11.5444
刀	-11.5464
桃	-11.5485
М	-11.5506
噴	-11.5569
栄	-11.5569
獣	-11.559
巡	-11.5611
崩	-11.5616
◇	-11.5633
警	-11.5696
砕	-11.5717
泉	-11.5739
縛	-11.5804
企	-11.5824
掃	-11.5846
把	-11.5868
仔	-11.5869
姪	-11.5869
遜	-11.5891
ぢ	-11.5913
槽	-11.5929
珈	-11.6001
釘	-11.6022
創	-11.6023
蜂	-11.6045
養	-11.6045
糞	-11.6067
簡	-11.6087
跳	-11.6111
‐	-11.6133
緊	-11.6134
暇	-11.6156
挽	-11.6178
α	-11.6269
釈	-11.6291
駆	-11.6336
霧	-11.6428
酎	-11.6452
屑	-11.6475
英	-11.6497
臨	-11.6544
逸	-11.6544
賃	-11.6567
拾	-11.6614
蓄	-11.6638
軍	-11.6661
誇	-11.6661
申	-11.6685
任	-11.6708
剣	-11.6708
礼	-11.6727
柑	-11.6732
還	-11.678
愕	-11.6803
絹	-11.6804
尽	-11.6827
希	-11.6851
呑	-11.6876
腿	-11.6948
殊	-11.6948
添	-11.7013
魅	-11.7017
井	-11.7045
揮	-11.7045
拍	-11.7046
斑	-11.7119
》	-11.7143
煩	-11.7144
搬	-11.7168
敬	-11.7218
拒	-11.7243
滲	-11.7269
史	-11.7293
摩	-11.7318
冒	-11.7318
爽	-11.7392
《	-11.7393
副	-11.742
匂	-11.7438
評	-11.7463
礎	-11.747
透	-11.7506
拠	-11.7521
袴	-11.7522
阪	-11.7548
幹	-11.7573
舎	-11.7599
銘	-11.7625
焚	-11.7625
恋	-11.7677
貯	-11.7703
芳	-11.7729
宝	-11.7754
刊	-11.7756
鈍	-11.7756
〃	-11.7756
騒	-11.7782
溢	-11.7861
賀	-11.7862
眩	-11.7968
哀	-11.8022
姫	-11.8022
誘	-11.8022
昇	-11.8049
鋭	-11.8076
酔	-11.8076
Σ	-11.8076
竿	-11.8103
敗	-11.8157
踊	-11.8158
凄	-11.8228
占	-11.8267
ヵ	-11.829
乏	-11.8295
屈	-11.8351
坂	-11.8407
牧	-11.8407
猛	-11.8435
艸	-11.8436
剛	-11.8463
麗	-11.8463
癒	-11.8464
撃	-11.8492
将	-11.8492
脆	-11.852
碗	-11.852
授	-11.8547
穫	-11.8548
帽	-11.8602
眉	-11.8605
狂	-11.8662
駐	-11.8663
奏	-11.8692
о	-11.8721
佐	-11.8749
褪	-11.875
像	-11.8776
査	-11.8778
徹	-11.8778
昨	-11.8785
雲	-11.8808
岡	-11.8837
飴	-11.8837
矢	-11.8866
富	-11.8895
培	-11.8896
村	-11.8925
恥	-11.8925
惨	-11.8925
弦	-11.8925
宜	-11.8955
厄	-11.8955
恰	-11.8985
鑑	-11.9013
益	-11.9043
預	-11.9044
纏	-11.9044
ヾ	-11.9044
桐	-11.9074
彡	-11.9074
剰	-11.9104
伺	-11.9134
瞼	-11.9134
尋	-11.9164
曰	-11.9164
亜	-11.9165
俺	-11.9165
忌	-11.9225
僅	-11.9255
栽	-11.9256
□	-11.9256
略	-11.9317
橘	-11.9317
兎	-11.9317
勘	-11.9345
志	-11.9347
駅	-11.9347
森	-11.938
介	-11.9409
盗	-11.9409
σ	-11.9441
詮	-11.9471
坊	-11.9472
牡	-11.9503
胆	-11.9503
塞	-11.9534
請	-11.9534
淵	-11.9566
惚	-11.9566
族	-11.9569
訪	-11.9597
郎	-11.9597
━	-11.9629
般	-11.9652
模	-11.9657
由	-11.9658
援	-11.9661
以	-11.9712
顧	-11.9756
民	-11.9756
粋	-11.9788
繁	-11.9788
蕾	-11.9788
廊	-11.9788
健	-11.9853
堪	-11.9853
貫	-11.9885
博	-11.9886
銭	-11.9916
漬	-11.9925
源	-11.995
吟	-11.9984
承	-12.0081
招	-12.0083
了	-12.0115
龍	-12.0116
樹	-12.0215
岩	-12.0216
町	-12.025
騰	-12.025
漏	-12.0281
嵌	-12.0283
湧	-12.0284
威	-12.0317
避	-12.0327
翌	-12.0331
穏	-12.0352
ε	-12.0386
崎	-12.0386
九	-12.042
捜	-12.042
鎖	-12.042
斜	-12.0447
里	-12.0488
柿	-12.0489
票	-12.0557
怠	-12.0593
議	-12.0593
疲	-12.062
軒	-12.0628
辿	-12.0628
港	-12.0663
衿	-12.0698
顎	-12.0769
鬱	-12.0804
則	-12.084
惹	-12.0875
羨	-12.0876
婚	-12.0911
膏	-12.0912
蠣	-12.0912
没	-12.0948
拘	-12.0985
患	-12.1093
掘	-12.113
羊	-12.1205
喪	-12.1242
憂	-12.1279
暦	-12.1279
玩	-12.1279
椒	-12.1317
津	-12.1317
腎	-12.1392
募	-12.143
標	-12.1506
瞭	-12.1583
刷	-12.162
該	-12.1621
瞳	-12.1621
蘭	-12.166
舗	-12.1722
噂	-12.1738
遭	-12.1738
嵩	-12.1738
絨	-12.1777
麹	-12.1778
咳	-12.1816
岐	-12.1856
葬	-12.1896
鍛	-12.1896
柵	-12.1935
抵	-12.2015
霜	-12.2056
籠	-12.2057
遥	-12.2097
丁	-12.2132
揺	-12.2132
墨	-12.2137
講	-12.226
’	-12.2261
疹	-12.2301
罪	-12.2301
筈	-12.2302
奴	-12.2302
瞬	-12.2312
叶	-12.2343
柴	-12.2344
昧	-12.2385
羅	-12.2385
林	-12.2385
慮	-12.2426
徒	-12.2426
捕	-12.2426
亀	-12.2427
鮭	-12.2469
善	-12.2469
升	-12.2469
陸	-12.251
萎	-12.2511
豊	-12.2511
融	-12.2596
訓	-12.2596
渇	-12.2596
懸	-12.2681
撒	-12.2682
依	-12.2724
抽	-12.2724
秀	-12.2724
雛	-12.2768
頓	-12.2856
沢	-12.2897
敵	-12.2898
紗	-12.2899
釜	-12.2943
鈴	-12.2943
塵	-12.3076
喫	-12.3076
課	-12.3121
藻	-12.3166
♂	-12.3166
熊	-12.3166
敢	-12.3211
詞	-12.3211
策	-12.3256
億	-12.3256
滞	-12.3302
蹴	-12.3302
章	-12.3347
契	-12.3348
諸	-12.3349
搭	-12.344
洞	-12.344
鯛	-12.3534
填	-12.3534
召	-12.3581
丹	-12.3581
捲	-12.3581
鹿	-12.3628
冠	-12.3628
椎	-12.3723
侵	-12.377
憩	-12.3771
看	-12.3771
紋	-12.3817
稚	-12.3819
城	-12.3867
州	-12.3868
賢	-12.3916
焙	-12.3916
漆	-12.3916
賛	-12.3965
憤	-12.4014
浜	-12.4014
紛	-12.4014
搾	-12.4014
餡	-12.4014
圏	-12.4062
兵	-12.4063
捻	-12.4063
競	-12.4112
牌	-12.4113
武	-12.4162
♀	-12.4162
妊	-12.4212
促	-12.4212
砲	-12.4212
監	-12.4212
恵	-12.4262
菱	-12.4263
携	-12.4312
秘	-12.4312
宇	-12.4313
畑	-12.4364
疫	-12.4364
慌	-12.4414
儲	-12.4415
ヶ	-12.446
購	-12.4465
群	-12.4517
括	-12.4517
巨	-12.4569
繕	-12.4673
劫	-12.4726
甚	-12.4779
袱	-12.4779
廻	-12.478
宗	-12.4886
弊	-12.494
袢	-12.494
稽	-12.494
檀	-12.4994
江	-12.4994
〔	-12.4994
∩	-12.4994
揉	-12.5048
巣	-12.5048
廉	-12.5048
睫	-12.5048
須	-12.5048
箋	-12.5103
奪	-12.5158
醸	-12.5158
竜	-12.5158
築	-12.5211
嘔	-12.5213
〕	-12.5213
陥	-12.5213
訴	-12.5268
律	-12.5323
佃	-12.5325
伏	-12.538
遺	-12.5381
帆	-12.5381
護	-12.5436
桁	-12.5437
痺	-12.5437
嵐	-12.5494
紀	-12.5494
仙	-12.5494
賭	-12.5494
曖	-12.5551
宙	-12.5551
柚	-12.5608
橋	-12.5608
据	-12.5609
伯	-12.5609
杢	-12.5609
曹	-12.5666
椀	-12.5724
櫛	-12.5725
環	-12.5782
殖	-12.5783
譜	-12.5783
乙	-12.5784
詫	-12.5841
脳	-12.5841
捺	-12.5842
鬼	-12.5901
幻	-12.5901
膳	-12.5961
挫	-12.5961
忍	-12.602
虚	-12.6141
縞	-12.6141
菊	-12.6141
寺	-12.6142
雄	-12.6202
争	-12.6203
励	-12.6325
党	-12.6388
潔	-12.645
腱	-12.645
索	-12.645
゙	-12.6513
誌	-12.6638
与	-12.6652
催	-12.6704
属	-12.6766
摘	-12.6896
衝	-12.7031
豪	-12.7164
需	-12.7232
係	-12.7233
忘	-12.7777
壇	-12.7862
随	-12.7999
苔	-12.838
池	-12.8991
抑	-12.9152
馴	-12.9217
専	-12.9224
掲	-12.9338
錯	-12.9421
洒	-12.9592
菓	-13.0869
稿	-13.137
偶	-13.2116
条	-13.2117
披	-13.2227
揚	-13.2452
財	-13.2453
慎	-13.3284
殆	-13.3535
責	-13.3539
烈	-13.3796
範	-13.3797
趾	-13.4198
斗	-13.4335
普	-13.4469
玄	-13.4472
隙	-13.5034
躍	-13.5349
宣	-13.5349
寧	-13.6144
是	-13.6479
借	-13.6762
沙	-13.7373
抹	-13.7531
訂	-13.7754
択	-13.815
贅	-13.8354
捨	-13.8718
唯	-13.8756
愉	-13.8775
挑	-13.9442
箇	-13.9908
汰	-13.9913
赴	-14.0157
暫	-14.0392
濯	-14.0406
較	-14.0407
勧	-14.057
宴	-14.0664
那	-14.0927
韓	-14.1024
況	-14.1474
悟	-14.3671
飽	-14.4114
醤	-14.5598
詐	-14.56
維	-14.6033
呂	-14.6033
徐	-14.6035
裕	-14.7988
痩	-14.8387
紹	-14.9134
康	-14.9134
漫	-14.9135
己	-14.9759
械	-14.9759
央	-15.1122
僚	-15.1138
欺	-15.114
討	-15.5763
勉	-15.7012
窮	-15.7013
熨	-16.0109
控	-16.2025
綺	-16.211
奢	-16.2111
璧	-16.4609
鹸	-16.7935
膚	-16.7942
諦	-17.2906
襦	-17.2949
吠	-17.295
挨	-17.2951
拶	-17.2952
朴	-17.2953
哺	-17.2954
楕	-17.2955
毯	-17.2956
懲	-17.2957
淹	-17.2958
憧	-17.2959
汎	-17.296
践	-17.2961
唖	-17.2962
蕎	-17.2963
斐	-17.2964
琲	-17.2965
薔	-17.2966
薇	-17.2967
眺	-17.2968
叔	-17.2969
矯	-17.297
痢	-17.2971
餃	-17.2972
肪	-17.2973
躇	-17.2974
躊	-17.2975
遽	-17.2976
距	-17.2977
戚	-17.2978
妥	-17.2979
娠	-17.298
勿	-17.2981
噌	-17.2982
繍	-17.2983
̄	-17.2984
濡	-17.2985
椅	-17.2986
粧	-17.2987
燥	-17.2988
́	-17.2989
迅	-17.299
雰	-17.299
