<unk>	0
<s>	0
</s>	0
、	-3.23454
。	-3.35093
n	-3.37929
。\	-3.85059
の	-3.86424
が	-4.01042
で	-4.16464
は	-4.38826
に	-4.49738
も	-4.64297
\	-4.78299
を	-4.84392
と	-4.84943
です	-5.07115
,	-5.23146
▁	-5.29644
1	-5.45984
2	-5.55137
▁1,	-5.6758
し	-5.68712
▁2,	-5.76431
か	-5.80808
3	-5.85185
て	-5.86999
ので	-5.87305
でした	-5.87922
!	-5.89687
な	-5.91959
から	-5.94586
(	-5.9724
して	-6.06686
なので	-6.08031
cm	-6.08238
購入	-6.17642
ました	-6.22476
い	-6.22811
ですが	-6.26214
る	-6.27172
)	-6.31337
...	-6.33487
?	-6.33676
4	-6.34001
ます	-6.35531
でも	-6.35804
た	-6.36772
日	-6.41916
や	-6.4389
って	-6.44033
5	-6.44421
お	-6.46489
り	-6.48129
とても	-6.50315
▁2,,	-6.52176
ー	-6.52427
く	-6.5289
つ	-6.55727
サイズ	-6.57706
10	-6.62813
には	-6.63259
ス	-6.65869
!\	-6.65921
円	-6.68119
この	-6.68532
ら	-6.68755
月	-6.70431
ない	-6.70836
▁1,,	-6.71036
センチ	-6.71645
また	-6.72414
L	-6.77075
少し	-6.77843
本	-6.7811
購入しました	-6.80886
・・・	-6.82823
M	-6.85559
かな	-6.85719
した	-6.86874
する	-6.88117
6	-6.89774
年	-6.90299
〜	-6.90989
まだ	-6.92085
なら	-6.94485
着	-6.9581
と思います	-6.9606
ん	-6.96999
す	-6.97586
さ	-6.97632
色	-6.98863
個	-6.99264
しました	-7.00719
、\	-7.00925
より	-7.02095
き	-7.03438
A	-7.03559
・	-7.03947
いて	-7.05057
kg	-7.05329
だけ	-7.06857
7	-7.07085
けど	-7.09168
ちょっと	-7.09591
S	-7.09845
を購入	-7.10045
を購入しました	-7.11535
み	-7.12387
分	-7.12393
商品	-7.12683
もう	-7.13797
かなり	-7.14009
ル	-7.14732
8	-7.14962
リ	-7.16442
/	-7.16744
枚	-7.17539
まで	-7.17755
め	-7.18244
のですが	-7.19221
「	-7.21359
」	-7.21385
回	-7.21951
にも	-7.22642
中	-7.23054
いい	-7.2508
9	-7.25353
します	-7.26742
物	-7.26782
B	-7.2713
♪	-7.28144
ただ	-7.2877
ま	-7.29253
だったので	-7.29713
ね	-7.31312
う	-7.31887
発送	-7.32937
▁2,,2	-7.33169
くらい	-7.33926
ですね	-7.33976
一	-7.3417
▁2,,1	-7.34202
いた	-7.34334
あ	-7.34598
しか	-7.35118
足	-7.35213
カ	-7.3527
なく	-7.35742
▁2,2	-7.35912
注文	-7.35975
残念です	-7.38585
用	-7.39289
)\	-7.40618
だ	-7.41086
-	-7.41096
▁1,,1	-7.41741
良い	-7.41793
12	-7.42029
使用	-7.42063
だと	-7.42423
ク	-7.42655
では	-7.42795
います	-7.4339
▁1,,2	-7.44517
だった	-7.45012
ラ	-7.45463
という	-7.45929
。,	-7.46014
30	-7.46453
ましたが	-7.46617
いる	-7.46736
ません	-7.47166
ン	-7.4751
...\	-7.47557
50	-7.47586
っ	-7.49731
ず	-7.50106
20	-7.502
度	-7.50946
.	-7.51147
手	-7.51166
感じ	-7.52882
ト	-7.53184
ヶ月	-7.53334
ア	-7.53458
よ	-7.54059
イ	-7.54063
人	-7.55282
時	-7.5591
ド	-7.55942
こ	-7.56267
日に	-7.56397
▁1,2	-7.5672
ほど	-7.56755
?\	-7.56869
品	-7.56872
これ	-7.56916
▁1,1	-7.57217
T	-7.57231
☆	-7.57492
11	-7.58209
こと	-7.58296
え	-7.58614
ッ	-7.58649
対応	-7.58997
ため	-7.59291
よく	-7.59308
キロ	-7.602
コ	-7.60283
100	-7.6042
かわいい	-7.6054
水	-7.60644
いました	-7.60719
o	-7.60817
,1	-7.61057
あまり	-7.61481
でしたが	-7.61722
ないので	-7.61766
何	-7.62177
など	-7.6222
その	-7.62274
見	-7.63463
そう	-7.63545
大	-7.63641
レビュー	-7.63748
チ	-7.63863
たら	-7.64065
のか	-7.64139
目	-7.64569
事	-7.64836
点	-7.64948
そうです	-7.65732
数	-7.66057
すごく	-7.66195
良かったです	-7.66211
わ	-7.66291
った	-7.66488
よかったです	-7.66871
交換	-7.66935
!!	-7.66999
出	-7.67319
すぐに	-7.67584
なかった	-7.68634
もう少し	-7.69679
他の	-7.69952
連絡	-7.70436
用に	-7.70635
タ	-7.7084
ある	-7.70947
として	-7.70997
したら	-7.71389
使って	-7.72391
今回は	-7.72396
ば	-7.72592
,2	-7.72617
歳	-7.72727
ム	-7.73189
いつも	-7.73244
マ	-7.73313
笑	-7.73429
袋	-7.73795
だと思います	-7.73811
購入しましたが	-7.74044
ピンク	-7.7439
ご	-7.74437
-201	-7.74802
mm	-7.74825
時間	-7.74901
15	-7.74924
デザイン	-7.7608
!,	-7.76556
満足です	-7.766
セット	-7.76658
どう	-7.77172
40	-7.7792
やはり	-7.78091
後	-7.78171
黒	-7.78764
本当に	-7.78922
24	-7.79885
下	-7.79902
】	-7.80118
レ	-7.80358
0	-7.80413
全く	-7.80568
タイプ	-7.80644
同じ	-7.80773
白	-7.81827
安い	-7.82426
残念	-7.82511
キ	-7.82633
;	-7.83017
C	-7.83404
前に	-7.83482
ように	-7.83599
すぐ	-7.83684
購入した	-7.83714
のは	-7.83783
今回	-7.84101
あり	-7.84281
普段	-7.84296
使い	-7.84395
ると	-7.8445
かも	-7.84759
23	-7.84942
ロ	-7.85095
週間	-7.85175
上	-7.85393
今	-7.85603
メール	-7.85636
方	-7.86041
小さい	-7.86123
がある	-7.86158
のに	-7.86189
ませんでした	-7.86916
気	-7.86918
子	-7.87446
前	-7.87548
e	-7.87601
ブ	-7.87623
利用	-7.87633
になりました	-7.8827
んで	-7.8867
時に	-7.88678
m	-7.88851
せ	-7.89354
買って	-7.89607
大変	-7.89674
16	-7.89799
500	-7.89978
フ	-7.90006
プレゼント	-7.90295
とっても	-7.90587
【	-7.90682
るので	-7.91081
g	-7.91569
届いて	-7.91898
ようです	-7.92488
80	-7.92707
早く	-7.92897
感	-7.92969
いいです	-7.93312
s	-7.93369
E	-7.93583
になる	-7.9422
味	-7.9442
ますが	-7.94624
履いて	-7.94661
25	-7.94732
私は	-7.94923
もっと	-7.9517
これは	-7.95213
け	-7.95775
購入して	-7.95821
いたので	-7.95988
すると	-7.96345
違う	-7.96354
ツ	-7.96637
とか	-7.97091
使う	-7.97095
にしました	-7.97337
大きい	-7.97649
しています	-7.97658
60	-7.9778
13	-7.97972
プ	-7.97981
サ	-7.98038
届きました	-7.98301
の方が	-7.9833
シ	-7.98928
号	-7.99039
もの	-7.99662
所	-8.00118
しましたが	-8.00555
だし	-8.00829
買い	-8.01093
サイズが	-8.01122
、1	-8.0128
バ	-8.01409
リピート	-8.01692
ウ	-8.01806
やっぱり	-8.01853
確認	-8.02023
あと	-8.0257
れ	-8.03224
外	-8.03675
なし	-8.03806
できる	-8.03854
と思い	-8.04399
値段	-8.04796
ところ	-8.04807
箱	-8.04863
商品は	-8.05165
ような	-8.05249
と思いました	-8.05255
ミ	-8.05366
▁2,,3	-8.05489
ビ	-8.05962
パ	-8.06228
ち	-8.06437
いるので	-8.06456
よかった	-8.06524
買いました	-8.06866
リピ	-8.07556
良かった	-8.08055
14	-8.0811
へ	-8.08241
ブラック	-8.08393
む	-8.08432
があり	-8.08674
と思って	-8.08896
体	-8.09238
ケース	-8.09242
こちらの	-8.09642
価格	-8.09714
サイズは	-8.09798
i	-8.09822
ポイント	-8.09834
でしょう	-8.09944
れば	-8.09962
入れ	-8.10025
18	-8.10082
17	-8.10116
位	-8.10277
なのに	-8.10304
色は	-8.10434
カバー	-8.10442
部分が	-8.10914
グレー	-8.10958
もなく	-8.10987
期待	-8.11164
a	-8.11185
している	-8.11207
メ	-8.11213
ズ	-8.11504
先	-8.11749
G	-8.1191
D	-8.12164
なくて	-8.12393
高い	-8.12435
ジ	-8.12808
ナ	-8.13434
90	-8.13786
可愛い	-8.13855
通り	-8.13992
エ	-8.14181
々	-8.14293
っと	-8.14822
型	-8.15581
★	-8.15899
代	-8.15904
しない	-8.16012
ベージュ	-8.16162
私	-8.16244
たい	-8.16516
色も	-8.1665
返品	-8.16873
到着	-8.17152
等	-8.17234
たので	-8.17306
量	-8.17437
届いた	-8.1785
良く	-8.17931
になって	-8.17984
22	-8.18135
程	-8.18231
▁1,,3	-8.18411
...。	-8.18453
:	-8.18473
,3	-8.18709
だから	-8.19413
19	-8.19634
なかなか	-8.19829
柄	-8.20031
26	-8.20128
27	-8.2043
台	-8.2147
力	-8.2189
1000	-8.21972
面	-8.22935
取り付け	-8.22943
▁2,3	-8.2338
ぶ	-8.23447
なかったので	-8.23523
ガ	-8.23714
ありがとうございました	-8.23726
以上	-8.23739
O	-8.23892
よう	-8.23981
充電	-8.24139
かわいいです	-8.24264
しかし	-8.24267
くて	-8.24285
!!\	-8.24523
いましたが	-8.24594
だけで	-8.24675
ないと	-8.24814
しても	-8.25003
入って	-8.25106
さん	-8.25128
食べ	-8.2523
、2	-8.25295
カラー	-8.25363
ありません	-8.2548
?,	-8.25514
今まで	-8.26069
結構	-8.26123
ぐらい	-8.26301
きました	-8.26468
70	-8.26488
特に	-8.26679
残念でした	-8.26727
び	-8.26811
しっかり	-8.269
・・	-8.27039
配送	-8.27559
毎日	-8.27619
▁1,3	-8.2764
回目	-8.27806
評価	-8.27979
小	-8.2804
んですが	-8.28047
とも	-8.28119
ニ	-8.28138
全然	-8.28237
しかも	-8.28242
洗濯	-8.2831
I	-8.28426
とは	-8.28816
ブルー	-8.28962
ウエスト	-8.29219
倍	-8.29295
前回	-8.29483
形	-8.29502
作り	-8.30072
じ	-8.30131
。。。	-8.30321
テ	-8.30381
つけ	-8.3064
買った	-8.30683
か月	-8.30741
色が	-8.30892
着用	-8.30928
リー	-8.30938
満足	-8.30982
気持ち	-8.31081
ど	-8.31119
付き	-8.31143
...,	-8.31321
履き	-8.3146
付け	-8.31524
二	-8.31901
毛	-8.32135
ろ	-8.3223
れて	-8.32267
内	-8.32635
初めて	-8.32704
になります	-8.3276
ピッタリ	-8.32986
長く	-8.33494
これで	-8.33763
以前	-8.33788
なのか	-8.33863
28	-8.34045
写真	-8.34745
車	-8.3489
大きく	-8.34912
私の	-8.35187
ケ	-8.35265
良いです	-8.35412
サイズで	-8.35784
薄い	-8.35786
予定	-8.36139
なる	-8.36548
通	-8.36792
げ	-8.36823
入り	-8.36854
ット	-8.37085
自分で	-8.37195
ないです	-8.37325
気に入って	-8.37753
これから	-8.37817
生地	-8.37943
匹	-8.38045
グ	-8.38111
質	-8.38147
状態	-8.38342
-2015	-8.3866
そ	-8.38676
K	-8.38686
を購入しましたが	-8.38733
P	-8.38904
ぴったり	-8.39356
それ	-8.39378
モ	-8.39396
性	-8.39578
らない	-8.39678
あった	-8.39684
ダメ	-8.39742
セ	-8.40085
私には	-8.40157
商品が	-8.40218
▁2,1	-8.40402
w	-8.40417
なり	-8.40573
しません	-8.4084
×	-8.40912
ずっと	-8.40958
結局	-8.4114
なって	-8.41222
にして	-8.41313
服	-8.41381
番	-8.4163
のでしょうか	-8.41844
オ	-8.41894
星	-8.41978
こんな	-8.42186
よい	-8.42218
長い	-8.42476
ショップ	-8.4249
ホワイト	-8.42597
口	-8.42675
ベルト	-8.4302
大きめ	-8.43039
生	-8.43039
赤	-8.43164
音	-8.43288
ゴム	-8.43524
種類	-8.43586
スト	-8.43592
たくさん	-8.43933
同	-8.43971
きて	-8.43982
用に購入しました	-8.4404
店	-8.44144
送料無料	-8.44381
大満足です	-8.44465
画像	-8.44508
素材	-8.44782
になり	-8.44808
方が	-8.44876
電話	-8.45175
不	-8.45293
すぎ	-8.45335
しい	-8.45531
間	-8.45563
見て	-8.45586
ック	-8.45586
のかな	-8.45657
デ	-8.45792
ではなく	-8.46236
ちゃんと	-8.46266
まず	-8.46674
~	-8.46693
デザインは	-8.46891
取り	-8.47008
ネイビー	-8.47034
一番	-8.47163
追記	-8.47205
指	-8.47405
買う	-8.47473
たり	-8.47556
円で	-8.47627
やすい	-8.47676
傷	-8.47725
思ったより	-8.47841
長	-8.48182
21	-8.48538
若干	-8.48846
55	-8.48988
地	-8.48993
W	-8.49019
持ち	-8.49135
回目の購入です	-8.49274
非常に	-8.49307
肩	-8.49398
注文した	-8.49572
よりも	-8.49692
なんて	-8.49839
そのまま	-8.49842
大きさ	-8.49842
イン	-8.50176
すぎて	-8.50227
的に	-8.5049
効果	-8.5053
歳の	-8.50562
のもの	-8.50611
大丈夫	-8.50728
ダ	-8.51426
紙	-8.51581
為	-8.51583
でしょうか	-8.51822
u	-8.51956
身長	-8.51965
b	-8.52032
200	-8.52347
かった	-8.52429
パンツ	-8.5246
と思う	-8.52531
&#	-8.52563
問い合わせ	-8.52669
29	-8.5291
75	-8.5322
切れ	-8.5325
できない	-8.53336
R	-8.53355
丈	-8.53427
使える	-8.53527
のような	-8.5354
ブラウン	-8.5357
いない	-8.54119
食	-8.54246
結果	-8.54397
別	-8.54561
生地は	-8.54868
月に	-8.54893
ています	-8.54923
感じです	-8.55038
ぐ	-8.55305
k	-8.55377
気に入りました	-8.55984
石	-8.56162
・・・,	-8.56283
らず	-8.56325
喜んで	-8.5633
ノ	-8.56413
思い	-8.5647
問題	-8.56658
ようで	-8.56773
問題なく	-8.56958
ポ	-8.57035
心配	-8.57082
じゃない	-8.57412
使用して	-8.57598
着て	-8.577
63	-8.57771
れる	-8.57886
そして	-8.58097
入る	-8.58224
方は	-8.58272
楽	-8.58605
裏	-8.58821
バー	-8.58872
ている	-8.5895
送料	-8.59224
生地が	-8.59298
ボ	-8.59394
ミリ	-8.59413
くる	-8.59421
いますが	-8.59428
不良品	-8.59439
ゴ	-8.59847
てしまいました	-8.59902
23.5	-8.59933
つき	-8.59953
余裕	-8.60154
時は	-8.6019
子供	-8.60291
おり	-8.60484
しまい	-8.60707
ネ	-8.60726
ほ	-8.61035
いたら	-8.61135
靴	-8.61199
ちょうど	-8.61211
幅	-8.61239
届く	-8.61414
できました	-8.61457
組み立て	-8.61463
見える	-8.61985
ライト	-8.61996
グリーン	-8.62144
不安	-8.62218
頭	-8.62239
中に	-8.62362
一度	-8.6237
なくなりました	-8.62417
とのこと	-8.62676
こんなに	-8.62678
商品の	-8.62736
かったです	-8.62876
されて	-8.63051
ピ	-8.63483
母	-8.6363
ハ	-8.63833
んだ	-8.63865
してます	-8.63875
肌	-8.64004
なぁ	-8.64216
された	-8.64279
本体	-8.64356
31	-8.64404
注文しました	-8.64684
購入し	-8.64863
日で	-8.64989
半	-8.65005
普通の	-8.65174
みたら	-8.65566
必要	-8.65814
書いて	-8.65862
嬉しいです	-8.65955
自分	-8.65993
▁́	-8.65997
45	-8.66063
デザインも	-8.66147
程度	-8.66171
かと	-8.66275
ときに	-8.66278
ても	-8.66366
にくい	-8.66405
出来	-8.66616
48	-8.66951
を買いました	-8.66961
を見て	-8.67162
やすく	-8.67458
65	-8.67515
品質	-8.67581
内容	-8.67585
入	-8.67737
p	-8.67769
欲しい	-8.67785
実	-8.67962
ポケット	-8.67984
十分	-8.68021
+	-8.68081
ではない	-8.68179
用の	-8.68329
やっと	-8.68409
一つ	-8.68492
ール	-8.68709
粒	-8.6872
うーん	-8.68721
早速	-8.68727
正直	-8.68946
ながら	-8.68971
かもしれません	-8.68998
ひ	-8.69017
部	-8.69145
度目の購入です	-8.69345
予約	-8.69363
化	-8.69453
巻	-8.69504
梱包	-8.69545
助かりました	-8.69574
まり	-8.69623
がっかり	-8.69787
高	-8.70189
重	-8.70192
ター	-8.70243
仕方ない	-8.70248
ぼ	-8.70304
お店	-8.7038
みると	-8.70414
▁2,,4	-8.70478
53	-8.70489
行	-8.70547
できません	-8.70588
満足しています	-8.70662
安く	-8.70728
りました	-8.70799
落ち	-8.70815
ふ	-8.70974
みて	-8.71008
合	-8.71232
夜	-8.71518
していて	-8.71606
され	-8.71716
きた	-8.71931
朝	-8.71956
元	-8.72038
こちらで	-8.7207
36	-8.72166
現在	-8.72729
直	-8.72747
受注番号	-8.72952
履く	-8.72956
はありません	-8.72967
違い	-8.73173
→	-8.73284
バッグ	-8.73292
&	-8.73391
%	-8.73417
強	-8.73455
あげ	-8.73524
リング	-8.73668
便利	-8.74033
サイズを	-8.74079
ものが	-8.74233
木	-8.74399
髪	-8.74404
短い	-8.74454
家族	-8.74516
雑	-8.74529
サイズの	-8.74529
かなぁ	-8.74611
助かります	-8.7474
みたいです	-8.74792
風	-8.74863
好み	-8.74879
しまいました	-8.74918
LL	-8.74922
小さめ	-8.74965
になった	-8.75116
気に	-8.7517
段	-8.75507
ッと	-8.75574
小さく	-8.76011
夏	-8.76077
62	-8.76122
可愛いです	-8.7626
ゆったり	-8.76453
割	-8.76644
だろう	-8.76688
だけど	-8.76762
ぎ	-8.76845
入荷	-8.76966
つけて	-8.77199
届き	-8.77209
しまう	-8.77362
があるので	-8.77445
気に入っています	-8.77551
のため	-8.77707
バック	-8.77713
販売	-8.77841
細身	-8.78083
部屋	-8.78179
。"	-8.78248
しまって	-8.7837
ること	-8.78522
t	-8.78541
買い物	-8.78641
シャ	-8.78737
ほとんど	-8.78767
とき	-8.79036
アップ	-8.79071
早い	-8.79119
120	-8.79189
CD	-8.79352
製品	-8.79498
発	-8.79645
っぽい	-8.79666
好き	-8.797
新	-8.79851
のみ	-8.79881
どこ	-8.8001
普通	-8.80014
使っています	-8.80037
まぁ	-8.80076
安くて	-8.80099
部分	-8.80149
38	-8.8018
きます	-8.80265
穴	-8.80378
あたり	-8.80518
と言う	-8.8054
首	-8.80552
腰	-8.80616
ロー	-8.80667
普通に	-8.80737
約	-8.80781
とにかく	-8.80904
見た目	-8.8105
収納	-8.811
かと思います	-8.81165
したいと思います	-8.8123
▁1,,4	-8.8141
商品を	-8.81516
仕事	-8.8154
こちらは	-8.81574
引き	-8.81639
袖	-8.81746
せて	-8.81771
もあり	-8.81777
替え	-8.81844
別の	-8.81942
としては	-8.81948
最近	-8.82002
汚れ	-8.821
耐久性	-8.82111
良かったので	-8.82142
飲み	-8.82228
日の	-8.82301
考え	-8.82312
じゃ	-8.82348
お腹	-8.82443
サイズも	-8.8254
使え	-8.82566
したところ	-8.8257
いたのですが	-8.8264
注文して	-8.82646
着る	-8.82755
すれば	-8.8276
そうな	-8.82769
センチの	-8.83138
ことが	-8.83151
がありました	-8.83287
_	-8.83368
^^	-8.83388
製	-8.83388
スカート	-8.83456
無い	-8.83513
在庫	-8.83614
,5	-8.83617
書	-8.83824
きちんと	-8.83824
自分の	-8.83885
47	-8.84076
ギ	-8.84197
あります	-8.84256
めて	-8.84319
冬	-8.84423
24.5	-8.84509
今日	-8.84572
が少し	-8.84581
全部	-8.84843
シャツ	-8.84857
られる	-8.85143
気がします	-8.85183
ベ	-8.85216
y	-8.8532
安いので	-8.85456
(^	-8.85477
当	-8.85551
作	-8.85564
ソ	-8.85737
なかったです	-8.85751
悪い	-8.85897
52	-8.85897
"	-8.86027
みたいな	-8.861
ボタン	-8.86103
*	-8.86111
F	-8.86202
今後	-8.86206
体型	-8.86228
記載	-8.86274
表示	-8.86337
N	-8.86439
全て	-8.86449
調整	-8.86453
インチ	-8.86461
イメージ	-8.86517
感が	-8.86518
花	-8.86555
付	-8.86694
H	-8.86824
いません	-8.87009
▁2,,5	-8.87018
XL	-8.87058
d	-8.87104
37	-8.87107
感じで	-8.87125
色々	-8.87178
伸び	-8.87265
系	-8.874
ありました	-8.87454
普段は	-8.8751
させて	-8.87566
できて	-8.87586
したい	-8.87625
と同じ	-8.87628
肉	-8.87696
日に注文して	-8.87732
ヒール	-8.87739
香り	-8.87791
ぴったりでした	-8.87791
食べて	-8.87824
パック	-8.87837
ほぼ	-8.87881
出来る	-8.87963
ばかり	-8.87983
式	-8.87985
機能	-8.87988
300	-8.8803
布団	-8.88119
なん	-8.88293
すぎる	-8.88326
おまけ	-8.88452
簡単に	-8.88489
生地も	-8.88626
メーカー	-8.8871
待って	-8.88952
再	-8.88961
を使って	-8.89075
主人	-8.89092
・・・。	-8.89103
があって	-8.89129
紐	-8.89132
確かに	-8.89154
多少	-8.89198
体重	-8.89209
パン	-8.8922
しまいます	-8.89263
54	-8.89267
,4	-8.89342
32	-8.89412
光	-8.89545
臭い	-8.89589
お得	-8.896
キロの	-8.89624
合わせ	-8.89718
みたい	-8.898
希望	-8.89938
なければ	-8.89963
装着	-8.89983
??	-8.90021
底	-8.90167
無理	-8.90244
▁1,,10	-8.90316
買いましたが	-8.90398
があった	-8.90479
l	-8.90573
感じました	-8.90668
の商品	-8.9072
好きな	-8.90748
お値段	-8.9092
やや	-8.90923
ペ	-8.9096
通常	-8.91008
無	-8.91021
のある	-8.91074
39	-8.91104
者	-8.91255
経	-8.91265
息子	-8.91276
足が	-8.91284
皮	-8.91508
旅行	-8.91529
カー	-8.91578
ネット	-8.91667
べ	-8.91774
靴下	-8.91776
掛け	-8.91897
次	-8.91942
子ども	-8.91949
無し	-8.91955
ませんが	-8.91976
購入したのですが	-8.91984
られて	-8.92024
抜け	-8.92146
ものを	-8.92188
頃	-8.9221
ブラ	-8.92512
の部分が	-8.92551
座	-8.92646
端	-8.92718
難	-8.9284
脚	-8.92869
キー	-8.92903
の方	-8.92908
しばらく	-8.93005
この商品	-8.93211
ライン	-8.93238
持って	-8.93332
他	-8.93336
なりました	-8.93408
していた	-8.93462
=	-8.9356
出て	-8.93587
があります	-8.93616
猫	-8.93682
メール便	-8.93764
−	-8.93873
したので	-8.93888
の娘に	-8.94062
値段が	-8.94213
なのですが	-8.94248
▁1,,5	-8.94311
可愛くて	-8.94709
差	-8.94738
濃い	-8.94783
オレンジ	-8.94788
腕	-8.94918
49	-8.94931
大人	-8.94964
三	-8.95056
こちら	-8.9506
くらいの	-8.95079
中の	-8.95085
と思っています	-8.95173
弱	-8.95203
ということで	-8.95228
金	-8.95349
まったく	-8.95386
過ぎ	-8.9543
わり	-8.95598
使えない	-8.95697
』	-8.95746
『	-8.95746
クリーム	-8.95751
ヤ	-8.95822
ピッタリでした	-8.95877
びっくり	-8.95913
簡単	-8.95951
上げ	-8.96028
良いと思います	-8.96137
41	-8.96259
布	-8.96262
ハイ	-8.96593
ゴールド	-8.96729
35	-8.96771
楽天	-8.96917
えて	-8.96977
ホ	-8.9709
まだ届きません	-8.97123
込み	-8.97136
全体的に	-8.97219
ブーツ	-8.97273
サイズを購入しました	-8.97345
マット	-8.97369
かかる	-8.97388
正	-8.97398
っている	-8.9742
線	-8.97421
デザインが	-8.97434
半分	-8.97435
履け	-8.97445
でき	-8.9752
印象	-8.97662
側	-8.97665
表	-8.97681
期待して	-8.97721
意味	-8.97751
身	-8.97789
わからない	-8.97824
私が	-8.97843
全	-8.97848
均	-8.97861
される	-8.97899
のお	-8.97907
な感じ	-8.97908
切り	-8.97941
V	-8.98082
部分の	-8.98161
太もも	-8.98296
美味しい	-8.98411
色の	-8.9847
日目	-8.98578
だったら	-8.98619
指定	-8.98647
即	-8.98669
色合い	-8.9877
ついて	-8.98808
安心して	-8.98829
取	-8.98903
再度	-8.99064
ップ	-8.99079
説明	-8.99083
足の	-8.99187
気が	-8.99218
来	-8.99236
いいと思います	-8.99269
丸	-8.9928
無く	-8.99325
気分	-8.99385
薄	-8.9943
42	-8.99492
パー	-8.99621
カット	-8.99693
円の	-8.99717
届くの	-8.99719
もらえ	-8.99753
だけに	-8.99829
ちゃん	-8.99866
飲んで	-9.00043
01	-9.00084
品物	-9.00105
届きません	-9.00122
青	-9.00161
ティ	-9.00212
色で	-9.00273
のメール	-9.00323
会	-9.00435
細	-9.00438
一緒に	-9.00626
するので	-9.00666
とりあえず	-9.00746
丁度	-9.00775
03	-9.00846
できます	-9.00867
ちょうどいい	-9.01026
革	-9.01037
00	-9.01111
カード	-9.01126
ないし	-9.01201
はとても	-9.01279
と言って	-9.01303
なった	-9.01332
角	-9.01424
何か	-9.01471
まって	-9.01509
包装	-9.01628
残念な	-9.01662
使った	-9.0171
ありませんでした	-9.01756
場所	-9.01851
ということ	-9.02001
るのが	-9.02056
その後	-9.02288
実際	-9.02368
顔	-9.02509
73	-9.02511
後ろ	-9.02515
せず	-9.02569
注意	-9.02644
周り	-9.02699
付けて	-9.02712
効果は	-9.02754
うちの	-9.02939
見た	-9.02965
はず	-9.0299
つか	-9.03023
なります	-9.03323
板	-9.03409
様	-9.03641
シート	-9.03647
機	-9.03694
感じます	-9.03765
速	-9.0385
64	-9.03859
たいと思います	-9.03934
丈が	-9.04061
凄く	-9.04182
るし	-9.04206
58	-9.04355
の物	-9.04426
を入れて	-9.04426
解	-9.04447
▁2,,10	-9.0445
説明書	-9.04453
気になる	-9.04545
もある	-9.0458
待ち	-9.04703
用に購入	-9.04716
が多い	-9.0472
キャンセル	-9.04733
ちなみに	-9.04777
をして	-9.04789
サイズを購入	-9.04872
みた	-9.04926
150	-9.04936
タオル	-9.0508
物を	-9.05168
が悪い	-9.05175
リン	-9.0521
まる	-9.05243
そんなに	-9.05479
なんか	-9.05504
けれど	-9.05699
臭	-9.05757
便利です	-9.05764
56	-9.058
X	-9.05804
さらに	-9.0602
取れ	-9.06031
寝	-9.06237
ります	-9.06283
嫌	-9.06295
裾	-9.06439
最悪	-9.06581
状態で	-9.06659
06	-9.067
いく	-9.06765
面倒	-9.06781
厚み	-9.06838
そこ	-9.06916
ことを	-9.07209
多	-9.07247
使用する	-9.07343
フード	-9.07399
カップ	-9.07468
ところが	-9.0757
しっかりしていて	-9.07624
コー	-9.0765
されている	-9.0775
(^^)	-9.0782
は少し	-9.07829
感想	-9.07841
ガッカリ	-9.07844
返	-9.0786
レッド	-9.0787
時の	-9.08034
手に	-9.0828
外れ	-9.08294
話	-9.08488
いつ	-9.08501
しまった	-9.08553
横	-9.08632
ディ	-9.08703
気に入ってます	-9.08745
家	-9.08863
幅広	-9.08867
たいです	-9.08873
を探していました	-9.08889
,"	-9.08941
大きな	-9.08975
にしましたが	-9.09019
ではありません	-9.09161
キロで	-9.09257
ずつ	-9.0933
がない	-9.09331
安	-9.09386
こちらの商品	-9.09454
シール	-9.09727
43	-9.09782
購入する	-9.09894
的な	-9.10019
がなく	-9.10202
商品です	-9.10265
他の方のレビュー	-9.10275
軽くて	-9.1029
思っていたより	-9.10388
てしまう	-9.10403
110	-9.10413
商品も	-9.10416
あるので	-9.10419
急	-9.10537
ライ	-9.10646
かけ	-9.10664
有り	-9.10752
レビューを	-9.10785
気に入った	-9.1104
のように	-9.11208
動	-9.11261
入れて	-9.1128
見え	-9.11328
薄く	-9.11411
09	-9.11485
際	-9.11593
ずに	-9.11668
重い	-9.11698
物が	-9.11858
位置	-9.11885
ml	-9.11923
場	-9.12187
U	-9.12204
シルエット	-9.12204
タイプの	-9.12233
れた	-9.1227
がっかりです	-9.12307
すること	-9.12352
で購入	-9.12455
的には	-9.12463
これを	-9.12543
温	-9.12782
つく	-9.12815
と思いましたが	-9.12841
匂い	-9.12876
残り	-9.13094
イマイチ	-9.13194
いないので	-9.13252
調	-9.13265
糸	-9.13283
ヶ月で	-9.13284
いいですね	-9.13356
との事	-9.13488
値段も	-9.13535
100%	-9.13603
悪く	-9.13715
綺麗な	-9.13744
おすすめ	-9.13789
低	-9.13856
ワ	-9.13877
綺麗に	-9.13914
電	-9.13965
玉	-9.13998
ネットで	-9.14038
バッテリー	-9.1419
???	-9.14227
比べ	-9.14237
引	-9.14271
穴が	-9.14325
胸	-9.14337
割れ	-9.14481
130	-9.14534
こう	-9.14622
ざ	-9.14626
のほうが	-9.14639
何度も	-9.14717
があれば	-9.14751
金額	-9.14868
回目の	-9.14877
ちゃ	-9.14933
が入って	-9.15083
今は	-9.15165
46	-9.15207
値段相応	-9.15209
となって	-9.15355
いまいち	-9.15371
届かない	-9.15441
子供が	-9.15487
立	-9.15501
[	-9.15542
リボン	-9.15558
売り切れ	-9.15586
72	-9.15632
高く	-9.1565
出して	-9.15665
まま	-9.15774
が届きました	-9.15793
後に	-9.15824
太	-9.15842
味が	-9.15868
箇所	-9.15878
前の	-9.15881
いただけ	-9.15957
ロン	-9.15996
要	-9.16015
と思った	-9.16031
していました	-9.16046
ひどい	-9.16051
表記	-9.16059
間に	-9.16168
たのですが	-9.16463
残念ながら	-9.16496
使用しています	-9.16497
なの	-9.16524
個目	-9.16569
点灯	-9.1659
甲	-9.16599
安心	-9.16727
納得	-9.16736
送	-9.16835
スマホ	-9.1708
02	-9.17128
がとても	-9.17138
売って	-9.17186
友人	-9.17284
実際に	-9.17311
変	-9.17327
への	-9.17398
それでも	-9.17467
今年	-9.17488
の方は	-9.17493
黄色	-9.17518
と一緒に	-9.17653
57	-9.17727
計	-9.17867
くれる	-9.17908
みましたが	-9.17946
76	-9.18056
ひとつ	-9.18072
ート	-9.18134
送って	-9.1819
コン	-9.18204
したのですが	-9.1833
わかり	-9.18359
-08	-9.18386
きつい	-9.18509
っぱ	-9.18606
ヨ	-9.1864
ありがとうございます	-9.18642
変え	-9.18755
ください	-9.18781
もちろん	-9.18814
51	-9.18816
あって	-9.18865
が出	-9.18865
オススメ	-9.18883
長さ	-9.18908
親	-9.18953
に注文して	-9.18982
68	-9.18988
高さ	-9.19078
みました	-9.19099
59	-9.19473
付いて	-9.19484
注文しましたが	-9.19492
試	-9.19497
980	-9.19573
音が	-9.19631
以外	-9.19637
書き	-9.19665
追加	-9.19711
..	-9.19782
購入してみました	-9.19856
何も	-9.19869
たち	-9.19918
-02	-9.1993
カ月	-9.19978
わかりませんが	-9.2001
女性	-9.2007
名	-9.20082
開けて	-9.20116
欲しかった	-9.20164
も良く	-9.20197
空	-9.20248
早	-9.20261
ラン	-9.20349
が出て	-9.20369
クッション	-9.20384
お尻	-9.2044
画面	-9.20454
感じでした	-9.20547
歳の息子	-9.20583
すごい	-9.20592
いです	-9.20624
かもしれませんが	-9.20652
の購入	-9.20721
枚目	-9.20766
畳	-9.20941
粉	-9.20942
ボリューム	-9.20945
ング	-9.2097
レース	-9.21063
見えます	-9.21186
楽しみです	-9.21248
時期	-9.21252
はない	-9.21288
油	-9.21298
コンパクト	-9.213
わけ	-9.21374
続けて	-9.21379
-1	-9.21428
78	-9.21437
せい	-9.21437
部分は	-9.21451
方には	-9.21621
まあ	-9.21643
リピです	-9.2179
有	-9.22011
○	-9.22021
液	-9.22025
ファスナー	-9.22053
固	-9.22125
っています	-9.22139
レベル	-9.2223
-01	-9.22252
の中で	-9.22278
ヒ	-9.223
x	-9.22386
歩き	-9.22434
電池	-9.22581
本日	-9.22632
-06	-9.22661
最	-9.22742
出来て	-9.23004
買わない	-9.23022
荷物	-9.23049
くらいで	-9.23069
素	-9.23108
熱	-9.23115
ゆ	-9.23139
歳の娘に	-9.23206
-03	-9.23223
履いた	-9.23226
張り	-9.23243
るのに	-9.23308
してる	-9.23322
味は	-9.23418
-04	-9.23429
失敗	-9.23446
上に	-9.23535
タン	-9.2355
を探して	-9.23566
回目の購入	-9.23664
使ってます	-9.23696
苦	-9.23753
運	-9.2383
お気に入り	-9.2384
美味しく	-9.23851
お試し	-9.24059
初	-9.24109
を買って	-9.24205
ケーブル	-9.24214
土	-9.24217
やって	-9.24421
-09	-9.24425
白い	-9.24495
合う	-9.24551
ものの	-9.24554
ときは	-9.24581
77	-9.2463
単	-9.24721
^)	-9.24725
ラッピング	-9.24776
みます	-9.24792
連絡が	-9.24823
決	-9.2492
経って	-9.24948
開封	-9.24961
がついて	-9.2499
OK	-9.25023
止め	-9.25031
間違い	-9.25083
買え	-9.25086
に入れて	-9.25144
f	-9.25147
遅い	-9.25228
心	-9.25297
はいて	-9.25315
最初は	-9.25317
95	-9.25361
られ	-9.25368
安っぽい	-9.25374
学	-9.25504
届かず	-9.25523
返信	-9.25579
せる	-9.25687
犬	-9.25706
乾燥	-9.25708
調節	-9.25714
知	-9.25775
細い	-9.25856
変化	-9.25917
22.5	-9.25922
アン	-9.26005
サイズ購入	-9.26035
69	-9.26046
シルバー	-9.26083
自転車	-9.26086
膝	-9.26097
女	-9.26206
67	-9.26264
両	-9.26336
以下	-9.26349
目に	-9.26388
......	-9.26409
ったら	-9.26415
やすいです	-9.26481
茶	-9.26508
チャ	-9.26514
大きくて	-9.26547
オー	-9.26548
曲	-9.26557
v	-9.26652
うちに	-9.26726
なんだか	-9.26814
ビックリ	-9.26818
度目	-9.26871
丁寧	-9.26903
リピートです	-9.27002
ここ	-9.27007
汗	-9.27031
楽しみ	-9.27215
けて	-9.27225
お願い	-9.27271
▁1,100	-9.27289
お買い得	-9.27371
店舗	-9.27375
バランス	-9.27416
脱げ	-9.27435
過ぎて	-9.27462
壊れた	-9.27491
98	-9.27596
もありません	-9.27641
を購入して	-9.2772
折れ	-9.27767
の上	-9.27787
安かったので	-9.27807
レー	-9.27823
ショック	-9.27825
が悪く	-9.279
合わない	-9.27911
変更	-9.27945
スッキリ	-9.27988
そうで	-9.28005
返事	-9.28051
^	-9.28052
引っ	-9.28115
目の	-9.28122
着れ	-9.28204
人は	-9.2827
子供の	-9.28276
度目の購入	-9.2848
自体は	-9.28506
使いやすい	-9.2861
,10	-9.28761
てしまい	-9.28761
りません	-9.2882
年以上	-9.28836
やり	-9.28844
!!,	-9.28864
オススメです	-9.28876
現	-9.28938
近く	-9.28955
;)	-9.29191
長め	-9.2923
出来ない	-9.2925
を見	-9.2927
固定	-9.29346
が良く	-9.29385
使用した	-9.29387
会社	-9.29397
ラー	-9.29466
後悔	-9.29486
日に届きました	-9.2951
試しに	-9.29521
自体	-9.29549
というか	-9.2955
タイツ	-9.29561
センチで	-9.29585
迅速	-9.29673
購入です	-9.29682
ピー	-9.29684
ユ	-9.29731
沢山	-9.29733
かわ	-9.29827
を選びました	-9.29835
柔らかい	-9.29874
使います	-9.29915
シー	-9.29959
見た目は	-9.29991
していましたが	-9.30156
可愛く	-9.30228
壊れました	-9.3023
74	-9.30246
きれい	-9.30255
チェック	-9.3033
で購入しました	-9.30462
疲れ	-9.30518
ゲ	-9.30518
配達	-9.30527
表面	-9.30554
短く	-9.30556
脱	-9.30593
おすすめです	-9.30599
ピン	-9.30656
▁1,4	-9.30683
月中旬	-9.30714
パープル	-9.30716
歳の娘	-9.30796
出荷	-9.30928
ワンサイズ	-9.30961
イス	-9.30976
2000	-9.31042
純正	-9.31062
書かれて	-9.31103
本目	-9.31227
切	-9.31351
部分に	-9.31462
この値段	-9.31516
わかりません	-9.31524
来て	-9.31525
フィット	-9.31591
作って	-9.31618
見えて	-9.31622
色違い	-9.31672
似	-9.31697
▁2,4	-9.31723
99	-9.31737
08	-9.31746
様子	-9.31756
ネジ	-9.31769
糸が	-9.31794
プラスチック	-9.31906
マイナス	-9.31907
ッチ	-9.31936
と思いますが	-9.31941
そんな	-9.31994
♪,	-9.32016
丈夫	-9.32084
なんとか	-9.32103
ペラペラ	-9.32106
春	-9.32307
しく	-9.32327
明	-9.32372
丈は	-9.3244
心地	-9.32566
冷	-9.32583
厚	-9.32608
ちょうど良い	-9.32638
・・・・	-9.3267
おしゃれ	-9.32709
どんな	-9.32713
が多く	-9.32726
質感	-9.32781
器	-9.32861
サン	-9.32892
少々	-9.3293
動き	-9.32944
っぽく	-9.32951
ことは	-9.32958
てしまいます	-9.33017
いろいろ	-9.33062
すぎず	-9.33175
83	-9.33182
商品自体は	-9.33308
シワ	-9.33359
場合	-9.33413
Y	-9.33518
残	-9.33555
クロ	-9.33581
今度は	-9.3359
問題ない	-9.336
04	-9.33606
いたり	-9.33611
年前に	-9.33615
始め	-9.33654
シンプルで	-9.3371
もよく	-9.3371
ビニール	-9.3372
遠	-9.33722
インナー	-9.33741
なんで	-9.33909
してから	-9.34012
ったり	-9.34044
壊れ	-9.34068
輪	-9.34109
中身	-9.34171
と言われ	-9.34184
サー	-9.34289
いい感じです	-9.34296
大満足	-9.34362
かけて	-9.34471
消	-9.34501
ければ	-9.34532
違和感	-9.34538
でしたので	-9.34726
ストレッチ	-9.34743
LED	-9.34747
&#128	-9.34749
ゴミ	-9.34757
るように	-9.34879
!!!	-9.34909
結	-9.34941
05	-9.34955
物は	-9.34999
シュ	-9.35026
-07	-9.35129
に購入しました	-9.3522
翌日	-9.35258
ていました	-9.35298
出し	-9.35344
絶対	-9.35387
色味	-9.35437
ドレス	-9.35521
ストラップ	-9.35568
娘	-9.35633
そうなので	-9.35711
らしく	-9.3574
使いやすいです	-9.35749
設置	-9.35982
毛玉	-9.36013
字	-9.36187
ザ	-9.36188
買い替え	-9.36251
正解でした	-9.36322
66	-9.36368
ブカブカ	-9.36401
明るい	-9.36403
られません	-9.36437
娘に	-9.36481
c	-9.36487
ほつれ	-9.36519
止	-9.36524
使えて	-9.36604
保証	-9.36612
足首	-9.36757
これが	-9.36767
おります	-9.36774
かわいくて	-9.36783
悪	-9.36805
文字	-9.36827
あれば	-9.36828
が付いて	-9.36966
幅が	-9.37028
34	-9.37194
格	-9.37196
くらいです	-9.37204
▁1,5	-9.37345
肌触り	-9.37409
考えて	-9.3743
える	-9.37464
検品	-9.37471
新しい	-9.37491
差し	-9.3751
せいか	-9.37533
96	-9.37537
大きかったです	-9.37563
軽い	-9.37574
これなら	-9.37743
しよう	-9.37928
したり	-9.37933
かない	-9.37933
ものは	-9.37969
]	-9.38038
になってしまいました	-9.38066
スニーカー	-9.38089
ろう	-9.38127
頼んだ	-9.38146
目が	-9.3817
-05	-9.38184
たった	-9.38197
茶色	-9.38237
るのは	-9.38267
蓋	-9.38297
フル	-9.38298
自然	-9.38303
行き	-9.38371
きつく	-9.38494
、「	-9.38522
飛び	-9.38528
成	-9.38583
はかなり	-9.38666
なくなり	-9.38671
`)	-9.38694
の為	-9.38722
おもちゃ	-9.3873
着心地	-9.3883
160	-9.38889
お店で	-9.38897
タイト	-9.38903
合い	-9.38913
来た	-9.38922
&#9825;,	-9.3898
ぶり	-9.39035
月下旬	-9.39188
不満	-9.39191
背	-9.39231
h	-9.39281
ッシュ	-9.39347
たくて	-9.39406
折り	-9.39432
ならず	-9.39476
なお	-9.39489
ハズレ	-9.39599
置き	-9.39623
▁1,,6	-9.3973
剥	-9.39766
上がり	-9.39777
ワンピース	-9.39803
使えそうです	-9.39878
小さくて	-9.39983
してしまいました	-9.39998
自	-9.40003
全体	-9.40059
ペン	-9.40114
未	-9.40144
レビューを見て	-9.40148
様に	-9.40152
ロング	-9.40156
値	-9.40404
どの	-9.40435
この値段で	-9.405
たって	-9.40564
良かったのですが	-9.40637
キレイ	-9.40655
つま先	-9.40724
93	-9.40775
きたので	-9.40798
してくれ	-9.40871
ほしい	-9.40918
得	-9.40941
今回の	-9.40948
いっぱい	-9.4096
つもり	-9.40974
ザー	-9.40995
人で	-9.41034
られない	-9.41041
期間	-9.41053
づ	-9.4108
定	-9.41092
ショックです	-9.41096
圧	-9.41101
美	-9.41108
ピアス	-9.41109
安いし	-9.41168
こちらを	-9.41202
ずれ	-9.41206
がよく	-9.41249
しまったので	-9.41311
お勧め	-9.41362
が一番	-9.41389
今回も	-9.41537
窮屈	-9.41544
頼んで	-9.41575
洗い	-9.41641
大きかった	-9.41658
かもしれない	-9.41772
効	-9.41937
テレビ	-9.41988
キツイ	-9.41989
の色	-9.42069
大丈夫でした	-9.42093
の部分	-9.42108
ありましたが	-9.42149
のうち	-9.42186
配	-9.42187
のために	-9.42192
棚	-9.42207
▁2,,6	-9.42213
細く	-9.42246
について	-9.42286
多い	-9.42304
の大きさ	-9.42355
難しい	-9.42394
3000	-9.42419
ミス	-9.42431
道	-9.42431
張	-9.42434
使えません	-9.42437
レンズ	-9.42456
が必要	-9.42507
嬉しい	-9.42527
左	-9.42644
テーブル	-9.42655
すべて	-9.42694
商品でした	-9.42724
大きすぎ	-9.42776
作業	-9.42881
下に	-9.42951
合って	-9.42961
は無い	-9.42963
試着	-9.42981
お気に入りです	-9.43035
種	-9.43081
せっかく	-9.43101
トイレ	-9.43102
小さな	-9.4311
吸	-9.43211
にくく	-9.43233
前から	-9.43291
を履いて	-9.43293
大きさも	-9.43505
使い勝手	-9.43559
くれて	-9.43563
次は	-9.43597
才	-9.43664
タグ	-9.43669
透け	-9.43686
いい感じ	-9.4369
思っていた	-9.43711
押し	-9.4376
さが	-9.43771
に届きました	-9.43809
さんの	-9.43855
オイル	-9.43909
太い	-9.43941
週間で	-9.43995
ボロボロ	-9.43997
迷いましたが	-9.44048
効果が	-9.44137
ようと	-9.44287
しようと	-9.44304
つい	-9.4431
ならない	-9.4436
短	-9.44382
たっぷり	-9.44451
接続	-9.44453
平	-9.4448
少ない	-9.44534
ですよ	-9.44613
の息子に	-9.44669
しっとり	-9.44677
実物	-9.44763
アイ	-9.44791
ジャストサイズ	-9.44857
いると	-9.44903
左右	-9.44908
うち	-9.44924
86	-9.45021
なくても	-9.45096
加	-9.45115
思います	-9.45134
入っていました	-9.45378
なくなって	-9.45391
1.5	-9.4542
回目です	-9.45536
問題なし	-9.45557
ω	-9.4559
毎回	-9.4562
手間	-9.45766
って感じ	-9.4577
綿	-9.45819
400	-9.45871
重さ	-9.45921
一枚	-9.45937
はまだ	-9.45955
いいかな	-9.46019
結婚式	-9.46051
際に	-9.46171
使っていた	-9.46173
切って	-9.46175
だめ	-9.46184
きれいに	-9.46186
だったのですが	-9.46202
800	-9.4623
安っぽく	-9.46252
連	-9.46268
キラキラ	-9.46279
,6	-9.46304
かかと	-9.4633
44	-9.46361
かったので	-9.46364
様な	-9.46484
自宅	-9.46512
ゆとり	-9.4652
ですか	-9.46558
ことに	-9.46565
という感じ	-9.46673
さすがに	-9.46675
分かり	-9.46696
パンプス	-9.46734
つける	-9.46735
ですし	-9.46735
そちら	-9.46739
電源	-9.46741
泣	-9.46756
こちらに	-9.46817
流	-9.46831
購入したので	-9.46928
iPhone	-9.46973
こういう	-9.46981
ヒップ	-9.46988
食べる	-9.47016
長時間	-9.47086
入らない	-9.47142
の私には	-9.47165
&#9825;	-9.47165
▁1,10	-9.47179
度目の	-9.47205
強い	-9.47219
おいしい	-9.47262
いませんが	-9.47312
読み	-9.47331
うまく	-9.47446
ーン	-9.47493
屋	-9.4751
壊れて	-9.47511
くなって	-9.47599
セール	-9.47608
具	-9.47613
色違いで	-9.4762
いいのですが	-9.47734
気になります	-9.47748
2014	-9.47811
を持って	-9.47887
は全く	-9.4789
丈も	-9.47894
はちょっと	-9.4795
なぜ	-9.48005
言う	-9.48059
日に注文	-9.48108
交換して	-9.48132
られた	-9.48137
次回	-9.48169
などは	-9.48257
しゃ	-9.48335
もらい	-9.4844
を買いましたが	-9.48442
早くて	-9.48487
使えます	-9.48489
向き	-9.48491
モノ	-9.48538
福袋	-9.48556
ナー	-9.48557
違います	-9.48566
しないと	-9.48605
゚	-9.48614
(>_<)	-9.48615
を入れる	-9.48631
続け	-9.48646
していますが	-9.48726
ぽ	-9.48783
クーポン	-9.4885
ないのに	-9.48923
しょ	-9.48956
があったので	-9.49008
使用でき	-9.49034
チョ	-9.49049
たくない	-9.4908
明るさ	-9.49083
もない	-9.49188
背中	-9.49208
雨	-9.49292
テープ	-9.49323
常	-9.4951
入っていて	-9.49535
明るく	-9.49587
増	-9.49602
ステ	-9.49613
完全に	-9.49647
痛く	-9.49652
歩いて	-9.49666
柔らかく	-9.49682
料	-9.49684
予定です	-9.49783
カワイイ	-9.498
今のところ	-9.49802
最高	-9.4983
片方	-9.4989
しまうので	-9.49916
らしい	-9.49928
深	-9.49977
反応	-9.50042
人目	-9.50142
85	-9.50189
葉	-9.50266
チェーン	-9.50281
ボール	-9.50321
痛	-9.50357
2.	-9.50372
のかもしれませんが	-9.50392
シリーズ	-9.50392
思って	-9.50445
ダー	-9.50471
可能	-9.50476
右	-9.50507
見えない	-9.50622
のサイズ	-9.50658
になっている	-9.50665
組	-9.50674
名前	-9.50708
洗	-9.50725
透明	-9.50763
具合	-9.50767
どれも	-9.50833
このお値段	-9.50866
▁2,,20	-9.50871
どちら	-9.50881
なもの	-9.50986
たの	-9.5099
ゆる	-9.51035
落ちて	-9.51117
どちらも	-9.51122
がいい	-9.51316
立ち	-9.51424
したいです	-9.51481
期	-9.51482
痛い	-9.51563
しているので	-9.51587
▁2,5	-9.51642
よりは	-9.51657
耳	-9.5173
ほしかった	-9.51745
大好き	-9.51749
試して	-9.51779
プラ	-9.51811
かかって	-9.51858
画	-9.5189
先に	-9.51896
無料	-9.51968
買わ	-9.52016
生地の	-9.52017
注文したのに	-9.52118
を購入し	-9.52182
ギリギリ	-9.5222
かんじ	-9.52238
したのに	-9.5224
ゴムが	-9.52256
割れて	-9.52262
あれ	-9.52278
によって	-9.52282
薄手	-9.52322
満	-9.52329
ュ	-9.5234
ックス	-9.5235
ロック	-9.52352
片	-9.52366
カラ	-9.52391
からの	-9.52438
対応も	-9.52484
クラ	-9.52523
フェ	-9.52525
レビューで	-9.52543
できるので	-9.52596
ほうが	-9.52612
減	-9.52642
いても	-9.52696
しようか	-9.52728
開	-9.52772
乗り	-9.52772
二度と	-9.528
肩幅	-9.52832
しかない	-9.52885
不良	-9.52914
乾	-9.52933
方の	-9.52943
連絡も	-9.53009
ガラス	-9.53201
見た目も	-9.53207
ジュ	-9.5323
欲しいです	-9.53233
日間	-9.53272
縫い	-9.53275
ちょうど良かったです	-9.53321
黒い	-9.5333
加工	-9.53404
決めました	-9.53691
だいぶ	-9.53699
出来ません	-9.53721
子供に	-9.53761
させ	-9.53777
の使用	-9.53845
しょうがない	-9.53865
クリア	-9.53907
もいい	-9.5397
甘	-9.54142
つです	-9.54168
泊	-9.54197
れない	-9.54252
腹	-9.54265
イイ	-9.54301
いただき	-9.54349
歳の子供	-9.54351
におい	-9.54355
イエロー	-9.54447
チャック	-9.54476
140	-9.54485
よかったので	-9.54535
見る	-9.5462
97	-9.54654
訳	-9.54657
骨	-9.54692
コスパ	-9.54697
探して	-9.54784
の長さ	-9.548
達	-9.54864
楽しみにして	-9.54888
の時に	-9.54893
使い方	-9.54926
文	-9.54934
ナチュラル	-9.54949
に近い	-9.54979
臭いが	-9.5501
メールで	-9.5502
の靴	-9.55039
&#8252;	-9.55041
近	-9.55048
ぁ	-9.55058
に行く	-9.5519
DVD	-9.55198
悩んで	-9.5521
娘も	-9.55226
言い	-9.55261
この商品は	-9.553
到着しました	-9.55301
まとめて	-9.55301
が楽しみです	-9.55369
すら	-9.55393
の購入です	-9.55393
欲しく	-9.55457
他店で	-9.55457
込んで	-9.55472
微妙	-9.55514
って感じです	-9.55517
しますが	-9.55612
破れ	-9.55701
破損	-9.55703
出す	-9.55832
下の	-9.55843
61	-9.55844
違って	-9.55879
少し大きめ	-9.55925
旦那	-9.5596
なくなる	-9.55979
はあまり	-9.56064
ショップで	-9.56088
2015	-9.56091
中で	-9.56113
記	-9.56117
07	-9.56168
椅子	-9.56212
味も	-9.56214
◎	-9.56215
すっきり	-9.56291
年前	-9.56311
初め	-9.56325
ではないので	-9.56365
を考えると	-9.56393
店で	-9.56401
履き心地	-9.56412
このまま	-9.56454
縮	-9.56468
軽く	-9.56468
を注文しました	-9.5647
財布	-9.56472
お安く	-9.56549
マン	-9.56562
問題ありません	-9.56587
はないです	-9.56599
すでに	-9.56625
下さい	-9.5666
直し	-9.56766
カーキ	-9.56835
がありません	-9.56863
届いたのは	-9.5688
とはいえ	-9.57004
娘の	-9.57013
みたいで	-9.57024
ジャスト	-9.5703
個人的には	-9.57047
ヘ	-9.57051
下げ	-9.57107
もうすぐ	-9.5718
を買う	-9.57196
無駄	-9.57241
ファ	-9.57262
が違う	-9.57265
これからも	-9.57355
爪	-9.57359
薬	-9.57495
キャ	-9.57495
に購入	-9.57515
転	-9.5758
しっかりした	-9.57696
育	-9.57751
ソー	-9.57761
とても残念です	-9.5778
落ち着いた	-9.57788
男の子	-9.57811
ないように	-9.57833
違いました	-9.57836
見たら	-9.57877
遅れる	-9.57907
コート	-9.57919
漏れ	-9.57935
開け	-9.57989
してくれる	-9.57991
携帯	-9.58012
というより	-9.58048
リア	-9.58089
無事	-9.58115
読んで	-9.58131
思った	-9.58188
クオリティ	-9.58273
乗	-9.58298
悩み	-9.58411
れません	-9.58476
低い	-9.58519
目立つ	-9.58534
人には	-9.58538
お値段も	-9.58606
確認して	-9.58623
産	-9.58632
!,1	-9.58635
;,	-9.58698
安さ	-9.58776
出来ました	-9.58782
集	-9.58795
工	-9.58838
受け	-9.58877
と思っていましたが	-9.58883
などの	-9.5893
▁1,,11	-9.59039
サイド	-9.5909
▁1,,9	-9.59228
88	-9.59236
安かった	-9.5924
シンプル	-9.59287
トップ	-9.59348
87	-9.59388
れました	-9.59407
8-201	-9.59481
皆さん	-9.59518
週	-9.59537
備	-9.59577
緑	-9.59582
とのことで	-9.59677
足り	-9.59699
感は	-9.59745
はありますが	-9.59775
形が	-9.59785
1.	-9.59794
バン	-9.59805
検討	-9.59831
掃除	-9.59835
乳	-9.59846
迷って	-9.59853
主	-9.59967
レン	-9.60008
きれいな	-9.60092
私も	-9.60123
ルー	-9.60151
当たり	-9.60195
いいので	-9.60256
歳の息子に	-9.6027
使っている	-9.60297
月上旬	-9.60375
仕上がり	-9.60384
除	-9.6064
モデル	-9.60774
ミニ	-9.60776
おらず	-9.60838
快適	-9.6091
あまりにも	-9.60932
パーツ	-9.60972
しながら	-9.60976
がかなり	-9.61025
素敵	-9.61099
ないか	-9.61108
不可	-9.6119
消え	-9.61206
同時に	-9.61312
扱い	-9.61362
いつもは	-9.61435
方法	-9.61485
ページ	-9.61497
写真と	-9.61532
台目	-9.61613
その他	-9.61641
脇	-9.61712
写真の	-9.61793
とおもいます	-9.61815
ともに	-9.61859
されました	-9.61949
安定	-9.62034
慣れ	-9.62041
買ったのですが	-9.62067
タイ	-9.62237
冊	-9.62253
は初めて	-9.62271
匂いが	-9.62274
▁2,,100	-9.62286
を考え	-9.62295
逆に	-9.6248
保	-9.62503
▁1,,12	-9.62517
状況	-9.6252
良いので	-9.62522
買ってよかったです	-9.62574
168	-9.6262
気になりません	-9.62623
ワイン	-9.62629
寒い	-9.627
あとは	-9.62726
いただきました	-9.62754
オシャレ	-9.62793
1-201	-9.62796
(*^^*)	-9.62796
***	-9.62799
しそう	-9.62842
裏地	-9.62852
色でした	-9.62901
モデルさん	-9.62916
絵	-9.62933
売り	-9.62959
ニー	-9.62986
づらい	-9.6303
は初めてです	-9.63038
反	-9.63059
なかったのですが	-9.6306
ショ	-9.63115
メールを	-9.63126
2-201	-9.63133
注文番号	-9.63138
たのに	-9.63183
心配でしたが	-9.63226
材	-9.63301
レビューを参考に	-9.63344
遊び	-9.63344
楽しめ	-9.63353
バラ	-9.63361
ランプ	-9.634
こんなもの	-9.63431
ちょうどよかったです	-9.63471
未だに	-9.63475
置いて	-9.63546
分の	-9.63552
がないので	-9.63567
肌に	-9.6357
いなかった	-9.63586
しま	-9.63599
更に	-9.63646
と思ったら	-9.63664
力が	-9.63694
が良い	-9.63709
☆,	-9.63714
綺麗	-9.63809
値段の割に	-9.63828
時間が	-9.63857
しっかりして	-9.63936
思いました	-9.63999
ありがたいです	-9.64035
装	-9.64057
感じが	-9.6406
くれました	-9.64088
時点で	-9.64117
ありますが	-9.64163
ジャケット	-9.64172
ファン	-9.64227
れます	-9.64238
ぱ	-9.64285
ですよね	-9.64312
父	-9.64443
きません	-9.6455
何より	-9.64559
▁2,,15	-9.64575
感じられ	-9.64601
ボタンが	-9.64604
ものでした	-9.64679
82	-9.6469
だらけ	-9.64716
デニム	-9.64718
シャンプー	-9.6472
ぬ	-9.64721
回り	-9.64737
調子	-9.64785
軽	-9.64793
使わない	-9.64867
縦	-9.64998
超	-9.64999
よいです	-9.65094
的	-9.65129
縫製	-9.65177
落	-9.65179
詰め	-9.65195
丁寧に	-9.6522
収	-9.65242
シーズン	-9.65267
まとめ買い	-9.65285
最初	-9.65321
を感じ	-9.65412
つぶ	-9.65418
になると	-9.65446
ファー	-9.65471
特	-9.65519
のレビュー	-9.65521
明らかに	-9.65554
92	-9.65586
せめて	-9.65637
上の	-9.65674
鼻	-9.65825
損	-9.6583
買ってみました	-9.6586
はけ	-9.65902
メーカーの	-9.65946
るか	-9.65963
買って良かったです	-9.65975
やすくて	-9.65996
なりません	-9.66023
んだけど	-9.66071
雰囲気	-9.66116
相当	-9.66125
もち	-9.66183
なさそうです	-9.6627
キズ	-9.663
確	-9.66369
以降	-9.66398
後の	-9.6642
`	-9.66444
サイズ感	-9.66496
アー	-9.66587
赤ちゃん	-9.66608
硬い	-9.66617
レビューに	-9.66656
ですので	-9.66658
番号	-9.66721
をしました	-9.66739
と思うので	-9.66742
&#8252;&#65038;	-9.66776
ができ	-9.66782
弱い	-9.66799
染	-9.66883
甲高	-9.66904
火	-9.66961
ぶかぶか	-9.66962
ふくらはぎ	-9.66965
飲む	-9.66974
5000	-9.67054
なのかな	-9.67074
だったのに	-9.67086
男	-9.6714
済み	-9.67183
元気	-9.67199
万	-9.6723
乗せ	-9.67243
ケット	-9.67309
悩みましたが	-9.67316
薄め	-9.67348
気にならない	-9.67389
安いから	-9.67392
大きいです	-9.67399
捨て	-9.67404
はずれ	-9.67438
合わなかった	-9.67489
対策	-9.67531
カメラ	-9.67533
アンダー	-9.67544
600	-9.67589
,100	-9.67642
同様	-9.67656
ほつれて	-9.67661
発送メール	-9.67664
ワン	-9.67665
洗って	-9.67673
比較	-9.67759
驚きました	-9.67783
める	-9.67809
季節	-9.67817
のものを	-9.67829
女の子	-9.67885
最悪です	-9.67937
開き	-9.67944
動か	-9.68087
大喜び	-9.68117
していません	-9.68184
。,1	-9.68225
シミ	-9.68273
この価格	-9.68317
にした	-9.68344
の中に	-9.68379
塩	-9.68388
押	-9.68391
ベッド	-9.68392
いたのに	-9.68415
お手頃	-9.68496
持	-9.68507
人の	-9.68567
柄が	-9.68633
対	-9.68635
適	-9.68657
発送が	-9.68665
84	-9.68676
繋	-9.68677
我慢	-9.68679
渡	-9.68679
79	-9.68727
なのでしょうか	-9.68806
フィ	-9.68834
しっかりしています	-9.68873
スーパー	-9.68876
帰	-9.68925
歯	-9.68964
してください	-9.68982
パール	-9.68993
仕様	-9.69027
ことも	-9.69098
多分	-9.69113
ることができ	-9.69175
嬉しかったです	-9.69197
ないのですが	-9.69246
真ん中	-9.69255
暖かく	-9.69267
かず	-9.69292
忘れ	-9.69307
タイヤ	-9.69319
素敵な	-9.69383
いくら	-9.69454
練習	-9.6955
の問題	-9.69601
見ると	-9.69639
発送予定	-9.69667
方がいい	-9.69671
にならない	-9.6969
と思い購入しました	-9.69797
レギンス	-9.69841
の上に	-9.69858
米	-9.69897
頂きました	-9.69901
入った	-9.69905
▁1,,20	-9.69938
くれ	-9.69966
言って	-9.70004
ダメでした	-9.70071
多く	-9.7008
帯	-9.70131
ダウン	-9.70152
ウエストは	-9.70164
派手	-9.70207
▁1,,15	-9.70284
ジャ	-9.70398
何度か	-9.70411
>	-9.70422
印	-9.70422
送り	-9.70459
ために	-9.70514
敷	-9.70532
!?	-9.70548
少し大きい	-9.70555
と書いて	-9.70561
フリー	-9.70575
変わらない	-9.7067
以上の	-9.70677
という感じです	-9.70709
剤	-9.70711
このお値段で	-9.70716
着せ	-9.70736
で良かったです	-9.70859
コレ	-9.70891
はありませんでした	-9.70934
灯	-9.70967
in	-9.70983
コード	-9.70986
疑問	-9.71015
こんなもん	-9.7104
サイト	-9.71051
少	-9.71146
ビー	-9.71173
無かった	-9.71178
続	-9.71222
近所の	-9.71256
やら	-9.71325
900	-9.71404
ニット	-9.71409
頂き	-9.7141
を購入した	-9.71436
のかもしれません	-9.71494
(*	-9.71495
それと	-9.71585
仕方	-9.71598
処理	-9.716
完了	-9.7161
遊んで	-9.7161
他社	-9.71621
はじめて	-9.71698
出産	-9.71715
着丈	-9.71729
やめ	-9.71756
があると	-9.71803
クル	-9.71877
状	-9.71879
ショップに	-9.71892
ヵ月	-9.7193
が無い	-9.71992
薄くて	-9.71997
▁1,,7	-9.72017
好きです	-9.7213
。,2	-9.72154
シューズ	-9.72204
水槽	-9.72215
たところ	-9.72385
修理	-9.725
和	-9.72503
かっこいい	-9.72522
円以上	-9.72583
かなと	-9.72602
ちょうどいいです	-9.72634
剥がれ	-9.72687
クリスマスプレゼント	-9.72729
発注	-9.72811
締め	-9.7284
見つか	-9.72929
ズレ	-9.7297
このショップ	-9.73022
共に	-9.73052
それぞれ	-9.73102
設定	-9.73108
お風呂	-9.73169
心配です	-9.73312
ごと	-9.73329
事が	-9.73335
豆	-9.73405
伸縮性	-9.73414
かかり	-9.73457
中敷き	-9.7351
写真より	-9.73534
触	-9.73534
トップス	-9.73557
方も	-9.73639
あったので	-9.73677
紫	-9.73708
フィルム	-9.73709
来る	-9.73725
以内	-9.73726
改善	-9.73765
しようと思います	-9.73793
売	-9.7381
均で	-9.73827
残って	-9.73834
▁M	-9.73866
と思ったのですが	-9.73887
行って	-9.73924
PC	-9.73931
たまたま	-9.74013
広	-9.74014
揃え	-9.74014
測	-9.74035
おいて	-9.74066
として購入しました	-9.74217
に合わせて	-9.74247
たけど	-9.74306
てます	-9.74308
なったら	-9.74406
円は	-9.74435
で壊れました	-9.74476
ると思います	-9.74533
機会	-9.74565
断	-9.746
選	-9.74645
汚	-9.74681
ものと	-9.74697
を注文	-9.74715
もらいました	-9.74715
ソール	-9.74735
使用感	-9.74739
2〜3	-9.74785
,000	-9.74827
歩く	-9.74831
ヶ月の	-9.74842
前後	-9.74857
汚れが	-9.74912
限り	-9.74931
お買い物	-9.74932
昼	-9.74932
ようなので	-9.74937
みんな	-9.74937
ここで	-9.74959
社	-9.75138
色々な	-9.7518
立て	-9.75192
走	-9.75212
完	-9.75216
グラム	-9.75267
たかったので	-9.75303
スター	-9.75338
頼みました	-9.75426
容量	-9.75446
文句	-9.75517
塗り	-9.75537
観	-9.75546
暖かい	-9.75576
ほかの	-9.7563
シンプルな	-9.75638
にしては	-9.75663
翌日に	-9.75726
ar	-9.75776
びっくりしました	-9.75807
がっかりしました	-9.75858
ガー	-9.7586
カビ	-9.75892
ついた	-9.75896
下着	-9.75899
留め	-9.75911
注文から	-9.76017
伸びる	-9.76029
太め	-9.76069
いいかも	-9.76082
”	-9.76167
サンダル	-9.76167
戦	-9.76167
傘	-9.76168
面倒なので	-9.76173
誕生日	-9.76187
はなく	-9.76221
きましたが	-9.76222
他に	-9.76223
商品に	-9.76237
る事	-9.7627
フィット感	-9.76295
は無理	-9.76344
二つ	-9.76419
最初から	-9.7646
カン	-9.76477
穿	-9.76477
酸	-9.7648
部品	-9.76603
新品	-9.76614
隠	-9.76626
香りが	-9.76643
買える	-9.76671
セットで	-9.7672
ぴったりです	-9.76721
としても	-9.76736
の為に	-9.76756
とても気に入りました	-9.76781
理由	-9.76787
キッチン	-9.7679
模様	-9.76793
男性	-9.76818
発送も	-9.76878
離	-9.76879
かなと思います	-9.76879
これだけ	-9.77061
他店	-9.77067
履かせ	-9.7711
6000	-9.77134
しわ	-9.77179
息子に	-9.7719
ストーン	-9.77195
できず	-9.77208
便	-9.77277
それに	-9.77291
半年	-9.7734
'	-9.7742
ケーキ	-9.77423
だが	-9.77444
られました	-9.77454
海外	-9.77472
からは	-9.77518
充電でき	-9.77562
の量	-9.77693
ウエストが	-9.77694
邪魔	-9.77729
ダイエット	-9.77734
限定	-9.77737
使えそう	-9.77806
かかりました	-9.77811
めの	-9.77835
対応が	-9.77871
切れて	-9.7796
不安です	-9.77981
隠れる	-9.77995
こちらも	-9.78029
困って	-9.78031
購入したのに	-9.78045
意	-9.78048
▁2,,"	-9.78113
お金	-9.78189
日本	-9.78208
どれ	-9.78224
かなー	-9.78318
よね	-9.78404
ようと思います	-9.78444
形も	-9.78494
どうしても	-9.78563
本は	-9.78581
ないと思います	-9.78623
一回	-9.78652
きっと	-9.78664
枚で	-9.78665
踵	-9.78686
ピンクの	-9.78687
通販	-9.78706
小さすぎ	-9.78715
充分	-9.78745
るのか	-9.78746
時計	-9.7878
部屋着	-9.78793
向	-9.78832
いるのですが	-9.78857
ここまで	-9.78872
いろんな	-9.78937
込む	-9.78944
イヤ	-9.78983
放	-9.79001
ぺ	-9.79005
ピチピチ	-9.79007
細かい	-9.79007
バッチリ	-9.79008
最低	-9.79023
履ける	-9.79033
昨日	-9.7906
浮	-9.79067
できた	-9.79073
分からない	-9.79146
作りが	-9.79179
を購入したのですが	-9.79182
真	-9.79217
しませんでした	-9.79229
ハン	-9.7928
つは	-9.79306
が欲しくて	-9.79326
飽き	-9.79343
万円	-9.79345
になるので	-9.7935
作りも	-9.7941
子供も	-9.79429
我が家	-9.79471
かどうか	-9.79509
んですね	-9.79572
一切	-9.79631
寝て	-9.79632
だと思いました	-9.79634
故障	-9.79646
が悪かった	-9.79711
事を	-9.79751
ィ	-9.79762
来年	-9.79843
使用しました	-9.79883
月の	-9.79898
商品到着	-9.79932
食べた	-9.79956
終わり	-9.79982
上がって	-9.80004
変わり	-9.8001
or	-9.80047
個セット	-9.8006
場合は	-9.80138
商品説明	-9.80152
香	-9.80276
羽	-9.80291
経過	-9.80303
まし	-9.80383
重ね	-9.80468
気になって	-9.8054
緩	-9.80593
に戻	-9.80621
ズボン	-9.80631
大好きな	-9.80704
▁2,10	-9.80725
来ました	-9.80745
ラック	-9.80749
お品	-9.80755
ですかね	-9.80857
強く	-9.80884
94	-9.80884
天	-9.80906
日現在	-9.80952
来ない	-9.81031
ますね	-9.81045
履くと	-9.81053
こない	-9.811
を着て	-9.8113
何とか	-9.81151
71	-9.8124
安全	-9.81294
という事	-9.81295
プレゼントに	-9.81326
体型です	-9.81349
金具	-9.81388
ラインが	-9.8141
んですけど	-9.81423
足目	-9.81474
リビング	-9.81598
∀	-9.81601
手元に	-9.81609
もらった	-9.8165
に注文	-9.81656
辺り	-9.81714
辛	-9.81726
娘が	-9.81867
で使用	-9.81907
お安い	-9.81921
させていただきます	-9.81931
ぃ	-9.81931
客	-9.81931
を入れ	-9.81944
もともと	-9.82003
2013	-9.82094
それが	-9.82097
まわり	-9.82119
長さが	-9.82139
ゼ	-9.82214
使い勝手が	-9.82248
していない	-9.82279
長持ち	-9.82337
下半身	-9.8258
の間	-9.82581
賞味期限	-9.82589
被	-9.82594
ブランド	-9.82622
感じる	-9.82624
ェ	-9.82718
られます	-9.82747
ティー	-9.82752
んだろう	-9.82786
普段使い	-9.82874
縫い目が	-9.82908
涙	-9.82922
洋服	-9.82928
※	-9.82928
感じがします	-9.82955
合わず	-9.82977
気に入ったので	-9.82985
はないと思います	-9.8299
ローズ	-9.8301
綺麗で	-9.83039
0.5	-9.83066
年間	-9.83075
については	-9.83103
さえ	-9.83196
補	-9.83232
ぞ	-9.83256
まさか	-9.83266
おいしく	-9.83277
友達	-9.83286
と記載	-9.83291
着れる	-9.83332
ガッカリです	-9.83338
頼	-9.83363
してました	-9.83374
専用	-9.83376
プラス	-9.83389
にある	-9.83402
側の	-9.83455
言え	-9.8348
はじめ	-9.83494
使えませんでした	-9.83538
を履いています	-9.83554
買ったのに	-9.83579
着け	-9.83611
ではなかった	-9.83617
同じような	-9.83647
時には	-9.83686
不足	-9.83743
^^;	-9.83771
違った	-9.83874
いただいて	-9.83937
なんですが	-9.83959
だと思って	-9.83961
このお店	-9.84021
国	-9.84158
探	-9.84194
購入したいと思います	-9.84208
分かりませんが	-9.84212
系の	-9.84216
良さそう	-9.84218
根	-9.84239
始めて	-9.8425
版	-9.8426
又	-9.84264
安く購入でき	-9.84267
届くまで	-9.84371
ョ	-9.84411
干	-9.84431
167	-9.84499
だな	-9.84536
居	-9.84599
ようやく	-9.84601
前回は	-9.84616
まあまあ	-9.84618
までは	-9.8468
最後	-9.84715
信	-9.84755
発送も早く	-9.84861
とした	-9.84865
余	-9.84898
たく	-9.84901
大きいサイズ	-9.84905
などで	-9.84913
混	-9.84941
思う	-9.84942
おまけの	-9.84947
バスト	-9.85064
商品だと思います	-9.85079
マー	-9.85134
っきり	-9.8519
秋	-9.85264
進	-9.8528
千円	-9.85309
まだまだ	-9.85328
▁1,,"	-9.85329
無いので	-9.85338
やすそう	-9.85351
丁度良い	-9.85352
もう一	-9.85371
滑り	-9.85425
両方	-9.85428
方が良い	-9.85428
焼き	-9.85465
級品	-9.85477
最高です	-9.85507
使おう	-9.85508
入っていた	-9.85605
&#10071;	-9.85622
オマケ	-9.85622
枕	-9.85622
ふわふわ	-9.85622
つけた	-9.85629
乗って	-9.85641
後は	-9.85643
きつかった	-9.85684
していたので	-9.85725
狭い	-9.85762
選べ	-9.85793
なー	-9.85893
母に	-9.85898
みえ	-9.85904
こちらのショップ	-9.85922
▁1,,100	-9.85931
取れて	-9.85944
久	-9.85962
発売	-9.85991
を買った	-9.85998
お願いしました	-9.86034
ずれて	-9.86035
er	-9.86101
伸びて	-9.86117
言われ	-9.86124
柄も	-9.86144
程度の	-9.8616
形は	-9.86177
の高さ	-9.86221
縫	-9.86276
ようですが	-9.86277
に使用	-9.863
●	-9.86307
防止	-9.86314
ドル	-9.86427
愛	-9.86462
靴は	-9.86475
遅すぎ	-9.86495
日に注文し	-9.86641
末	-9.86647
なぜか	-9.86662
破け	-9.86672
!,2	-9.86674
スク	-9.86754
レイ	-9.86775
満足してます	-9.86929
スーツ	-9.8697
類	-9.86979
ヌ	-9.86998
あんまり	-9.87006
興味	-9.87026
本人	-9.87042
安心です	-9.87074
好評	-9.87168
痩せ	-9.87197
にくいです	-9.87206
へのプレゼント	-9.87218
人が	-9.87224
円ショップ	-9.87244
暗い	-9.87253
ける	-9.87256
ほどの	-9.87258
付属の	-9.87287
娘は	-9.87352
スペース	-9.87373
色です	-9.87405
聞いて	-9.87436
になっても	-9.87455
re	-9.87471
送料が	-9.87504
入ります	-9.87513
231313-201	-9.87569
の娘	-9.87571
オン	-9.87589
向け	-9.87594
重宝	-9.87638
注文し	-9.87642
うれしいです	-9.87648
空気	-9.87655
てしまった	-9.87676
んでしょうか	-9.87678
負	-9.87691
愛用して	-9.87722
と感じました	-9.87752
キング	-9.8778
かわいく	-9.87785
短め	-9.87862
モン	-9.87862
開いて	-9.87867
人に	-9.87948
いませんでした	-9.87963
お店の	-9.8797
足りない	-9.8803
散	-9.88037
をする	-9.88041
消費	-9.88047
マジックテープ	-9.88048
遅れ	-9.88055
使用しましたが	-9.88057
親切	-9.88061
フォ	-9.88089
つ目	-9.88091
日後に	-9.88115
89	-9.88151
年ほど	-9.88153
用で	-9.8824
ワイ	-9.8831
いいな	-9.88319
▁2,,8	-9.88321
変な	-9.88344
未だ	-9.88358
ゆるい	-9.88362
余り	-9.8839
妊娠	-9.88394
検索	-9.88394
雪	-9.88395
襟	-9.88395
市	-9.88396
ストレス	-9.8841
だけに残念です	-9.88501
可愛いので	-9.88548
できませんでした	-9.88576
ベビー	-9.8862
包	-9.88659
価格も	-9.88672
捨てました	-9.8869
安物	-9.88742
頑張って	-9.88746
何の連絡も	-9.88749
AC	-9.88796
座って	-9.88875
のまま	-9.88922
良	-9.89042
つくり	-9.89046
業	-9.89071
お尻が	-9.89078
アイボリー	-9.89099
おかしい	-9.89102
ゅ	-9.89102
スタイル	-9.89103
。。。,	-9.8913
先日	-9.89145
濃	-9.89156
買おう	-9.89222
気に入り	-9.89237
がありましたが	-9.89287
メール便で	-9.89315
トラ	-9.89362
良いのですが	-9.89398
▁2,,7	-9.89421
跡	-9.89454
なのは	-9.89519
足に	-9.89539
した方が	-9.89617
るのも	-9.89678
もったいない	-9.89707
ウン	-9.89779
思	-9.89786
と迷いましたが	-9.89797
サービス	-9.89809
古	-9.89894
になってしまい	-9.89948
ラメ	-9.89957
位の	-9.89966
かと思い	-9.89999
一日	-9.90038
ショップさん	-9.9011
フォー	-9.90131
息子の	-9.90133
可	-9.90136
やすそうです	-9.90142
終	-9.9015
▽	-9.90168
昔	-9.9017
次第	-9.90173
ーション	-9.90176
とは思えない	-9.90185
アイロン	-9.90186
美味しいです	-9.90221
一週間	-9.90227
買いません	-9.90228
プロ	-9.90238
しっかりと	-9.90239
しており	-9.90245
初めての	-9.90319
一部	-9.90356
しやすい	-9.90387
それほど	-9.90404
オフ	-9.90439
楽しみにしていた	-9.90452
▁1,,8	-9.9046
履	-9.90471
きつめ	-9.90503
傷が	-9.9051
!!!\	-9.90521
ショックでした	-9.90526
保存	-9.90527
感謝	-9.90535
リュック	-9.90536
たまに	-9.90561
書いてあった	-9.90583
どおり	-9.9059
届いたので	-9.9071
参考に	-9.90737
つもりです	-9.90804
防	-9.90816
崩れ	-9.90841
164	-9.90865
湿	-9.9088
秒	-9.90883
パッケージ	-9.90885
保護	-9.90885
わたし	-9.90896
させて頂きました	-9.90905
ジェル	-9.90944
アル	-9.91067
干し	-9.9107
してしまい	-9.91114
BB	-9.91134
厚さ	-9.91224
なるので	-9.91281
塗	-9.91361
バス	-9.91449
とても気に入って	-9.91458
均の	-9.91468
焼	-9.91516
ワー	-9.91544
誕生日プレゼント	-9.91547
部分も	-9.91552
180	-9.91605
¥	-9.91612
重宝しています	-9.91649
甘い	-9.91716
おき	-9.9172
105	-9.91777
注文したのですが	-9.91782
室	-9.91798
わかる	-9.91824
点セット	-9.91889
わない	-9.91897
日発送	-9.91919
カリ	-9.91925
色を	-9.9197
264548-201	-9.91973
した感じ	-9.92016
たかった	-9.92016
正解	-9.92056
っち	-9.92068
おく	-9.92121
を参考に	-9.92151
スーパーで	-9.92252
飛	-9.9231
,20	-9.92311
原因	-9.92337
けば	-9.92422
とこ	-9.92437
一本	-9.92458
ゆう	-9.9247
さに	-9.92477
仕	-9.92491
るような	-9.92499
いいのに	-9.92515
そのうち	-9.92553
価値	-9.92595
バイ	-9.92622
持ってい	-9.92657
靴の	-9.92662
つの	-9.92686
球	-9.92693
▁1,6	-9.92697
J	-9.92699
してほしい	-9.927
OFF	-9.92704
好	-9.92708
た方が	-9.92724
貼って	-9.92728
ひも	-9.92745
程度で	-9.92806
いるの	-9.92835
戻	-9.92873
さんに	-9.92889
ちょうどよく	-9.92897
早かったです	-9.92917
ひと	-9.92946
実際は	-9.93008
願	-9.93072
大き目	-9.93073
ネックレス	-9.93074
こちらから	-9.93076
感覚	-9.9311
as	-9.93171
なくなった	-9.93188
ちょ	-9.93225
痛み	-9.93386
四	-9.93442
時も	-9.93445
買い物でした	-9.93481
週間ほど	-9.93481
はっきり	-9.93513
画像より	-9.93525
の色が	-9.93587
寝る	-9.9359
いま	-9.93595
袖が	-9.93617
&#8252;,	-9.93671
お値段が	-9.93676
画像の	-9.93727
お店に	-9.93767
ような気がします	-9.93777
慣れて	-9.93808
サンプル	-9.93811
もあるので	-9.93825
良かったかな	-9.93833
不明	-9.9385
リピは	-9.9388
丁度いい	-9.93911
いう	-9.93911
巻き	-9.94057
なしです	-9.94114
▁2	-9.94172
使いやすく	-9.94182
魚	-9.94183
ありえない	-9.94185
,7	-9.9423
度と	-9.94239
ほしいです	-9.9424
ちゃう	-9.94268
が多いので	-9.94283
食べてくれ	-9.94305
遅く	-9.94305
周	-9.94387
プレ	-9.94416
少なく	-9.94437
セル	-9.94544
カジュアル	-9.94555
塗装	-9.94559
外出	-9.94578
使いたい	-9.94626
閉め	-9.94653
はしません	-9.94723
伝	-9.94793
安価	-9.94829
インク	-9.94899
選択	-9.94917
ホームセンター	-9.94929
ショート	-9.94942
キャップ	-9.94947
履き心地は	-9.95064
別に	-9.95093
くなりました	-9.95094
たん	-9.95162
!」	-9.95209
判	-9.95299
脂	-9.95302
コーヒー	-9.95304
業者	-9.95322
しっかりしている	-9.95375
ほんとに	-9.95401
床	-9.95569
がありますが	-9.95569
はある	-9.95592
ではないでしょうか	-9.956
予想	-9.95615
素敵です	-9.95635
いらない	-9.95645
やすさ	-9.9565
大きいので	-9.95679
迅速な対応	-9.95683
ほうがいい	-9.95732
165	-9.95741
それも	-9.95754
を探していて	-9.95869
股	-9.95932
したもの	-9.95951
納期	-9.96009
袋に	-9.9601
セールで	-9.96033
削	-9.96063
誰	-9.96063
当然	-9.96074
オーダー	-9.96077
縫い目	-9.96081
くれた	-9.96142
年生	-9.9618
暑い	-9.96258
部屋に	-9.96381
細め	-9.96416
ホール	-9.96437
パッド	-9.96439
さっそく	-9.96445
変わって	-9.96446
24.0	-9.96487
っていました	-9.96531
ピッタリです	-9.96628
滑	-9.96638
家の	-9.9665
安く買えて	-9.96756
るもの	-9.96764
関	-9.96785
分丈	-9.96803
山	-9.96822
すぎます	-9.96823
(^-^)	-9.96825
声	-9.96826
が増え	-9.96826
あわせ	-9.96841
枚は	-9.96841
高級感	-9.96908
数日	-9.96938
日注文	-9.96951
昨年	-9.97025
いれば	-9.97103
ではないです	-9.9714
海	-9.97144
週間以上	-9.97185
泡	-9.97202
z	-9.97203
同じもの	-9.97206
r	-9.97291
皆さんのレビュー	-9.97351
と比べて	-9.97384
ポン	-9.97405
入りました	-9.97409
ようになって	-9.97499
かさ	-9.97503
封	-9.97573
ッツ	-9.97585
コットン	-9.97589
参	-9.97589
アレルギー	-9.97591
良さそうです	-9.97719
の方に	-9.97724
みたところ	-9.97789
外側	-9.9785
黒の	-9.97855
はき	-9.97904
せない	-9.97907
ものです	-9.97929
チュ	-9.97932
広い	-9.97969
寸	-9.97976
粗	-9.97977
スキニー	-9.97977
負担	-9.97977
スリム	-9.97978
けっこう	-9.97978
極	-9.9798
眠	-9.97982
を見ると	-9.98012
直接	-9.98045
破	-9.98113
を考えて	-9.98114
役	-9.98277
悪くない	-9.98311
が出る	-9.98421
共	-9.98431
が少ない	-9.98462
元々	-9.98468
こちらの商品は	-9.98474
困	-9.98501
履いている	-9.98504
使ってみました	-9.98508
カバーを	-9.98515
円で購入	-9.98607
下がって	-9.98607
他のショップ	-9.98609
エア	-9.9866
為に	-9.98704
小さかった	-9.98723
代の	-9.98736
鏡	-9.98753
妹	-9.98755
これからの季節	-9.98756
機種	-9.98777
不具合	-9.98789
信用	-9.98811
実物は	-9.98817
合わせて	-9.98884
が欲しい	-9.98967
送料込み	-9.98975
そこまで	-9.99008
商品ページ	-9.99068
クリスマス	-9.99098
胸が	-9.99135
詐欺	-9.99144
高い買い物	-9.99168
足を	-9.99242
かって	-9.99278
丁寧で	-9.99312
店舗で	-9.99343
いけない	-9.99397
当日	-9.9942
くなり	-9.99429
他の商品	-9.99438
▁2,,9	-9.9944
欠	-9.9945
言	-9.995
お得です	-9.99522
幼稚園	-9.99536
恐	-9.99538
粘	-9.9954
買えばよかった	-9.99541
108	-9.99545
手持ちの	-9.9955
持ち手	-9.99574
通りの	-9.99581
厚め	-9.99593
いまだに	-9.99597
さは	-9.99642
我が家の	-9.99644
実感	-9.99644
するのは	-9.99726
よかったのですが	-9.99757
屋さん	-9.99761
愛用	-9.99779
一人で	-9.99782
出る	-9.99788
×2	-9.99858
活躍	-9.99883
してほしいです	-9.99912
保育園	-9.99931
許容範囲	-9.99931
斜め	-9.9994
必ず	-9.99944
生まれ	-9.99947
めっちゃ	-9.99991
してみましたが	-10.0001
肌が	-10.0001
に変更	-10.0003
3.	-10.0004
157	-10.0006
安いです	-10.0008
にしても	-10.001
割り	-10.0021
価格が	-10.0026
プリント	-10.0033
野菜	-10.0033
管理	-10.0033
履けません	-10.0033
すこし	-10.0036
きれ	-10.0036
お花	-10.0038
いるのに	-10.0045
同じ商品	-10.0045
食事	-10.0058
応	-10.0064
ホント	-10.0072
飼	-10.0072
Z	-10.0072
認識	-10.0073
店頭で	-10.0073
良い買い物	-10.008
ro	-10.008
やか	-10.0085
日本製	-10.009
問題ないです	-10.0091
ところに	-10.0091
積	-10.0112
キャメル	-10.0112
グル	-10.0112
売っている	-10.0114
ソックス	-10.0114
インソール	-10.0115
お願いします	-10.0115
ボード	-10.0116
靴を	-10.0116
使い心地	-10.012
済	-10.012
を変え	-10.012
ブラシ	-10.0121
ところです	-10.0125
▁2,,30	-10.0127
,8	-10.0128
となりました	-10.013
隠れ	-10.014
大量	-10.0142
画像と	-10.0147
絶対に	-10.0147
児	-10.0148
治	-10.0151
苦労	-10.0153
手帳	-10.0154
ベスト	-10.0159
309	-10.0163
マシ	-10.0165
ちゃいました	-10.0167
もありますが	-10.0175
付ける	-10.0178
^_^	-10.018
お勧めです	-10.0186
以前の	-10.0186
とおり	-10.0194
バリ	-10.0198
大きさは	-10.0199
あっても	-10.0201
たぶん	-10.0201
なれば	-10.0211
もらえる	-10.0211
履きやすい	-10.0211
のに残念です	-10.0213
XS	-10.0214
するのに	-10.0221
の下に	-10.0224
近くの	-10.0227
も同じ	-10.023
杯	-10.0232
壁	-10.0232
関係	-10.0233
サラサラ	-10.0233
になったので	-10.0234
移動	-10.0234
ワンピ	-10.0235
なと思いました	-10.0242
とれ	-10.0248
に関しては	-10.0249
っぱなし	-10.0249
しております	-10.025
気になりました	-10.025
優	-10.0252
いただいた	-10.0255
本人も	-10.0259
ので星	-10.026
美味しかったです	-10.0261
と思ってます	-10.0264
起	-10.0271
太って	-10.0271
完成	-10.0274
記入	-10.0276
掛	-10.0279
だと思う	-10.0285
外に	-10.0288
隙間	-10.029
柔らか	-10.0294
購入できて	-10.0294
マイ	-10.0295
ないけど	-10.0296
っていて	-10.0296
2.5	-10.0298
横幅	-10.0299
みたいに	-10.0302
かったのですが	-10.0306
注文してから	-10.0306
エン	-10.031
抜群	-10.0314
姉	-10.0314
紺	-10.0314
アウトレット	-10.0314
余計	-10.0315
買い換え	-10.0316
ブリ	-10.0318
縫製が	-10.0326
枚購入	-10.0342
上下	-10.0343
体系	-10.0344
に見えます	-10.0346
なさそう	-10.0348
とても良い	-10.0349
酷	-10.035
とてもいいです	-10.0352
用に買いました	-10.0352
時間がかかり	-10.0354
住	-10.0354
贈	-10.0354
缶	-10.0355
意外と	-10.0355
長さは	-10.0355
種類の	-10.0357
なのが	-10.0357
ゃ	-10.0358
明日	-10.036
発生	-10.0362
☆1	-10.0365
みようと思います	-10.0365
st	-10.0365
綺麗です	-10.0366
購入したもの	-10.0373
回で	-10.0374
大きめの	-10.0378
使ってみて	-10.0379
を使用して	-10.0387
欲	-10.0389
起き	-10.0392
れず	-10.0394
彼	-10.0395
ボーダー	-10.0396
運動	-10.0398
ミシン	-10.0398
親指	-10.0398
th	-10.0404
これまで	-10.0406
▁2,,23	-10.0407
ヶ月の娘に	-10.0409
かかった	-10.0414
不安でしたが	-10.0418
良い商品	-10.0425
もうちょっと	-10.0426
▁2,,24	-10.0427
歩け	-10.0437
光沢	-10.0437
取り寄せ	-10.0438
固い	-10.0443
それは	-10.0449
美味しかった	-10.0449
購入します	-10.045
置く	-10.0451
引き出し	-10.0453
のために購入しました	-10.0456
のものが	-10.0458
700	-10.0458
注文後	-10.0459
あると	-10.0465
ってます	-10.0466
(^^;	-10.0469
法	-10.0471
それなり	-10.0473
買ったので	-10.0474
こちらを購入しました	-10.0475
すべき	-10.0476
踏	-10.0477
画像通り	-10.048
以外は	-10.0492
購入しています	-10.0492
日に発送	-10.0492
まった	-10.0493
想像	-10.0496
かわいいし	-10.0497
303	-10.0497
ッター	-10.0497
が無く	-10.0507
置	-10.0511
事は	-10.0511
入ってました	-10.0514
分で	-10.0516
夫	-10.0517
の違い	-10.0518
重く	-10.0519
<	-10.0519
にも関わらず	-10.052
直ぐに	-10.0521
取って	-10.0524
届いたら	-10.053
サイズです	-10.0531
存在感	-10.0531
発送は	-10.0534
太く	-10.0535
感動	-10.0535
長さも	-10.054
強度	-10.0542
古い	-10.0543
分かりません	-10.0544
スタ	-10.0547
こちらのお店	-10.0547
信じ	-10.0549
買います	-10.0552
購入後	-10.0558
貼り	-10.0566
それを	-10.0567
なったので	-10.0571
用として	-10.0581
可愛いし	-10.0587
夕方	-10.0588
同梱	-10.0594
させていただきました	-10.0602
サプリ	-10.0603
晩	-10.0603
によっては	-10.0605
間違え	-10.0608
産後	-10.0613
黄	-10.0622
易	-10.0623
見つけました	-10.0624
手触り	-10.0645
御	-10.0645
定価	-10.0646
キツく	-10.0647
を見つけ	-10.0649
かける	-10.0654
活躍しそうです	-10.0654
去年	-10.0658
さすが	-10.0661
飾り	-10.0663
,9	-10.0665
破れて	-10.0676
履いたら	-10.0676
普通体型	-10.0679
旨	-10.0682
したけど	-10.0683
311	-10.0683
筋	-10.0687
通勤	-10.0688
ボトル	-10.0689
に対して	-10.0692
着ると	-10.0692
個購入しました	-10.0693
そういう	-10.0693
枚購入しました	-10.0699
履けない	-10.0701
パット	-10.0704
ないですね	-10.0707
過	-10.0709
悪いです	-10.0717
長すぎ	-10.0722
を受け	-10.0722
塗って	-10.0729
玄関	-10.073
胸の	-10.0731
ご飯	-10.0731
おしり	-10.0732
&#100	-10.0734
付く	-10.0735
合いませんでした	-10.0738
まだ届いていません	-10.074
食い	-10.0741
のない	-10.0742
欲しかったです	-10.0742
迷った	-10.0761
皿	-10.0772
依頼	-10.0772
ヘッド	-10.0773
信頼	-10.0773
ブル	-10.0773
を選択	-10.0773
ばかりで	-10.0774
知り	-10.0775
広げ	-10.0775
分け	-10.0777
ほう	-10.0778
バイク	-10.0779
部分を	-10.078
メン	-10.0784
するのが	-10.0786
円なら	-10.0786
ドライ	-10.0792
当たる	-10.0793
テン	-10.0794
サイズでした	-10.0808
もらって	-10.081
203	-10.0812
いいかもしれません	-10.0813
組立	-10.0816
ダイ	-10.0817
最初に	-10.0818
USB	-10.0821
かれて	-10.0822
楽しく	-10.0826
は難しい	-10.083
曲がって	-10.0831
行く	-10.0832
されていた	-10.0838
る感じ	-10.0839
このような	-10.0841
になっていて	-10.0843
すぎた	-10.0851
送料込	-10.0851
持つ	-10.0853
続き	-10.0857
ぴったりで	-10.0858
率	-10.0858
どんどん	-10.0858
抱っこ	-10.0858
サイズを購入しましたが	-10.0859
も無く	-10.0859
年くらい	-10.0863
防水	-10.0864
訳あり	-10.0865
▁S	-10.0865
処分	-10.0866
っぽ	-10.0871
しなくて	-10.0871
ロール	-10.0873
25.5	-10.0876
求め	-10.0877
高いので	-10.0879
やつ	-10.0881
を使う	-10.0887
AN	-10.0888
人気	-10.0889
炊	-10.0901
筆	-10.0901
厳しい	-10.0902
既に	-10.0902
楽です	-10.0902
サイズにしました	-10.0903
コメント	-10.0904
選び	-10.0905
使いましたが	-10.0909
キン	-10.091
含め	-10.091
振り	-10.0913
高かった	-10.0918
数回	-10.092
しろ	-10.0922
円でも	-10.0924
可愛かった	-10.0929
ったので	-10.0935
料理	-10.0945
股上	-10.0951
手頃	-10.0952
失敗しました	-10.0956
思い切って	-10.0957
に注文し	-10.0973
内側	-10.0979
ファスナーが	-10.098
円くらい	-10.0981
この商品を	-10.0983
素材が	-10.0988
虫	-10.0988
ch	-10.0988
金属	-10.0988
駄目	-10.0991
のほう	-10.0995
かしら	-10.0997
しみ	-10.1004
いっ	-10.1007
水着	-10.1011
くなった	-10.1011
による	-10.1012
▁^	-10.1019
使っていますが	-10.1021
国産	-10.1027
アウト	-10.1031
情報	-10.1031
,【	-10.1035
シェ	-10.1036
頂いて	-10.1037
拭	-10.1038
早かった	-10.104
以前は	-10.1043
素晴らしい	-10.1047
本当は	-10.1048
らなかった	-10.1051
実家	-10.1057
8.	-10.1063
たま	-10.1065
載せ	-10.1068
盤	-10.1074
録	-10.1074
↓	-10.1075
眼	-10.1075
それで	-10.1075
針	-10.1075
札	-10.1075
急いで	-10.1081
くれます	-10.1085
っく	-10.1091
304	-10.1091
サイ	-10.1093
レザー	-10.1098
と書いてあり	-10.1104
al	-10.1113
んです	-10.1118
色落ち	-10.1118
算	-10.1119
と比べると	-10.1119
鍋	-10.1119
持ち運び	-10.1119
°	-10.1119
1〜2	-10.1121
...,1	-10.1123
▁2,100	-10.1129
この値段なら	-10.1131
発色	-10.1137
たまま	-10.1138
たほうが	-10.1141
---------------	-10.1142
冷え	-10.1146
な感じです	-10.1147
ドット	-10.1149
などに	-10.1155
といった	-10.1156
もう一つ	-10.1163
聴	-10.1164
▁s	-10.117
個購入	-10.1187
選べる	-10.1187
上品	-10.1195
it	-10.1198
になりそうです	-10.1198
はなかなか	-10.1199
精	-10.1208
BOX	-10.1208
操作	-10.1208
みなさん	-10.1209
と思っていた	-10.121
デザインで	-10.1216
購入して良かったです	-10.122
抜	-10.1221
クリスマスプレゼントに	-10.1224
写真を	-10.1226
4.5	-10.123
250	-10.1232
きつくて	-10.1232
に置いて	-10.1235
ーーー	-10.1241
着れない	-10.1242
おりました	-10.1244
越	-10.1252
刺	-10.1252
印刷	-10.1253
半額	-10.1254
急ぎ	-10.1257
ではありませんでした	-10.1257
とは言え	-10.1258
休み	-10.126
入っている	-10.1263
に比べて	-10.1263
値段で	-10.1264
206	-10.1269
小さいサイズ	-10.1272
息子も	-10.1277
もありましたが	-10.1277
辺	-10.1282
迷い	-10.1283
派	-10.1286
が必要です	-10.129
ガード	-10.129
販	-10.1291
おいしいです	-10.1292
仕方なく	-10.1292
(^_^;)	-10.1298
お茶	-10.13
小さかったです	-10.1302
なんだ	-10.1302
が悪いのか	-10.1304
危	-10.1304
痛くなり	-10.1306
ダボ	-10.131
306	-10.1311
個は	-10.1311
余裕があり	-10.1314
方に	-10.1317
at	-10.1325
202	-10.1326
(;	-10.1327
2012	-10.1329
ことができ	-10.133
姿	-10.1342
復	-10.1342
にもかかわらず	-10.1342
スイッチ	-10.1343
製造	-10.1343
チワワ	-10.1348
GB	-10.135
股下	-10.1351
いい買い物	-10.1351
とありますが	-10.1352
?」	-10.1353
同時購入	-10.1357
届けて	-10.1361
厚く	-10.1366
はみ出	-10.1368
剥がれて	-10.1368
ことはない	-10.1368
飾	-10.1369
してみました	-10.137
をつけて	-10.1371
余裕がある	-10.1373
出来た	-10.1378
大変でした	-10.1378
ちょうどよい	-10.1381
もあって	-10.1384
!!!!!	-10.1387
開けた	-10.1392
しっかりした作り	-10.1392
ような感じ	-10.1393
飲め	-10.1393
無地	-10.1395
大丈夫です	-10.1413
ブラックの	-10.1417
組み合わせ	-10.1417
連絡を	-10.1421
壊れる	-10.1423
喜んでいました	-10.1429
かん	-10.1429
つ購入しました	-10.1429
良し	-10.143
月末	-10.1432
牛	-10.1433
体に	-10.1434
段階	-10.1434
カーテン	-10.1435
思ってたより	-10.1436
入金	-10.1439
持っている	-10.144
探し	-10.144
日ほど	-10.1446
二人	-10.1447
やすかったです	-10.1447
プール	-10.1448
可愛かったです	-10.1449
お届け	-10.145
のが残念です	-10.145
痛いです	-10.1459
やすかった	-10.1471
愛用しています	-10.1471
期待していた	-10.1475
ねじ	-10.1476
束	-10.1477
果	-10.1477
聞	-10.1479
保管	-10.1479
接着剤	-10.148
やすいので	-10.148
スムーズ	-10.1482
とてもかわいいです	-10.1482
ダブル	-10.1485
付属	-10.1487
ネック	-10.149
ませ	-10.1491
送られて	-10.1491
靴底	-10.1492
地味	-10.1498
ぐらいで	-10.15
日で届きました	-10.15
91	-10.1505
:2	-10.1505
☆2	-10.1507
色と	-10.1508
それから	-10.1508
本セット	-10.1508
知って	-10.1511
どうしよう	-10.1511
順	-10.1524
歴	-10.1525
170	-10.1525
スタッフ	-10.1525
草	-10.1525
今から	-10.1526
デカ	-10.1527
207	-10.1527
ボックス	-10.1528
動作	-10.1529
よかったかな	-10.1531
微妙に	-10.1532
商品が届きました	-10.1537
頃に	-10.1541
とてもいい	-10.1543
これでは	-10.1543
になっています	-10.1551
敷き	-10.1556
生地で	-10.1556
組み立ては	-10.1563
に問題	-10.1567
ヴ	-10.157
準備	-10.1571
営業	-10.1571
とは思いますが	-10.1572
ひっ	-10.1574
待たされ	-10.1577
安定感	-10.1579
チョコ	-10.1587
つま	-10.1593
であれば	-10.1597
必要な	-10.1598
▁L	-10.1603
頂け	-10.1605
こちらで購入	-10.1609
歩	-10.161
くるぶし	-10.1617
ぷ	-10.1617
怒	-10.1617
検討中です	-10.1618
決定	-10.1619
優しい	-10.162
良かったと思います	-10.162
ょ	-10.1624
ニア	-10.1624
待	-10.1627
ちょっと残念	-10.1628
価	-10.1635
ディー	-10.1636
▁1,,160	-10.1652
のかも	-10.1652
かわいいので	-10.1659
もう一度	-10.1662
ぴ	-10.1663
延	-10.1663
そろそろ	-10.1663
髪の毛	-10.1664
ゎ	-10.1664
取れました	-10.1666
時間がかかる	-10.1666
当たって	-10.1667
で気に入りました	-10.1667
酷い	-10.1668
胸元	-10.1669
キャン	-10.1673
点は	-10.1683
目立ち	-10.1688
レス	-10.169
減ら	-10.1699
小物	-10.1704
かも知れません	-10.171
ソフト	-10.1711
ファイル	-10.1711
容器	-10.1711
返品も	-10.1714
手を	-10.1716
もあります	-10.1716
周りが	-10.172
楽しい	-10.1722
っちゃ	-10.1726
が欲しかったので	-10.1737
少しでも	-10.1737
208	-10.1738
歩きやすい	-10.1739
最初の	-10.1754
才の	-10.1755
コンタクト	-10.1757
ジッパー	-10.1757
期限	-10.1758
電球	-10.1759
充電器	-10.1763
閉ま	-10.1763
7.5	-10.1765
写真通り	-10.1766
もらう	-10.1766
なっている	-10.1768
ちょっとした	-10.1769
普段の	-10.178
大きすぎて	-10.178
裂け	-10.178
イメージ通り	-10.1781
送料無料で	-10.1782
ところで	-10.1787
額	-10.1802
履き心地も	-10.1804
棒	-10.1804
あきらめ	-10.1805
必須	-10.1805
書いてある	-10.1807
間違って	-10.1808
失敗した	-10.1809
ad	-10.1811
他にも	-10.1814
良いもの	-10.1818
良いですね	-10.1822
入荷予定	-10.1823
おけば	-10.1824
気味	-10.1842
処	-10.1842
ものすごく	-10.1844
このサイズ	-10.185
東	-10.1852
不思議	-10.1852
ばら	-10.1852
というのは	-10.1855
換え	-10.1856
使用していた	-10.1857
のせいか	-10.186
する事	-10.186
お店の対応も	-10.1862
8000	-10.1863
的にも	-10.1866
記載されて	-10.1868
基本	-10.1868
かた	-10.1872
あげて	-10.1873
寒	-10.1875
なくなったら	-10.1886
〜〜	-10.1888
外で	-10.1889
届いた商品	-10.189
なんと	-10.1891
をお願いし	-10.1893
&#13213;	-10.19
中敷	-10.1902
406	-10.1903
メイン	-10.1904
自分が	-10.191
わけではない	-10.1913
を注文しましたが	-10.1915
来ません	-10.1916
ボディ	-10.1917
使いました	-10.1919
▁2,,160	-10.1931
ケア	-10.1936
かつ	-10.1942
是非	-10.1947
滅	-10.1947
><	-10.1948
格好	-10.1949
段ボール	-10.195
一応	-10.1955
ON	-10.1957
われ	-10.1968
いいもの	-10.1977
せずに	-10.1977
と言われました	-10.1979
到着して	-10.1981
然	-10.199
柄は	-10.2
とても良いです	-10.2
ヒビ	-10.2004
過ぎる	-10.2013
次回は	-10.2016
レット	-10.2019
スーパーセール	-10.2022
とても良かったです	-10.2023
こっち	-10.2026
目立ちます	-10.2028
申し	-10.2031
月から	-10.2035
寒く	-10.2036
薄いです	-10.2042
個入り	-10.2042
パソコン	-10.2044
帽子	-10.2045
洗う	-10.2057
買	-10.2059
ぽっちゃり	-10.2063
Kg	-10.2066
ムラ	-10.2067
出来ます	-10.2068
つきました	-10.207
le	-10.2074
到着まで	-10.2083
以前に	-10.2086
見せ	-10.2088
費	-10.2091
扉	-10.2091
ウォー	-10.2092
疑	-10.2092
とても気に入っています	-10.2093
キャスター	-10.2093
箱に	-10.2096
なきゃ	-10.2096
回答	-10.2097
いつ届く	-10.21
01-0	-10.2104
の誕生日プレゼントに	-10.2111
とあったので	-10.2112
室内	-10.2114
息子が	-10.2115
横に	-10.2118
活用	-10.2119
夏に	-10.2119
と合わせて	-10.2131
でかい	-10.2132
パツパツ	-10.2141
縁	-10.2141
んじゃない	-10.2142
届くのが楽しみです	-10.2144
梱包も	-10.2149
盛り	-10.215
お肉	-10.2153
無いです	-10.2153
夏は	-10.2155
の子に	-10.2157
水色	-10.2157
迷	-10.2158
わかって	-10.2158
でこの値段は	-10.2158
使用している	-10.2171
つかない	-10.2174
途中で	-10.2174
して欲しい	-10.2181
お得な	-10.2182
のび	-10.2182
購入したいです	-10.2182
ノー	-10.2188
教	-10.2189
工夫	-10.2191
予備	-10.2191
.\	-10.2193
パワー	-10.2194
この店	-10.2195
雨の日	-10.2196
こんなこと	-10.2198
キュ	-10.2202
ちょうど良く	-10.2205
使用していますが	-10.2221
&#8252;&#65038;,	-10.2222
開ける	-10.2223
混ぜて	-10.223
かと思いましたが	-10.2232
喜んでいます	-10.2234
▁2,,12	-10.2235
408	-10.2237
各	-10.2239
耐	-10.2239
ヘビロテ	-10.2239
楽しんで	-10.224
散歩	-10.224
届いていません	-10.2241
っこ	-10.2241
ワンサイズ上	-10.2246
ジェ	-10.2253
やっと届きました	-10.2255
ついていて	-10.2257
ある程度	-10.2258
きれいです	-10.2269
楽天で	-10.2274
休	-10.228
ベル	-10.2281
かかとが	-10.2283
上部	-10.2285
,160	-10.2288
範囲	-10.2289
経ちました	-10.2289
冷凍	-10.2289
頼まれ	-10.2289
なってきたので	-10.2292
切り替え	-10.2294
していただき	-10.2305
追加で	-10.2307
買った方が	-10.2311
今までは	-10.2313
▁2,6	-10.2315
使い始めて	-10.2315
お友達	-10.2316
年半	-10.2318
上げて	-10.2319
言えば	-10.2324
が少なく	-10.2327
遅れて	-10.2329
ネジが	-10.2338
ペット	-10.2345
ならば	-10.2346
シーツ	-10.2348
イル	-10.2349
口に	-10.2351
楽に	-10.2354
浮いて	-10.2357
買えて	-10.236
期待しています	-10.2365
敷いて	-10.2367
落とし	-10.237
も付いて	-10.2379
使用後	-10.238
高め	-10.2383
その分	-10.2384
も一緒に	-10.2385
衣	-10.2388
あす楽	-10.2389
豊富	-10.2389
孫	-10.2389
Д	-10.2389
&#8226;	-10.2389
BBQ	-10.2389
相性	-10.2391
自動	-10.2391
ヶ月の息子	-10.2394
ダイヤ	-10.2394
他の色も	-10.2396
タッチ	-10.24
重量	-10.2402
プレート	-10.2403
トリ	-10.2411
^)/	-10.2415
入れる	-10.2416
自分用に	-10.2418
いるのか	-10.242
サイズですが	-10.2422
いれ	-10.2423
金具が	-10.2423
貼	-10.2427
回目で	-10.2429
身体	-10.2431
参考	-10.2434
フィルター	-10.2439
員	-10.2439
ふた	-10.2439
理解	-10.244
滑り止め	-10.244
安くなって	-10.2441
仕方がない	-10.2455
TV	-10.2457
カル	-10.2459
受付	-10.2462
を送って	-10.2463
驚	-10.247
張って	-10.2472
もっと早く	-10.2475
着れません	-10.2478
お米	-10.248
の良さ	-10.2483
ようになり	-10.2484
届いた商品は	-10.2485
汚れて	-10.2487
砂	-10.2489
どうなってる	-10.249
かっこいいです	-10.249
返答	-10.249
お店の対応は	-10.2495
して頂き	-10.2495
ツヤ	-10.2502
思わ	-10.2507
この価格で	-10.2513
自分には	-10.2519
ほんと	-10.2528
おかげで	-10.2537
規	-10.2539
窓	-10.2539
撮	-10.2539
情	-10.2539
サイズでも	-10.254
ひどく	-10.2541
変わらず	-10.2542
食いつき	-10.2542
をみて	-10.2544
頂いた	-10.2545
一言	-10.2548
ないもの	-10.2552
モカ	-10.2554
が欲しかった	-10.2557
歳の娘の	-10.2563
書いた	-10.2563
チェ	-10.2568
広く	-10.2575
死	-10.2581
ようになりました	-10.2584
予	-10.2588
到着後	-10.259
&#65038;	-10.2591
つもりで	-10.2591
原	-10.2591
マットレス	-10.2593
キレイに	-10.2595
抜き	-10.2596
キレイな	-10.2597
とありましたが	-10.2601
後悔しています	-10.2602
ショップの対応	-10.2608
""	-10.261
もついて	-10.2612
グラ	-10.2613
嫌い	-10.2615
小さいので	-10.2619
ママ	-10.2624
いや	-10.2626
枚入り	-10.263
怖い	-10.2633
充	-10.2636
間違えて	-10.2636
折れて	-10.2637
107	-10.2638
スムーズに	-10.264
限	-10.264
失	-10.2642
羽織	-10.2643
断然	-10.2643
切る	-10.2647
じゃなく	-10.265
効いて	-10.2653
されていました	-10.2655
ソファー	-10.2658
ように思います	-10.2658
みる	-10.2664
切れました	-10.2666
US	-10.2675
ロゴ	-10.2675
着用して	-10.268
なくなってしまいました	-10.2687
激	-10.2687
状態です	-10.269
視	-10.2691
思ってた	-10.2692
絶	-10.2693
ってしまいました	-10.2694
艶	-10.2694
兼	-10.2694
凹	-10.2694
大切に	-10.2694
現物	-10.2697
きり	-10.2702
お得感	-10.2705
遊んでいます	-10.271
締め付け	-10.2712
あるように	-10.272
取り付けて	-10.2721
級	-10.2724
ラク	-10.2732
白く	-10.2739
誤	-10.2744
コストパフォーマンス	-10.2746
評判	-10.2746
こちらを購入	-10.2746
上手く	-10.2746
ネイル	-10.2748
内側の	-10.275
使えなくなりました	-10.2753
異	-10.2765
確認メール	-10.2768
ないといけない	-10.2771
当て	-10.2771
パンツは	-10.2771
送料も	-10.2772
暑	-10.2786
失敗でした	-10.2788
au	-10.2789
166	-10.279
本当	-10.2791
つきます	-10.2793
至	-10.2798
吹	-10.2798
フレーム	-10.2798
たびに	-10.28
問題ありませんでした	-10.2803
目的	-10.2804
ドア	-10.2807
裾が	-10.2807
浅	-10.2812
所に	-10.2812
にすればよかった	-10.2815
友達に	-10.2818
使えるので	-10.2818
まして	-10.2822
洗った	-10.2826
CM	-10.2831
213	-10.2832
折	-10.2833
送料込みで	-10.2837
スプレー	-10.2837
扱って	-10.2837
してしまった	-10.284
するのも	-10.2841
お値段以上	-10.2844
弾	-10.285
とても可愛いです	-10.285
突然	-10.285
健康	-10.2851
隙間が	-10.2853
香りも	-10.2854
乾き	-10.2855
していたのですが	-10.286
毎	-10.2862
家で	-10.2866
温度	-10.2871
(*^	-10.2871
付いている	-10.2873
並べて	-10.2875
ヶ月の息子に	-10.2876
始めた	-10.2879
いるうちに	-10.2881
211	-10.2883
履きやすく	-10.2886
307	-10.2887
接	-10.2889
と思うのですが	-10.289
映	-10.289
常に	-10.2894
捨てる	-10.2899
高すぎ	-10.2899
暖	-10.2899
上の子	-10.2901
落ちる	-10.2902
タイムセール	-10.2903
机	-10.2903
ワイヤー	-10.2903
のものは	-10.2905
☆4	-10.2905
不便	-10.2906
税	-10.2912
本目です	-10.2921
トン	-10.2931
していただきました	-10.2934
感じた	-10.2941
るようになりました	-10.2943
多かった	-10.2945
なんとも	-10.2946
1/2	-10.2946
使ったら	-10.2948
買い直し	-10.2948
理	-10.295
落として	-10.295
んですか	-10.2951
節	-10.2955
クリ	-10.2955
望	-10.2956
ハード	-10.2956
汁	-10.2956
放置	-10.2956
後日	-10.2959
座面	-10.2965
そこそこ	-10.2972
さま	-10.2983
買ったけど	-10.2983
言うこと	-10.2984
食べられ	-10.2985
中国製	-10.3
階	-10.3006
素材は	-10.3006
奥	-10.3008
アルバム	-10.3009
回しか	-10.3009
シルク	-10.3009
繰り返し	-10.3009
パジャマ	-10.3009
チクチク	-10.3009
素足で	-10.301
色んな	-10.301
教えて	-10.301
曲げ	-10.3015
パイ	-10.3017
取付	-10.3017
申し分	-10.3018
柔らかくて	-10.3022
いいのか	-10.3023
かわいかったです	-10.3024
内に	-10.3026
でしょ	-10.3027
なってしまいました	-10.3036
出した	-10.3036
品切れ	-10.3039
と思っていたのですが	-10.3046
倒	-10.3051
色違いも	-10.3052
ダーク	-10.3056
104	-10.3057
勝手に	-10.3062
腐	-10.3063
ダンボール	-10.3063
劣化	-10.3063
トラブル	-10.3063
バンド	-10.3064
バラバラ	-10.3064
分けて	-10.3064
小分け	-10.3066
十分です	-10.3067
使わ	-10.3079
ることなく	-10.3086
湯	-10.309
っていう	-10.3096
158	-10.3097
取る	-10.3098
205	-10.3099
嫌な	-10.3103
ボトム	-10.3116
刺繍	-10.3116
ひざ	-10.3122
しなければ	-10.3129
こん	-10.3138
易い	-10.3144
待つ	-10.3148
だと思い	-10.3153
グラス	-10.3156
ポリ	-10.3157
返品交換	-10.316
接触	-10.3163
雑な	-10.3163
浴	-10.317
径	-10.317
スタンド	-10.317
シリコン	-10.3171
ハンガー	-10.3171
見つけて	-10.3174
ビックリしました	-10.3178
に入れる	-10.3183
純正品	-10.3185
中身が	-10.3187
キャッチ	-10.32
使っていました	-10.3209
を期待して	-10.3211
といって	-10.3212
外れて	-10.3214
と書いてあったので	-10.3217
しようと思って	-10.3222
鮮	-10.3223
突	-10.3224
記念	-10.3225
性能	-10.3227
返金	-10.3229
気にいって	-10.323
あけ	-10.323
来年も	-10.3236
マスク	-10.3237
んじゃ	-10.3242
んじゃないか	-10.3242
買ったら	-10.3252
使いたいと思います	-10.3254
みても	-10.3254
ないため	-10.3259
素材も	-10.3264
リピートしました	-10.3266
のではないか	-10.3276
歌	-10.3279
勘違い	-10.3279
判断	-10.328
ゆるゆる	-10.3281
食べました	-10.3281
長袖	-10.3293
購入すること	-10.3294
相	-10.3298
してみると	-10.3329
いいけど	-10.3332
ストッキング	-10.3334
ぅ	-10.3334
書かれている	-10.3338
ハンドル	-10.334
が好きなので	-10.3341
韓国	-10.3341
代わりに	-10.3342
メッシュ	-10.3342
しにくい	-10.3345
せば	-10.3348
いろいろな	-10.3348
魅力	-10.3352
入ってる	-10.3355
月末に	-10.3355
407	-10.3355
気をつけて	-10.3357
近所	-10.3362
高いです	-10.3363
305	-10.3366
使っていません	-10.3374
探していた	-10.3374
といった感じ	-10.3383
に惹かれて	-10.3385
打	-10.3386
にしてみました	-10.3387
スポーツ	-10.3389
妻	-10.3389
お揃い	-10.339
なんとなく	-10.3397
硬	-10.3404
枚セット	-10.3407
こちらのお店で	-10.3408
調べ	-10.341
買わなかった	-10.341
いきます	-10.3413
洗濯したら	-10.3425
子供用	-10.3428
送られてきた	-10.343
▁1,,30	-10.3434
納	-10.3437
飲んでいます	-10.3438
容	-10.3439
行った	-10.3441
想像していた	-10.3444
ストレート	-10.3445
囲	-10.3445
重宝しそうです	-10.3445
論	-10.3445
形状	-10.345
忘れて	-10.345
マグネット	-10.3451
ホック	-10.3453
トル	-10.3454
家に	-10.3456
肌触りも	-10.3456
もう買いません	-10.3458
取り外し	-10.3462
着たい	-10.3462
▁2,,170	-10.3471
ボー	-10.3481
安っぽいです	-10.3485
歳半	-10.3488
★1	-10.349
209	-10.3496
在庫あり	-10.3497
ゆとりがあり	-10.3498
と一緒に購入しました	-10.35
ショルダー	-10.3501
寿命	-10.3501
変わった	-10.3501
甘く	-10.3503
リピします	-10.3503
他で	-10.3503
造り	-10.351
ボタンを	-10.3514
ゆるく	-10.3514
見かけ	-10.3515
が入っている	-10.3519
入っていませんでした	-10.3521
507	-10.3524
きたら	-10.3524
ニオイ	-10.3526
3.5	-10.3529
お願いした	-10.3536
されていて	-10.3541
他のレビュー	-10.3548
途中	-10.3548
ころ	-10.3551
写	-10.3555
科	-10.3557
提	-10.3557
投	-10.3557
あっという間に	-10.3557
野	-10.3557
ベース	-10.3557
紹介	-10.3557
遅延	-10.3557
いきなり	-10.3557
するべき	-10.3563
他の方も	-10.3566
苦手	-10.3576
始	-10.3576
履いています	-10.3582
使用していません	-10.3589
こちらの方が	-10.36
ショップから	-10.3601
増え	-10.3603
受	-10.3609
図	-10.3613
病院	-10.3613
鳴	-10.3614
欄	-10.3614
思った以上に	-10.3614
逆	-10.3622
にすれば良かった	-10.3622
書け	-10.3629
こちらのショップで	-10.3631
ものなので	-10.3632
買うこと	-10.3634
いたところ	-10.3639
▁1,,17	-10.3641
まだ届かない	-10.3648
日後	-10.3652
,156	-10.3654
はいって	-10.3655
使い続け	-10.366
換	-10.3661
回ほど	-10.3661
荒	-10.3663
と違い	-10.3664
2011	-10.3669
筒	-10.367
世	-10.367
継続	-10.367
ジーンズ	-10.367
鉢	-10.367
請求	-10.367
お金を	-10.3671
買えば良かった	-10.3671
サポート	-10.3672
シン	-10.3673
むしろ	-10.3674
当初	-10.3675
歳児	-10.3676
ベット	-10.368
1/1	-10.3681
気に入っている	-10.3685
されていない	-10.3691
おまけに	-10.3693
されています	-10.3693
かなと思いましたが	-10.3694
ヘア	-10.3701
−1	-10.3703
良かったかも	-10.3705
厚手の	-10.3706
できれば	-10.371
405	-10.3716
するため	-10.3717
と違って	-10.3725
在	-10.3725
違う色	-10.3727
チャコール	-10.3727
パカパカ	-10.3727
ツルツル	-10.3728
`*)	-10.3728
喜ばれ	-10.3728
をお勧めします	-10.3728
るのが楽しみです	-10.3729
決して	-10.3729
厚い	-10.3733
ハート	-10.3734
ビーズ	-10.3734
といっても	-10.3734
長かった	-10.3737
IN	-10.3739
ゴミ箱	-10.3743
きついです	-10.3745
太さ	-10.3749
がっかりでした	-10.3749
それなりに	-10.375
短かった	-10.375
何度	-10.3756
重ねて	-10.3756
以前から	-10.3757
一緒	-10.3762
まい	-10.3765
12/1	-10.3765
供	-10.3769
落ち着いた色	-10.3778
念	-10.3783
いないのに	-10.3783
制	-10.3784
抗	-10.3785
華やか	-10.3786
次の日に	-10.3786
購入を決めました	-10.3786
込	-10.3789
当方	-10.3791
接着	-10.3796
割引	-10.3798
入りませんでした	-10.3809
使用してます	-10.3816
次の	-10.382
ちゃった	-10.3827
入りません	-10.3828
納品	-10.3837
させて頂きます	-10.3843
老	-10.3843
ポーチ	-10.3844
到着した	-10.3844
成長	-10.3848
ヶ月ほど	-10.3851
た瞬間	-10.386
トロ	-10.3869
リピートします	-10.387
になっていました	-10.387
喜んでくれました	-10.3878
回転	-10.3878
ペア	-10.3879
なくなります	-10.388
示	-10.3899
苗	-10.39
掲載	-10.3901
スポンジ	-10.3901
正規品	-10.3903
ために購入しました	-10.3907
余裕があります	-10.391
の私でも	-10.3911
良くない	-10.3913
のであれば	-10.3917
痛くて	-10.3919
使えました	-10.3921
リピしました	-10.3921
向いて	-10.3922
仕上げ	-10.3923
欠け	-10.3926
軽いので	-10.3927
もないし	-10.3927
すみません	-10.3932
うれしい	-10.3933
308	-10.3934
選びました	-10.3938
ちゃんとした	-10.3939
こちらで購入しました	-10.3941
悩んだ	-10.3944
わず	-10.3949
拭き	-10.395
大活躍	-10.3954
合わせる	-10.3958
つにしました	-10.3959
トリートメント	-10.3959
ふかふか	-10.3959
ガッチリ	-10.396
覚え	-10.3965
新しく	-10.3966
ポスト	-10.3973
ずら	-10.3973
使用していましたが	-10.3976
いざ	-10.3978
薄さ	-10.3982
15-0	-10.3987
次の日	-10.3988
しっかりとした	-10.3991
,170	-10.3993
ポチ	-10.3997
あったのですが	-10.4006
翌	-10.4007
よさそうです	-10.4016
照	-10.4017
と思われます	-10.4018
スプーン	-10.4018
トイプードル	-10.4018
言葉	-10.402
べき	-10.4025
アダプター	-10.4028
ヶ月以上	-10.4031
あげる	-10.4032
受け取り	-10.4034
編	-10.4049
読	-10.4055
歳になる	-10.4059
カッコ	-10.4063
プチ	-10.407
#	-10.4076
ラッキー	-10.4077
浸	-10.4077
総	-10.4077
馴染んで	-10.4078
ステンレス	-10.4078
神	-10.4078
大事に	-10.408
ドライバー	-10.408
洗濯機	-10.4087
過ぎず	-10.4107
ごろ	-10.4107
驚き	-10.4107
がついている	-10.4109
覚悟	-10.412
非常に残念です	-10.412
定期	-10.4121
着けて	-10.4123
14-0	-10.4124
トレ	-10.4125
下がり	-10.4133
登	-10.4136
席	-10.4137
幸	-10.4137
初心者	-10.4137
モニター	-10.4137
ぜひ	-10.4139
ヶ月の娘	-10.4141
ニング	-10.4144
電気	-10.4146
値段なり	-10.415
直して	-10.4151
床に	-10.4154
生活	-10.4158
されてる	-10.4162
短すぎ	-10.4163
んー	-10.4167
つかって	-10.417
円ショップで	-10.4183
本来	-10.4183
追加購入	-10.4184
★2	-10.4187
動く	-10.4189
Bluetooth	-10.4197
リットル	-10.4197
お詫び	-10.4197
某	-10.4197
を発見	-10.42
固め	-10.4211
返品したい	-10.4214
分には	-10.4223
とても満足しています	-10.4227
204	-10.4232
辛い	-10.4234
日に注文しましたが	-10.4236
商品が届いて	-10.4237
かわいかった	-10.4241
喜んでくれ	-10.4246
今度	-10.4246
近い	-10.4253
ウェスト	-10.4257
血	-10.4257
件	-10.4257
口コミ	-10.4257
職場	-10.4258
スープ	-10.4258
くるので	-10.4259
ワンコ	-10.426
すぐに届きました	-10.4261
可能性	-10.4262
聞き	-10.4264
合皮	-10.4264
ないのが	-10.4266
擦れ	-10.4267
センチを購入しました	-10.4268
カッコいい	-10.4271
の為に購入しました	-10.4273
少しずつ	-10.4276
頼み	-10.4278
扱	-10.4286
というのが	-10.4291
and	-10.4291
込め	-10.4293
発送され	-10.4293
歩くと	-10.4295
といいな	-10.4306
・・・・・	-10.4306
かっこ	-10.4312
瞬間	-10.4313
注	-10.4315
出かけ	-10.4315
ことはありません	-10.4316
インテリア	-10.4317
超え	-10.4317
ミント	-10.4318
オムツ	-10.4318
size	-10.4318
フライパン	-10.4318
あったかい	-10.4319
不快	-10.432
にとっては	-10.4332
お出かけ	-10.4343
履きたい	-10.4345
暗く	-10.4348
探していました	-10.4352
ないよう	-10.4355
商品自体	-10.4363
擦	-10.4366
学校	-10.4376
冷蔵庫	-10.4378
一目惚れ	-10.4378
習	-10.4378
チーズ	-10.4379
ホルダー	-10.4379
胴	-10.4379
フタ	-10.4401
して欲しいです	-10.4403
同じものを	-10.4403
作品	-10.4404
づつ	-10.4404
流れ	-10.4406
寄り	-10.4411
te	-10.4417
お安いので	-10.4422
並	-10.4431
デコ	-10.4432
鍵	-10.444
(*^_^*)	-10.444
落ち着いて	-10.444
開閉	-10.444
しっくり	-10.444
あったのに	-10.4442
ることもなく	-10.4443
花柄	-10.4444
縫製も	-10.4445
はずなのに	-10.4454
購入してよかったです	-10.4459
付いた	-10.446
入れられ	-10.4461
角度	-10.4463
私の足	-10.4463
しただけで	-10.4464
与えて	-10.4466
送った	-10.4477
標準	-10.4484
を選んで	-10.4489
んですかね	-10.4495
ガッカリしました	-10.4497
助	-10.4501
フローリング	-10.4501
使い物になりません	-10.4502
すっぽり	-10.4502
何回か	-10.4504
試着して	-10.4506
パーカー	-10.4507
ステキ	-10.4512
カール	-10.4513
赤い	-10.4526
感があります	-10.4527
浮き	-10.4529
支	-10.4533
ッグ	-10.4539
してみます	-10.4543
だけあって	-10.4545
ソファ	-10.4551
チン	-10.4552
ずらい	-10.456
バルブ	-10.4562
枠	-10.4563
勧	-10.4564
ばっちり	-10.4564
ニュー	-10.4564
ダークブラウン	-10.4566
探していたところ	-10.4567
にかけて	-10.4567
いくつか	-10.4569
午前中	-10.4575
いえ	-10.4585
フック	-10.4591
割には	-10.4596
感じがしました	-10.4602
十分な	-10.4605
おやつ	-10.4618
et	-10.4619
守	-10.4626
考慮	-10.4626
化粧水	-10.4626
メイク	-10.4626
▁the	-10.4626
授乳	-10.4627
知らせ	-10.4627
カッコイイ	-10.4627
内側に	-10.463
おいしかったです	-10.4631
文句なし	-10.4633
(?)	-10.4633
書く	-10.4635
壊れてしまいました	-10.4636
チェア	-10.4638
ポット	-10.4642
感想は	-10.4643
頼んだのに	-10.4646
出来ず	-10.4656
するために	-10.4656
ようでした	-10.4659
した後	-10.4661
祝い	-10.4664
バカ	-10.4665
にするか	-10.4666
でしょうね	-10.4666
袖丈	-10.4669
を選んだ	-10.4671
降	-10.4673
いいですよ	-10.4683
識	-10.4689
背もたれ	-10.4689
真っ白	-10.4689
義	-10.4689
どころか	-10.4689
礼	-10.4689
証	-10.4689
絞	-10.4689
嘘	-10.4689
他のお店	-10.469
取っ手	-10.469
産まれ	-10.469
ガーゼ	-10.4691
▁2,,165	-10.4691
枯れ	-10.4692
かかります	-10.4693
厚手	-10.4694
痩せ型	-10.4695
ちょい	-10.4695
気をつけ	-10.4697
帰って	-10.4698
1980	-10.47
フィットして	-10.4701
用意	-10.4701
しっかりしているので	-10.4703
付けた	-10.4703
ジャン	-10.4707
hi	-10.4715
編み	-10.472
成分	-10.4723
☆5	-10.4725
と思っていたので	-10.4729
問題なかった	-10.4735
ブラックを購入しました	-10.4735
難い	-10.474
検	-10.4747
涼	-10.4749
非	-10.4752
もう二度と	-10.4752
省	-10.4752
諦めました	-10.4752
めちゃくちゃ	-10.4752
解凍	-10.4753
タブレット	-10.4753
騙された	-10.4754
それ以外は	-10.4756
買ってよかった	-10.4757
なんでしょうか	-10.4771
良い感じです	-10.4774
マス	-10.4778
替	-10.4786
基	-10.4793
合わ	-10.4795
さほど	-10.4798
縫い付け	-10.4801
ノート	-10.4802
のために購入	-10.4803
初回	-10.4803
ランク	-10.4807
整	-10.4815
高くても	-10.4816
貧	-10.4816
になってしまった	-10.4816
併	-10.4816
しまえば	-10.4816
安物買いの銭失い	-10.4816
過去	-10.4817
決済	-10.4818
明記	-10.4819
走行	-10.4819
夏場	-10.4822
あるのですが	-10.4823
その時	-10.4823
もしくは	-10.4825
生地もしっかりしていて	-10.483
日焼け	-10.483
かわいいけど	-10.4838
買うより	-10.4838
払	-10.4842
★5	-10.4849
のはずが	-10.485
売ってる	-10.4854
程よい	-10.4856
気がする	-10.4858
使い捨て	-10.4861
よかったかも	-10.4863
狭く	-10.4865
甘さ	-10.4872
側面	-10.4872
▁1,,165	-10.4874
その点	-10.4876
添	-10.4879
病	-10.488
箸	-10.488
射	-10.488
運転	-10.4883
天板	-10.4883
活	-10.4885
だけでなく	-10.4885
無難	-10.4886
UP	-10.4889
ライブ	-10.4904
待った	-10.4906
お店の方	-10.491
られている	-10.4926
気を付け	-10.4928
のが残念	-10.4929
してくれて	-10.4945
想像以上に	-10.4945
ギャ	-10.4946
(^_^)	-10.4946
複数	-10.4951
合計	-10.4951
凄い	-10.4952
欠品	-10.4953
届くのか	-10.4954
なくなったので	-10.4956
マーク	-10.4957
ついている	-10.4959
袖口	-10.497
足目です	-10.4971
分かって	-10.4973
簡単でした	-10.4986
恥ずかしい	-10.499
調べて	-10.4991
代目	-10.4997
着ている	-10.4998
濃く	-10.4999
房	-10.501
密	-10.501
おそらく	-10.501
に比べると	-10.5011
動いて	-10.5011
配線	-10.5013
値上げ	-10.5014
過ぎた	-10.5022
暗め	-10.5025
減り	-10.5026
用途	-10.5027
溶け	-10.5036
払い	-10.5046
この時期	-10.5056
が気になり	-10.506
できそうです	-10.506
を探し	-10.5066
能	-10.5067
面白い	-10.5074
座り心地	-10.5075
期待を込めて	-10.5075
ふんわり	-10.5075
整理	-10.5075
損した気分	-10.5075
振	-10.5075
だんだん	-10.5075
ましょう	-10.5075
迷わず	-10.5075
入学	-10.5081
合わせやすい	-10.5094
あるのに	-10.5101
このシリーズ	-10.511
つけられ	-10.5111
われて	-10.5118
今では	-10.5119
一体	-10.5119
追	-10.5124
へん	-10.5126
込んだ	-10.5126
硬く	-10.5132
コネクタ	-10.514
巾	-10.514
Q	-10.514
わざわざ	-10.5141
淡	-10.5141
イベント	-10.5141
まぁまぁ	-10.515
先端	-10.5156
送りました	-10.5157
荷	-10.5158
同じサイズ	-10.5164
伝え	-10.5165
送る	-10.5166
とても可愛い	-10.5168
お湯	-10.5173
いままで	-10.5181
才の娘	-10.5181
クロス	-10.5183
,158	-10.5184
覚	-10.5194
ちょうどいい感じ	-10.5194
方向	-10.5199
AR	-10.5205
テンション	-10.5207
酒	-10.5207
お洒落	-10.5207
始末	-10.5207
09-0	-10.5208
ありがたい	-10.5211
ic	-10.5214
写真では	-10.5217
年近く	-10.5222
まだこない	-10.5241
リピーターです	-10.5252
浅い	-10.5255
気になりませんでした	-10.5261
見えました	-10.5273
エンジン	-10.5273
影響	-10.5274
経ちますが	-10.5274
パウダー	-10.5274
人暮らし	-10.5274
ショーツ	-10.5274
ギフト	-10.5274
こども	-10.5275
SH	-10.5281
手続き	-10.5283
エラー	-10.5283
持て	-10.5284
詰	-10.5287
食べさせ	-10.5291
今日届きました	-10.5292
入っているので	-10.5296
ガス	-10.5299
を使っていましたが	-10.5302
,161	-10.5306
ジャー	-10.5309
いただける	-10.5309
植え	-10.5311
微妙な	-10.5313
壊	-10.5314
組み	-10.5318
気がしました	-10.5321
生地が薄い	-10.5323
んだり	-10.5325
ナイ	-10.5326
暖かいです	-10.5335
変わりません	-10.5337
6.5	-10.5338
発売日	-10.5339
移	-10.5339
上半身	-10.534
説	-10.534
語	-10.534
特典	-10.534
煮	-10.5341
助かっています	-10.5341
紅	-10.5341
システム	-10.5341
蛍光	-10.5341
23.0	-10.5341
何回も	-10.5342
いけません	-10.5345
ついでに	-10.5351
チャー	-10.5352
入らず	-10.5353
が欲しかったのですが	-10.5353
毎年	-10.5354
買い物が出来ました	-10.5361
良い感じ	-10.5365
を作る	-10.5366
と思ったけど	-10.5376
売られて	-10.5388
考えると	-10.5389
いい加減	-10.539
ルーム	-10.5394
破れました	-10.5399
にはなりません	-10.5407
銀	-10.5408
目立たない	-10.5408
芯	-10.5409
座る	-10.5412
持っていますが	-10.5412
ボンド	-10.5413
出し入れ	-10.5419
見つけた	-10.5419
お店の対応	-10.542
試しましたが	-10.5422
して下さい	-10.5429
12/2	-10.5435
▁2,,158	-10.5441
外す	-10.5441
ネコ	-10.5443
分かる	-10.5443
開く	-10.5449
軽いし	-10.5452
ir	-10.5456
うえ	-10.5458
履きやすいです	-10.5465
と書いてある	-10.5466
気になっていた	-10.5467
はがれ	-10.5472
快	-10.5473
ll	-10.5474
リモコン	-10.5476
BC	-10.5476
対象	-10.5476
チープ	-10.5476
開始	-10.5477
悲しい	-10.5479
適当	-10.5479
取れる	-10.5481
以前購入した	-10.5487
買って良かった	-10.5492
かぶれ	-10.5493
直後	-10.5494
日以上	-10.5502
違	-10.5503
デブ	-10.5507
硬くて	-10.5509
作った	-10.5514
こともあり	-10.5516
にくかった	-10.5522
選んだ	-10.5532
改善され	-10.5532
利	-10.5535
千	-10.5539
料金	-10.5543
認	-10.5544
ミルク	-10.5545
ランドセル	-10.5545
キツい	-10.5545
折り返し	-10.5549
思わず	-10.5556
▁2,,26	-10.556
やわらかい	-10.5561
書きます	-10.5568
上品な	-10.5568
手首	-10.5571
あるもの	-10.5573
ウチ	-10.5577
かけた	-10.5581
一ヶ月	-10.5584
重ね着	-10.5585
づけ	-10.5588
年末	-10.5588
買おうか	-10.559
いかない	-10.559
効果がある	-10.559
締	-10.5609
日にち	-10.561
コツ	-10.5611
例	-10.5614
封筒	-10.5614
改めて	-10.5615
リピはないです	-10.5617
寝心地	-10.5618
チャーム	-10.5618
変わる	-10.5626
チャレンジ	-10.5627
いける	-10.5628
カバン	-10.563
買ってしまいました	-10.5643
気になった	-10.5663
切った	-10.5669
30-0	-10.5671
おススメ	-10.5683
お客様	-10.5683
mAh	-10.5683
&#9829;	-10.5683
3/2	-10.5683
いつになったら	-10.5684
温かい	-10.5684
閉じ	-10.5684
再購入	-10.5688
遅かった	-10.5688
不要	-10.5692
HP	-10.5696
まくり	-10.5699
みたいと思います	-10.5699
5%	-10.5706
あん	-10.5712
と思ってましたが	-10.5714
オール	-10.5726
身幅	-10.5731
出てきて	-10.5733
ハリ	-10.5744
使うこと	-10.5745
勝	-10.5752
弟	-10.5753
肝心の	-10.5753
シングル	-10.5754
用品	-10.5756
ゼロ	-10.5762
生地もしっかりして	-10.5767
使用します	-10.5768
201409	-10.5769
感じません	-10.578
ER	-10.5781
大丈夫そうです	-10.5791
発送の連絡	-10.5797
レンジ	-10.5798
だったけど	-10.5801
直す	-10.5804
十	-10.5814
使い始め	-10.5816
中央	-10.5823
試し履き	-10.5824
投稿	-10.5824
メッセージ	-10.5824
イライラ	-10.5824
たどり着きました	-10.5824
ガンガン	-10.5824
消耗品	-10.5824
画像では	-10.5824
払って	-10.5825
くっついて	-10.5827
デスク	-10.5828
収まり	-10.5829
かっこよく	-10.583
間に合い	-10.583
ミックス	-10.5833
ホールド	-10.5833
加減	-10.5846
co	-10.5859
緩い	-10.5863
出番	-10.5867
枚とも	-10.5868
飲んだ	-10.5869
本指	-10.5873
与え	-10.5875
になってしまう	-10.5886
梅	-10.5894
頻繁に	-10.5894
センター	-10.5894
終了	-10.5894
二の腕	-10.5895
アクセサリー	-10.5895
印鑑	-10.5895
相談	-10.5895
理想	-10.5895
焦げ	-10.5897
メント	-10.5898
マグ	-10.5899
生産	-10.5901
大きすぎる	-10.5901
ずり落ち	-10.5901
ca	-10.5902
広がり	-10.5903
特別	-10.5904
丈夫そう	-10.591
恥ずかし	-10.5917
丁度良かったです	-10.5918
エコ	-10.5919
中国	-10.592
まち	-10.5923
硬さ	-10.5923
作れ	-10.5924
待ちました	-10.5926
無かったので	-10.5934
^*)	-10.5944
やわらかく	-10.5947
ノン	-10.5958
ブラックを購入	-10.5959
ホコリ	-10.5966
小学生	-10.5966
医	-10.5966
アイテム	-10.5966
あくまで	-10.5966
裏起毛	-10.5966
中途半端	-10.5966
使うのが楽しみです	-10.5966
瓶	-10.5966
頻度	-10.5967
謝罪	-10.5967
想定	-10.5967
何だか	-10.597
安心しました	-10.5974
小ぶり	-10.5975
に入れた	-10.5976
わずか	-10.5976
またリピします	-10.5982
]2	-10.5984
深い	-10.5985
染め	-10.5987
途	-10.5989
購入してしまいました	-10.5991
大変満足しています	-10.5991
二度と買いません	-10.5996
になってる	-10.5998
問い合わせたところ	-10.6002
なにより	-10.6005
5.5	-10.6005
の誕生日に	-10.6009
を入れた	-10.601
ちゃいます	-10.6013
程よく	-10.6023
慌てて	-10.6038
乱	-10.6038
ゴワゴワ	-10.6038
終わって	-10.6038
がっちり	-10.6039
ペットボトル	-10.6039
留め具	-10.604
書き込み	-10.6043
を探していたので	-10.6046
選ば	-10.6049
重たい	-10.6063
タイトル	-10.6065
支え	-10.6072
暗	-10.6076
ra	-10.6078
でこのお値段は	-10.6078
使用中	-10.6084
させる	-10.609
裏側	-10.6092
貼る	-10.6093
初期不良	-10.6096
履けます	-10.6097
ゾ	-10.611
麦	-10.611
ブレスレット	-10.611
ストライプ	-10.6111
磨	-10.6111
ジュース	-10.6111
鞄	-10.6111
の付け根	-10.6111
値段のわりに	-10.6111
洗剤	-10.6112
使わせて	-10.6113
食べています	-10.6116
意見	-10.6121
飲み続け	-10.6124
着せて	-10.6126
明け	-10.6128
単品	-10.6131
ナシ	-10.6132
届いてすぐ	-10.6134
使おうと思います	-10.6135
行け	-10.614
なってきた	-10.6145
はきやすい	-10.6146
もいいし	-10.6148
買い足し	-10.615
ことにします	-10.6156
噛	-10.6156
困る	-10.6157
いいなぁ	-10.6165
考	-10.6165
cc	-10.6176
珠	-10.6183
パネル	-10.6183
めんどくさ	-10.6184
気軽に	-10.6184
映像	-10.6184
プチプチ	-10.6184
宅配	-10.6184
立って	-10.6186
無視	-10.6186
愛犬	-10.6187
どうなっている	-10.6189
よさそう	-10.6189
作動	-10.6189
緩く	-10.6191
分厚い	-10.6194
お肌	-10.6213
一気に	-10.6216
、、、,	-10.6221
いつまで	-10.6225
乗れ	-10.6227
18-0	-10.623
個人的に	-10.6238
みようか	-10.6242
下の子	-10.6246
■	-10.6256
維	-10.6257
似たような	-10.6257
ヤマト	-10.6257
承知	-10.6257
ハッキリ	-10.6257
なってきました	-10.6259
大き過ぎ	-10.626
腰回り	-10.6261
26.5	-10.6268
つかえ	-10.6269
ヘタ	-10.6269
商品が届きません	-10.6269
年目	-10.6272
まさに	-10.6274
こちらにしました	-10.6275
直しました	-10.6275
週間くらい	-10.6284
収納でき	-10.6285
連絡なし	-10.6286
絵本	-10.6294
333	-10.6295
出ている	-10.6304
うれし	-10.6312
しっかりしてる	-10.632
わかります	-10.6322
これ以上	-10.6326
膨	-10.6328
くすんだ	-10.6331
珍	-10.6331
殆ど	-10.6331
楽しみに待って	-10.6331
少量	-10.6333
小柄な	-10.6336
材質	-10.6337
して頂け	-10.6337
も欲しくなりました	-10.6338
ing	-10.634
荒れ	-10.6341
倒れ	-10.6343
比較的	-10.6346
減って	-10.6348
痩せて	-10.6358
自分用	-10.6369
載って	-10.6374
5/1	-10.6377
寄	-10.6395
答	-10.6397
グリ	-10.6398
売れ	-10.6398
旬	-10.6402
おいしかった	-10.6403
やめました	-10.6405
責任	-10.6405
挿	-10.6405
条件	-10.6405
受注	-10.6406
命	-10.6406
ポリエステル	-10.6406
描	-10.6406
ナイロン	-10.6406
鉄	-10.6406
きっちり	-10.6407
履こう	-10.6408
吸収	-10.6408
解消	-10.641
UV	-10.6412
リップ	-10.642
上がる	-10.6427
▁2,,155	-10.6428
届け	-10.6431
致しました	-10.6433
5-0	-10.6438
吸い	-10.6439
履き口	-10.6441
届いた時	-10.6441
コスト	-10.6451
離れ	-10.6458
狭	-10.6468
時々	-10.6473
と思っていたら	-10.6473
問	-10.6477
粗悪品	-10.6481
癒	-10.6481
構造	-10.6481
可愛らしい	-10.6481
吐	-10.6481
戸	-10.6481
よろしくお願いします	-10.6481
以来	-10.6481
案内	-10.6482
改良	-10.6484
そうな感じ	-10.6484
同じ物	-10.6485
手ごろ	-10.6488
歪んで	-10.6488
割高	-10.6492
中々	-10.6493
ベリー	-10.6495
ストール	-10.6496
想像通り	-10.6499
4000	-10.65
私の場合	-10.6507
飲ま	-10.651
このお値段なら	-10.6512
足のサイズ	-10.6513
もうひとつ	-10.6517
ヶ月半	-10.6535
見えません	-10.6543
ァ	-10.6547
伸	-10.6549
ォ	-10.6552
楽天ブックス	-10.6556
あちこち	-10.6556
界	-10.6556
癖	-10.6556
沈	-10.6556
⇒	-10.6557
フリル	-10.6557
迎	-10.6557
可愛さ	-10.6557
列	-10.6557
詳細	-10.6558
当たり前	-10.6558
穴が開いて	-10.6559
怖	-10.6567
まだ届いてない	-10.6568
試してみました	-10.6573
見られ	-10.6575
小指	-10.6579
透ける	-10.6581
噛み	-10.6586
履かない	-10.6589
溶	-10.6603
エル	-10.6603
買ったもの	-10.661
使いにくい	-10.6611
円以下	-10.6618
着れます	-10.6619
拡	-10.6633
安かろう悪かろう	-10.6633
フロント	-10.6633
困ります	-10.6636
カラコン	-10.6636
家具	-10.6636
安いのに	-10.6637
使いやすさ	-10.6641
ちゃち	-10.6641
混ぜ	-10.6647
中古	-10.6648
楽しみにしています	-10.6654
カレー	-10.6658
るようになった	-10.6662
ねぇ	-10.667
安いもの	-10.6671
感じませんでした	-10.6676
お祝い	-10.6677
ジン	-10.6679
試した	-10.6679
ho	-10.6695
ることが出来	-10.6698
無くて	-10.67
測って	-10.6702
動きやすい	-10.6704
宅	-10.6709
菌	-10.6709
お弁当	-10.671
埃	-10.671
ぉ	-10.671
祖	-10.671
入園	-10.6711
自身	-10.6714
安いから仕方ない	-10.6715
届いたのが	-10.6719
体調	-10.6724
死着	-10.6724
12-0	-10.6726
最後まで	-10.6729
若い	-10.673
大きくなって	-10.6733
良かったのに	-10.6736
思った通り	-10.6742
▁1,,158	-10.6743
使い続けて	-10.6754
入れたら	-10.6765
若	-10.6767
キュー	-10.6782
円は高い	-10.6785
枝	-10.6787
リーズナブル	-10.6788
傾	-10.6788
膝下	-10.6791
グリップ	-10.6791
読む	-10.6792
安っぽく見え	-10.68
他の色	-10.6801
無くなり	-10.6802
レモン	-10.6805
だけに残念	-10.6807
飲	-10.681
▁1,,231313-201	-10.6815
満足しております	-10.6816
ボン	-10.6816
食感	-10.6819
という印象	-10.682
載	-10.6832
切れた	-10.6841
作られて	-10.685
皆	-10.6851
サイズ選び	-10.6852
スエード	-10.6866
クリーニング	-10.6866
さっぱり	-10.6866
そもそも	-10.6866
(≧∇≦)	-10.6866
ダボダボ	-10.6866
陰	-10.6866
靴擦れ	-10.6868
感激	-10.6871
アレンジ	-10.6872
パンパン	-10.6873
在庫切れ	-10.6878
ed	-10.688
アロマ	-10.6884
手配	-10.6885
輝き	-10.6891
緩め	-10.6899
長靴	-10.6901
梱包も丁寧	-10.6901
着脱	-10.6904
焼け	-10.6905
ぜ	-10.6907
ようなもの	-10.6914
蒸	-10.6916
透けます	-10.6923
安いので仕方ない	-10.6933
全然違う	-10.6934
入らなかった	-10.6937
安っぽさ	-10.6944
麺	-10.6944
妊婦	-10.6944
百	-10.6944
聞こえ	-10.6945
まだ届いてません	-10.6945
困りました	-10.6948
のが残念でした	-10.6948
伸ばして	-10.6949
メールが来ました	-10.695
それだけ	-10.6951
よくわかりません	-10.6951
クリップ	-10.6953
読め	-10.6956
しないうちに	-10.6956
ダンス	-10.6956
歳になる娘	-10.6979
貼り付け	-10.6983
取れない	-10.6987
方がいいと思います	-10.6989
毛穴	-10.699
静か	-10.6993
何故	-10.6994
回の使用で	-10.6995
10/1	-10.6996
軽さ	-10.7002
施	-10.7023
ショッピング	-10.7024
way	-10.7024
給	-10.7024
迫	-10.7024
Amazon	-10.7024
ゥ	-10.7024
家庭	-10.7024
ヶ所	-10.7025
バージョン	-10.7025
新鮮	-10.7025
◆	-10.7026
モデルさんのように	-10.7028
わからず	-10.7028
ダックス	-10.703
何故か	-10.7057
lo	-10.7064
出張	-10.7067
広め	-10.7072
履いてみると	-10.7072
清	-10.7103
キャンペーン	-10.7104
どういうこと	-10.7104
展開	-10.7104
遊べ	-10.7104
ひどすぎ	-10.7104
掃除機	-10.7107
取り扱い	-10.711
スーツケース	-10.7111
不可能	-10.7112
ダン	-10.7123
が弱く	-10.7146
ほうが良い	-10.7151
欠けて	-10.7156
してしまったので	-10.716
気持ちよく	-10.7161
考えています	-10.7164
んですよね	-10.7172
ラベンダー	-10.7184
予想以上に	-10.7184
潤	-10.7184
贈り物	-10.7184
д	-10.7184
タイミング	-10.7184
偽	-10.7184
馴染み	-10.7185
当たり外れ	-10.7187
詰め替え	-10.7188
細かく	-10.7189
目立って	-10.719
購入させていただきました	-10.7191
決めて	-10.7193
デカイ	-10.7194
肩紐	-10.7197
私的には	-10.7198
二重	-10.7202
9/2	-10.7221
気にせず	-10.7224
999	-10.7232
純	-10.7264
メッキ	-10.7265
&#8263;	-10.7266
譲	-10.7266
おかしく	-10.7266
限界	-10.7266
断念	-10.7266
をオススメします	-10.7267
こぼれ	-10.7267
重視	-10.7268
ステッチ	-10.7268
冬場	-10.7273
子供たち	-10.7273
安価な	-10.7281
値段も安く	-10.7293
にくそう	-10.7321
リュ	-10.7324
盛	-10.7332
ガン	-10.7336
中心	-10.734
ャ	-10.7343
そんなこと	-10.7344
素人	-10.7345
英語	-10.7347
餌	-10.7347
アクセント	-10.7347
ボルト	-10.7348
|	-10.7348
セーター	-10.7348
クレーム	-10.7348
尚	-10.7348
寸法	-10.7348
るべき	-10.7348
小銭	-10.7348
データ	-10.7349
購入しようか	-10.7353
ちぎれ	-10.7356
布地	-10.736
大容量	-10.736
ホット	-10.7361
充電出来	-10.7364
また購入したいです	-10.7368
に対応して	-10.738
ダブ	-10.7385
伸びない	-10.7402
落とした	-10.7405
泣き	-10.7425
こそ	-10.7428
度と買いません	-10.7429
確実に	-10.743
真っ黒	-10.743
フワフワ	-10.743
最安値	-10.743
姿勢	-10.743
スタンプ	-10.743
握	-10.743
伝票	-10.743
ガタガタ	-10.7431
決め手	-10.7431
いきません	-10.7431
をおすすめします	-10.7432
交換してもらいました	-10.7433
もしかしたら	-10.7433
値上がり	-10.7433
半ば	-10.7438
軽量	-10.7438
その旨	-10.744
リピしたいです	-10.7442
異常	-10.7452
もう買わない	-10.7468
っちゃいました	-10.747
触れ	-10.7478
しっかりしてます	-10.7487
3/1	-10.7492
聞か	-10.7495
含	-10.7496
災	-10.7513
芽	-10.7513
レンタル	-10.7514
田	-10.7514
ベタベタ	-10.7514
便秘	-10.7514
だいたい	-10.7514
早めに	-10.7515
ver	-10.7516
洗顔	-10.7517
気もします	-10.7519
になっていたので	-10.752
実物を見て	-10.7521
不安定	-10.7527
母の日	-10.7543
第	-10.7568
6/1	-10.7577
CH	-10.7581
絡	-10.7597
肘	-10.7597
抱	-10.7597
マラソン	-10.7597
五	-10.7597
メートル	-10.7598
オリジナル	-10.7598
デニール	-10.7598
勉強になりました	-10.7598
ふだん	-10.7598
廃棄	-10.7598
郵便	-10.7598
出会え	-10.7598
ダイニング	-10.7598
反省	-10.7598
週末	-10.7599
根元	-10.7601
取った	-10.7614
頂	-10.7621
我が家では	-10.7621
ウール	-10.7623
でこの価格は	-10.7625
出てくる	-10.7631
上手に	-10.7632
購入しようと思います	-10.7632
を利用して	-10.7655
平気	-10.7671
商品が届いた	-10.7675
悲	-10.7681
苦労しました	-10.7681
刻	-10.7682
すっごく	-10.7682
ウィッグ	-10.7682
クレジット	-10.7682
報告	-10.7682
錆び	-10.7683
ティッシュ	-10.7687
長男	-10.7689
ミラー	-10.7696
ストック	-10.7704
チップ	-10.7711
期待していただけに	-10.7712
と思うくらい	-10.7713
長く使える	-10.772
有る	-10.7723
つかず	-10.7724
ボア	-10.7729
ブラン	-10.7734
完全	-10.774
一回り	-10.7762
両面テープ	-10.7767
務	-10.7768
挙	-10.7768
コンセント	-10.7768
震	-10.7768
ブレーキ	-10.7768
天然	-10.7768
フルーツ	-10.7769
暖かさ	-10.7769
回目のリピートです	-10.7773
苦しい	-10.7778
おなか	-10.7779
本日届きました	-10.7785
代金	-10.7786
物足りない	-10.7786
半袖	-10.7786
勢い	-10.7793
生き	-10.7812
はがれて	-10.7837
とは違い	-10.7846
下旬	-10.7846
風味	-10.7847
に取り付けました	-10.7851
士	-10.7853
凸	-10.7854
統	-10.7854
誠意	-10.7854
楽しそうに	-10.7854
お値打ち	-10.7854
渋	-10.7854
終わった	-10.7854
コンビニ	-10.7854
お薦め	-10.7854
off	-10.7854
暴	-10.7855
照明	-10.7855
メンズ	-10.786
起こ	-10.7864
余って	-10.7864
歳の子	-10.7866
ラベル	-10.79
痒く	-10.7904
取り出し	-10.791
暑く	-10.7916
んですけどね	-10.7917
咲	-10.7941
ハサミ	-10.7941
カロリー	-10.7941
不愉快	-10.7941
円均一	-10.7941
呼	-10.7941
祈	-10.7941
ネーム	-10.7941
広告	-10.7941
支払い	-10.7941
浴衣	-10.7941
スピード	-10.7942
連続	-10.7942
と思いつつ	-10.7942
仕切り	-10.7944
格安	-10.7946
に惹かれ	-10.7948
苦しく	-10.7948
今まで使っていた	-10.7951
感触	-10.7951
無理やり	-10.7953
取れてしまいました	-10.7955
変形	-10.7961
折って	-10.7964
お得だと思います	-10.797
デザインは可愛い	-10.7971
想像より	-10.7976
んでしょうね	-10.7979
あえて	-10.7981
膝上	-10.7993
メールで問い合わせ	-10.8004
問合せ	-10.8028
申し訳ない	-10.8028
路	-10.8028
オリーブ	-10.8028
着こなせ	-10.8029
つなぎ	-10.8029
ハーフ	-10.8029
簡易	-10.8029
ごめんなさい	-10.8029
(-_-;)	-10.8029
炭酸	-10.8029
ブレス	-10.8035
食器	-10.8037
入荷待ち	-10.8038
また機会があれば	-10.804
毛布	-10.8044
遅くなる	-10.8045
降り	-10.8051
だから仕方ない	-10.8053
覚悟して	-10.8054
ナイト	-10.8063
いったい	-10.8066
片付け	-10.8072
アルミ	-10.8072
クール	-10.8078
寄せ	-10.8081
になりそう	-10.8083
そのもの	-10.8087
ついていました	-10.8112
騙	-10.8115
みなさんのレビュー	-10.8116
結婚	-10.8116
糖	-10.8116
庫	-10.8116
月初旬	-10.8117
卒	-10.8117
鳥	-10.8117
スリッパ	-10.8117
ストッパー	-10.8117
チュニック	-10.8117
には不向き	-10.8117
カパカパ	-10.8118
コーティング	-10.8118
エアコン	-10.8119
レビューを書く	-10.8119
はっきり言って	-10.8119
ワンシーズン	-10.8119
には見えません	-10.8119
カーペット	-10.8119
パーティー	-10.8121
有名	-10.8122
補強	-10.8122
ヒモ	-10.8128
どうにか	-10.8128
届いたものは	-10.813
袋に入って	-10.8165
厚手の靴下	-10.817
を想像して	-10.8188
税込	-10.8189
都	-10.8201
波	-10.8205
惑	-10.8206
訂正	-10.8206
磁	-10.8206
軟	-10.8206
@	-10.8207
www	-10.8207
お蔵入り	-10.8207
ゆっくり	-10.8207
あたたか	-10.8207
撮影	-10.8207
薄かった	-10.8207
階段	-10.8209
はき心地	-10.821
大失敗	-10.821
秋冬	-10.821
真冬	-10.8211
都合	-10.8212
ジャストフィット	-10.8214
キャミ	-10.8218
背面	-10.8218
難しく	-10.8219
お買い得だと思います	-10.8227
着てみると	-10.8227
買ってしまった	-10.8238
足りません	-10.8244
有りません	-10.8245
潰れて	-10.8252
いただきたいです	-10.8277
シンプルなデザイン	-10.8285
幼	-10.8296
公	-10.8296
脱ぎ履き	-10.8297
夢	-10.8297
ありがとう	-10.8297
クッキー	-10.8297
忙しい	-10.8298
午後	-10.8298
につられて	-10.83
新たに	-10.83
ウエストのゴム	-10.8303
ハンド	-10.8303
国内	-10.8304
定番	-10.8306
クッション性	-10.8308
ブーツイン	-10.831
買えた	-10.8311
安っぽい感じ	-10.8312
と言った	-10.8313
にして正解でした	-10.8317
よく見ると	-10.8317
置け	-10.8318
日に注文したのに	-10.8321
円の価値	-10.8325
のようなものが	-10.8334
買うべき	-10.8338
ヶ月の子供	-10.8353
返送	-10.8371
アダプタ	-10.8373
知人	-10.8373
歪	-10.8378
才の息子	-10.8379
はやく	-10.8381
華	-10.8386
題	-10.8387
助かってます	-10.8387
おっしゃ	-10.8387
卵	-10.8388
ラウンド	-10.8388
泳	-10.8388
お菓子	-10.8388
確保	-10.839
送られてきました	-10.8401
最大	-10.8412
チャン	-10.8414
腰痛	-10.8419
あたって	-10.8421
1/3	-10.8425
0.1	-10.8425
いきたいと思います	-10.8431
優れ	-10.8431
爪先	-10.8437
4-20	-10.8452
想	-10.8466
する予定です	-10.847
生地が薄く	-10.8475
園	-10.8477
露	-10.8479
凹み	-10.8479
諦めます	-10.8479
炎	-10.8479
害	-10.848
締め付け感	-10.8533
4/1	-10.8535
まとめ	-10.8544
ベタ	-10.8551
ランド	-10.8559
表示され	-10.8568
織	-10.8571
スライド	-10.8571
七五三	-10.8572
アンパンマン	-10.8572
day	-10.8572
釣	-10.8572
明るめ	-10.8572
マキシ	-10.8572
景	-10.8572
首周り	-10.8573
楽チン	-10.8575
重宝してます	-10.8576
落ち着き	-10.8577
どっち	-10.8578
あがり	-10.8581
指輪	-10.8581
上記	-10.8585
プッシュ	-10.8586
取り替え	-10.8588
子供達	-10.8598
度と買わない	-10.86
音沙汰	-10.8644
機会があれば	-10.8657
劣	-10.8663
排	-10.8665
レシピ	-10.8665
SHOP	-10.8665
ふつう	-10.8665
独特の	-10.8665
243254-201	-10.8665
刃	-10.8665
エナメル	-10.8665
衝撃	-10.8665
術	-10.8666
意外に	-10.8667
激安	-10.8667
遅	-10.8667
させてもらいました	-10.867
されており	-10.8675
予想通り	-10.8683
手洗い	-10.8689
第一	-10.8695
選んで	-10.8696
使わず	-10.8735
一瞬	-10.8746
喜	-10.8753
局	-10.8759
院	-10.8759
スナップ	-10.8759
妙	-10.8759
good	-10.876
25.0	-10.876
覆	-10.876
うるさい	-10.876
出産祝い	-10.876
保湿	-10.8761
6/2	-10.8762
寝室	-10.8762
づらく	-10.8762
歳の誕生日に	-10.8765
洗い替え	-10.8766
両親	-10.8769
レビューを書いて	-10.877
写真のように	-10.8771
キャンセルしたい	-10.8787
飲みやすい	-10.8791
されていません	-10.8793
悩	-10.8803
使いたかった	-10.8815
潰れ	-10.8825
円で売って	-10.8825
開いた	-10.8852
スパッツ	-10.8855
〓	-10.8855
腿	-10.8855
ベランダ	-10.8855
&#8265;	-10.8855
高価な	-10.8855
おばさん	-10.8855
症状	-10.8855
網	-10.8855
遮光	-10.8856
刺激	-10.8856
調理	-10.8856
タイマー	-10.8857
怖くて	-10.8858
送付	-10.8863
良品	-10.8864
キャリー	-10.8864
サイズはぴったり	-10.8866
ワイド	-10.8869
となると	-10.887
レビューをみて	-10.887
期待していましたが	-10.8874
真夏	-10.8883
植	-10.8898
相手	-10.8908
ac	-10.8914
相応	-10.8947
“	-10.8951
隅	-10.8951
遣	-10.8951
すっかり	-10.8951
追跡	-10.8951
Black	-10.8951
熟	-10.8951
スティック	-10.8954
間に合わない	-10.8957
要注意	-10.8958
使いづらい	-10.8965
丈が短い	-10.8982
痒	-10.8992
買っ	-10.8997
くれたら	-10.9001
風呂	-10.9027
首回り	-10.9034
危ない	-10.9034
ございます	-10.9047
催促	-10.9047
独	-10.9048
フラワー	-10.9048
豪華	-10.9048
さらっと	-10.9048
ホース	-10.9048
圧迫感	-10.9048
&#127925;	-10.9048
宅急便	-10.9048
裸	-10.9048
パサパサ	-10.9048
滴	-10.9048
唯一	-10.9049
モード	-10.9049
どうなっているのでしょうか	-10.9051
小学校	-10.9052
オフホワイト	-10.9054
ct	-10.9071
見てみると	-10.9075
3〜4	-10.9089
並べ	-10.9103
故	-10.9141
伸縮	-10.9144
構	-10.9145
ウッド	-10.9145
個体差	-10.9146
佐川	-10.9146
迄	-10.9146
北海道	-10.9146
公園	-10.9146
概	-10.9146
ビタミン	-10.9146
いい買い物ができました	-10.9146
腫	-10.9146
ぎりぎり	-10.9146
くたびれ	-10.9146
メモリ	-10.9148
いかにも	-10.915
立った	-10.915
ポスター	-10.9152
並み	-10.9159
硬め	-10.9166
ri	-10.9172
避け	-10.9174
許	-10.9186
靴下を履いて	-10.9195
4-0	-10.9204
聞いた	-10.9229
嬉	-10.9238
評	-10.9244
謳	-10.9245
キツキツ	-10.9245
控えめ	-10.9245
ヘルメット	-10.9245
手数料	-10.9245
また利用したいです	-10.9245
日本語	-10.9245
暖かそう	-10.9247
迅速に対応	-10.9275
安く買えた	-10.9288
4/2	-10.9292
使用していない	-10.9317
塗った	-10.9318
留	-10.9325
―	-10.9342
担	-10.9344
句	-10.9345
辞	-10.9345
錠	-10.9345
溜	-10.9345
ビジネス	-10.9345
ストレッチが効いて	-10.9345
夫婦	-10.9345
おむつ	-10.9346
回目の利用です	-10.9346
随分	-10.9347
歯ブラシ	-10.9347
箱に入って	-10.935
パイプ	-10.9352
痛かった	-10.9355
メールが来た	-10.9356
両方とも	-10.9359
かぶって	-10.9377
レビューを読んで	-10.9407
潰	-10.9425
買ったほうが	-10.9437
症	-10.9445
了承	-10.9446
尾	-10.9446
謎	-10.9446
狙	-10.9446
フラット	-10.9446
キャラクター	-10.9446
ぜんぜん	-10.9446
企	-10.9446
▁to	-10.9447
iphone	-10.9447
下半身太め	-10.9448
使えなかった	-10.945
とは思えません	-10.9452
いただく	-10.9452
のおかげ	-10.9453
回目のリピです	-10.9453
注意書き	-10.9453
引っ掛け	-10.9453
丸見え	-10.9454
それにしても	-10.9462
5/2	-10.947
しっかりした生地	-10.9504
在庫がない	-10.9512
お世話になって	-10.9522
祝	-10.9529
9/1	-10.9537
歳半の娘	-10.9544
療	-10.9547
ガバガバ	-10.9548
見栄え	-10.9548
必需品	-10.9548
∇	-10.9548
低反発	-10.9548
⌒	-10.9548
堅	-10.9548
コチラ	-10.9549
復活	-10.9549
刻印	-10.9549
気づき	-10.955
骨盤	-10.955
激しく	-10.9552
否め	-10.9554
電動	-10.9554
パスタ	-10.9557
ポート	-10.9557
音沙汰なし	-10.9572
ワンサイズ大きめ	-10.9572
もたない	-10.9589
許せ	-10.9609
環境	-10.965
HID	-10.965
谷	-10.9651
ブログ	-10.9651
(;_;)	-10.9651
アクリル	-10.9651
ドキドキ	-10.9651
サルエル	-10.9651
ゲーム	-10.9651
&#10084;	-10.9651
暫	-10.9651
玄米	-10.9652
修正	-10.9652
去	-10.9724
兄	-10.9755
祭	-10.9756
旧	-10.9756
摘	-10.9861
修	-10.9965
洋	-10.9965
京	-10.9967
隣	-10.9967
燃	-10.9967
研	-10.9968
致	-11.0028
焦	-11.0073
永	-11.0075
協	-11.0075
呆	-11.0075
更	-11.0163
造	-11.0163
態	-11.0182
庭	-11.0182
摂	-11.0183
層	-11.0183
刈	-11.0184
微	-11.0184
届	-11.0199
飯	-11.0289
菜	-11.0291
敏	-11.0293
芋	-11.0293
j	-11.0293
働	-11.0293
拝	-11.0294
漬	-11.0403
退	-11.0404
勇	-11.0404
嫁	-11.0404
茎	-11.0404
奮	-11.0404
使	-11.0425
到	-11.0507
駄	-11.0508
域	-11.0516
芝	-11.0516
盆	-11.0516
麻	-11.0517
懐	-11.0517
餅	-11.0517
西	-11.0517
埋	-11.063
川	-11.0632
柱	-11.0744
姪	-11.0745
逃	-11.0745
酢	-11.0745
償	-11.0745
仲	-11.0745
透	-11.0784
肥	-11.086
劇	-11.0861
株	-11.0861
章	-11.0862
◯	-11.0978
曇	-11.0979
揚	-11.1098
推	-11.1098
凝	-11.1098
怪	-11.1098
従	-11.1098
縄	-11.1098
煙	-11.1099
築	-11.1218
馬	-11.1218
技	-11.1219
診	-11.1219
案	-11.1337
卓	-11.1341
船	-11.1341
殺	-11.1341
厳	-11.1462
弁	-11.1464
馴	-11.1464
救	-11.1465
帳	-11.1584
悔	-11.1585
豚	-11.1589
◇	-11.1592
跳	-11.1715
七	-11.1715
停	-11.1715
陥	-11.1716
軸	-11.1716
賛	-11.1716
沢	-11.1841
氏	-11.1844
双	-11.1844
誕	-11.1844
儀	-11.1844
輸	-11.1971
旅	-11.1972
職	-11.1973
彩	-11.1973
疹	-11.1974
臨	-11.1974
師	-11.1974
僕	-11.1974
仮	-11.1974
溝	-11.1974
借	-11.1974
━	-11.1975
夕	-11.2021
演	-11.2105
沸	-11.2105
叩	-11.2105
往	-11.2105
否	-11.2231
北	-11.2239
衝	-11.2239
↑	-11.2239
街	-11.2239
彫	-11.2239
尻	-11.2357
改	-11.2504
誠	-11.251
島	-11.251
及	-11.2511
導	-11.2511
貴	-11.2511
申	-11.2519
糊	-11.2649
徴	-11.2649
交	-11.2649
券	-11.265
潔	-11.265
舞	-11.265
友	-11.2761
緒	-11.2784
息	-11.2785
陽	-11.279
毒	-11.2791
県	-11.2791
採	-11.2791
却	-11.2791
憶	-11.2933
掻	-11.2933
q	-11.2933
但	-11.2933
晴	-11.3077
準	-11.3077
ヽ	-11.3078
八	-11.3078
胃	-11.3079
告	-11.3225
栓	-11.3225
皺	-11.3225
♀	-11.3225
就	-11.3225
肢	-11.3225
宿	-11.3226
掴	-11.3226
象	-11.3373
喉	-11.3374
贅	-11.3374
互	-11.3374
沖	-11.3375
賞	-11.3375
邪	-11.3375
輝	-11.3477
設	-11.3523
存	-11.3525
云	-11.3526
偶	-11.3526
候	-11.3526
蔵	-11.3526
仏	-11.3527
竹	-11.3527
興	-11.3668
♂	-11.368
婦	-11.368
М	-11.368
貝	-11.368
奇	-11.368
秀	-11.368
項	-11.368
必	-11.3829
忙	-11.3833
営	-11.3835
館	-11.3835
堂	-11.3836
爆	-11.3836
境	-11.3836
攻	-11.3836
区	-11.3836
覗	-11.3836
資	-11.3836
慣	-11.3961
影	-11.3995
亡	-11.3995
響	-11.3995
徳	-11.3995
棄	-11.3995
裁	-11.3995
蜜	-11.3995
屈	-11.4156
濁	-11.4156
菓	-11.4156
王	-11.4157
漫	-11.4157
煎	-11.4157
複	-11.4304
遊	-11.4309
△	-11.4319
継	-11.4319
桜	-11.432
吊	-11.432
警	-11.432
察	-11.432
寂	-11.4321
隔	-11.4321
←	-11.4321
練	-11.4486
‐	-11.4487
趣	-11.4487
漢	-11.4488
管	-11.4655
報	-11.4656
踊	-11.4656
殻	-11.4656
獣	-11.4656
芸	-11.4656
南	-11.4657
塊	-11.4657
貨	-11.4657
著	-11.4657
労	-11.4828
函	-11.4829
肝	-11.4829
氷	-11.4829
六	-11.4829
尖	-11.4829
建	-11.4829
宮	-11.4829
既	-11.5002
勤	-11.5002
臓	-11.5004
扇	-11.5004
姫	-11.5004
睡	-11.5004
柴	-11.5005
静	-11.5074
領	-11.5182
炭	-11.5183
魔	-11.5183
炒	-11.5183
穀	-11.5183
勢	-11.5311
謝	-11.5361
此	-11.5364
〇	-11.5364
称	-11.5364
湾	-11.5365
慢	-11.5365
灰	-11.5365
釈	-11.5365
槽	-11.5545
君	-11.555
倉	-11.555
褪	-11.555
腸	-11.555
械	-11.555
蝶	-11.555
述	-11.5737
只	-11.5738
廃	-11.5738
鶏	-11.5738
仰	-11.5738
朱	-11.5738
漂	-11.5738
頬	-11.5738
ゞ	-11.5739
沿	-11.5739
泥	-11.5739
≦	-11.5739
拍	-11.5928
蟹	-11.593
噴	-11.593
農	-11.5931
拾	-11.5931
尿	-11.5931
ぢ	-11.5931
福	-11.598
団	-11.6126
《	-11.6127
薦	-11.6127
鉛	-11.6127
旦	-11.6127
≧	-11.6127
錆	-11.6324
掃	-11.6324
》	-11.6327
醤	-11.6327
蛇	-11.6327
季	-11.6327
偏	-11.6327
松	-11.6328
闘	-11.653
昆	-11.653
任	-11.6531
努	-11.6531
壇	-11.6531
桃	-11.6531
撥	-11.6531
伴	-11.6738
承	-11.6739
校	-11.6739
耗	-11.6739
砕	-11.6739
蓄	-11.674
如	-11.674
崩	-11.6764
郵	-11.6951
遜	-11.6951
蹴	-11.6952
暇	-11.6952
陶	-11.6952
犯	-11.6954
ぇ	-11.7064
ヵ	-11.7152
繰	-11.7168
腎	-11.7169
稼	-11.7169
絹	-11.7169
九	-11.717
敬	-11.717
籍	-11.7391
浄	-11.7391
坊	-11.7392
胡	-11.7392
裂	-11.7507
藤	-11.7619
敗	-11.7619
覧	-11.7619
戴	-11.7619
拒	-11.7619
幾	-11.7619
唇	-11.7619
仔	-11.7619
究	-11.762
爽	-11.7847
査	-11.785
授	-11.7851
垢	-11.7851
蕾	-11.7851
幹	-11.7852
由	-11.7852
柔	-11.7852
葬	-11.7852
凍	-11.8088
請	-11.8088
談	-11.8089
障	-11.8089
膜	-11.8089
貸	-11.8089
縛	-11.809
栗	-11.809
閉	-11.8233
帽	-11.833
矢	-11.8332
展	-11.8332
州	-11.8334
把	-11.8583
将	-11.8583
寿	-11.8584
糞	-11.8584
巡	-11.8584
司	-11.8584
昨	-11.8662
詳	-11.8837
比	-11.8838
了	-11.8839
英	-11.8839
貯	-11.8839
釘	-11.8839
宛	-11.884
□	-11.884
募	-11.884
尽	-11.884
還	-11.884
摩	-11.884
狂	-11.884
嵐	-11.884
我	-11.884
駆	-11.884
霧	-11.9101
援	-11.9103
牧	-11.9103
敢	-11.9103
繁	-11.9103
曰	-11.9103
求	-11.9265
預	-11.9373
眩	-11.9373
鈍	-11.9373
伺	-11.9373
介	-11.9373
希	-11.9374
冒	-11.9374
垂	-11.9623
瞬	-11.9629
操	-11.965
筈	-11.965
搬	-11.965
標	-11.9651
宴	-11.9651
刊	-11.9651
箋	-11.9651
誘	-11.9651
軍	-11.9651
栄	-11.9651
Σ	-11.9651
誇	-11.9651
舌	-11.9651
避	-11.9857
坂	-11.9935
痕	-11.9936
駐	-11.9936
堪	-11.9936
騒	-11.9937
淵	-11.9937
典	-11.9937
泉	-11.9937
輩	-11.9937
挽	-11.9937
譜	-11.9937
惨	-11.9937
訓	-11.9937
威	-11.9937
恋	-11.9937
婚	-12.0229
粋	-12.0229
宝	-12.0229
溢	-12.0231
鎖	-12.0231
蚊	-12.0231
艸	-12.0231
彡	-12.0231
健	-12.0231
猛	-12.0231
殊	-12.0231
緊	-12.0231
牡	-12.0232
以	-12.0407
銭	-12.0532
顎	-12.0533
鑑	-12.0533
哀	-12.0533
賀	-12.0534
据	-12.0534
揮	-12.0534
丼	-12.0534
禁	-12.0535
吉	-12.0535
拠	-12.0536
揺	-12.0809
副	-12.0845
源	-12.0846
滞	-12.0846
徹	-12.0846
略	-12.0846
駅	-12.0846
林	-12.0846
因	-12.0846
策	-12.0846
宜	-12.0846
♯	-12.0847
栽	-12.0847
嵌	-12.0847
刀	-12.0847
創	-12.0847
霜	-12.0847
斜	-12.116
訪	-12.1167
袴	-12.1167
昧	-12.1168
村	-12.1168
昇	-12.1168
護	-12.1168
喪	-12.1168
奏	-12.1169
津	-12.1169
伊	-12.1169
嗅	-12.1169
甥	-12.1169
滲	-12.1169
屑	-12.1169
脆	-12.1169
雲	-12.1169
叶	-12.1169
富	-12.117
龍	-12.117
蜂	-12.117
忌	-12.117
碗	-12.117
漏	-12.1268
魅	-12.1498
像	-12.1501
舎	-12.1501
遮	-12.1501
賃	-12.1502
徒	-12.1502
〔	-12.1502
飴	-12.1502
招	-12.1502
纏	-12.1502
縞	-12.1503
羨	-12.1503
岩	-12.1503
斑	-12.1503
盗	-12.1503
井	-12.1503
ヶ	-12.1823
頻	-12.184
票	-12.1845
簡	-12.1845
胆	-12.1846
鈴	-12.1846
桐	-12.1847
養	-12.1847
〕	-12.1847
逸	-12.1847
門	-12.1847
焚	-12.1847
ヾ	-12.1847
衿	-12.1848
浜	-12.1848
該	-12.1848
牌	-12.1849
与	-12.2156
勘	-12.2203
族	-12.2203
剃	-12.2203
愕	-12.2203
塞	-12.2204
杢	-12.2204
撃	-12.2204
森	-12.2204
剣	-12.2204
占	-12.2204
柵	-12.2204
σ	-12.2204
眉	-12.2205
鋭	-12.2205
培	-12.2205
帆	-12.2205
商	-12.2543
里	-12.2572
則	-12.2573
唐	-12.2574
升	-12.2574
雄	-12.2574
虹	-12.2574
紛	-12.2574
萎	-12.2575
免	-12.2575
呑	-12.2575
〃	-12.2575
俺	-12.2575
捲	-12.2575
史	-12.2577
曖	-12.2957
憤	-12.2958
酵	-12.2958
侵	-12.2958
欧	-12.2959
群	-12.2959
恥	-12.2959
患	-12.2959
桁	-12.2959
柑	-12.2959
辿	-12.2959
湧	-12.2959
虚	-12.296
圏	-12.2961
刷	-12.3357
抽	-12.3358
捻	-12.3359
瞳	-12.3359
吟	-12.3359
民	-12.3359
町	-12.3359
濾	-12.3359
鬱	-12.3359
煩	-12.3359
弦	-12.3359
競	-12.3359
竿	-12.3359
奪	-12.3359
議	-12.336
罪	-12.336
凄	-12.3684
椎	-12.3773
模	-12.3773
膏	-12.3775
恵	-12.3775
ε	-12.3776
巨	-12.3776
武	-12.3776
紀	-12.3776
鍛	-12.3776
詞	-12.3776
逝	-12.3776
陸	-12.3776
亜	-12.3776
携	-12.3777
∧	-12.3777
斗	-12.3777
怠	-12.3777
稀	-12.3777
旗	-12.3777
舗	-12.4062
誌	-12.4209
軒	-12.4209
召	-12.4209
樹	-12.4209
弊	-12.421
佐	-12.421
慮	-12.421
冠	-12.421
廻	-12.4211
嵩	-12.4211
稚	-12.4211
岐	-12.4211
藻	-12.4211
熨	-12.4212
填	-12.4663
甚	-12.4665
撒	-12.4665
契	-12.4665
惹	-12.4665
о	-12.4665
゙	-12.4665
芳	-12.4665
帖	-12.4665
妖	-12.4666
港	-12.4666
剛	-12.4666
掘	-12.4666
随	-12.5132
脳	-12.5141
諸	-12.5141
釜	-12.5141
暦	-12.5141
劫	-12.5141
銘	-12.5141
喫	-12.5141
竜	-12.5141
羅	-12.5141
環	-12.5142
麗	-12.5142
億	-12.5142
遺	-12.5142
懸	-12.5142
幕	-12.5142
崎	-12.5142
河	-12.5142
般	-12.5635
伏	-12.564
括	-12.564
催	-12.564
益	-12.5641
φ	-12.5641
遭	-12.5641
洞	-12.5641
監	-12.5641
儲	-12.5642
笛	-12.5642
α	-12.5642
慌	-12.5642
捕	-12.5642
豊	-12.5642
賢	-12.5642
噂	-12.5642
蘭	-12.5643
匂	-12.6072
匁	-12.6166
捜	-12.6167
∩	-12.6167
墨	-12.6167
幻	-12.6168
橘	-12.6168
兎	-12.6168
搾	-12.6169
叫	-12.6169
柿	-12.617
丁	-12.6716
妊	-12.6723
豪	-12.7311
錯	-12.7311
敵	-12.7935
索	-12.7936
善	-12.7937
促	-12.7937
依	-12.8601
秘	-12.8604
専	-12.9052
鹿	-12.9318
忘	-12.9871
須	-13.0088
隙	-13.0527
紋	-13.0918
恰	-13.092
衛	-13.1824
範	-13.1829
属	-13.2826
慎	-13.2827
苔	-13.2828
稿	-13.2829
財	-13.3939
宣	-13.3941
抑	-13.5023
池	-13.5074
普	-13.5187
愉	-13.519
係	-13.519
趾	-13.5191
掲	-13.5191
午	-13.6504
寧	-13.6615
条	-13.6618
亀	-13.6618
躍	-13.828
較	-13.8286
訂	-14.0284
沙	-14.0285
韓	-14.2425
捨	-14.2717
唯	-14.2753
抹	-14.2755
殆	-14.2782
玄	-14.2784
呂	-14.2785
択	-14.2785
那	-14.2786
濯	-14.2786
悟	-14.2787
痩	-14.6041
功	-14.6118
責	-14.612
枯	-15.0802
飽	-15.0804
央	-15.1112
箇	-15.1114
況	-15.1118
酎	-16.1028
楕	-16.1029
遥	-16.103
憩	-16.1031
賭	-16.1032
焙	-16.1033
嘔	-16.1034
絨	-16.1035
毯	-16.1036
懲	-16.1037
廊	-16.1038
憧	-16.1039
唖	-16.104
姜	-16.1041
蠣	-16.1042
蕎	-16.1043
詮	-16.1044
朴	-16.1045
乏	-16.1046
琲	-16.1047
珈	-16.1048
騰	-16.1049
顧	-16.105
汎	-16.1051
剰	-16.1052
礎	-16.1053
玩	-16.1054
阪	-16.1055
薔	-16.1056
薇	-16.1057
僅	-16.1058
披	-16.1059
眺	-16.106
餃	-16.1061
痢	-16.1062
穫	-16.1063
僚	-16.1064
斐	-16.1065
尋	-16.1066
且	-16.1067
肪	-16.1068
矯	-16.1069
舐	-16.107
─	-16.1071
躊	-16.1072
躇	-16.1073
烈	-16.1074
茹	-16.1075
渉	-16.1076
奨	-16.1077
己	-16.1078
戚	-16.1079
徐	-16.108
褒	-16.1081
惜	-16.1082
噌	-16.1083
遽	-16.1084
需	-16.1085
鹸	-16.1086
距	-16.1087
璧	-16.1088
膚	-16.1089
奢	-16.109
抵	-16.1091
洒	-16.1092
紹	-16.1093
険	-16.1094
繍	-16.1095
惚	-16.1096
妥	-16.1097
詫	-16.1098
康	-16.1099
勿	-16.11
控	-16.1101
挑	-16.1102
汰	-16.1103
是	-16.1104
繊	-16.1105
挟	-16.1106
貰	-16.1107
晶	-16.1108
験	-16.1109
齢	-16.111
娠	-16.1111
暮	-16.1112
勉	-16.1113
濡	-16.1114
̄	-16.1115
蛍	-16.1116
雰	-16.1116
椅	-16.1117
詐	-16.1117
粧	-16.1118
裕	-16.1119
窮	-16.1119
曜	-16.112
燥	-16.1121
疲	-16.1122
欺	-16.1123
諦	-16.1124
頑	-16.1125
揃	-16.1126
迅	-16.1127
́	-16.1128
梱	-16.1129
綺	-16.113
討	-16.1131
購	-16.1131
