<unk>	0
<s>	0
</s>	0
、	-2.99139
。	-3.08408
n	-3.18056
。\	-3.66152
\	-4.25509
が	-4.42819
の	-4.43651
は	-4.74064
で	-4.86328
,	-5.01099
い	-5.05349
に	-5.05604
も	-5.12056
と	-5.17727
です	-5.17834
!	-5.21658
▁	-5.26692
10	-5.38863
▁1,	-5.42506
を	-5.43915
▁2,	-5.5549
1	-5.70016
...	-5.78614
?	-5.78854
(	-5.81276
100	-5.88973
2	-5.92102
でした	-5.97613
月	-5.99107
し	-6.01753
ました	-6.11439
)	-6.15344
ので	-6.20337
から	-6.20401
て	-6.21318
なので	-6.27831
ます	-6.34082
3	-6.34952
▁1,,10	-6.36383
・・・	-6.4041
でも	-6.40544
円	-6.40801
な	-6.41512
cm	-6.43165
や	-6.43836
▁2,,10	-6.47752
か	-6.48417
▁2,,	-6.53146
ですが	-6.53435
日	-6.60568
購入	-6.62271
5	-6.62651
ポイント	-6.65299
▁1,,	-6.66223
4	-6.66783
▁1,100	-6.67476
って	-6.70176
た	-6.73456
mm	-6.78392
とても	-6.78724
して	-6.79226
〜	-6.81168
また	-6.81833
る	-6.83279
▁1,10	-6.84097
した	-6.86043
!!	-6.88494
11	-6.89344
購入しました	-6.90077
」	-6.91778
1000	-6.91965
には	-6.92708
「	-6.92909
す	-6.94478
この	-6.95729
まだ	-6.96589
・	-6.96902
かな	-6.97154
もう	-6.98636
と思います	-6.99888
,10	-7.0154
▁2,,100	-7.03463
♪	-7.04216
、\	-7.06612
く	-7.08898
サイズ	-7.13674
6	-7.14195
なら	-7.14648
商品	-7.16955
▁2,10	-7.18011
)\	-7.18322
り	-7.19362
つ	-7.19501
12	-7.2019
100%	-7.20444
少し	-7.20621
ですね	-7.21456
お	-7.21737
▁1,,11	-7.21807
けど	-7.23992
ね	-7.24191
かなり	-7.24636
ちょっと	-7.26675
本	-7.26841
より	-7.2731
▁1,,100	-7.27513
センチ	-7.28408
ない	-7.29313
を購入しました	-7.30126
倍	-7.30451
ただ	-7.32159
,100	-7.32443
ー	-7.38089
☆	-7.42868
のですが	-7.43336
しました	-7.43348
枚	-7.45173
8	-7.47542
g	-7.47743
かわいい	-7.47964
残念です	-7.48273
たら	-7.48428
7	-7.48733
個	-7.48944
色	-7.49188
を購入	-7.4969
など	-7.50943
L	-7.51197
だと	-7.52421
では	-7.52649
▁2,100	-7.52919
ません	-7.53617
良かったです	-7.53922
20	-7.54002
!,	-7.54335
30	-7.55923
日に	-7.56888
だったので	-7.57645
9	-7.58377
ましたが	-7.5967
商品は	-7.60028
ん	-7.61427
という	-7.61455
分	-7.62015
まで	-7.62778
笑	-7.62949
やはり	-7.63039
注文	-7.63087
ら	-7.64286
0	-7.64806
円で	-7.6523
。,	-7.65528
だけ	-7.65603
する	-7.66734
よ	-7.67015
本当に	-7.67117
これは	-7.67743
います	-7.69882
にも	-7.70373
T	-7.70668
いい	-7.71102
とか	-7.74053
kg	-7.74081
ありがとうございました	-7.74676
う	-7.74708
いつも	-7.77573
これ	-7.78046
もっと	-7.78568
します	-7.78735
年	-7.79172
よかったです	-7.79442
M	-7.81649
発送	-7.82151
使用	-7.82607
き	-7.83918
やっぱり	-7.84287
すぐに	-7.84676
今回	-7.85366
これで	-7.86027
】	-7.86086
残念	-7.86219
着	-7.86332
あまり	-7.87605
良い	-7.88918
今回は	-7.89477
よく	-7.90062
私は	-7.90339
他の	-7.9073
さ	-7.91137
なく	-7.91175
すぐ	-7.91506
110	-7.9215
用	-7.92173
120	-7.92387
そうです	-7.92669
るので	-7.92673
そう	-7.93019
全く	-7.93035
デザイン	-7.93224
たので	-7.93885
かも	-7.94191
もう少し	-7.94468
なのに	-7.95329
ますが	-7.95408
その	-7.95638
あ	-7.95942
しかも	-7.96206
【	-7.96836
中	-7.97304
しか	-7.97871
満足です	-7.98019
ないので	-7.98908
均の	-7.98939
安い	-8.00061
でしたが	-8.00523
だと思います	-8.00735
だし	-8.00762
購入しましたが	-8.00841
の方が	-8.00865
いいです	-8.01074
なかなか	-8.01242
にしました	-8.01455
足	-8.02276
&#10071;,	-8.02681
あと	-8.03239
?,	-8.03729
感じ	-8.03839
15	-8.05073
。。。	-8.05536
回	-8.06599
として	-8.06773
だった	-8.07152
み	-8.07534
だ	-8.0773
いました	-8.07736
▁2,,11	-8.08029
今	-8.10206
ず	-8.10327
ありません	-8.10413
すごく	-8.10555
ると	-8.10588
・・	-8.10756
18	-8.11085
こ	-8.11136
今まで	-8.11209
いて	-8.11376
あり	-8.12031
くらい	-8.12198
...。	-8.12236
均	-8.12337
レビュー	-8.13492
16	-8.13674
▁́	-8.13911
点	-8.1392
14	-8.14204
対応	-8.15356
一	-8.17628
っ	-8.17721
,1000	-8.17754
届きました	-8.18047
時に	-8.18057
とっても	-8.18102
早く	-8.18247
後	-8.18345
結局	-8.19095
メール	-8.19153
m	-8.19323
キロ	-8.20108
毎日	-8.20289
24	-8.20697
ヶ月	-8.21378
ピンク	-8.21699
こちらの	-8.2194
しかし	-8.22133
のか	-8.22269
日に注文して	-8.23086
ほど	-8.2334
ま	-8.23452
同じ	-8.23459
め	-8.23648
13	-8.24106
時	-8.24419
&	-8.24544
うーん	-8.24593
ス	-8.24765
S	-8.24767
わ	-8.25027
ため	-8.25344
買いました	-8.25352
小さい	-8.25365
号	-8.25989
▁1,1000	-8.26509
セット	-8.2698
品	-8.27181
袋	-8.27501
:	-8.27658
まだ届きません	-8.27926
もの	-8.28015
数	-8.28048
と思い	-8.28232
った	-8.28391
▁2,,1000	-8.28644
え	-8.29021
なかった	-8.29737
かわいいです	-8.2989
しています	-8.30011
のに	-8.30013
白	-8.30247
だから	-8.31563
500	-8.31586
よかった	-8.31904
普段	-8.31983
何	-8.3206
物	-8.32081
G	-8.32162
正直	-8.32268
大満足です	-8.32376
そして	-8.32416
と思いました	-8.32494
になりました	-8.32733
/	-8.32932
のは	-8.33247
ませんでした	-8.33249
...,	-8.34966
★	-8.35121
~	-8.35406
があり	-8.35554
交換	-8.35577
ある	-8.35713
円の	-8.36555
黒	-8.37411
▁1,,1000	-8.37484
こと	-8.37516
残念でした	-8.37557
届いて	-8.37715
結構	-8.38424
-	-8.3848
見	-8.38697
,11	-8.38892
色は	-8.39179
・・・,	-8.39217
ちゃんと	-8.39848
o	-8.40651
がっかり	-8.40973
^^	-8.41242
なんて	-8.41273
17	-8.41307
、1	-8.41672
追記	-8.41929
やっと	-8.41977
たのですが	-8.42025
まぁ	-8.42263
全然	-8.4239
度	-8.42888
商品が	-8.43252
ノ	-8.4327
前	-8.43426
ミリ	-8.43598
ブラック	-8.44627
』	-8.4537
方	-8.45536
特に	-8.45833
23	-8.45888
柄	-8.45957
。"	-8.46245
こちら	-8.46341
ずっと	-8.46434
w	-8.46486
+	-8.46522
リ	-8.46599
すると	-8.46854
可愛い	-8.47497
でしょうか	-8.47575
購入して	-8.47704
受注番号	-8.47725
ml	-8.47727
まず	-8.47922
そのまま	-8.47972
カ	-8.48145
??	-8.4818
しっかり	-8.48286
.	-8.48333
カバー	-8.48346
いる	-8.48831
使って	-8.48946
『	-8.4916
違う	-8.49317
私の	-8.49992
位	-8.50136
たくさん	-8.50263
連絡	-8.50394
自分で	-8.50453
、100	-8.51156
初めて	-8.51162
時間	-8.51166
&#10071;	-8.51426
25	-8.51504
×	-8.52062
目	-8.52476
事	-8.52548
大	-8.52738
星	-8.53213
均で	-8.53351
と思って	-8.5341
19	-8.53452
しましたが	-8.5358
すが	-8.53647
・・・。	-8.53926
ような	-8.54006
なし	-8.54114
K	-8.54119
ても	-8.54127
かったです	-8.54245
27	-8.54443
箱	-8.54503
ようです	-8.55344
日に届きました	-8.55787
ではなく	-8.55879
買って	-8.5589
のが	-8.56057
到着	-8.56288
こんなに	-8.56356
届いた	-8.56396
これから	-8.56397
なぁ	-8.56759
130	-8.5716
になります	-8.57233
取り付け	-8.57292
ありがとうございます	-8.57383
シルク	-8.57386
方が	-8.57415
ところ	-8.58102
よりも	-8.58172
くて	-8.58486
非常に	-8.58495
高い	-8.58566
大変	-8.58623
サイズは	-8.587
こちらは	-8.58887
値段	-8.58914
ル	-8.59101
確認	-8.59193
上	-8.59539
プレゼント	-8.59632
使う	-8.60299
&#10071;&#65039;	-8.60339
さらに	-8.6037
21	-8.6071
購入した	-8.60791
50	-8.60917
こんな	-8.60948
!!!	-8.61018
ク	-8.6124
なくて	-8.61452
等	-8.61605
若干	-8.61656
とは	-8.62063
色も	-8.62131
ア	-8.62157
手	-8.62432
部分が	-8.62468
生地	-8.62579
週間	-8.62677
送料	-8.62815
入れ	-8.63317
のような	-8.63424
返品	-8.63478
人	-8.63608
配送	-8.63662
まあ	-8.63868
評価	-8.63943
私には	-8.64472
、11	-8.64509
になって	-8.64723
前に	-8.64903
タイプ	-8.64977
コ	-8.6536
れば	-8.65433
送料無料	-8.65946
になる	-8.65984
あります	-8.66001
普通に	-8.66009
もなく	-8.66051
▁1,11	-8.66752
とりあえず	-8.67264
早速	-8.67537
食べ	-8.67737
つけ	-8.67972
22	-8.6806
たり	-8.68223
に注文して	-8.68549
良いです	-8.6893
したら	-8.68962
不良品	-8.69007
を買いました	-8.69087
全部	-8.69371
赤	-8.69845
タ	-8.69956
40	-8.70268
嬉しいです	-8.70751
へ	-8.71169
歳	-8.71276
ということで	-8.71396
れ	-8.71896
良く	-8.72116
味	-8.72376
薄い	-8.72414
の娘に	-8.72438
これなら	-8.72464
している	-8.72561
メール便	-8.72963
80	-8.73018
約	-8.73186
→	-8.74009
いた	-8.74383
なのか	-8.74453
出	-8.74577
外	-8.7493
けれど	-8.75257
かもしれません	-8.75316
グレー	-8.75448
ベージュ	-8.75542
カラー	-8.75597
用に	-8.75994
本日	-8.76186
200	-8.762
満足	-8.76274
ではない	-8.76327
写真	-8.76447
サイズが	-8.76541
だけど	-8.76587
汚れ	-8.76834
一番	-8.76966
感	-8.77079
とにかく	-8.77201
できる	-8.77453
C	-8.77562
と同じ	-8.7764
身長	-8.7817
A	-8.78447
水	-8.78534
大きい	-8.79117
ないし	-8.792
ケース	-8.79255
ように	-8.7927
色が	-8.79488
26	-8.79495
以前	-8.79514
助かりました	-8.79549
助かります	-8.79704
ガッカリ	-8.79994
リピート	-8.80007
きました	-8.80073
現在	-8.80601
リピ	-8.80711
ありました	-8.8082
なんか	-8.80957
ています	-8.81089
付き	-8.8116
年以上	-8.81503
私	-8.81693
グリーン	-8.81751
28	-8.8176
良かった	-8.81775
粒	-8.82094
でしょう	-8.82296
かった	-8.82379
代	-8.82679
90	-8.82748
満足しています	-8.82848
ホワイト	-8.82917
最近	-8.82982
ちょうど	-8.83014
、2	-8.83371
かなぁ	-8.83417
を購入しましたが	-8.83442
よう	-8.8368
てしまいました	-8.83772
ショップ	-8.83868
二	-8.83904
0.5	-8.83977
まったく	-8.841
コットン	-8.844
注文しました	-8.84439
以上	-8.8457
キャンセル	-8.84981
ン	-8.85017
今は	-8.85044
月に	-8.85815
ラ	-8.85841
W	-8.85845
よい	-8.85993
買いましたが	-8.86475
になり	-8.86592
???	-8.86602
日で	-8.87047
中の	-8.87149
さん	-8.87247
円なら	-8.87275
安く	-8.8732
▁2,1000	-8.87429
せ	-8.87504
に届きました	-8.87526
何か	-8.87711
レ	-8.87818
程	-8.88012
店	-8.88131
!,10	-8.88158
ブルー	-8.88422
確かに	-8.88426
注文した	-8.88733
普通の	-8.8883
量	-8.88852
今日	-8.88965
された	-8.89071
思ったより	-8.89098
300	-8.89384
美味しい	-8.89483
ご	-8.89638
下	-8.89777
(^	-8.90116
りました	-8.90272
できない	-8.90289
さすがに	-8.91268
いいと思います	-8.91487
パック	-8.91813
気に入りました	-8.91884
おすすめです	-8.92018
全て	-8.92204
..	-8.92246
画像	-8.923
通り	-8.92308
パンツ	-8.92325
;	-8.9233
予約	-8.9244
ば	-8.92477
リング	-8.92554
ショック	-8.92617
気	-8.92717
この商品	-8.92718
匹	-8.92839
種類	-8.92936
使える	-8.93059
るのに	-8.93107
みたい	-8.93108
ちなみに	-8.9341
のみ	-8.93482
番	-8.93568
日に注文	-8.93727
小	-8.93746
ラッピング	-8.94028
のため	-8.9407
しても	-8.94321
気に入っています	-8.94356
着用	-8.94375
......	-8.94479
生地が	-8.94488
O	-8.9449
にして	-8.94605
ほとんど	-8.94693
がっかりです	-8.95308
注文して	-8.95339
ものが	-8.95722
イ	-8.96139
B	-8.96169
届きません	-8.96268
るし	-8.96445
なかったので	-8.96531
最悪	-8.9667
これが	-8.96686
感じで	-8.96844
香り	-8.9712
○	-8.97233
おいしい	-8.97234
円なので	-8.97496
長さ	-8.97677
それでも	-8.97784
なのですが	-8.97786
可愛いです	-8.97822
いましたが	-8.98082
所	-8.98148
用に購入しました	-8.98227
なんだか	-8.98384
為	-8.98496
問い合わせ	-8.98499
商品も	-8.98622
なぜ	-8.98703
だけで	-8.98779
見た目	-8.98908
円ショップで	-8.98992
01	-8.99168
作り	-8.99259
予定	-8.99263
付け	-8.993
円ショップ	-8.99309
、「	-8.99343
入り	-8.9949
(^^)	-8.9951
一度	-8.99623
上に	-8.99648
と思う	-8.9978
かと思います	-8.9978
リピです	-8.99881
LED	-9.00613
ト	-9.00995
デザインは	-9.01048
どう	-9.01152
▁̄	-9.01203
記載	-9.01268
シート	-9.01745
自分の	-9.01785
感じです	-9.0189
状態	-9.02001
いたので	-9.0216
じゃない	-9.02233
部分	-9.02237
使い	-9.02243
ゴミ	-9.02289
があるので	-9.02314
品質	-9.02341
(*	-9.02348
P	-9.02455
[	-9.02657
思っていたより	-9.02663
欲しい	-9.02678
゚	-9.02718
梱包	-9.02811
倍で	-9.02869
形	-9.0296
安っぽい	-9.02999
ないです	-9.03153
たのに	-9.03371
気がします	-9.03744
かと	-9.04035
がある	-9.04147
が届きました	-9.04162
その後	-9.04181
買った	-9.04189
お店	-9.04504
大きさ	-9.04646
ひどい	-9.0476
とのこと	-9.0494
29	-9.05099
みたいな	-9.05132
”	-9.05324
ポリエステル	-9.05328
なんで	-9.05375
ながら	-9.05522
オススメです	-9.05655
買う	-9.06023
ぐらい	-9.06177
ド	-9.06462
商品自体は	-9.06604
カット	-9.06767
ッ	-9.06773
む	-9.06806
00	-9.06904
_	-9.06942
商品の	-9.07003
悪い	-9.0709
購入したのですが	-9.07199
時は	-9.0726
したが	-9.07353
多分	-9.07462
残念ながら	-9.07492
普通	-9.07544
生地も	-9.07738
グ	-9.0795
ど	-9.08126
円ショップの	-9.08249
結果	-9.08338
レビューで	-9.08444
オレンジ	-9.08457
入荷	-9.08463
こちらの商品	-9.08786
素材	-9.08897
いまいち	-9.08908
かったので	-9.0909
ぴったり	-9.09178
マ	-9.09294
長く	-9.09315
玉	-9.09362
イマイチ	-9.09622
OK	-9.0964
すべて	-9.09655
別の	-9.09778
私が	-9.0986
一緒に	-9.09956
無	-9.10212
金	-9.10266
んで	-9.10416
みたいです	-9.1051
必要	-9.10518
そんな	-9.10537
エ	-9.10638
ります	-9.10645
たところ	-9.10679
のある	-9.10686
け	-9.10711
かもしれませんが	-9.10718
多少	-9.10882
105	-9.10963
ている	-9.11201
いです	-9.11259
としては	-9.11312
お得	-9.11547
効果	-9.11571
ピアス	-9.11752
]	-9.11814
凄く	-9.11825
って感じです	-9.11879
のでしょうか	-9.11952
あって	-9.12002
たいと思います	-9.12012
の物	-9.12228
デザインも	-9.1237
製品	-9.12469
インチ	-9.12879
青	-9.12921
か月	-9.12992
風	-9.13074
あれば	-9.13244
靴	-9.1336
お値段	-9.1341
を見て	-9.13746
希望	-9.13786
注文しましたが	-9.13798
ベルト	-9.13876
ち	-9.13887
!?	-9.13981
無し	-9.14164
びっくり	-9.14167
スマホ	-9.14273
ピッタリ	-9.146
臭い	-9.14633
入って	-9.14699
しばらく	-9.14827
キラキラ	-9.15041
紙	-9.15246
なければ	-9.15552
安くて	-9.15781
サイズの	-9.15789
販売	-9.16129
つけて	-9.16177
沢山	-9.16429
お試し	-9.16445
今のところ	-9.16448
&#8252;	-9.16449
中に	-9.1648
どちらも	-9.16562
不安	-9.16577
^)	-9.16876
*	-9.17026
届く	-9.17072
充電	-9.17073
遅い	-9.17123
ですか	-9.1728
価格	-9.17383
チ	-9.17383
60	-9.17448
福袋	-9.17586
ようで	-9.17648
を探していました	-9.17663
三	-9.17717
十分	-9.1777
それ	-9.17799
D	-9.18008
届かない	-9.18026
すごい	-9.18199
系	-9.18374
ct	-9.18687
楽天	-9.18997
のほうが	-9.19097
味は	-9.19495
使ってます	-9.195
しない	-9.19591
そうな	-9.19646
用の	-9.19679
と思っています	-9.19735
いたのですが	-9.19794
ゴールド	-9.19867
パ	-9.19991
いつもは	-9.20006
されて	-9.20163
70	-9.2017
サイズで	-9.20397
シャツ	-9.20426
品物	-9.20447
無く	-9.20583
マイナス	-9.20625
っと	-9.2066
"	-9.20687
店舗	-9.20736
いので	-9.20988
、12	-9.21011
ですよ	-9.21038
硬い	-9.21163
そんなに	-9.21308
03	-9.21379
シ	-9.2142
式	-9.21431
k	-9.21493
あるので	-9.21589
!!,	-9.21623
体重	-9.21859
してます	-9.21865
きちんと	-9.21999
生地は	-9.22097
無い	-9.22115
おまけ	-9.22117
のかな	-9.22227
ほぼ	-9.22267
伸び	-9.2227
細い	-9.22744
質	-9.22811
子供が	-9.22842
大きくて	-9.22876
v	-9.2315
F	-9.23186
使いやすいです	-9.23187
使っています	-9.23401
子	-9.23405
実際	-9.23446
バッグ	-9.23498
この商品は	-9.23524
なり	-9.23559
調整	-9.23572
おり	-9.236
超	-9.23746
OFF	-9.23762
毎回	-9.23768
▁2,11	-9.23859
s	-9.23947
いいですね	-9.24018
円だから	-9.24059
程度	-9.24095
大きく	-9.24422
購入し	-9.24455
というか	-9.24488
機能	-9.2461
くらいの	-9.24742
バ	-9.24923
リボン	-9.2495
顔	-9.24961
良いと思います	-9.25055
重い	-9.25191
だったら	-9.25233
半	-9.2526
なって	-9.25533
いつ	-9.2558
普段は	-9.25679
きた	-9.25698
タオル	-9.25951
買い	-9.26055
サイズを	-9.26069
絶対	-9.26129
軽くて	-9.26141
キ	-9.26153
ネイビー	-9.26157
色々	-9.26323
小さな	-9.26359
他	-9.26471
収納	-9.26475
ライト	-9.26522
日間	-9.26547
商品を	-9.26581
面	-9.26728
していて	-9.26802
され	-9.26817
^	-9.26823
問題	-9.26831
はかなり	-9.27072
何度も	-9.27233
落ち	-9.2724
大きな	-9.27718
もあり	-9.27969
ダ	-9.28007
取り	-9.2801
すぎ	-9.28068
いますが	-9.281
できました	-9.28119
表示	-9.28224
あれ	-9.28326
花	-9.28494
ウエスト	-9.28662
少々	-9.28677
ネ	-9.28819
にしましたが	-9.28902
やや	-9.28952
タイツ	-9.28963
(*^^*)	-9.28986
ものを	-9.29142
気に入ってます	-9.29205
150	-9.29347
子供の	-9.29351
を買って	-9.29435
もし	-9.29665
ぁ	-9.29764
食	-9.29869
気に入って	-9.30038
があって	-9.30114
最悪です	-9.30203
綺麗な	-9.30235
オ	-9.30293
同	-9.30301
毛	-9.30626
内容	-9.3063
シンプルで	-9.30664
やすい	-9.30744
はず	-9.30818
グラム	-9.30949
こちらで	-9.31016
したので	-9.31132
届いたのは	-9.3129
と思いましたが	-9.31416
見て	-9.31533
一つ	-9.31534
ばかり	-9.31645
寝	-9.31686
肌	-9.31766
デザインが	-9.32008
んですが	-9.32061
ショックです	-9.32267
抜け	-9.32398
ですよね	-9.32986
31	-9.33096
たっぷり	-9.33106
ゴム	-9.33136
サイズを購入しました	-9.33167
クリーム	-9.33199
服	-9.33211
力	-9.33579
商品です	-9.33583
?,10	-9.33616
そ	-9.33643
たい	-9.33674
があります	-9.33712
これを	-9.33775
ブラウン	-9.33828
しません	-9.33834
いまだに	-9.33846
の方は	-9.34012
傷	-9.34081
組み立て	-9.34323
(>_<)	-9.34332
薄く	-9.34353
当然	-9.34438
年近く	-9.3444
せめて	-9.34448
プラス	-9.34453
持ち	-9.34474
詐欺詐欺詐欺詐欺詐欺詐欺詐欺詐欺	-9.34477
無理	-9.34501
ものは	-9.34514
糸	-9.34545
内	-9.3466
きます	-9.34747
好きな	-9.34818
効果は	-9.34857
朝	-9.34896
がっかりしました	-9.35015
うれしいです	-9.35094
,"	-9.35403
前の	-9.35463
メ	-9.35593
ダメ	-9.35659
ぶ	-9.35668
はありません	-9.35712
みると	-9.35769
ありがたいです	-9.35819
ったら	-9.35925
楽しみです	-9.35951
しっかりしていて	-9.35953
と言う	-9.36047
円均一	-9.36326
♪,	-9.36355
スカート	-9.36419
ネットで	-9.3643
のも	-9.36484
のもの	-9.36536
メールで	-9.36638
セール	-9.36748
シルバー	-9.36771
シール	-9.36795
便利	-9.36914
書いて	-9.37054
倍だったので	-9.37174
均レベル	-9.37178
がなく	-9.3721
=	-9.37292
ω	-9.37302
よかったよかったよかったよかった	-9.37304
分丈	-9.3731
使えない	-9.37426
きて	-9.37438
楽	-9.37444
コレ	-9.37494
子供	-9.37656
どんな	-9.37774
履いて	-9.37837
つです	-9.3785
それと	-9.37882
軽い	-9.3793
おすすめ	-9.37946
自体は	-9.38079
とき	-9.38087
なかったです	-9.38266
柔らかく	-9.38481
安いので	-9.3849
んだ	-9.38661
を入れて	-9.387
がないので	-9.38736
大丈夫	-9.39059
なの	-9.39133
肉	-9.39232
ありますが	-9.39252
台	-9.39432
綺麗に	-9.39487
ありませんでした	-9.39496
巻	-9.39517
石	-9.39543
使用して	-9.39548
ウ	-9.39686
てしまいます	-9.39736
らない	-9.39772
いるので	-9.39858
ロ	-9.40107
値段相応	-9.4014
作業	-9.40142
何度か	-9.40157
期待して	-9.40197
検品	-9.40216
(^-^)	-9.40216
ナチュラル	-9.40219
ウール	-9.40241
円は	-9.4027
なくなりました	-9.40275
売り切れ	-9.40292
ほしい	-9.40513
円でも	-9.40585
もありません	-9.40897
サ	-9.40917
になった	-9.40963
^^;	-9.41052
デ	-9.41068
とのことで	-9.41179
もちろん	-9.41523
,0	-9.41546
レベル	-9.41565
あとは	-9.4158
最初	-9.41666
レビューを見て	-9.41704
出荷	-9.41714
とも	-9.41757
1,000	-9.41794
画面	-9.41811
できません	-9.41874
切れ	-9.419
通常	-9.41909
であれば	-9.41915
と一緒に	-9.42114
すれば	-9.42177
日現在	-9.42187
気になる	-9.42243
円以上	-9.42353
全体的に	-9.42357
わからない	-9.42407
体	-9.42555
マット	-9.42638
個入り	-9.42849
々	-9.42882
かけ	-9.43082
指定	-9.4317
月上旬	-9.43198
っぽい	-9.43204
長い	-9.43252
場所	-9.43287
ここまで	-9.43316
光	-9.43435
考え	-9.43447
ほんとに	-9.43589
性	-9.43709
返信	-9.43799
利用	-9.43816
前回	-9.43822
半分	-9.43833
重	-9.4397
チェーン	-9.4404
嬉しかったです	-9.44266
日に注文し	-9.4437
するので	-9.44392
型	-9.44495
弱	-9.4453
バック	-9.44572
次は	-9.4459
なのでしょうか	-9.44657
カワイイ	-9.44666
などの	-9.44715
よね	-9.44799
肩	-9.44971
腰	-9.45014
少ない	-9.45101
したいと思います	-9.45112
るのが	-9.4515
なん	-9.45186
チェック	-9.45252
未だに	-9.45368
実際に	-9.45489
サイズも	-9.45517
他に	-9.45581
って感じ	-9.45589
購入してみました	-9.45652
オススメ	-9.45721
りません	-9.45722
ということ	-9.45787
じ	-9.45837
下さい	-9.45936
丸	-9.45973
小さめ	-9.46012
電話	-9.46078
が多い	-9.46092
ツ	-9.46111
ですし	-9.46162
違い	-9.46213
&#10084;,	-9.46274
カシミヤ	-9.46368
▽	-9.46394
を使って	-9.46526
くる	-9.46596
センチの	-9.46617
使いやすい	-9.4662
別	-9.46628
&#11088;&#65039;	-9.46713
外れ	-9.46715
今度は	-9.46743
0.2	-9.46752
通	-9.46877
再度	-9.47104
小さく	-9.47165
追加	-9.4724
残り	-9.47804
してくれ	-9.47824
明るく	-9.47897
あたり	-9.47913
買い物	-9.47964
わかりません	-9.47964
月中旬	-9.48008
e	-9.48034
ではないので	-9.48195
横	-9.48259
すぎて	-9.48275
あまりにも	-9.48325
で購入	-9.48447
耐久性	-9.48457
それも	-9.48501
洗濯	-9.48549
と思いますが	-9.48709
黒い	-9.48742
こちらの商品は	-9.488
お買い得	-9.48953
お腹	-9.49057
ペラペラ	-9.49121
せず	-9.49138
地	-9.49357
ブ	-9.49373
いたら	-9.49413
おります	-9.49448
キズ	-9.49477
ったので	-9.4949
&#10024;,	-9.49545
>	-9.49594
きっと	-9.49689
を購入し	-9.49701
変更	-9.49733
ついて	-9.49746
注文番号	-9.49764
分で	-9.49779
センチの娘に	-9.49895
何も	-9.50045
つく	-9.50107
お気に入りです	-9.50144
匂い	-9.5017
気持ち	-9.50171
説明	-9.50288
の時に	-9.50312
は少し	-9.5033
生	-9.50402
▁゚	-9.50466
なんとか	-9.50466
部屋	-9.50471
安心	-9.5064
にくい	-9.50646
すぎる	-9.50647
とてもいいです	-9.50661
最初は	-9.50729
ビックリ	-9.50774
人には	-9.50829
レッド	-9.50858
早い	-9.50867
心配	-9.50887
が少し	-9.50949
あったので	-9.50994
らず	-9.51001
▁2,,110	-9.51085
ですので	-9.51122
05	-9.51213
リピートです	-9.51322
失敗	-9.514
。,10	-9.514
点灯	-9.51422
E	-9.51423
しまい	-9.51471
大きめ	-9.51473
私も	-9.51515
おもちゃ	-9.51576
の方	-9.51674
今後	-9.51793
仕上がり	-9.51826
げ	-9.51838
02	-9.5212
しっとり	-9.52226
過ぎ	-9.52259
首	-9.52344
間	-9.52408
替え	-9.52532
なのかな	-9.52563
ム	-9.52584
白い	-9.52606
のように	-9.5264
なくても	-9.52765
出来る	-9.52812
高	-9.52848
初	-9.52864
びっくりしました	-9.52871
などは	-9.52877
頃	-9.52912
プラスチック	-9.52913
テーブル	-9.52948
◎	-9.52957
幅	-9.52968
ではありません	-9.52975
期待	-9.53204
ミ	-9.53232
との事	-9.53274
たった	-9.5328
ないと	-9.53351
パン	-9.53368
に注文し	-9.53402
しっかりしています	-9.53427
翌日	-9.53456
歳の	-9.53502
セットで	-9.53526
レギンス	-9.53568
イメージ	-9.53652
があったので	-9.53682
そうなので	-9.5371
可愛くて	-9.5375
とても残念です	-9.53958
ポケット	-9.54013
日注文	-9.54185
ときに	-9.54207
たいです	-9.54241
上の	-9.54289
枚入り	-9.54329
使えます	-9.5434
るのは	-9.54416
軽く	-9.54423
肌に	-9.5444
購入する	-9.54467
スーパー	-9.54609
び	-9.547
できて	-9.54742
ものでした	-9.5482
ないのに	-9.54869
感じでした	-9.54873
なりました	-9.54913
それに	-9.5494
の商品	-9.54982
商品でした	-9.55063
車	-9.55175
綿	-9.55265
先	-9.55357
的に	-9.55382
ほつれ	-9.55386
胸	-9.55484
長	-9.55636
仕事	-9.55663
ナ	-9.55692
それから	-9.55744
紐	-9.55753
喜んで	-9.55867
どれも	-9.55903
味が	-9.55978
カード	-9.56128
ガッカリです	-9.56171
さすが	-9.56227
パープル	-9.5623
専用	-9.5641
な感じ	-9.56412
それほど	-9.56444
装着	-9.5647
このまま	-9.56489
明らかに	-9.56496
いい感じです	-9.56517
大きすぎ	-9.56527
太い	-9.56645
安	-9.56747
後に	-9.56768
への	-9.57042
発送予定	-9.57086
方は	-9.57148
到着しました	-9.57192
〜\	-9.57233
靴下	-9.57306
使えません	-9.5755
実	-9.57709
実物は	-9.57799
金額	-9.57906
たけど	-9.5794
があれば	-9.57952
実際は	-9.58249
みました	-9.58333
テ	-9.58367
ひ	-9.58407
ズ	-9.58442
ネックレス	-9.58444
ところが	-9.58466
な感じです	-9.58502
できます	-9.58527
黄色	-9.58696
きません	-9.58788
円だったので	-9.58878
相当	-9.58887
だい	-9.58893
これでは	-9.58974
だと思いました	-9.591
大きさも	-9.591
物を	-9.59129
新しい	-9.59193
購入です	-9.59438
夜	-9.59441
お気に入り	-9.59477
まとめて	-9.59579
不	-9.5961
るように	-9.59611
泣	-9.59613
電池	-9.5963
ほしかった	-9.59672
計	-9.59702
いろいろ	-9.59728
状況	-9.59849
個人的には	-9.59858
自転車	-9.59859
変	-9.59888
安心して	-9.59927
アクリル	-9.59953
汗	-9.59959
たまたま	-9.59961
物が	-9.60035
らしく	-9.60132
本体	-9.60177
くらいで	-9.60194
と迷いましたが	-9.60236
じゃ	-9.60257
なる	-9.60369
になりそうです	-9.60376
不安です	-9.604
思い	-9.60449
ブラ	-9.60469
使えそうです	-9.60526
るような	-9.60585
音	-9.60891
残	-9.60904
まだ届いていません	-9.60953
で購入しました	-9.6098
`	-9.61248
大満足	-9.61273
させていただきました	-9.61307
布団	-9.61346
注文から	-9.61379
すでに	-9.61417
入っていました	-9.6151
2000	-9.61673
んですね	-9.61732
らしい	-9.61901
色違いで	-9.61929
それが	-9.62087
だけに	-9.62209
色の	-9.62243
割れ	-9.62405
ストラップ	-9.6249
倍ポイント	-9.62597
になっている	-9.62648
口	-9.62762
気に	-9.62764
クリア	-9.62795
セールで	-9.62827
才	-9.62879
おまけの	-9.6298
土	-9.62999
綺麗	-9.63007
丈	-9.63014
入れて	-9.63024
f	-9.63053
娘の	-9.63067
素敵な	-9.6307
上げ	-9.63156
茶	-9.63183
穴	-9.6321
てます	-9.63253
という感じです	-9.63341
直	-9.63353
0.1	-9.63363
ニ	-9.63401
昨日	-9.63444
ワ	-9.6353
はありますが	-9.6357
インナー	-9.63572
400	-9.63587
バラ	-9.63592
サービス	-9.63643
球	-9.63666
用に購入	-9.63724
いいいいいいいいいいいいいいいい	-9.63726
色々な	-9.63744
やっと届きました	-9.63763
出来ません	-9.63779
オイル	-9.63799
未だ	-9.63838
ビニール	-9.63914
つき	-9.6398
になってしまいました	-9.64021
を考えると	-9.64074
買ってよかったです	-9.64175
使用しています	-9.64591
円で購入	-9.64599
どの	-9.64614
したのですが	-9.64631
厚	-9.64735
気になりません	-9.64761
▁2,0	-9.6482
金具	-9.64939
これだけ	-9.64998
めて	-9.65216
それを	-9.6527
思って	-9.65322
・・・・	-9.65344
というより	-9.65509
してください	-9.65596
同じような	-9.65656
ものの	-9.65703
に近い	-9.6577
部分の	-9.65816
掃除	-9.65842
皆さん	-9.65997
いくら	-9.66078
ミス	-9.66193
月下旬	-9.66261
解	-9.66344
粉	-9.66394
でき	-9.66465
ひとつ	-9.66704
スッキリ	-9.66731
ろ	-9.66773
来た	-9.66861
壊れました	-9.66926
在庫	-9.66993
線	-9.66996
ぎ	-9.67047
0.3	-9.67084
購入後	-9.67254
ギリギリ	-9.67266
間違い	-9.6727
発売	-9.67375
まあまあ	-9.67411
してから	-9.67447
注意	-9.6746
強い	-9.67473
財布	-9.6748
設定	-9.67498
緑	-9.67503
家	-9.67582
感じがします	-9.67662
...,10	-9.67711
実物	-9.67722
場合	-9.67748
ヶ月の娘に	-9.67865
ていて	-9.67872
あった	-9.67873
があった	-9.67877
古い	-9.67939
会社	-9.68017
とても気に入りました	-9.68035
1.0	-9.68047
イン	-9.68088
小さくて	-9.68163
ほうが	-9.68184
3000	-9.68193
140	-9.68231
ありましたが	-9.68273
味も	-9.68322
きれいな	-9.68358
N	-9.68369
微妙	-9.6839
の色	-9.68392
送料込み	-9.68413
れる	-9.68476
的な	-9.6864
の為	-9.68702
られて	-9.68708
まし	-9.68709
綺麗です	-9.68763
感が	-9.68832
しますが	-9.6886
'	-9.68891
!」	-9.68947
が欲しくて	-9.6897
近所の	-9.68992
無かった	-9.69011
こちらも	-9.69015
ヶ月で	-9.69026
ここ	-9.69069
がありました	-9.69077
ようやく	-9.69152
キロの	-9.69303
メール便で	-9.69306
てしまう	-9.69309
様	-9.69448
部分は	-9.69636
木	-9.69637
に合わせて	-9.69645
買ってみました	-9.69699
みたら	-9.69743
使わない	-9.69746
もない	-9.69804
試しに	-9.69831
れて	-9.69835
ブーツ	-9.69842
に注文	-9.6996
見た目も	-9.69978
均以下	-9.70038
38	-9.70048
純正	-9.70091
爪	-9.70102
すら	-9.70182
いいかな	-9.70199
でしょ	-9.70257
送	-9.70385
ていました	-9.70548
だな	-9.70593
安いし	-9.70611
せいか	-9.70627
だったのですが	-9.70714
いません	-9.70745
新	-9.70838
−	-9.70858
取り寄せ	-9.70924
ロング	-9.7093
見た目は	-9.71005
ブラシ	-9.71061
そこ	-9.71183
のと	-9.71279
ハンガー	-9.71292
高く	-9.71296
ケ	-9.71318
便利です	-9.71374
手間	-9.71379
スポンジ	-9.71416
細	-9.71445
塩	-9.71468
加工	-9.71493
わざわざ	-9.71518
又	-9.71526
涙	-9.71528
髪	-9.71688
完全に	-9.71727
素	-9.71755
10000	-9.71788
(^_^;)	-9.71805
・・・,10	-9.71811
さえ	-9.71851
注文し	-9.71869
キロの娘に	-9.71907
者	-9.71912
買って良かったです	-9.7194
パール	-9.72037
いらない	-9.72042
我が家の	-9.72134
系の	-9.72202
もうすぐ	-9.72221
ことを	-9.72248
;)	-9.72262
円とは思えない	-9.72433
出来	-9.7251
日に注文しましたが	-9.72614
なのが	-9.7264
を使っていましたが	-9.72722
良かったので	-9.72734
円だし	-9.7274
だろう	-9.7275
&#11088;,	-9.72763
一部	-9.728
だそうです	-9.72901
しっかりと	-9.73012
変な	-9.73051
と感じました	-9.73099
楽天で	-9.73178
アップ	-9.7321
他店で	-9.73248
まだ届かない	-9.73486
の部分が	-9.73599
以下	-9.73636
フード	-9.73699
ファー	-9.73734
自分が	-9.73764
納得	-9.73859
柄も	-9.73907
欲しいです	-9.73936
はなく	-9.73958
入金	-9.73991
よりは	-9.74078
届いたら	-9.74108
心配です	-9.74109
話	-9.74209
いや	-9.74264
食べる	-9.74279
安心です	-9.74355
▁2,100%	-9.74507
モ	-9.7456
欲しかった	-9.74651
マシ	-9.74663
タイプの	-9.74766
捨てました	-9.74796
なんと	-9.74825
37	-9.74893
いっぱい	-9.749
つで	-9.74943
嬉しい	-9.74992
0.6	-9.75045
もよく	-9.75082
。。。,	-9.75087
モデル	-9.75139
と思っていましたが	-9.75225
とはいえ	-9.75279
ワイン	-9.75308
しまいました	-9.75341
ぴったりでした	-9.75381
更に	-9.75415
フック	-9.75423
どこ	-9.7543
終わり	-9.75434
枚は	-9.75447
色で	-9.75455
短い	-9.75564
とてもかわいいです	-9.75569
心	-9.75577
製	-9.75579
発色	-9.75596
返事	-9.75609
配達	-9.7561
やすいです	-9.75618
押し	-9.75635
布	-9.75642
正	-9.75653
仕様	-9.75672
バッテリー	-9.75678
ナイロン	-9.75686
DVD	-9.75689
仕方なく	-9.75691
∇`*)	-9.75695
ヽ	-9.75695
もともと	-9.75702
かったのですが	-9.75707
素晴らしい	-9.75717
PC	-9.75726
あっという間に	-9.75801
まま	-9.75849
シューズ	-9.75878
こちらを	-9.75879
縫製	-9.75981
娘は	-9.76029
なぜか	-9.76101
",	-9.76134
娘が	-9.76137
合わない	-9.76137
まるで	-9.76162
しまった	-9.76185
からの	-9.76218
自体	-9.7622
と思った	-9.76258
こちらに	-9.76263
飲んで	-9.76297
きつい	-9.76299
?」	-9.76343
入っていて	-9.76379
ください	-9.76418
即	-9.76419
最高です	-9.76547
i	-9.76607
ありえない	-9.76638
48	-9.76751
仕方ない	-9.76751
別に	-9.76761
同梱	-9.76767
みたいで	-9.76792
止め	-9.76814
カ月	-9.76872
来て	-9.76904
くなりました	-9.76904
さんの	-9.76915
のために	-9.77133
美味しいです	-9.77191
この値段	-9.77355
と思っていたのですが	-9.7741
!,100	-9.77502
何より	-9.77505
ぬ	-9.77553
ジ	-9.77556
最低	-9.77635
容量	-9.77673
108	-9.77748
無事	-9.77763
でしたので	-9.77798
ショックでした	-9.77881
発注	-9.77931
をして	-9.78024
なー	-9.78048
が多く	-9.78202
届き	-9.78247
せっかく	-9.78256
クーポン	-9.7829
るのか	-9.78299
レンズ	-9.78304
ふ	-9.78366
ページ	-9.7837
美味しかったです	-9.78413
しないと	-9.78423
はずれ	-9.78451
使います	-9.78468
名前	-9.78646
日後に	-9.787
中身	-9.78825
?!	-9.7883
夏	-9.78872
.\	-9.7894
ないのですが	-9.78977
角	-9.78988
つか	-9.79045
の中で	-9.79185
太さ	-9.7925
甘い	-9.79252
V	-9.79304
ビ	-9.79461
届かず	-9.7964
薄	-9.79694
壊れ	-9.79806
ネジ	-9.79807
経	-9.79828
届いていません	-9.79866
半年	-9.79873
薬	-9.79886
かれこれ	-9.79937
少量	-9.79959
ペン	-9.80002
&#9825;	-9.80043
クッキー	-9.80063
よいです	-9.80111
均に	-9.8014
の息子に	-9.80163
年くらい	-9.80267
包装	-9.80336
手に	-9.80363
ってます	-9.80496
こちらで購入しました	-9.80559
04	-9.80589
使用する	-9.80614
させ	-9.80635
厚み	-9.80641
使っている	-9.80707
強く	-9.80743
商品が届きました	-9.80822
×2	-9.80976
高さ	-9.80988
買える	-9.8104
a	-9.81101
に変更	-9.81224
愛用しています	-9.81267
頭	-9.81297
均一	-9.81494
家族	-9.81512
逆に	-9.81526
ボタン	-9.81606
側	-9.81643
みて	-9.81797
可愛く	-9.81825
注文したのに	-9.81865
言	-9.82044
満足してます	-9.82083
この値段で	-9.82102
肌が	-9.82198
過ぎて	-9.82216
),	-9.82297
値段が	-9.82323
おまけに	-9.82342
Y	-9.82445
てしまい	-9.82449
悩みましたが	-9.82455
ではありませんでした	-9.82463
ニット	-9.82534
簡単に	-9.82572
問題なく	-9.82608
座	-9.8266
フ	-9.82669
&#11088;	-9.82693
足が	-9.8274
インク	-9.82786
一週間	-9.8284
出て	-9.82865
ハズレ	-9.83033
コンパクト	-9.83035
キレイ	-9.83109
ものです	-9.83158
部	-9.83159
プ	-9.83179
とこ	-9.83233
をしました	-9.83297
これからも	-9.83305
今回の	-9.8331
付けて	-9.836
日の	-9.8363
試	-9.83703
料理	-9.83721
▁1,100%	-9.83736
作って	-9.83785
気分	-9.83803
が必要	-9.83805
書	-9.83834
固定	-9.83851
過ぎる	-9.83942
ときは	-9.8395
紫	-9.83957
印象	-9.84015
来	-9.84088
分からない	-9.84113
していました	-9.84145
身	-9.84245
ピッタリでした	-9.84249
必ず	-9.84357
体型	-9.8437
持って	-9.84409
0.9	-9.84421
効果が	-9.84493
ピンクの	-9.84497
置いて	-9.84518
針	-9.84534
しっかりした	-9.84543
ショップの	-9.84546
▁)	-9.84547
行	-9.8455
革	-9.84554
ゎ	-9.84581
肝心の	-9.84582
そろそろ	-9.84583
iPhone	-9.84693
届いた商品は	-9.84729
商品に	-9.8474
娘に	-9.84763
再	-9.84802
を購入して	-9.84839
ていたので	-9.84882
600	-9.84919
日に購入	-9.84954
たような	-9.85016
痛い	-9.8502
折れ	-9.85063
きれいに	-9.85064
レース	-9.85093
のを	-9.85107
冬	-9.85167
ゴ	-9.85189
やすく	-9.85193
きましたが	-9.85279
&#	-9.8528
まだまだ	-9.85283
の中に	-9.85294
95	-9.85298
たぶん	-9.85375
届くまで	-9.85377
シャンプー	-9.85411
食べた	-9.85458
ていた	-9.85459
がついて	-9.85477
秒	-9.85482
だが	-9.85572
されました	-9.85699
注文したのですが	-9.85847
を注文しました	-9.85941
ていますが	-9.85951
ガ	-9.85983
達	-9.86038
お勧め	-9.86166
,110	-9.86272
ませんが	-9.86299
していた	-9.86349
明るい	-9.86405
などで	-9.86578
シリーズ	-9.86604
☆,	-9.86642
発送が	-9.86645
にならない	-9.86665
こちらから	-9.86674
▁1,0	-9.86715
見え	-9.86847
このお値段	-9.86933
ほしいです	-9.86948
まとめ買い	-9.87161
良いのですが	-9.87251
160	-9.87256
読んで	-9.8731
通販	-9.8732
たりして	-9.87324
いただきました	-9.87385
ですから	-9.87388
一回	-9.87393
10%	-9.8742
素敵	-9.87428
万円	-9.8743
される	-9.87439
好き	-9.87561
コン	-9.87586
H	-9.87606
絶対に	-9.87634
▁2	-9.87712
っている	-9.87741
イエロー	-9.87929
んですか	-9.87958
出来ない	-9.8802
リー	-9.88021
ると思います	-9.88047
が悪い	-9.88048
年間	-9.88066
オシャレ	-9.88066
ぴったりです	-9.88134
ジェル	-9.88197
枚で	-9.88269
入	-9.88368
値段も	-9.88427
そういう	-9.88441
かけて	-9.88442
来ました	-9.88451
安いです	-9.88482
で十分	-9.88486
込み	-9.88523
安物	-9.88556
る事	-9.8857
イイ	-9.88576
ガラス	-9.88579
おいしいです	-9.88737
安いから	-9.88746
以前の	-9.8876
980	-9.88797
冊	-9.8884
是非	-9.88875
いいので	-9.88969
されている	-9.8897
女性	-9.88985
シー	-9.89052
ピ	-9.89068
指	-9.89073
バー	-9.89105
重宝しています	-9.8911
日購入	-9.89176
国産	-9.89269
合わせ	-9.89289
方法	-9.89294
天	-9.89303
悪く	-9.89305
各	-9.89322
棒	-9.89323
ハイ	-9.89326
ベスト	-9.89348
ック	-9.89364
すみません	-9.8937
カップ	-9.89407
長め	-9.89419
しかありません	-9.89439
キッチン	-9.89445
&#10084;&#65038;	-9.89517
食品	-9.89534
気味	-9.89555
丁度	-9.89563
ないかな	-9.89653
にしても	-9.89683
一体	-9.89781
両方	-9.89934
うちの	-9.8995
最初から	-9.89954
?)	-9.89968
ジャストサイズ	-9.90051
ハ	-9.90148
畳	-9.90248
だいぶ	-9.90249
他にも	-9.90252
お店で	-9.9027
5000	-9.90276
猫	-9.9029
ガッカリしました	-9.90393
思っていた	-9.90442
使えませんでした	-9.90448
コスパ	-9.90457
ここで	-9.90498
買ったのに	-9.90545
だったのに	-9.90611
とありますが	-9.90624
匂いが	-9.90696
物は	-9.90733
はありませんでした	-9.9077
耳	-9.908
とは思えない	-9.90812
07	-9.90829
ようと思います	-9.9083
これに	-9.90884
万	-9.90921
てました	-9.90962
使い心地	-9.90994
付	-9.91024
履く	-9.91033
状態で	-9.91049
裏	-9.91055
次回は	-9.91094
始め	-9.91232
細身	-9.91242
かかと	-9.91248
ないですね	-9.91274
色合い	-9.91275
そうで	-9.9137
連絡も	-9.91372
愛用	-9.91423
先に	-9.91434
簡単	-9.91439
ヒール	-9.91453
最近は	-9.91463
れません	-9.91473
悪	-9.9159
ット	-9.91639
に比べて	-9.91643
のメール	-9.91752
35	-9.91753
袋に	-9.91861
分かりません	-9.91868
ことが	-9.91923
モノ	-9.91938
がない	-9.91986
待って	-9.9205
そちら	-9.9207
55	-9.92107
ゆったり	-9.92155
入っていた	-9.92175
売って	-9.92203
ですかね	-9.92204
表記	-9.9226
男の子	-9.92261
時計	-9.92288
のない	-9.9231
柔らかい	-9.92336
それなり	-9.92351
品質は	-9.92356
お得です	-9.92412
はとても	-9.92437
切	-9.92475
ネット	-9.92489
脚	-9.92508
注文後	-9.92517
が入って	-9.92603
薄くて	-9.92651
購入しています	-9.92698
日発送	-9.92735
るか	-9.92769
送料込みで	-9.92887
クッション	-9.93046
ではないです	-9.93072
ようなので	-9.93106
みんな	-9.93128
一日	-9.93188
ちょうどいい	-9.93215
熱	-9.93222
付属の	-9.9324
このお値段で	-9.93245
になっていて	-9.93249
重量	-9.93274
反応	-9.93277
他店	-9.93323
元	-9.93337
女の子	-9.93355
ダイエット	-9.93376
定価	-9.93495
一枚	-9.93515
アルバム	-9.93546
良いですね	-9.93604
R	-9.9361
着て	-9.93616
そこまで	-9.93654
あんまり	-9.93702
等の	-9.93745
次	-9.93763
違います	-9.93795
ストレス	-9.93878
油	-9.93923
を買いましたが	-9.93929
こう	-9.9395
気に入った	-9.9396
容器	-9.93961
書き	-9.93983
字	-9.94
お米	-9.94016
今から	-9.94038
共に	-9.94053
入ってる	-9.94063
えて	-9.94097
!,11	-9.94106
勝手に	-9.94123
ちょうどいいです	-9.94138
直ぐに	-9.94143
鉢	-9.94184
色味	-9.942
スト	-9.94212
段	-9.94213
ること	-9.94259
目立つ	-9.9429
使いたい	-9.94299
鍋	-9.94303
バラバラ	-9.94335
許容範囲	-9.94335
パウダー	-9.94337
防水	-9.9434
虫	-9.9434
※	-9.94344
ジュース	-9.94346
システム	-9.94348
ボード	-9.94351
にもかかわらず	-9.94351
在庫あり	-9.94361
作	-9.94388
音が	-9.94401
▁2,,"	-9.94417
失敗しました	-9.94417
のはずが	-9.94424
今までは	-9.94516
かしら	-9.94594
円ショップに	-9.94602
プロ	-9.94643
のかもしれません	-9.94666
全	-9.94688
ファスナー	-9.94717
お尻	-9.94764
は無い	-9.9477
下着	-9.94779
の様な	-9.94811
23.5	-9.94974
以前から	-9.94983
その他	-9.95031
遅れ	-9.95108
安っぽく	-9.95114
もあるので	-9.95121
日ほど	-9.95176
送料込	-9.95194
すべき	-9.9529
取	-9.95307
レベルです	-9.95481
これまで	-9.9552
(;	-9.95538
失敗した	-9.95564
っています	-9.95572
に見えます	-9.95652
透け	-9.95664
んですけど	-9.95694
に取り付け	-9.95821
有り	-9.95823
ことは	-9.95834
続け	-9.95835
処理	-9.95845
98	-9.95897
均で買った	-9.95963
出して	-9.96012
ポ	-9.96029
しまって	-9.96074
お得だと思います	-9.96105
ようと	-9.96117
がとても	-9.96173
メーカー	-9.96186
開	-9.96266
裏地	-9.96277
サンプル	-9.96289
今年	-9.96309
が欲しかった	-9.96347
と言われ	-9.96526
だったから	-9.96527
こういう	-9.96587
ダイヤ	-9.96609
回目	-9.96615
携帯	-9.96873
履き	-9.9695
文字	-9.97222
レビューを	-9.97336
プラ	-9.97367
見えます	-9.97434
かわいくて	-9.9744
ロック	-9.97452
裾	-9.97471
本で	-9.975
I	-9.97592
多く	-9.97607
掛け	-9.97628
うちに	-9.97633
のサイズ	-9.97661
分の	-9.97714
余裕	-9.97719
ビックリしました	-9.97775
るけど	-9.97833
うまく	-9.9784
寒い	-9.97898
遅すぎ	-9.97902
普段使い	-9.97947
番号	-9.9795
デコ	-9.97968
ちゃん	-9.98063
サイト	-9.98085
買いません	-9.98143
ているので	-9.98189
ラメ	-9.98195
動	-9.98215
驚きました	-9.98232
と書いてあったので	-9.98259
届いたので	-9.98262
きっちり	-9.98269
程度の	-9.98309
切り	-9.9832
カー	-9.98445
あると	-9.98455
めっちゃ	-9.98466
初めての	-9.98477
期待しています	-9.98493
時点で	-9.98528
安かったので	-9.98536
使用しました	-9.98583
買い替え	-9.98612
以前に	-9.98635
気になります	-9.98709
ワンピース	-9.98739
カメラ	-9.98852
トイレ	-9.98881
&#10024;	-9.98933
がありません	-9.98988
日目	-9.99049
細かく	-9.99076
とありましたが	-9.99084
産	-9.991
も無く	-9.99158
着せ	-9.99166
スーツ	-9.99196
板	-9.99214
ますよ	-9.99252
安っぽいです	-9.99386
どうしても	-9.9948
ぼ	-9.99495
外出	-9.99504
があると	-9.99518
お店の	-9.99535
プラセンタ	-9.99577
器	-9.99585
印	-9.99589
鼻	-9.99593
枠	-9.99594
コード	-9.99595
コーヒー	-9.99596
スプレー	-9.99596
サン	-9.99605
むしろ	-9.99607
&#10035;&#65038;	-9.99612
カロリー	-9.99616
複数	-9.99622
回り	-9.99643
成分	-9.99643
バリ	-9.99645
迷惑迷惑迷惑迷惑迷惑迷惑迷惑迷惑	-9.99658
下に	-9.9968
新品	-9.99682
入らない	-9.99687
大きかった	-9.997
るもの	-9.99768
ポイントが	-9.99778
届くのが楽しみです	-9.99782
以外	-9.99794
ますね	-9.99815
ができ	-9.99847
ドレス	-9.99876
まとめ買いしました	-9.99878
かわいかったです	-9.99883
なくなった	-9.99889
購入して良かったです	-9.99911
かかる	-9.99926
無いので	-9.99982
2〜3	-10.0001
入っていませんでした	-10.0004
てから	-10.0009
済み	-10.0015
購入したのに	-10.0021
いつもの	-10.0026
と比べて	-10.0034
パッケージ	-10.0038
割	-10.0039
中で	-10.004
使いましたが	-10.005
の間	-10.0058
たまに	-10.0059
まだこない	-10.0062
持っている	-10.0063
いいのですが	-10.0065
多い	-10.0069
ショップに	-10.007
こちらにしました	-10.0072
,1	-10.0073
ずつ	-10.0083
してしまいました	-10.0088
歯	-10.0094
といった感じです	-10.0096
見たら	-10.0101
08	-10.0102
ボトル	-10.0103
楽しみ	-10.0112
なんだ	-10.0113
品物は	-10.0117
と一緒に購入しました	-10.012
ものすごく	-10.0121
▁1,,0	-10.0123
疲れ	-10.0132
かもしれない	-10.0134
で購入しましたが	-10.0144
ぐ	-10.0146
流	-10.0148
してました	-10.0149
人で	-10.0152
子供は	-10.0164
月中旬に	-10.0168
が悪く	-10.0169
に購入	-10.0188
に購入しました	-10.0189
はじめ	-10.0193
透明	-10.0195
いない	-10.0206
について	-10.0209
芯	-10.0213
ちょっとした	-10.0216
がいい	-10.0216
不安でしたが	-10.0218
`)	-10.0226
んー	-10.0229
したいです	-10.0241
っていう	-10.0242
不足	-10.0253
似たような	-10.0257
雰囲気	-10.0259
行き	-10.0262
失敗でした	-10.0268
こちらを購入	-10.0273
お勧めです	-10.0277
形は	-10.0278
が付いて	-10.0281
すね	-10.0282
発送メール	-10.0282
●	-10.0283
可愛いので	-10.0284
なのは	-10.0289
ミリの	-10.029
▁10	-10.0293
ロン	-10.0295
うれしい	-10.0295
細かい	-10.0314
てる	-10.0315
0.15	-10.032
価格が	-10.0329
のために購入しました	-10.033
今日届きました	-10.0332
次第	-10.0334
部分に	-10.0338
できず	-10.0338
ことも	-10.0346
無駄	-10.0347
ブレス	-10.0353
ショップさん	-10.0355
当たり	-10.0363
均でも	-10.0363
んだけど	-10.0365
日も	-10.0367
嫌	-10.0367
低	-10.0367
と思うので	-10.0371
クリスマス	-10.0374
端	-10.0377
期間	-10.0383
カラット	-10.0384
カレー	-10.0385
存在感	-10.0385
飾り	-10.039
みなさん	-10.0395
検討	-10.0397
塗り	-10.0406
▁100	-10.0408
したところ	-10.0408
に注文しましたが	-10.0418
わかる	-10.0418
みます	-10.0422
の商品です	-10.0423
色んな	-10.0425
薄め	-10.0427
日に予約	-10.043
大きかったです	-10.0433
他で	-10.0434
季節	-10.044
ボ	-10.044
明るさ	-10.0448
腕	-10.0449
思い切って	-10.0455
ように思います	-10.0456
ああああああああああああああああ	-10.0464
ずに	-10.0467
▁^	-10.0471
キャッチ	-10.0476
ライン	-10.048
曲	-10.0482
ということは	-10.049
いま	-10.049
昔	-10.049
ぞ	-10.0493
不便	-10.0496
ローズ	-10.0496
位置	-10.0501
前から	-10.0502
液	-10.0504
難しい	-10.0506
ダウン	-10.0507
訳あり	-10.0508
置き	-10.0509
-1	-10.0509
以降	-10.0512
が欲しかったので	-10.0513
雑	-10.0516
返金	-10.0516
^)/	-10.0516
だんだん	-10.0516
いきなり	-10.0517
バイク	-10.0517
↓	-10.0517
もしくは	-10.0517
電球	-10.0517
ストール	-10.0517
一応	-10.0517
XL	-10.052
厚さ	-10.0521
既に	-10.0522
結婚式	-10.0522
まだ届いてません	-10.0524
またリピします	-10.0526
ボール	-10.0528
の説明	-10.0532
に関しては	-10.0535
もある	-10.0542
濃い	-10.0543
先日	-10.0544
近く	-10.0561
好み	-10.0565
によって	-10.057
素敵です	-10.0575
れない	-10.0576
数回	-10.0578
たち	-10.0586
巻き	-10.0588
ほかの	-10.0589
を選んで	-10.059
そのうち	-10.0591
とても良かったです	-10.0593
時の	-10.0597
かどうか	-10.0604
LL	-10.0606
されてる	-10.0609
おらず	-10.0615
組	-10.0617
たのか	-10.0626
名	-10.0634
日以上	-10.0639
選択	-10.0641
大き目	-10.0646
。,100	-10.0649
の為に	-10.065
分かりませんが	-10.0655
以外は	-10.067
水色	-10.0671
もうちょっと	-10.0673
手持ちの	-10.0674
枚セット	-10.0682
お店に	-10.0682
娘も	-10.0682
子ども	-10.0687
かなと	-10.0691
されていない	-10.0694
使った	-10.0696
号を購入しました	-10.0698
出来ました	-10.07
の大きさ	-10.0701
られません	-10.0702
もったいない	-10.0703
とのことでしたが	-10.0707
サイズを購入	-10.0712
させていただきます	-10.0712
わない	-10.0722
たのは	-10.0725
底	-10.0744
は初めて	-10.0747
届くの	-10.075
が出	-10.0756
こちらを購入しました	-10.0761
良いもの	-10.0763
しまう	-10.077
後日	-10.0777
日でした	-10.079
目が	-10.0804
大人	-10.0807
丈夫で	-10.0824
無料	-10.0829
言って	-10.0833
年前に	-10.0834
酷い	-10.0839
飲む	-10.0841
x	-10.0842
言う	-10.0843
かかって	-10.0843
時期	-10.0857
大きさは	-10.0866
参考に	-10.0869
印鑑	-10.0871
お試しで	-10.0873
注文してから	-10.0875
については	-10.0894
しかない	-10.0897
娘	-10.0914
ダメでした	-10.0916
化粧水	-10.0927
使い方	-10.0928
香りが	-10.0942
印刷	-10.0957
とてもいい	-10.0966
商品で	-10.0969
様な	-10.098
ような気がします	-10.0987
の表示	-10.0991
使用後	-10.0992
スムーズに	-10.1
硬くて	-10.1001
買え	-10.1002
...?	-10.1003
つい	-10.1003
してほしいです	-10.1005
が出て	-10.1005
▁2,,105	-10.1005
ジャケット	-10.1006
納期	-10.1007
これって	-10.1007
シンプルな	-10.1008
とは言え	-10.1009
とても良いです	-10.101
大きいので	-10.1016
1.5	-10.1017
なお	-10.1019
水着	-10.102
色違い	-10.1026
人は	-10.103
99	-10.1038
ーーー	-10.1042
安かった	-10.1044
800	-10.1056
を注文	-10.1057
記念	-10.1058
とは思いますが	-10.1061
大事に	-10.1061
さっそく	-10.1071
ポスト	-10.1072
ちょうど良い	-10.1072
がすごく	-10.1074
オフ	-10.1078
限定	-10.1081
いい感じ	-10.1081
運	-10.1085
プール	-10.1086
洋服	-10.1095
ペ	-10.1095
ティ	-10.1096
欠品	-10.1097
J	-10.1099
ヒ	-10.11
種	-10.1101
級	-10.1101
昨年	-10.1101
野菜	-10.1101
が楽しみです	-10.1102
口コミ	-10.1102
剤	-10.1103
お値段も	-10.1103
チョコ	-10.1103
ベッド	-10.1103
どんどん	-10.1104
〓	-10.1104
使用していた	-10.1104
けっこう	-10.1105
Д	-10.1105
ソフト	-10.1105
SHOP	-10.1105
お願いします	-10.1105
クロス	-10.1106
まだこないまだこないまだこない	-10.1106
マジックテープ	-10.1106
お店の方	-10.1111
中々	-10.1112
お届け	-10.1113
に対して	-10.1115
凄い	-10.1118
46	-10.1119
修理	-10.1122
・・。	-10.1123
張り	-10.1125
ちゃちい	-10.1126
設置	-10.1128
小さいので	-10.1133
店頭で	-10.1137
履き心地	-10.114
リビング	-10.1143
赤ちゃん	-10.1157
32	-10.1161
よかったので	-10.1161
一ヶ月	-10.1162
月末	-10.1166
可愛かったです	-10.1167
にて	-10.1169
まって	-10.1169
お品	-10.117
何回も	-10.1171
円でも買わない	-10.1175
使用感は	-10.1178
店で	-10.118
54	-10.1182
でよかったです	-10.1183
自分	-10.1187
の上	-10.1194
43	-10.1194
二度と買いません	-10.1196
と思われます	-10.12
36	-10.121
700	-10.1211
クーポンで	-10.1215
900	-10.1218
合	-10.123
。。。。。。。。。。。。。。。。	-10.1232
003	-10.1237
人に	-10.1242
シンプル	-10.1245
お店の対応は	-10.1246
だったけど	-10.1248
▁2,0.5	-10.1248
お安い	-10.1261
しまいます	-10.1262
39	-10.1267
倍と	-10.1268
だって	-10.127
詐欺	-10.1271
33	-10.1272
細く	-10.1274
会	-10.1275
▁2,110	-10.1283
中国製	-10.1283
はやく	-10.129
アレルギー	-10.1292
になったので	-10.1295
正解でした	-10.1296
他社	-10.1298
仕上げ	-10.13
買ったのですが	-10.1302
こちらのショップで	-10.1313
!!!!!	-10.1319
連絡もありません	-10.1322
をした	-10.1324
しょうか	-10.1327
おかしい	-10.1328
とても可愛いです	-10.1328
使えるので	-10.1332
?,11	-10.1332
なと思いました	-10.1333
得	-10.1339
本日届きました	-10.1342
弱い	-10.1343
間違え	-10.1354
足の	-10.1365
きたので	-10.1368
しろ	-10.1371
引き	-10.1373
本セット	-10.1385
レビューに	-10.1386
かっこいい	-10.1387
後から	-10.1388
にしては	-10.1404
箱に	-10.1404
なります	-10.1413
てしまったので	-10.1413
丈は	-10.1416
とおもいます	-10.1425
子供には	-10.1428
▁1,,01	-10.1435
不満	-10.1438
とてもよかったです	-10.144
汚れが	-10.1453
元々	-10.1453
なんですが	-10.146
室内	-10.1464
良い買い物	-10.1468
にくいです	-10.1468
頼んで	-10.1472
安価な	-10.1475
感じました	-10.1476
箇所	-10.1476
着れる	-10.1478
他の商品	-10.148
おから	-10.148
かっこいいです	-10.1481
自然	-10.1482
みた	-10.1482
はあまり	-10.149
お店の対応	-10.1492
欲しかったです	-10.1506
注文する	-10.1506
詰め	-10.1507
の香り	-10.151
してますが	-10.1512
しやすく	-10.1512
立	-10.1517
できた	-10.1519
遅れる	-10.1519
49	-10.1521
決めました	-10.1524
かなと思います	-10.1528
段ボール	-10.1528
知	-10.1532
を選びました	-10.1541
母	-10.1548
迅速	-10.1548
本当	-10.1548
ることができ	-10.1552
が一番	-10.1553
ミシン	-10.1554
頂き	-10.1554
はまだ	-10.1555
を持って	-10.1561
隙間	-10.1562
やら	-10.1562
目に	-10.1562
トップ	-10.1562
はない	-10.1563
後悔しています	-10.1566
差	-10.1568
やって	-10.1571
入る	-10.1572
とおり	-10.1574
袖が	-10.1579
操作	-10.1581
いく	-10.1586
足首	-10.1605
\(^	-10.1607
のケース	-10.1608
同じもの	-10.161
ショップで	-10.1617
パーツ	-10.1625
模様	-10.163
製造	-10.1631
からも	-10.1633
料	-10.1634
少しだけ	-10.1638
た時に	-10.1641
ほ	-10.1643
ソ	-10.1648
にも関わらず	-10.1652
パジャマ	-10.1654
おしり	-10.1658
千円	-10.1659
▁2,,0	-10.1665
ホント	-10.1665
日着	-10.1668
最高	-10.1669
ふわふわ	-10.1672
管理	-10.1674
▁1,☆0	-10.1674
髪の毛	-10.1679
の商品でした	-10.168
想像	-10.168
しようと	-10.1682
モニター	-10.1682
締め	-10.1683
るようになりました	-10.1685
臭	-10.1694
食事	-10.1697
想像以上に	-10.1697
また利用したいです	-10.1698
こっち	-10.1699
ヒップ	-10.1699
動き	-10.1704
日に注文しました	-10.1707
記	-10.1707
定	-10.1708
チャ	-10.1709
箸	-10.1712
メイク	-10.1715
意味	-10.1716
画	-10.1717
機	-10.1717
ほう	-10.1718
に出	-10.172
保管	-10.1721
ツルツル	-10.1722
キャンペーン	-10.1722
⇒	-10.1722
雨	-10.1724
(-_-;)	-10.1724
p	-10.1724
タイヤ	-10.1725
フィルター	-10.1727
ベビー	-10.1727
b	-10.1729
伸縮性	-10.1729
ハロウィン	-10.1729
プラチナ	-10.1729
広告	-10.173
フレーム	-10.173
比較的	-10.173
しながら	-10.173
めちゃくちゃ	-10.173
性能	-10.173
ストレッチ	-10.173
クリップ	-10.173
@	-10.173
つくり	-10.1731
この値段なら	-10.1732
いままで	-10.1732
に入れ	-10.1734
なんとなく	-10.1734
円には見えない	-10.1735
やつ	-10.1736
もう買いません	-10.1741
飽き	-10.1742
私的には	-10.1745
1〜2	-10.1747
よく見ると	-10.1748
すっきり	-10.1754
好きです	-10.1754
ちょうど良かったです	-10.1757
スーパーセールで	-10.1759
写真より	-10.1763
何の連絡もありません	-10.1763
られる	-10.1769
今後も	-10.177
52	-10.1771
ぐらいで	-10.1773
とても満足しています	-10.1777
買い物でした	-10.1778
できるので	-10.1779
になるので	-10.1781
個中	-10.1781
で使う	-10.1784
とあったので	-10.1788
目の	-10.1797
様に	-10.1803
されています	-10.1803
▁2,,0.5	-10.1805
写真では	-10.1806
いけ	-10.1811
使え	-10.1814
ってる	-10.1815
本当は	-10.1817
ってしまいました	-10.1819
均より	-10.182
売っていました	-10.1821
料金	-10.1822
事は	-10.1822
円は高い	-10.1824
お金	-10.1827
イベント	-10.1828
こちらで購入	-10.1831
未だに届きません	-10.1834
枚が	-10.1844
お安く	-10.185
円でも高い	-10.1856
重さ	-10.1857
中身は	-10.1858
★1	-10.1858
有	-10.1866
場合は	-10.1875
辛い	-10.1876
円とは	-10.188
やり	-10.1887
荷物	-10.1894
円も	-10.1898
かんじ	-10.1903
近くの	-10.1904
思います	-10.1905
のお	-10.1906
悪くない	-10.1908
持ち手	-10.1908
個で	-10.191
▁1,,11/1	-10.1913
こちらのお店	-10.1918
買えばよかった	-10.1926
良くて	-10.1927
☆4	-10.1936
サイズです	-10.1937
本体の	-10.1937
取れ	-10.1945
時には	-10.1949
二度と	-10.1949
開いて	-10.1951
そうですが	-10.1959
もないし	-10.1961
かわいいし	-10.1961
円くらい	-10.1964
??,	-10.1974
対策	-10.1977
てきました	-10.1977
買わない	-10.1978
と思い購入しました	-10.198
のかもしれませんが	-10.198
後は	-10.1984
頂きました	-10.1988
を探して	-10.1989
合わせて	-10.1993
られます	-10.2
のび	-10.2007
赤い	-10.201
ヤ	-10.202
使用している	-10.2023
でこの値段	-10.2026
0.8	-10.2029
早くて	-10.203
使えそう	-10.203
受け	-10.2031
子供も	-10.2033
位の	-10.2035
柄は	-10.2038
内に	-10.2044
心配でしたが	-10.205
となりました	-10.2051
を買う	-10.2052
入荷予定	-10.2067
51	-10.2073
163	-10.2074
次回	-10.2082
?,100	-10.2082
アイ	-10.2084
開け	-10.2085
ちゃ	-10.2087
以前は	-10.2088
65	-10.2091
壊れた	-10.2095
ので助かります	-10.2099
たが	-10.21
臭いが	-10.2106
ヘ	-10.2107
大好きな	-10.211
年前の	-10.2112
がよく	-10.212
写真の	-10.2131
もありますが	-10.2132
間違えて	-10.2134
のこと	-10.2136
がいいです	-10.2138
はじめて	-10.2139
ないか	-10.2139
同時に	-10.2144
▁1,,110	-10.2148
を入れ	-10.2148
素材は	-10.215
水を	-10.2154
チン	-10.2156
他社の	-10.216
られ	-10.2161
葉	-10.2163
おりました	-10.2167
を入れる	-10.2171
になっています	-10.2171
んです	-10.2175
早	-10.2176
たって	-10.2179
かん	-10.2194
近	-10.2195
上が	-10.2207
&#10084;	-10.221
もないので	-10.2221
おいしかったです	-10.2224
続けて	-10.2226
06	-10.2226
をつけ	-10.2234
のせいか	-10.2234
後ろ	-10.2235
つの	-10.2236
せる	-10.2243
ご飯	-10.2244
来ません	-10.2248
入った	-10.2253
塗装	-10.226
日経っても	-10.2261
甘く	-10.2269
もう二度と	-10.2271
それぞれ	-10.2277
いただけ	-10.2279
ようですが	-10.2286
付きで	-10.2286
送って	-10.2287
のほう	-10.2288
ミニ	-10.2292
ショップレビュー	-10.2294
いいけど	-10.2295
わけ	-10.2297
U	-10.2307
になると	-10.2311
こない	-10.2315
になっても	-10.2317
右	-10.2319
長さが	-10.2321
ほんと	-10.2321
茶色	-10.2323
出し	-10.2323
最初の	-10.2324
向け	-10.2326
作品	-10.2326
%	-10.2326
コストパフォーマンス	-10.2331
見ると	-10.2334
みましたが	-10.2335
すること	-10.2336
内容は	-10.2337
良かったかな	-10.2337
枚数	-10.2339
発	-10.234
真	-10.2342
残念な	-10.2342
最後の	-10.2342
期	-10.2344
と思ったら	-10.235
るのでしょうか	-10.2351
人が	-10.2353
どこか	-10.2362
の部分	-10.2363
ラッキー	-10.2367
になっていたので	-10.237
カッコいい	-10.2371
旦那	-10.2375
いたします	-10.2375
届け	-10.2378
買っ	-10.2383
割高	-10.2386
質感	-10.2386
変わった	-10.2386
空気	-10.239
過	-10.239
遠	-10.239
ゼ	-10.2393
遮光	-10.2393
意外と	-10.2395
しゃ	-10.2395
周年	-10.2395
www	-10.2395
上手く	-10.2395
金属	-10.2395
改めて	-10.2396
マスク	-10.2396
マラソン	-10.2396
パーセント	-10.2396
チップ	-10.2397
安物買いの銭失い	-10.2397
いくつか	-10.2397
><	-10.2397
カーキ	-10.2397
さすがっすさすがっすさすがっす	-10.2397
ボンド	-10.2397
お値打ち	-10.2397
(^_^)	-10.2398
カビ	-10.2398
もう買わない	-10.2398
どうなっているのでしょうか	-10.24
93	-10.2401
どころか	-10.2401
マグネット	-10.2402
無地	-10.2402
リピします	-10.2403
km	-10.2404
結	-10.2406
ううううううううううううううう	-10.2408
長さは	-10.2412
色落ち	-10.2413
個人的に	-10.2419
ないため	-10.2421
男	-10.2423
スーパーで	-10.2424
余り	-10.2426
買ってよかった	-10.2426
もう一度	-10.2427
乗り	-10.2431
を使用しています	-10.2441
買うの	-10.2443
海	-10.2451
狭い	-10.2452
ヶ月の息子に	-10.2454
どうして	-10.2455
片方	-10.2455
急に	-10.2461
上下	-10.2462
主人が	-10.2462
くらいです	-10.2464
と合わせて	-10.2465
っこ	-10.2468
もありましたが	-10.2468
▁1,,0.5	-10.2469
到着まで	-10.2474
★5	-10.2477
鏡	-10.2481
を使っています	-10.2482
かなー	-10.2484
にした	-10.2487
と言われました	-10.2496
なもの	-10.2497
即納	-10.2497
穴が	-10.25
まさかの	-10.251
返品したい	-10.2512
リン	-10.2514
るのですが	-10.2518
着丈	-10.2519
の味	-10.252
って感じで	-10.2525
届いたのが	-10.2527
コメント	-10.2529
ギ	-10.2529
入っている	-10.2535
158	-10.2536
まる	-10.2539
スター	-10.2543
と書いてありましたが	-10.2553
商品が届きません	-10.2554
しま	-10.256
点セット	-10.256
53	-10.2562
ひも	-10.257
年前	-10.2577
内側	-10.2579
なか	-10.258
★2	-10.2582
おしゃれ	-10.259
1.	-10.2595
ともに	-10.26
キー	-10.2605
左	-10.2608
部分も	-10.2609
みたいに	-10.2615
十分です	-10.2618
に入れて	-10.2636
ないけど	-10.2637
届きましたが	-10.264
対応は	-10.2641
短	-10.2649
はありませんが	-10.2655
お得感	-10.2656
サプリ	-10.266
痛	-10.2662
とても満足です	-10.2665
・・,	-10.2667
しばらくは	-10.2667
テープ	-10.2669
調節	-10.2672
しょうがない	-10.2676
多	-10.268
ほどの	-10.2681
捨て	-10.2693
シワ	-10.2698
位で	-10.27
代の	-10.2711
均商品	-10.2717
は確かに	-10.2722
もいい	-10.2728
きれい	-10.273
使いたいと思います	-10.2733
ってくれ	-10.2734
の私には	-10.2736
完了	-10.2738
それは	-10.2738
柄が	-10.274
信用	-10.2749
ろう	-10.2751
!!,10	-10.2756
どうしよう	-10.2756
プレゼントに	-10.2762
ーん	-10.2765
良かったのですが	-10.2766
なども	-10.2769
防寒	-10.2775
使っていますが	-10.2775
まずい	-10.278
♪♪	-10.2782
ダイソー	-10.2783
なあ	-10.279
のが残念です	-10.2794
大丈夫でした	-10.2794
太もも	-10.2795
使用した	-10.2795
はもちろん	-10.2796
いませんが	-10.2799
もので	-10.28
美味しく	-10.2801
*)	-10.2803
移動	-10.2807
センチで	-10.2811
損した気分です	-10.2811
お茶	-10.2811
キャ	-10.2811
眠	-10.2814
と感じます	-10.2821
出す	-10.2822
行って	-10.2825
賞味期限	-10.2827
出る	-10.2829
一切	-10.2831
当	-10.2837
アイボリー	-10.2839
だけが	-10.2839
対応が	-10.2841
嘘	-10.2842
お安いので	-10.2842
商品到着	-10.2843
素材が	-10.2845
悩んで	-10.2859
形が	-10.2859
きれ	-10.2863
ボリューム	-10.2864
他の色	-10.2874
変化	-10.288
が良く	-10.288
こんなもの	-10.2882
お得でした	-10.2883
てしまって	-10.2884
連	-10.2884
明	-10.2894
だけあって	-10.2894
良いので	-10.2899
ーー	-10.2904
といった	-10.2905
年保証	-10.2911
買ったので	-10.2917
ディ	-10.2919
はないと思います	-10.292
のようで	-10.2924
微妙に	-10.2925
もいいです	-10.2926
活躍しそうです	-10.2934
快適	-10.294
送料無料で	-10.2941
直し	-10.2942
だったのか	-10.2952
この価格	-10.2953
屋	-10.2955
チクチク	-10.2959
つかない	-10.296
させて	-10.296
説明書	-10.2962
購入でき	-10.2965
れます	-10.2966
買	-10.2966
すか	-10.2974
最	-10.2979
も良い	-10.2983
機会	-10.2984
ピン	-10.2985
なしで	-10.2987
、20	-10.2989
明日	-10.299
といった感じ	-10.2992
〜〜	-10.2992
ロー	-10.2997
ぃ	-10.2999
値	-10.3001
違って	-10.3004
で気に入りました	-10.3005
食感	-10.3005
高級感	-10.3005
帯	-10.3007
柄の	-10.3007
太く	-10.3008
週	-10.3009
発見	-10.3012
材質	-10.3015
到着後	-10.3016
デザインで	-10.3019
ズボン	-10.302
邪魔	-10.3025
運動	-10.3026
になっていました	-10.3026
遅すぎます	-10.3032
花柄	-10.3035
お風呂	-10.3035
メールも	-10.3039
つにしました	-10.304
感動	-10.3041
途中で	-10.3041
ヶ月の娘	-10.3042
分かり	-10.3042
ぅ	-10.3047
0.7	-10.3049
難	-10.305
ではなかった	-10.3051
ひどいです	-10.3055
おいしかった	-10.3056
取り外し	-10.306
くなる	-10.306
レビューを参考に	-10.3061
ちゃんとした	-10.3067
切れる	-10.3077
米	-10.3079
買わなかった	-10.308
シリコン	-10.3081
割引	-10.3081
見える	-10.3085
まさか	-10.3085
中旬	-10.3085
クリーニング	-10.3088
ッと	-10.3089
書かれて	-10.309
コート	-10.3091
遅延	-10.3092
機種	-10.3092
すこし	-10.3096
絵	-10.3098
ビーズ	-10.3099
づらい	-10.31
スイッチ	-10.3101
薄さ	-10.3102
皿	-10.3102
編み	-10.3103
ラベンダー	-10.3104
いろんな	-10.3104
抜き	-10.3104
迷惑	-10.3105
輪	-10.3106
ゆるい	-10.3106
日頃	-10.3107
シーズン	-10.3107
<	-10.3107
法	-10.3108
筆	-10.3108
健康	-10.3108
経験	-10.3108
苗	-10.3109
父	-10.3109
評価は	-10.3109
―	-10.3109
UP	-10.311
窮屈	-10.311
取付	-10.311
スニーカー	-10.311
市販の	-10.311
テレビ	-10.311
チワワ	-10.311
おそらく	-10.311
唯一	-10.311
接着	-10.311
リモコン	-10.311
パッキン	-10.311
デニール	-10.3111
どおり	-10.3111
ミント	-10.3111
意見	-10.3111
ありがとう	-10.3111
&#127925;	-10.3111
チョット	-10.3111
などを	-10.3112
ノート	-10.3112
ダブル	-10.3112
&#10084;&#65039;	-10.3113
あの	-10.3113
と思ってしまいました	-10.3116
カン	-10.3116
なくなり	-10.3116
(≧∇≦)	-10.3117
覚え	-10.3117
優しい	-10.3119
コンタクト	-10.3122
マン	-10.3122
0036;&#65038;,	-10.3125
て良かったです	-10.3125
がっかりでした	-10.3129
楽天の	-10.3131
問題ありません	-10.3131
ただの	-10.3132
レモン	-10.3134
〜♪	-10.3136
ヘア	-10.3137
あい	-10.3139
破損	-10.314
コットンパール	-10.314
ター	-10.314
るほど	-10.3141
におい	-10.3143
着け	-10.3161
返答	-10.3162
久しぶりに	-10.3163
ませんでしたが	-10.3164
かかりました	-10.317
どうも	-10.3171
という感じ	-10.3173
すと	-10.3177
円で購入しました	-10.3184
ホントに	-10.3187
月から	-10.3191
ごみ	-10.3191
見かけ	-10.3192
やめました	-10.3196
ないから	-10.3196
それで	-10.3204
を考えて	-10.3209
自分は	-10.3221
出来て	-10.3227
ホール	-10.3231
感じられ	-10.3232
っていて	-10.3236
は一切	-10.3246
カラーの	-10.3248
なかったのですが	-10.3249
大きいサイズ	-10.3254
家で	-10.3256
いし	-10.3257
内側に	-10.326
飲み	-10.3265
▁2,,04	-10.3267
ックス	-10.3277
42	-10.3278
見た目が	-10.3291
際	-10.3296
改善	-10.3296
だと思い	-10.3299
▁2,,108	-10.3305
逆	-10.331
照明	-10.331
に取り付けました	-10.331
こちらの方が	-10.3313
は全く	-10.3314
思った	-10.3317
ていましたが	-10.332
よさそうです	-10.3324
ではありませんが	-10.3332
円の価値	-10.3333
のかしら	-10.3338
探していました	-10.3343
試着	-10.3344
大きめの	-10.3345
到着して	-10.3348
われ	-10.335
の量	-10.3351
月の	-10.3353
t	-10.3356
の高さ	-10.3357
試して	-10.3358
頼んだ	-10.3361
で良かったです	-10.3361
使用しましたが	-10.3364
使っていた	-10.3364
ちゃった	-10.3366
ファ	-10.3369
車の	-10.337
一人で	-10.3372
86	-10.3373
良さそう	-10.3374
ロール	-10.3377
157	-10.3385
床	-10.3389
はやはり	-10.3391
安さ	-10.3392
らい	-10.3394
SH	-10.3396
息子	-10.3415
ありがたい	-10.3416
るため	-10.3422
月末に	-10.3423
犬	-10.3423
1100	-10.343
迷って	-10.3432
使ってみて	-10.3435
風味	-10.3437
だめ	-10.3439
丁度いい	-10.344
ゴムが	-10.3443
ゆ	-10.3445
が入っている	-10.345
ており	-10.3456
いいのに	-10.3457
1500	-10.3461
いいか	-10.3462
プリント	-10.3465
何だか	-10.3469
だけの	-10.347
を購入したのですが	-10.3471
感謝	-10.3472
と思い購入しましたが	-10.348
▁2,,100%	-10.3491
仕方ないかな	-10.3492
買います	-10.3493
ならば	-10.3499
つかって	-10.3501
香りは	-10.3505
用に買いました	-10.3514
今回も	-10.3518
面倒	-10.3518
隠れる	-10.3519
はありましたが	-10.352
充電器	-10.3524
ごと	-10.3532
等は	-10.3533
くれました	-10.3535
送る	-10.3535
だけに残念です	-10.3539
日後	-10.3539
購入したので	-10.3545
☆1	-10.3546
円でした	-10.3549
2015	-10.355
お願い	-10.355
あるけど	-10.3551
物も	-10.3553
店舗で	-10.3567
らないので	-10.3568
ないように	-10.3574
てよかったです	-10.358
無かったので	-10.3585
迷い	-10.359
パー	-10.3594
さっぱり	-10.3606
キツイ	-10.3607
価格で	-10.3612
せずに	-10.3614
と比べると	-10.3618
つもり	-10.3623
☆2	-10.3623
てしまった	-10.3625
45	-10.3626
生地の	-10.3633
したもの	-10.3633
して下さい	-10.3642
つも	-10.3642
皆さんのレビュー	-10.3645
はちょっと	-10.3652
写真を	-10.3661
いれば	-10.3665
ーーーーーーーーーーーーーーーー	-10.3668
じゃないの	-10.3668
手帳	-10.3671
今も	-10.3674
ちが	-10.3684
探して	-10.3689
ぶかぶか	-10.369
全然違う	-10.3691
としても	-10.3699
問題なし	-10.3703
黒の	-10.3705
の上に	-10.3705
合いませんでした	-10.3708
春	-10.3708
いいかも	-10.3709
糸が	-10.3716
思え	-10.3717
あるのですが	-10.3719
中国	-10.3721
58	-10.3723
くなって	-10.3726
色を	-10.3727
ものと	-10.3728
ったり	-10.3737
安定感	-10.3738
気軽に	-10.3744
は結構	-10.3744
予備	-10.375
丈夫	-10.3751
っぽく	-10.3751
準備	-10.3753
使い勝手が	-10.3753
落とし	-10.3754
まして	-10.3754
サラサラ	-10.3761
固い	-10.3764
円の時に	-10.3768
予想	-10.3768
頂いた	-10.3769
ために	-10.3771
高級	-10.3774
きつめ	-10.3778
扱い	-10.3778
このサイズ	-10.3781
旅行	-10.3781
家にある	-10.3783
いったい	-10.3785
不良	-10.3786
今度	-10.379
香	-10.3792
っていました	-10.3798
なった	-10.38
スーパーセール	-10.3803
書いてある	-10.3803
重ね	-10.3808
送られてきた	-10.3816
もらえる	-10.3817
作りが	-10.382
乾燥	-10.382
はっきり言って	-10.382
スタンド	-10.3822
記入	-10.3823
想像より	-10.3824
""	-10.3825
があるの	-10.3827
粗悪品	-10.3832
ますし	-10.3834
人気	-10.3837
着れ	-10.3838
本が	-10.3841
便	-10.3841
金具が	-10.3843
見た	-10.3845
使い物になりません	-10.3851
トラブル	-10.3851
やすさ	-10.3852
ぷ	-10.3857
が小さく	-10.3857
向き	-10.3857
かかり	-10.3858
クロ	-10.3858
びっくりです	-10.3859
皮	-10.386
シャ	-10.3861
るのも	-10.3867
束	-10.3868
珠	-10.3869
終了	-10.387
電源	-10.3871
アウトレット	-10.3871
放置	-10.3871
られませんでした	-10.3872
ボディ	-10.3874
杯	-10.3874
このお店	-10.3875
合計	-10.3875
文	-10.3875
ペット	-10.3876
必須	-10.3877
遊び	-10.3877
スパッツ	-10.3877
縁	-10.3878
御	-10.3878
▁2,,115	-10.3878
カーテン	-10.3878
(*^_^*)	-10.3878
走	-10.3879
オムツ	-10.3879
掃除機	-10.3879
指輪	-10.3879
声	-10.3879
ランプ	-10.3879
骨	-10.3879
スエード	-10.3879
あちこち	-10.388
必需品	-10.388
リネン	-10.388
そもそも	-10.388
半額	-10.388
ベット	-10.388
メートル	-10.388
&#1285	-10.388
USB	-10.388
ふんわり	-10.388
mAh	-10.388
off	-10.388
冷凍	-10.388
洗濯機	-10.388
病院	-10.388
毎年	-10.3881
クラス	-10.3881
無理やり	-10.3881
たしかに	-10.3881
使えなくなりました	-10.3882
モカ	-10.3883
の内	-10.3883
とは思えません	-10.3883
といわれ	-10.3885
CD	-10.3885
届いたものは	-10.3885
▁1,,"	-10.3887
だなぁ	-10.3888
〜〜〜〜〜〜〜〜〜〜〜〜〜〜〜〜	-10.3888
できれば	-10.3889
大量に	-10.389
はずなのに	-10.3891
(・∀・)	-10.3892
同じく	-10.3893
これだったら	-10.3894
日に頼んで	-10.3895
に発送	-10.3896
デニム	-10.39
ビックリです	-10.39
これ以上	-10.3904
というのも	-10.3904
タグ	-10.3906
24.5	-10.3908
だったのが	-10.391
リピーターです	-10.3916
自分に	-10.3916
というのが	-10.3917
非常に残念です	-10.3918
ことに	-10.392
次の	-10.3922
のところ	-10.3929
疑問です	-10.3929
ことで	-10.3932
目立ちます	-10.3933
ストーン	-10.3935
の際に	-10.3937
たくて	-10.394
^_^	-10.3944
思ってたより	-10.3946
ホームセンターで	-10.3947
本入り	-10.3949
ボックス	-10.3961
考えて	-10.3965
息子は	-10.3965
重宝しそうです	-10.3967
倍の時に	-10.3968
簡単な	-10.3973
お花	-10.3974
,"1,000	-10.3974
るところ	-10.3977
片	-10.3981
日で届きました	-10.3982
ねぇ	-10.3983
あったかい	-10.3983
保証	-10.3989
ボロボロ	-10.3991
とした	-10.3999
¥	-10.4005
えっ	-10.4007
が違う	-10.4017
迷いましたが	-10.4018
平	-10.4025
した感じ	-10.4029
真ん中	-10.4029
つきました	-10.403
すごくいい	-10.4032
選びました	-10.4032
届いてから	-10.4034
安全	-10.4036
▁2,,09	-10.4036
しっかりしている	-10.4036
ボーダー	-10.4037
▁1,"	-10.4038
73	-10.404
みたいなので	-10.405
って感じでした	-10.4054
くなり	-10.4056
である	-10.406
ポチ	-10.4064
でピッタリでした	-10.4066
ついている	-10.4068
きれいです	-10.4075
小さいサイズ	-10.4076
さんで	-10.4082
ング	-10.4085
▁2,,1	-10.4088
着られ	-10.4088
フィットして	-10.4096
的	-10.4107
にある	-10.4122
用に購入しましたが	-10.4122
思う	-10.4123
等で	-10.4134
商品なので	-10.4138
ベージュの	-10.4142
年前から	-10.4152
この店	-10.4152
に決めました	-10.4154
しており	-10.4155
運動会	-10.4158
歳の娘に	-10.4168
愛	-10.417
暗い	-10.417
せい	-10.4171
軽	-10.4173
10.1	-10.4178
大好きなので	-10.418
の購入	-10.4183
っても	-10.4183
来年	-10.4186
の使用	-10.4188
がありますが	-10.4192
が入っていました	-10.4198
息子の	-10.4198
酸	-10.4199
162	-10.4199
家の	-10.4201
したり	-10.4212
余裕があり	-10.4215
食べて	-10.422
まだ届いていませんが	-10.4222
していただけ	-10.4226
ないで	-10.4228
のに残念です	-10.4228
sh	-10.4233
画像では	-10.4236
大失敗	-10.4237
下旬	-10.4244
いいな	-10.4245
履ける	-10.4247
発送連絡	-10.4249
化	-10.4261
きり	-10.4263
置	-10.4264
間違って	-10.4279
余	-10.4296
番の	-10.4298
日到着	-10.4299
円引き	-10.4313
てみると	-10.4325
センチを購入	-10.4327
ものなので	-10.4328
ピンクゴールド	-10.4337
でもなく	-10.4341
002	-10.4344
単位	-10.4346
に置いて	-10.4347
分け	-10.435
電話で	-10.435
ケーブル	-10.4351
円以下で	-10.4352
洗い	-10.4358
れず	-10.4359
細身の	-10.436
999	-10.4363
印象です	-10.4368
前後	-10.4368
際に	-10.4372
気になって	-10.4374
メールに	-10.4374
丁寧に	-10.4376
にしてみました	-10.4383
67	-10.4392
59	-10.4393
問い合わせたところ	-10.441
表面	-10.4412
ジャスト	-10.4418
キロで	-10.443
高いです	-10.443
大きめで	-10.4434
お値段が	-10.4435
興味	-10.4441
実物を見て	-10.4445
短く	-10.4453
洗顔	-10.4454
られない	-10.4456
濃く	-10.4456
付いて	-10.4456
どれ	-10.4458
枕	-10.4461
気が	-10.4462
ついた	-10.4467
古	-10.447
主	-10.4478
つと	-10.4478
も問題なく	-10.4478
カバーが	-10.4478
致します	-10.4488
長時間	-10.4491
残念ですが	-10.4492
まずは	-10.4499
鞄	-10.45
ソファー	-10.4502
ケースは	-10.4503
後悔	-10.4504
ていない	-10.451
にしたい	-10.4518
円均一で	-10.4526
細め	-10.4534
強度	-10.4535
しませんでした	-10.4539
また利用したいと思います	-10.454
というのは	-10.4549
疑	-10.4551
の記載	-10.4554
セ	-10.4558
具合	-10.4558
こちらのショップ	-10.4559
c	-10.4562
使いやすく	-10.4564
大変でした	-10.4572
が良い	-10.4575
自	-10.4576
リピしました	-10.4576
するの	-10.4577
やすかったです	-10.4579
脂	-10.458
困ります	-10.4584
2.5	-10.4584
したのに	-10.4589
仕方がない	-10.4589
・・・,100	-10.4595
日目で	-10.4598
肌触り	-10.4602
とって	-10.4603
素材も	-10.4607
11/1	-10.4608
不信感	-10.4612
はしません	-10.4613
部分を	-10.4615
少し大きめ	-10.4619
そのもの	-10.462
よいと思います	-10.4621
新しく	-10.4622
読み	-10.4625
ダックス	-10.4626
目的	-10.4626
痛み	-10.4627
使い道	-10.4635
楽しく	-10.4637
円サプリ	-10.464
すぎず	-10.4641
落ち着いた	-10.4642
X	-10.4642
ていないので	-10.4644
方には	-10.4651
売り	-10.4651
ないかも	-10.4652
故障	-10.4652
こども	-10.4657
気になりました	-10.4658
滑り止め	-10.4662
くっついて	-10.4662
おかげで	-10.4663
選んだ	-10.4666
日本製	-10.4667
男性	-10.4668
悲しい	-10.4668
知らない	-10.4669
カバーは	-10.4669
我が家は	-10.4669
面倒なので	-10.4671
メーカーの	-10.4677
もあった	-10.468
パサパサ	-10.4682
or	-10.4683
負担	-10.4684
海外	-10.4685
充分	-10.4686
使ったら	-10.4687
購入したいです	-10.4687
いきます	-10.4689
の連絡	-10.4692
の予定	-10.4692
発送完了メール	-10.4693
欠け	-10.4694
おいしく	-10.4695
べ	-10.4696
水が	-10.4697
しょう	-10.4698
リュック	-10.4698
消	-10.4698
ヨ	-10.4701
暖かく	-10.4702
l	-10.4702
好	-10.4703
勉強になりました	-10.4703
更新	-10.4703
魚	-10.4704
〜?	-10.4705
ネイル	-10.4706
開閉	-10.4707
具	-10.4707
背もたれ	-10.4707
可	-10.4708
シーツ	-10.4709
和	-10.471
になってしまいます	-10.471
条件	-10.471
件	-10.471
火	-10.4711
輸入	-10.4711
親	-10.4711
毛布	-10.4711
打	-10.4711
ラベル	-10.4712
サンダル	-10.4712
スタンプ	-10.4712
(*^	-10.4712
完成	-10.4712
突然	-10.4713
一般的な	-10.4713
防止	-10.4713
うれしかった	-10.4713
思わず	-10.4713
食いつき	-10.4713
バン	-10.4713
裏起毛	-10.4713
ショッピング	-10.4713
グラス	-10.4713
久々に	-10.4713
最後まで	-10.4713
砂	-10.4713
完璧	-10.4713
◯	-10.4713
コンビニ	-10.4713
カーディガン	-10.4713
“	-10.4713
ティッシュ	-10.4714
リットル	-10.4714
企画	-10.4714
もしかしたら	-10.4714
ホコリ	-10.4714
入荷待ち	-10.4714
すばらしい	-10.4714
させて頂きます	-10.4714
ホック	-10.4714
どう見ても	-10.4714
ナイフ	-10.4714
作りもしっかりしていて	-10.4714
ぼったくり	-10.4714
上記	-10.4715
HP	-10.4715
実質	-10.4716
面白い	-10.4716
カラ	-10.4716
所々	-10.4717
ガス	-10.4717
デス	-10.4718
つまり	-10.4719
それにしても	-10.4719
あえて	-10.4719
感想	-10.4721
円ポッキリ	-10.4721
連絡が	-10.4724
切った	-10.4724
不安になります	-10.4726
るなら	-10.4727
良し	-10.473
ブラックの	-10.473
間に合わない	-10.4733
&#10067;,	-10.4733
買おう	-10.4734
カラーが	-10.4734
購入していましたが	-10.4736
スペース	-10.4736
お詫び	-10.4736
高め	-10.474
250	-10.4744
確認し	-10.4745
リピートしました	-10.4746
ばかりで	-10.4749
ることは	-10.4751
フィ	-10.4752
いろいろな	-10.4753
期待していたのですが	-10.4754
切り替え	-10.4755
結構な	-10.4758
当て	-10.4759
かわいく	-10.476
しっかりしてます	-10.4763
ちゃう	-10.4764
基本	-10.4764
良さそうです	-10.4767
してほしい	-10.4772
良い感じです	-10.4778
りませんでした	-10.4784
中です	-10.4791
糸の	-10.4804
踵	-10.481
ちょっと残念でした	-10.4813
低い	-10.4816
必要な	-10.4821
★4	-10.4823
と書いてある	-10.4823
いいね	-10.4827
均より安い	-10.4828
出ます	-10.4829
このお店で	-10.4829
美味しくて	-10.4829
残りの	-10.4835
普段の	-10.4836
画像より	-10.4836
通常の	-10.4843
商品名	-10.4843
していない	-10.4846
苦	-10.4851
ボタンが	-10.4851
縫製が	-10.4852
表	-10.4854
購入者	-10.4856
よさそう	-10.4858
乾き	-10.4861
円という	-10.4862
ペラペラで	-10.4862
他の方	-10.4863
間に	-10.4865
上から	-10.4866
また購入したいです	-10.4868
物でした	-10.4872
になるし	-10.4878
下の	-10.488
円以下	-10.4883
よかったのですが	-10.4884
使ってみましたが	-10.4884
10/31	-10.4885
だけに残念	-10.4886
のゴム	-10.4886
探していたら	-10.4888
今までの	-10.4891
生地が薄い	-10.4898
▁1,,02	-10.4901
と思うくらい	-10.4904
の為に購入しました	-10.4905
発送は	-10.4907
使用感	-10.4907
あっても	-10.4909
手触り	-10.491
その分	-10.4911
無いです	-10.4913
▁1,10000	-10.4913
-04	-10.4917
に注文しました	-10.4918
お尻が	-10.4919
待つ	-10.4921
ないような	-10.4923
返	-10.4924
に戻	-10.4933
さんに	-10.4935
何とか	-10.4945
あったのに	-10.4945
たく	-10.4951
が大変	-10.4953
作りも	-10.4954
になってました	-10.4957
来ず	-10.4962
日は	-10.4962
合わなかった	-10.4964
とは違う	-10.4964
クオリティ	-10.4964
よし	-10.497
不良品でした	-10.4974
問題ありませんでした	-10.4977
本人も	-10.4981
開けて	-10.4985
色でした	-10.4992
納品	-10.4992
膝上	-10.4994
...,100	-10.4995
発送も早く	-10.4995
買った方が	-10.5002
確認して	-10.5002
,3	-10.5003
あったけど	-10.5006
ならない	-10.5008
脱げ	-10.501
比べ	-10.5012
かっこよく	-10.5012
食べられ	-10.5017
手元に	-10.5018
これも	-10.5018
購入してみましたが	-10.5029
あまりに	-10.5034
シュ	-10.5036
いませんでした	-10.5037
円くらいで	-10.5043
ていたり	-10.5048
在庫が	-10.5049
回分	-10.5052
のまま	-10.5052
の子供に	-10.5053
はわかりませんが	-10.5054
んじゃ	-10.5063
があったら	-10.5064
じゃなく	-10.5064
恥ずかしい	-10.5071
キャラ	-10.5071
あるのに	-10.5076
にします	-10.5078
立ち	-10.5078
それなりに	-10.5079
になりそう	-10.5086
倍に	-10.5086
的には	-10.5087
買えて	-10.5088
グレーの	-10.5089
何故	-10.5092
だろうと	-10.5094
は無理	-10.5095
すぎます	-10.5098
たりする	-10.51
が大きい	-10.5102
だったので購入しました	-10.5105
外側	-10.5109
混ぜ	-10.5111
でしょうが	-10.5111
待ち	-10.5112
だったり	-10.5115
到着した	-10.5118
わたし	-10.5126
しっかりしてる	-10.5127
破け	-10.5128
子供に	-10.5129
できませんでした	-10.513
10/27	-10.5132
なと思います	-10.5132
申し訳ありません	-10.5143
たか	-10.5144
限り	-10.5144
円分	-10.5145
:2	-10.5152
上品な	-10.5153
ホ	-10.5157
71	-10.5158
だけは	-10.5164
違和感	-10.5165
中身が	-10.5165
代わりに	-10.5166
は初めてです	-10.5167
高すぎ	-10.5167
円位	-10.5168
使っていて	-10.5171
秋	-10.5178
買ってしまいました	-10.518
薄手	-10.5189
調	-10.5194
の私でも	-10.5196
な気がします	-10.52
蓋	-10.5216
こんな感じ	-10.5217
は使えません	-10.523
でなく	-10.5237
塗って	-10.5237
ちょうどよく	-10.5238
;;	-10.5238
微妙です	-10.5238
2.	-10.5239
夫	-10.524
-07	-10.5243
丈も	-10.5246
足を	-10.5247
学校	-10.5259
していたので	-10.5261
マイ	-10.5261
するのが	-10.5268
購入してしまいました	-10.527
もいいし	-10.5281
ぜひ	-10.5288
急いで	-10.5303
形も	-10.5308
購入します	-10.531
こんなもん	-10.5311
とは思いませんでした	-10.5315
るのかな	-10.5316
していましたが	-10.5319
た瞬間	-10.5319
合わ	-10.532
ことなく	-10.5326
この本	-10.5332
に注文したのに	-10.5332
良かったかも	-10.5332
といっても	-10.5333
小さすぎ	-10.5333
ならず	-10.5334
▁1,,10/1	-10.5336
機会があれば	-10.5338
月初旬	-10.5339
追加で	-10.5341
今後は	-10.5353
輝き	-10.5356
直接	-10.5357
激安	-10.536
座って	-10.5363
来ない	-10.5364
親切	-10.5364
魅力	-10.5367
開封	-10.537
チェーンが	-10.5385
の方も	-10.5387
増え	-10.5388
ベ	-10.539
ワンサイズ	-10.5392
で買って	-10.5394
ちょうどよい	-10.5396
新しいもの	-10.5397
辛	-10.5398
要	-10.5401
すぐに届きました	-10.5402
ラック	-10.5406
ただけで	-10.5407
他は	-10.5407
と思いながら	-10.5408
ければ	-10.5411
ザ	-10.5413
分を	-10.5416
付いている	-10.5418
可愛いし	-10.5421
してみました	-10.5422
してみましたが	-10.5422
りと	-10.5422
を探し	-10.5429
の様に	-10.5429
ついでに	-10.543
いただき	-10.5432
ができて	-10.5433
買わ	-10.5436
してる	-10.5437
-2	-10.5437
まぁまぁ	-10.5439
ころ	-10.544
ハート	-10.5443
下げ	-10.5447
もついて	-10.5449
ON	-10.545
知って	-10.5451
幅広	-10.5453
美味しかった	-10.5455
部屋着	-10.5458
3.	-10.547
向	-10.5472
肌触りも	-10.5472
歩	-10.548
115	-10.548
いるのに	-10.5481
画像は	-10.5481
泡	-10.5481
かと思って	-10.5491
探し	-10.5491
結果は	-10.5491
マーク	-10.5492
流れ	-10.5492
取り付けは	-10.5496
楽しい	-10.5501
つま先	-10.5503
シミ	-10.5505
品が	-10.5508
込んで	-10.5508
ヶ月分	-10.551
最大	-10.5517
大喜びでした	-10.5517
回くらい	-10.5518
サイド	-10.552
個も	-10.552
お客様	-10.5521
キャップ	-10.5521
が多いので	-10.5525
ぽ	-10.5531
なかったのに	-10.5534
忘れ	-10.5536
ステンレス	-10.5536
ステキ	-10.5537
在庫切れ	-10.5538
ロゴ	-10.5543
何度	-10.5552
期待していた	-10.5554
死着	-10.5557
柔らか	-10.5558
ダンボール	-10.5559
始末	-10.556
高かった	-10.5561
鍵	-10.5563
旨	-10.5564
パワー	-10.5564
アイテム	-10.5567
空	-10.5568
足りず	-10.557
合う	-10.5571
選べる	-10.5573
梱包も丁寧で	-10.5573
貼って	-10.5578
んだろう	-10.5579
留め	-10.558
イライラ	-10.5582
のものを	-10.5583
ワン	-10.5585
未	-10.5586
とても便利	-10.5592
頑張って	-10.5595
の時	-10.5595
使用していますが	-10.5595
円クーポン	-10.5597
たし	-10.5597
ばら	-10.5598
保存	-10.56
書きます	-10.56
山	-10.5601
時間が	-10.5602
こんなの	-10.5602
細さ	-10.5602
期待を込めて	-10.5605
ドット	-10.5605
と書いて	-10.5606
日にち	-10.5606
怒	-10.5608
感触	-10.5609
イヤ	-10.5609
y	-10.561
頻繁に	-10.5611
と違って	-10.5611
脱	-10.5611
狭く	-10.5612
吸収	-10.5614
による	-10.5614
使い捨て	-10.5614
エアコン	-10.5614
対応も	-10.5615
生活	-10.5616
砂糖	-10.5617
以来	-10.5617
応	-10.5617
ブレスレット	-10.5617
込む	-10.5617
不可	-10.5618
社	-10.5618
放	-10.5618
税込	-10.5618
スリッパ	-10.5618
眼	-10.5619
迄	-10.5619
天然	-10.5619
部品	-10.562
ad	-10.562
カール	-10.562
幅が	-10.562
道	-10.562
ヤマト運輸	-10.562
申し	-10.562
エステ	-10.562
ワイヤー	-10.5621
タイト	-10.5621
スカスカ	-10.5621
コラーゲン	-10.5621
誤	-10.5621
追跡	-10.5621
ミラー	-10.5621
棚	-10.5621
階	-10.5621
ヘッド	-10.5621
まくり	-10.5622
テンション	-10.5622
グリップ	-10.5622
インソール	-10.5622
衝撃	-10.5622
エラー	-10.5622
メガネ	-10.5622
パソコン	-10.5622
妻	-10.5622
彼	-10.5622
机	-10.5622
襟	-10.5622
使うのが楽しみです	-10.5622
ツヤ	-10.5622
ベース	-10.5623
展開	-10.5623
おまかせ	-10.5623
ダークブラウン	-10.5623
ぜんぜん	-10.5623
ボルト	-10.5623
ゆっくり	-10.5623
ヤマト	-10.5623
壁	-10.5623
曲げ	-10.5623
絹	-10.5623
クレーム	-10.5623
思っていた以上に	-10.5623
UV	-10.5623
静電気	-10.5623
たのしみ	-10.5623
休み	-10.5623
プチプチ	-10.5623
エプロン	-10.5623
????????????????	-10.5623
エクステ	-10.5624
(><)	-10.5624
点満点	-10.5624
やっぱ	-10.5624
早かった	-10.5624
だいたい	-10.5625
合ってい	-10.5625
わりと	-10.5625
多数	-10.5626
の長さ	-10.5626
ママ	-10.5627
遊んでいます	-10.5628
冷え	-10.5629
水玉	-10.5629
悩み	-10.5629
袖口	-10.563
とどきました	-10.5631
円には見えません	-10.5632
肩紐	-10.5633
楽しみにしています	-10.5633
使えないです	-10.5633
出ない	-10.5634
またリピートします	-10.5634
言い	-10.5637
音沙汰なし	-10.5638
ある程度	-10.5638
立派な	-10.564
夜に	-10.564
mA	-10.564
リピはないです	-10.5642
付く	-10.5642
TV	-10.5644
と言う事で	-10.5645
感覚	-10.5649
が欲しい	-10.5649
近所	-10.565
連絡もなく	-10.5651
となっていたので	-10.5653
常に	-10.5658
安っぽくて	-10.5658
いい買い物ができました	-10.5659
当方	-10.566
に比べると	-10.566
年以上使っています	-10.566
日に到着しました	-10.5662
大きいです	-10.5662
安いの	-10.5663
は出来ない	-10.5664
×1	-10.5665
さま	-10.5666
円ショップの商品	-10.5667
が入っていて	-10.5667
皮が	-10.567
諦めて	-10.5676
入りません	-10.5676
ペラペラです	-10.5676
買い換えました	-10.5679
と言うか	-10.568
サイ	-10.5683
持っていますが	-10.5687
切れました	-10.5689
てみたいと思います	-10.5689
柔らかくて	-10.5691
大きすぎて	-10.5694
上がり	-10.5694
これはこれで	-10.5695
均の方が	-10.5696
大切に	-10.5701
発送まで	-10.5701
はやい	-10.5704
うすい	-10.5704
出来れば	-10.5704
▁1,,1	-10.5704
難しいです	-10.5709
実感	-10.5711
これだと	-10.5713
うちは	-10.5714
綺麗で	-10.5716
を注文したのですが	-10.572
ないもの	-10.5722
断然	-10.5722
画面で	-10.5723
と思ったけど	-10.5725
円お試し	-10.5725
取れて	-10.5729
!!!!	-10.573
飲め	-10.5732
コンパクトで	-10.5733
程度で	-10.5738
6000	-10.5738
倍の	-10.5739
枚も	-10.574
h	-10.5741
に購入しましたが	-10.5744
との連絡	-10.5753
肩ひも	-10.5753
を注文しましたが	-10.5755
使うので	-10.5759
と変わらない	-10.5763
月上旬発送	-10.5764
たくない	-10.5765
崩れ	-10.5771
フィット	-10.5771
のではないでしょうか	-10.5772
仕方ないのかな	-10.5772
ゲ	-10.5775
は本当に	-10.5776
うち	-10.5778
感じがしました	-10.5778
を使っていたのですが	-10.5781
関係	-10.5781
せっかくの	-10.5782
順次発送	-10.5784
ガッカリでした	-10.5784
予定です	-10.5788
るうちに	-10.5793
フリル	-10.5794
息子に	-10.5794
が好きで	-10.5801
の位置が	-10.5801
0,	-10.5805
売ってました	-10.5806
エコ	-10.581
付ける	-10.5812
してくれる	-10.5816
75	-10.5816
しっかりとした	-10.5818
夏は	-10.582
毛玉	-10.5822
変わり	-10.5824
言えば	-10.5825
商品が届いて	-10.5828
大満足でした	-10.5828
文句なしです	-10.5828
縫製も	-10.5828
たまま	-10.5831
いいですよ	-10.5833
リピートしています	-10.5835
だけでなく	-10.5835
写真通り	-10.5839
後ろに	-10.5839
だと思いますが	-10.584
もなし	-10.5841
隠れ	-10.5842
を見ると	-10.5846
酸味	-10.5846
パツパツ	-10.585
ラグ	-10.585
配送も	-10.5851
かなと思いましたが	-10.5851
ではなかったです	-10.5853
を探してました	-10.5857
という事	-10.5858
秒で	-10.586
履きたい	-10.5863
安く購入でき	-10.5866
だったのでしょうか	-10.5866
じゃないですか	-10.5871
がなかったので	-10.5872
困る	-10.5874
予約商品	-10.5878
も同じ	-10.588
しているのですが	-10.5885
年ぶりに	-10.5888
捨てる	-10.5888
フル	-10.5894
体が	-10.5895
が壊れ	-10.5907
ところで	-10.5907
取っ手	-10.5908
は無く	-10.5909
!"	-10.5912
案内	-10.5913
(11	-10.5914
食べました	-10.5919
ではないでしょうか	-10.5923
折って	-10.5929
▁1,,03	-10.5929
実は	-10.593
りますが	-10.5934
お買い得だと思います	-10.5935
調べ	-10.594
購入を決めました	-10.5944
が好きなので	-10.5945
丈が	-10.5949
だらけ	-10.595
日に購入して	-10.595
しまうので	-10.5952
日分	-10.5958
でしょうね	-10.5961
留め具	-10.5964
させて頂きました	-10.5968
可愛らしい	-10.597
もち	-10.5973
張	-10.5981
紹介	-10.5983
,【	-10.5984
で使用	-10.5987
ビン	-10.5993
質が	-10.5993
のようです	-10.5994
見えて	-10.5998
作った	-10.6009
内の	-10.601
損	-10.6011
に感じました	-10.6011
次の日に	-10.6014
つもりで	-10.6018
お弁当	-10.6019
の部分は	-10.6021
、9	-10.6023
はもう	-10.6026
ar	-10.6028
ショップから	-10.6034
交換して	-10.6037
聞き	-10.6043
友達	-10.6046
木の	-10.6046
変えて	-10.6046
(10	-10.6053
ってしまう	-10.6054
様子	-10.6065
太	-10.6068
ピンクを購入	-10.6073
点も	-10.6075
して欲しい	-10.6077
年ぶりの	-10.6078
度に	-10.6083
ファスナーが	-10.609
----------------	-10.6093
いるのか	-10.6105
とは違い	-10.6108
152	-10.611
広げ	-10.6115
...,11	-10.6116
高すぎる	-10.6119
る方	-10.6119
れました	-10.612
を使用して	-10.6123
買ったけど	-10.6124
ヶ月の	-10.6128
ゼロ	-10.6133
行く	-10.6133
この価格で	-10.6135
報告	-10.6135
ていなかった	-10.6138
作れ	-10.6142
起き	-10.6143
.8	-10.6147
に購入して	-10.615
同じ商品	-10.6153
少しでも	-10.6163
こちらの商品を	-10.6171
言うと	-10.6173
つかえ	-10.6174
以外に	-10.6176
おまけは	-10.6178
滑	-10.6182
濃	-10.6189
カル	-10.6199
であること	-10.6199
97	-10.6201
ート	-10.6206
落ちて	-10.6208
まわり	-10.6216
日に発送	-10.622
などに	-10.6222
ース	-10.6223
小さ	-10.6224
満足でした	-10.6227
購入時	-10.6228
揃え	-10.6228
人の	-10.6228
として購入しました	-10.6229
大丈夫そうです	-10.6229
してません	-10.623
165	-10.6237
フィット感	-10.6239
もう一つ	-10.6241
しっかりしているので	-10.6245
ヶ所	-10.6245
おまけも	-10.6247
ないようです	-10.6248
目安	-10.6249
周り	-10.6252
感じる	-10.6253
けて	-10.6257
なのも	-10.6261
使えて	-10.6263
物で	-10.6265
するのは	-10.6267
強	-10.6269
初めてです	-10.6273
を買い	-10.6274
クリスマスプレゼント	-10.6279
d	-10.628
わけではない	-10.6284
縦	-10.6285
▁1,☆	-10.6286
子供用	-10.6287
てくれる	-10.6291
出来るので	-10.6292
スタイル	-10.6305
光沢	-10.6308
おりません	-10.6308
これからは	-10.631
このお値段なら	-10.6317
日たっても	-10.6321
ものも	-10.6328
訳	-10.633
夏に	-10.6331
実際の	-10.6334
て購入しました	-10.6343
▁1,110	-10.6343
買ったら	-10.6347
たんですが	-10.6348
480	-10.635
なんでしょうか	-10.6352
シン	-10.6357
短くて	-10.6361
とても気に入っています	-10.6362
才の娘	-10.6365
との事で	-10.6365
四	-10.6366
回も	-10.637
この商品の	-10.6371
製品は	-10.638
今回初めて	-10.6386
じゃなかった	-10.6389
はっきり	-10.639
価格も	-10.6392
わかりませんが	-10.6395
オー	-10.6396
初め	-10.64
11/5	-10.64
売	-10.64
次の日	-10.6403
10.2	-10.6404
合わず	-10.6409
〜,	-10.6413
袋を	-10.6415
バスト	-10.6417
染め	-10.6417
走行	-10.6421
買ってしまった	-10.6422
年前に購入した	-10.6422
他の人	-10.6427
はないので	-10.6427
にすればよかった	-10.6429
もらって	-10.6434
ホームセンター	-10.6437
年ほど	-10.644
焼き	-10.6442
手で	-10.6451
無料で	-10.6451
弾	-10.6451
一年	-10.6454
寄り	-10.6457
温	-10.646
するため	-10.6465
くなります	-10.6466
曲がって	-10.6468
月下旬に	-10.6469
ファン	-10.6469
いって	-10.6475
冬は	-10.6479
にあった	-10.6482
感想は	-10.6483
購入したいと思います	-10.6486
ないですが	-10.6486
ちゃいました	-10.6487
にくく	-10.6489
注文確認メール	-10.6494
返品交換	-10.6495
先の	-10.6496
オマケ	-10.6496
後悔しました	-10.6499
かず	-10.6499
47	-10.6499
しております	-10.6503
騙された	-10.6505
特	-10.6512
素材で	-10.6514
の色が	-10.6516
類	-10.6516
もないです	-10.6517
送料が	-10.6518
▁2,,03	-10.6519
〜1	-10.652
感じなので	-10.652
カメ	-10.6521
一気に	-10.6521
円くらいの	-10.6523
により	-10.6528
問題ないです	-10.6533
正規品	-10.6535
買い換え	-10.6539
いたのに	-10.6539
&#10067;	-10.654
りんご	-10.6542
始めた	-10.6545
103	-10.6546
レバー	-10.6548
確定	-10.655
甲	-10.655
背	-10.655
膝	-10.655
の事	-10.6552
もあります	-10.6554
着た	-10.6557
布地	-10.656
使うには	-10.6564
客	-10.6565
アイロン	-10.6566
をしましたが	-10.6569
駄目	-10.6571
おやつ	-10.6572
痩せ	-10.6573
側の	-10.6578
実家	-10.6579
お手入れ	-10.6579
と思いつつ	-10.658
サイズ感	-10.6583
良かったと思います	-10.6583
真っ白	-10.6583
上部	-10.6584
女	-10.6589
使いたいです	-10.6589
エンジン	-10.6592
無くなる	-10.6596
使いました	-10.6597
スムーズ	-10.6597
気分です	-10.6597
せん	-10.66
円は安い	-10.6601
信	-10.6601
ですけど	-10.6601
タイマー	-10.6601
おいて	-10.6602
ぜ	-10.6602
細くて	-10.6604
カジュアル	-10.6605
はさみ	-10.6605
読む	-10.6606
居	-10.6606
単価	-10.6608
期待していましたが	-10.6609
肌触りが	-10.6611
ジュ	-10.6612
精油	-10.6613
国	-10.6614
断念	-10.6616
根	-10.6616
と言って	-10.6616
大丈夫です	-10.6616
包	-10.6616
に感じます	-10.6617
タイプは	-10.6617
焼け	-10.6618
回転	-10.6618
セリア	-10.6618
ずーっと	-10.6618
ルナソル	-10.6618
灯	-10.6619
チューブ	-10.662
ムラ	-10.662
自動	-10.662
中敷	-10.662
こぼれ	-10.6621
のドレス	-10.6621
浮気	-10.6621
スープ	-10.6621
苦情	-10.6621
クリスタル	-10.6621
リクライニング	-10.6622
標準	-10.6622
ずいぶん	-10.6622
プレート	-10.6622
伝票	-10.6622
謝罪	-10.6622
特有の	-10.6622
パーティー	-10.6622
お土産	-10.6622
シングル	-10.6622
セーター	-10.6622
暫く	-10.6622
オーブン	-10.6622
ふつう	-10.6622
過ごせ	-10.6622
水晶	-10.6622
ごはん	-10.6622
ホルダー	-10.6622
Q	-10.6622
しょぼい	-10.6623
レシピ	-10.6623
瓶	-10.6623
ホームページ	-10.6623
good	-10.6623
直径	-10.6623
閉じ	-10.6623
文章	-10.6623
カートリッジ	-10.6623
助かってます	-10.6623
オニキス	-10.6623
ごめんなさい	-10.6623
ダンス	-10.6623
&#8252;&#65038;	-10.6623
ソール	-10.6623
我が家では	-10.6623
現状	-10.6623
リンゴ	-10.6623
キャメル	-10.6623
なにこれ	-10.6624
ぶり	-10.6624
食器	-10.6624
レビューを書いて	-10.6625
落ち着き	-10.6625
天板	-10.6625
バター	-10.6625
▁1,,105	-10.6626
おすすめしません	-10.6626
オススメします	-10.6626
未だ届きません	-10.6626
をしたら	-10.6626
予想通り	-10.6626
違和感なく	-10.6627
は嬉しいです	-10.6627
歯ブラシ	-10.6627
苦笑	-10.6628
日出荷	-10.6628
とても可愛く	-10.6629
着てみると	-10.663
星一つ	-10.663
間違いなく	-10.6632
手作り	-10.6632
って思いました	-10.6633
不具合	-10.6633
。,11	-10.6633
ミリ玉	-10.6634
枚ずつ	-10.6634
定期的に	-10.6634
購入履歴	-10.6634
ノン	-10.6636
小さかった	-10.6638
内側の	-10.6638
高評価	-10.6639
中心	-10.664
何の	-10.664
個は	-10.6641
均で売っている	-10.6641
困っていました	-10.6641
匹中	-10.6643
∀`)	-10.6645
すいません	-10.6651
¥100	-10.6652
使ってる	-10.6653
をみて	-10.6653
とのことでした	-10.6653
長持ちする	-10.6654
歳の息子に	-10.6654
入りました	-10.6655
気をつけ	-10.6663
このお値段でこの	-10.6666
くせ	-10.6667
育て	-10.6668
一言	-10.6669
▁1,,11/2	-10.667
2014	-10.6673
リピートします	-10.6674
いざ	-10.6675
ヶ月以上	-10.6676
76	-10.6677
の下	-10.6678
使いづらい	-10.668
ちょい	-10.6681
色味が	-10.6681
ところに	-10.6683
全体が	-10.6687
個セット	-10.669
扱いやすい	-10.6691
円だったら	-10.6699
チーズ	-10.6703
途中	-10.6706
で満足です	-10.6706
今では	-10.6708
一緒に購入した	-10.6709
++	-10.671
枚中	-10.6711
2、3	-10.6713
軽いし	-10.6716
(?)	-10.6721
最悪でした	-10.6721
号で	-10.6722
時間指定	-10.6722
表面に	-10.6722
オススメできません	-10.6729
本中	-10.673
思い出	-10.6735
の子に	-10.6736
んですよね	-10.674
ああああああああああああああ	-10.674
ないのは	-10.6742
口が	-10.6742
を買った	-10.6742
重み	-10.6743
.6	-10.6743
消え	-10.6745
8000	-10.6745
漏れ	-10.6746
歩く	-10.675
1980	-10.6751
をいただきました	-10.6751
注文したので	-10.6759
ポイントも	-10.6762
いいかもしれません	-10.6763
暗く	-10.6763
ラインが	-10.6763
2013	-10.6763
暖かいです	-10.6764
、0.5	-10.6764
最低です	-10.6767
倍のときに	-10.677
可能です	-10.6772
こちらのショップは	-10.6773
くれて	-10.6782
本目	-10.6783
厚く	-10.6784
仕事で	-10.6784
っぽ	-10.6789
水分	-10.6789
諦めました	-10.6792
してもらいました	-10.6795
小物	-10.6795
カブ	-10.6796
本物	-10.6796
るという	-10.6799
青色	-10.6799
・・・・・	-10.6799
利用して	-10.6803
履けません	-10.6804
なくなる	-10.6804
決済	-10.6805
よくない	-10.6808
なしです	-10.6808
しっかりして	-10.6809
も入って	-10.6811
かわいいので	-10.6812
下から	-10.6814
と思っていたので	-10.682
いですね	-10.6821
購入してから	-10.6822
を使ってましたが	-10.6827
待っていた	-10.6832
かつ	-10.6834
種類の	-10.6834
やった	-10.6834
出てきて	-10.6835
目立ち	-10.6836
本人は	-10.6838
-0	-10.6843
耐久性は	-10.6843
てくれ	-10.6845
-4	-10.6846
と思ってます	-10.6846
二つ	-10.6847
ていても	-10.6853
それとも	-10.6854
当日	-10.6855
なっています	-10.6856
商品だと思います	-10.6859
あげ	-10.6861
上品	-10.6872
一緒に買った	-10.6879
ぐらいの	-10.6881
ve	-10.6883
をつけると	-10.6888
を探していて	-10.6888
プラスチックの	-10.6889
雑です	-10.6889
を受け	-10.6891
ーン	-10.69
る感じ	-10.6907
良い物	-10.6912
ストライプ	-10.6922
トレーナー	-10.6923
スカートは	-10.6924
ケースも	-10.6924
円なのに	-10.693
速	-10.6931
内容でした	-10.6934
してみます	-10.6935
情報	-10.6938
受付	-10.694
届いている	-10.6942
今後の	-10.6944
思っていたよりも	-10.6951
無視	-10.6954
丁寧	-10.6955
のものは	-10.6964
ればいい	-10.6964
方に	-10.6964
よくある	-10.6966
子どもに	-10.6968
た感じ	-10.6968
ける	-10.6971
並べて	-10.6972
使用し	-10.6974
買ったほうが	-10.6975
ゴミ箱	-10.6982
写真は	-10.6985
ところは	-10.6985
しまったので	-10.6985
ようになりました	-10.6989
左右の	-10.6992
使い始めて	-10.6993
やすいので	-10.6995
ブルーの	-10.7
そっち	-10.7003
までは	-10.7017
ラク	-10.7018
触って	-10.7018
のかも	-10.7028
見てみると	-10.7029
蓋が	-10.703
をおすすめします	-10.7033
☆,10	-10.7033
の方に	-10.7035
が届き	-10.7039
みたところ	-10.7041
使いません	-10.7047
らせ	-10.7048
近い	-10.705
ブランド	-10.7052
日前に	-10.7053
を使う	-10.706
主人の	-10.7063
▁2,,01	-10.7067
〜,10	-10.7067
少し大きい	-10.7072
を感じ	-10.7074
キレイに	-10.7076
純正の	-10.7076
いれ	-10.7078
で少し	-10.7085
57	-10.7086
ール	-10.7089
の違い	-10.709
小さめの	-10.7091
さで	-10.7099
成長	-10.7099
友人	-10.71
使用してます	-10.7101
はき	-10.7101
毛が	-10.7108
とってもかわいい	-10.7111
もっと早く	-10.7112
▁1,,100%	-10.7115
入ります	-10.7115
の所に	-10.7115
立て	-10.7117
たとしても	-10.7122
今日は	-10.7122
水で	-10.7126
ものに	-10.7135
くらいは	-10.7135
いう	-10.7138
中が	-10.714
という印象	-10.7142
ちょっと残念	-10.7144
の発送	-10.7146
さらさら	-10.715
のよう	-10.7151
▁-	-10.7152
厚い	-10.7155
そのような	-10.7159
程よく	-10.7163
▁1	-10.717
誕生日	-10.7177
カス	-10.7181
注文で	-10.7182
つもりです	-10.7184
映	-10.7187
128	-10.7187
も十分	-10.7189
の靴	-10.7191
たようです	-10.7193
ズレ	-10.7193
幼稚園	-10.7198
していません	-10.7201
均にも	-10.7203
選んで	-10.7204
なっ	-10.721
アクセサリー	-10.721
床に	-10.7211
の穴	-10.7215
しやすい	-10.7221
張って	-10.7225
これくらい	-10.7226
の大きさで	-10.7229
本人	-10.7235
手が	-10.7235
事も	-10.7236
ッチ	-10.7238
するか	-10.7239
薄いです	-10.7239
56	-10.7251
ヶ月になる	-10.7253
ないでしょう	-10.7255
通勤	-10.7262
量も	-10.7266
辺り	-10.7268
記載されて	-10.7268
硬さ	-10.7269
差が	-10.7269
壊れる	-10.727
年後	-10.727
タイム	-10.7277
二週間	-10.7278
と思って購入	-10.728
状態に	-10.7283
丸い	-10.7283
要らない	-10.7285
週間以上	-10.7286
孫	-10.7287
のうち	-10.7289
日から	-10.7289
配送業者	-10.7291
に見え	-10.7297
ケーキ	-10.7298
するときに	-10.7299
素人	-10.7301
場	-10.7303
うし	-10.7306
試しましたが	-10.7309
が弱く	-10.7314
♪,10	-10.7323
レビューを見ると	-10.7324
切って	-10.7325
お揃い	-10.7327
品切れ	-10.733
ものが届きました	-10.7331
所に	-10.7332
ネイビーの	-10.7334
使い勝手は	-10.7336
で使用しています	-10.734
で注文しました	-10.7341
修正	-10.7343
ずら	-10.7345
でかい	-10.7359
圧	-10.736
見る	-10.736
ビー	-10.7363
ストック	-10.7365
100%,	-10.7368
他のお店	-10.7369
分かって	-10.7377
のおかげで	-10.7378
袋も	-10.7384
に使う	-10.7388
と思ったのですが	-10.7391
入れられ	-10.7393
手入れ	-10.7394
もん	-10.7399
だけなので	-10.7399
時も	-10.7401
ひど	-10.7402
年以上前に	-10.7405
ませんね	-10.7409
こちらのお店で	-10.741
なれ	-10.7414
汚	-10.7414
くるので	-10.7422
見つけ	-10.7426
は何	-10.7428
の味が	-10.7429
戻ってき	-10.743
はできません	-10.7439
保護	-10.7443
ちょうどよかった	-10.7445
円以下の	-10.7447
缶	-10.7448
なかったら	-10.7454
増	-10.7455
気に入ったようです	-10.7455
化粧	-10.7456
に合う	-10.7456
素材の	-10.7457
お値段以上	-10.7457
ブカブカ	-10.7458
月下旬発送	-10.7459
品を	-10.7461
商品説明	-10.7466
てみました	-10.7468
っちゃう	-10.7471
なんとも	-10.7475
重く	-10.7476
折り	-10.748
年来	-10.7483
価格は	-10.7485
センチを購入しました	-10.7487
通し	-10.749
解凍	-10.7498
るときに	-10.7501
ないと思います	-10.7502
と考えて	-10.7506
がないと	-10.7507
たときは	-10.7507
させてもらいました	-10.7508
このような	-10.7512
畳の	-10.7514
尚	-10.7515
待ちました	-10.7517
になったり	-10.7519
好みの	-10.752
厳しい	-10.7529
によっては	-10.753
するのに	-10.753
週間で	-10.753
息子が	-10.7531
探した	-10.7533
使おう	-10.7533
乗って	-10.7534
円程度	-10.7535
化粧品	-10.7535
▁1,105	-10.7535
が面倒	-10.7535
力が	-10.7537
した方がいい	-10.7539
送りました	-10.7548
と思われる	-10.7554
に惹かれ	-10.7554
くなってしまいました	-10.7555
てください	-10.7556
用品	-10.7557
割に	-10.7557
小さいもの	-10.7558
アル	-10.7558
を見たら	-10.756
メールが届きました	-10.756
12/2	-10.756
似た	-10.7561
その旨	-10.7563
縫い	-10.7566
になりますが	-10.7567
ご連絡	-10.7568
を切って	-10.7568
洗って	-10.7569
なんですね	-10.7571
凹み	-10.7575
使おうと思います	-10.7579
一目惚れ	-10.7579
運転	-10.758
発送される	-10.758
入りませんでした	-10.758
しているの	-10.7581
♪(	-10.7582
伸びて	-10.7583
ケーブルが	-10.7586
気に入り	-10.7586
年末	-10.7589
破	-10.759
かもしれませんね	-10.759
現	-10.7591
気持ちよく	-10.7592
受け取り	-10.7593
オモチャ	-10.7596
経ちますが	-10.7596
ファイル	-10.7598
................	-10.7599
シルエット	-10.7601
ネジが	-10.7601
梱包も	-10.7601
かも知れません	-10.7603
払って	-10.7603
送付	-10.7603
損した	-10.7604
よくわからない	-10.7605
なくらい	-10.7608
去年	-10.7609
使ってみました	-10.7613
が低い	-10.7614
が少ない	-10.7616
なりませんでした	-10.7621
原因	-10.7626
発送しました	-10.7627
^*)	-10.7628
外に	-10.7628
浅	-10.7629
値段の割に	-10.7632
しないで	-10.7638
嬉しかった	-10.7643
遅れるなら	-10.7646
共	-10.7646
のは初めてです	-10.7647
他店の	-10.7647
常	-10.7648
引っ越し	-10.7649
履け	-10.7653
タイムセール	-10.7654
そんなこと	-10.7656
アレンジ	-10.7657
#	-10.766
若	-10.7661
おススメ	-10.7663
入りで	-10.7664
値上げ	-10.7665
入れても	-10.7667
濃い色	-10.7668
ちゃっちい	-10.7671
損した気分	-10.7672
&#65038;,	-10.7673
いるし	-10.7675
になってしまった	-10.7675
1080	-10.7677
気にいって	-10.7678
メッキ	-10.7679
溶け	-10.7681
自分用	-10.7682
じゃん	-10.7682
スティック	-10.7683
商品ページに	-10.7683
なにより	-10.7684
ることもなく	-10.7685
らなかった	-10.7686
ミルク	-10.7687
投稿	-10.7688
になってしまい	-10.7688
夕方	-10.7689
パット	-10.769
長袖	-10.7691
詳細	-10.7693
はほぼ	-10.7696
気になりますが	-10.7698
裏の	-10.7699
モン	-10.7699
しょうが	-10.7701
の物が	-10.7701
に行く	-10.7702
色です	-10.7703
書き込み	-10.7704
それだけ	-10.7704
歩き	-10.7705
不快	-10.7706
喜んでくれました	-10.7708
美味しさ	-10.7708
するし	-10.7709
ついつい	-10.7711
消耗品	-10.7712
ぺ	-10.7713
札	-10.7714
して欲しいです	-10.7715
小分け	-10.7717
相	-10.7717
となり	-10.7717
電	-10.7717
履こう	-10.7718
派	-10.7718
質問	-10.7719
履歴	-10.772
使いやすそうです	-10.772
込め	-10.7721
ウエストのゴム	-10.7721
センター	-10.7721
未満	-10.7722
サポート	-10.7725
ちゃいます	-10.7726
美容液	-10.7726
ブレンド	-10.7726
防	-10.7726
掲載	-10.7727
生産	-10.7728
後ろの	-10.7728
距離	-10.7728
消しゴム	-10.7729
早かったです	-10.7729
バルブ	-10.7729
格	-10.7729
ガード	-10.773
ソックス	-10.7731
動作	-10.7731
握	-10.7731
と言った	-10.7731
確実に	-10.7731
業	-10.7731
乳	-10.7731
ネクタイ	-10.7731
食べています	-10.7732
サテン	-10.7732
命	-10.7732
アトピー	-10.7732
繊維	-10.7732
ac	-10.7732
構造	-10.7732
洗剤	-10.7732
他の方のレビューにもありましたが	-10.7732
仕切り	-10.7732
ばっかり	-10.7732
戦	-10.7732
鉄	-10.7732
圧迫感	-10.7732
宣伝	-10.7733
ショルダー	-10.7733
ハンカチ	-10.7733
慎重に	-10.7733
クシュクシュ	-10.7733
宅配	-10.7733
手書きの	-10.7733
紫外線	-10.7733
意外に	-10.7733
パルプ	-10.7733
先生	-10.7733
通気性	-10.7733
チュニック	-10.7733
テカテカ	-10.7733
トリートメント	-10.7733
ふだん	-10.7733
シャブリ	-10.7733
スケスケ	-10.7733
&#10006;&#65039;	-10.7733
作成	-10.7733
マフラー	-10.7733
&#10025;,	-10.7733
映像	-10.7733
発表会	-10.7733
飾る	-10.7733
お薦め	-10.7733
グラグラ	-10.7733
泡立ち	-10.7733
乾く	-10.7733
適度な	-10.7733
埃	-10.7733
技術	-10.7733
ハウス	-10.7733
運送会社	-10.7733
神	-10.7733
チャコール	-10.7734
安っぽさ	-10.7734
ゆるゆる	-10.7734
証	-10.7734
バンパー	-10.7734
ポーチ	-10.7734
夫婦	-10.7734
いちいち	-10.7734
北海道	-10.7734
(;_;)	-10.7734
データ	-10.7734
デカイ	-10.7734
ミディアム	-10.7734
佐川急便	-10.7734
めちゃめちゃ	-10.7734
かわいかった	-10.7734
湿気	-10.7734
英語	-10.7734
オリジナル	-10.7734
液晶	-10.7734
無添加	-10.7734
便秘	-10.7734
おもしろい	-10.7734
打ち	-10.7734
の品質	-10.7734
配線	-10.7734
いいねいいねいいねいいねいいね	-10.7734
ベーシック	-10.7734
うちの子は	-10.7734
しっぱい	-10.7734
牛	-10.7734
Na	-10.7734
環境	-10.7734
届くのでしょうか	-10.7734
ゲーム	-10.7734
糸くず	-10.7734
モーター	-10.7734
市	-10.7734
乾燥肌	-10.7734
オークル	-10.7735
工場	-10.7735
毎朝	-10.7735
cc	-10.7735
テスト	-10.7735
(^^;;	-10.7735
&#10549;&#65038;	-10.7736
ライブ	-10.7736
と思える	-10.7736
靴底	-10.7736
長い間	-10.7736
ように感じます	-10.7737
サプリメント	-10.7737
在庫管理	-10.7737
iP	-10.7737
包装紙	-10.7738
ごろ	-10.7738
真っ黒	-10.7738
お手頃	-10.7738
ポリ	-10.7738
にして正解でした	-10.7739
今まで使っていた	-10.7739
エン	-10.774
雨の日	-10.7741
No	-10.7741
大体	-10.7741
背面	-10.7742
当分	-10.7742
値段が値段なので	-10.7742
可愛らしく	-10.7742
怒り	-10.7743
が壊れたので	-10.7743
程よい	-10.7744
今朝	-10.7745
作りが雑	-10.7746
胸元	-10.7746
深い	-10.7748
しょっぱい	-10.7749
毛穴	-10.775
ジャストサイズでした	-10.7752
縫い目	-10.7752
ようやく届きました	-10.7753
あり得ない	-10.7753
もうすこし	-10.7754
&#10069;,	-10.7755
センチの息子に	-10.7756
からか	-10.7757
10.5	-10.7757
読んだ	-10.7758
買い替えました	-10.776
洗濯したら	-10.7761
プチ	-10.7765
このショップの	-10.7765
11/8	-10.7767
この金額	-10.7769
良かったら	-10.7769
回数	-10.7769
10/9	-10.777
値段は	-10.7772
となっていましたが	-10.7773
それなら	-10.7773
のものが	-10.7777
個入っていました	-10.7778
届いていない	-10.7779
追記します	-10.778
動きやすい	-10.778
用として	-10.7781
買わなきゃよかった	-10.7782
早く届いて	-10.7783
問題なさそうです	-10.7783
点は	-10.7783
まだ届かず	-10.7784
かかります	-10.7784
頼んでみました	-10.7784
じゃなくて	-10.7784
暑い	-10.7785
クリーナー	-10.7785
お店の対応も	-10.7787
組立	-10.7788
新鮮な	-10.7791
漢字	-10.7792
ってこと	-10.7793
難しく	-10.7794
ないのか	-10.7795
円送料込	-10.7796
着ない	-10.78
物なので	-10.7801
以下の	-10.7802
仕方ないですが	-10.7803
ハズレでした	-10.7803
気持ちが	-10.7804
頼みましたが	-10.7806
▁1,,"1,000	-10.781
遅くなる	-10.7812
でないと	-10.7812
おいしくて	-10.7815
とても気に入ってます	-10.7816
匹死着	-10.7816
組み合わせ	-10.7817
しみ	-10.7819
お買い得でした	-10.7831
・・・,11	-10.7831
ダイヤは	-10.7832
円なんで	-10.7832
もぅ	-10.7833
歳の娘	-10.7835
,8	-10.7836
小さいです	-10.7837
くら	-10.7837
お肉	-10.7839
わず	-10.7845
...(	-10.7845
年目	-10.7848
店に	-10.7849
と思うと	-10.7858
変わらない	-10.7859
形状	-10.7862
独特の	-10.7862
喜んでいます	-10.7866
-5	-10.7869
変化が	-10.7871
日程	-10.7875
頼んだのに	-10.7877
11.5	-10.7878
一度も	-10.7878
枚購入しました	-10.7881
賞味期限は	-10.7882
ついに	-10.7888
ループ	-10.7889
画像で	-10.7898
上で	-10.7899
違った	-10.79
日程で	-10.7903
バカ	-10.7904
受け取りました	-10.7904
タイプなので	-10.7904
出来ないので	-10.7912
内容が	-10.7912
外で	-10.7913
過ぎます	-10.7915
とのメールが	-10.7919
月下旬入荷	-10.7919
想像していた	-10.792
▁2,10000	-10.792
使いたかった	-10.7925
一本	-10.7925
の配送	-10.7928
認識	-10.793
減らしました	-10.7932
ぴったりで	-10.7932
たいので	-10.7934
ピンクで	-10.7934
の方を	-10.7934
0.0	-10.7935
無くて	-10.7937
比べて	-10.7938
でこの値段は	-10.7941
まさに	-10.7944
オン	-10.7945
チクチクする	-10.7949
思ったよりも	-10.7954
レビューも	-10.7959
まち	-10.7962
あったか	-10.7968
ゴムの	-10.7969
79	-10.7973
つきます	-10.7976
ていません	-10.798
を選びましたが	-10.798
が大きく	-10.7982
ザー	-10.7983
楽です	-10.7984
なりません	-10.7985
乗せ	-10.7992
見せ	-10.8001
購入で	-10.8001
リピは	-10.8003
一袋	-10.8003
着きました	-10.801
予防	-10.8012
今年は	-10.8014
の石	-10.802
石が	-10.802
値段も安く	-10.8022
営業日	-10.8023
してるので	-10.8025
なんでしょう	-10.8026
購入致しました	-10.803
わりに	-10.8034
年ぶり	-10.8036
フローリング	-10.8037
なめ	-10.8041
▁1,,10/2	-10.8043
ないこと	-10.8048
に合わせ	-10.805
余った	-10.8058
しわ	-10.8059
革の	-10.8059
背中の	-10.806
大きいもの	-10.8062
にすれば	-10.8063
気になっていた	-10.8064
バランス	-10.807
送り	-10.8076
の生地	-10.8076
円で買える	-10.8078
返品する	-10.8079
円程	-10.808
た方が	-10.8081
パールが	-10.8081
連絡したところ	-10.8083
行け	-10.8084
かと思い	-10.8085
次に	-10.8089
トリ	-10.809
が楽しみ	-10.8092
て便利です	-10.8092
面で	-10.8094
コスパは	-10.8098
青い	-10.8101
1050	-10.8103
日ほどで	-10.8105
購入したもの	-10.8106
えました	-10.8106
なった気がします	-10.8109
いいもの	-10.811
末	-10.8116
はしますが	-10.8117
花は	-10.8118
44	-10.8119
ラブ	-10.8124
お願いし	-10.8124
届いてみると	-10.8126
の関係で	-10.8127
がうまく	-10.8129
裏側	-10.8129
日に到着	-10.8129
遅いです	-10.813
ちゃって	-10.8134
しまっている	-10.8136
ブラックと	-10.8137
を買ったのですが	-10.8139
固	-10.8141
多いので	-10.8141
でしょうけど	-10.8142
の形	-10.8142
ガー	-10.8143
のシール	-10.8152
購入してよかったです	-10.8156
円で買った	-10.8164
日本	-10.8165
本体が	-10.8167
しょ	-10.8179
ュ	-10.818
お買い得です	-10.8183
▁2,,107	-10.8183
夏場	-10.8185
始めて	-10.8189
倍は	-10.819
有難いです	-10.819
着けて	-10.8192
が入ってました	-10.8196
るの	-10.8196
飲める	-10.8198
が取れ	-10.8199
痛く	-10.8208
1200	-10.8209
何を	-10.8215
r	-10.8218
で届きました	-10.8221
の時点で	-10.8223
▁(	-10.8225
送料も	-10.8225
品でした	-10.8228
できたので	-10.8231
縫製は	-10.8233
の購入です	-10.8234
数日	-10.8235
使い続け	-10.8242
102	-10.8242
まだ来ません	-10.8249
口に	-10.8252
号の	-10.8253
に到着	-10.8255
くれた	-10.8258
作りは	-10.8259
前回の	-10.8259
剥がれ	-10.8263
ユニ	-10.8271
屋さん	-10.8273
ところです	-10.8284
,000	-10.8285
均のもの	-10.8288
た状態で	-10.8291
円に	-10.8292
薄手の	-10.8292
の色も	-10.8294
他のお店で	-10.8294
作りです	-10.8295
ウエストが	-10.8295
つま	-10.8296
使い勝手	-10.8301
るかな	-10.8309
ますので	-10.831
をつけて	-10.8311
(1	-10.8311
使いやすくて	-10.8312
匂いも	-10.8314
カットして	-10.8315
発送メールも	-10.8316
入るので	-10.8316
商品が届かない	-10.8318
一個	-10.832
かり	-10.8325
るとき	-10.8327
届かないので	-10.8331
小粒	-10.8331
工夫	-10.8332
商品届かず	-10.8337
のですね	-10.8339
のお店	-10.8348
商品説明に	-10.8349
にすると	-10.8353
ステ	-10.8356
使いにくい	-10.8361
の悪さ	-10.8365
他の方の	-10.837
のレビュー	-10.8372
幼稚園の	-10.8372
で使用する	-10.8373
期待し	-10.8374
わからず	-10.8375
パールの	-10.8377
左右	-10.8379
ップ	-10.8381
イス	-10.8384
楽しみにしていた	-10.8385
倍なので	-10.8389
次回も	-10.8393
以内	-10.8393
だと思う	-10.8398
だと思って	-10.8399
としか	-10.8399
いると	-10.8399
か心配です	-10.84
かわい	-10.8403
たもの	-10.8411
以上の	-10.8414
ことができました	-10.8416
つぶ	-10.8418
もあると	-10.8437
商品が届き	-10.8438
気に入	-10.8438
破れて	-10.844
るくらい	-10.844
は初めてでした	-10.8441
新しいの	-10.8441
の値段で	-10.8449
フライパン	-10.8451
理由	-10.8453
しっかりした作りで	-10.8456
の模様	-10.8456
たの	-10.8457
売っている	-10.8459
いなと思います	-10.8459
11/14	-10.8461
あー	-10.8465
商品画像	-10.8469
ために購入しました	-10.8476
感じが	-10.8477
たため	-10.8489
回答	-10.849
星は	-10.8492
てしまうので	-10.8496
11/4	-10.8497
注意書き	-10.8498
苦労	-10.8502
正解	-10.8502
すべ	-10.8503
発送の連絡	-10.8504
と後悔	-10.8508
楽しんで	-10.851
活躍	-10.8511
も良く	-10.8511
歩いて	-10.8515
こんな物	-10.852
嫌いな	-10.8522
ませんか	-10.8522
使い始め	-10.8526
長すぎ	-10.8527
手に入	-10.8528
をすると	-10.8529
と思っていたところ	-10.8532
明るい色	-10.8532
まん	-10.8534
が悪いのか	-10.8535
出てくる	-10.8536
写真よりも	-10.8539
理解	-10.8539
な印象	-10.8541
した後	-10.8542
わかってい	-10.8542
かと思いましたが	-10.8545
継続	-10.8546
頼みました	-10.8547
やすかった	-10.8548
で食べ	-10.8549
汚れがあり	-10.855
ないといけない	-10.8551
年も	-10.8554
で届き	-10.8558
暖かい	-10.8558
範囲	-10.8559
ショーツ	-10.8559
方の	-10.8562
なるので	-10.8563
タン	-10.8563
いっぱいです	-10.8564
いける	-10.8566
日に注文して本日	-10.8569
おき	-10.8569
!!!,	-10.8574
いいですが	-10.8575
きつく	-10.8575
の商品を	-10.8579
つは	-10.858
微妙な	-10.8587
材料	-10.8587
与え	-10.8587
でこの価格	-10.8588
大変助かります	-10.8589
割れて	-10.8592
アンダー	-10.8593
円でこの	-10.8597
かえて	-10.8598
味の	-10.8598
てみたところ	-10.8602
の際	-10.8603
お腹が	-10.8609
大きさで	-10.8609
母の	-10.8615
縫い目が	-10.8617
外れて	-10.8617
ブログ	-10.8619
生地で	-10.8621
リピートしてます	-10.8623
よっぽど	-10.8624
,105	-10.8626
見ても	-10.863
解消	-10.863
ので購入	-10.8631
問題はありません	-10.8631
売る	-10.8633
送った	-10.8636
してくれて	-10.8637
減	-10.8639
取れない	-10.864
-3	-10.8641
どこに	-10.8643
音も	-10.8644
さそうです	-10.8644
真冬	-10.8644
美味しいので	-10.8647
日の午前中に	-10.8651
少ないので	-10.8651
不思議	-10.8654
にしたら	-10.8657
大好きです	-10.8658
致しました	-10.8658
入っているので	-10.8659
大きいの	-10.866
他の色も	-10.8662
あげて	-10.8663
を買ってみました	-10.8664
ものばかり	-10.8668
良いと思いました	-10.8668
送料込で	-10.867
配	-10.867
伸ばし	-10.8671
が必要です	-10.8672
動画	-10.8672
メールが来ましたが	-10.8673
と思うほど	-10.8675
が悪かった	-10.8676
,10/4	-10.8683
バイ	-10.8684
同じものが	-10.8685
かと思いました	-10.8686
使用中	-10.869
イヤリング	-10.8692
着ると	-10.8694
▁2,02	-10.8694
これからの季節	-10.8697
本物の	-10.8699
プレゼント用に	-10.87
んですけどね	-10.87
過去	-10.87
ハッキリ	-10.8704
謎	-10.8704
文句なし	-10.8705
柄で	-10.8708
の製品	-10.8713
もしっかりしていて	-10.8713
疑問	-10.8714
きれいで	-10.8716
思いました	-10.8719
も簡単で	-10.8721
ポケットに	-10.8722
がきつい	-10.8722
良	-10.8728
円ショップでも	-10.8728
気になっていました	-10.8729
の幅が	-10.8733
物より	-10.8735
ただし	-10.8736
怖	-10.8741
この手の	-10.8742
評判	-10.8745
るなんて	-10.8747
円割引	-10.8748
諦め	-10.875
主人	-10.8756
迷わず	-10.8756
べき	-10.8757
円にしては	-10.8757
購入ですが	-10.876
しなければ	-10.876
匹が	-10.8765
だったかな	-10.8766
させる	-10.8766
009	-10.8769
されます	-10.877
肩幅	-10.8771
ってしまうので	-10.8771
言葉	-10.8771
我慢	-10.8782
と違い	-10.8785
無くなり	-10.8785
問題なく使え	-10.879
らしいです	-10.8794
レンズが	-10.8796
はんこ	-10.88
イル	-10.8803
ドライヤー	-10.8807
,4	-10.8807
ゆる	-10.8807
切れ味	-10.8808
広	-10.8809
カラコン	-10.881
感じませんでした	-10.881
ひと	-10.8811
がなくて	-10.8813
安価で	-10.8814
の場合	-10.8815
感激です	-10.8816
使うの	-10.882
方で	-10.882
スプーン	-10.8821
っちゃ	-10.8822
▁2,,05	-10.8826
と考え	-10.8826
フタ	-10.8827
脇	-10.8829
リピしたい	-10.883
として購入	-10.8831
アー	-10.8832
カラーは	-10.8834
ベタベタ	-10.8834
使わず	-10.8841
使おうと	-10.8843
急	-10.8844
電気	-10.8847
もあまり	-10.8848
片方の	-10.885
ピー	-10.8852
買えば	-10.8853
ということで購入しました	-10.8856
出産	-10.8857
が入る	-10.8857
だったようです	-10.8861
筋	-10.8864
レビューを書く	-10.8865
の良さ	-10.8866
わかりました	-10.8866
履けない	-10.8867
ィ	-10.887
かったのに	-10.8871
いと思います	-10.8872
同時購入	-10.8874
マットレス	-10.8875
パッド	-10.8877
としての	-10.8881
生まれ	-10.8882
語	-10.8883
やわらかい	-10.8885
便利な	-10.8887
両面テープ	-10.8891
と書いてありました	-10.8892
二人で	-10.8893
大容量	-10.8898
なめらか	-10.8898
チャーム	-10.8899
履き心地も	-10.8899
段階	-10.89
感覚で	-10.8906
持つ	-10.8907
お勧めします	-10.8907
ざ	-10.8908
ナシ	-10.8911
履くと	-10.8911
玄米	-10.8913
ワンシーズン	-10.8913
もお	-10.8914
と思っていたら	-10.8914
子供たち	-10.8914
かわ	-10.8917
-02	-10.8917
なんの	-10.8918
翌	-10.8919
ばっちり	-10.8919
ちょ	-10.8922
にびっくり	-10.8923
日で届く	-10.8923
くさい	-10.8926
できませんが	-10.8926
リピーター	-10.8927
量販店	-10.8927
家族で	-10.8927
,5	-10.8928
決め	-10.8928
おりましたが	-10.8928
支	-10.8929
細いので	-10.8932
整理	-10.8933
検索	-10.8934
キレイです	-10.8934
不満です	-10.8935
羽毛布団	-10.8936
念	-10.8936
▁1,★0	-10.8939
入浴剤	-10.8942
なにか	-10.8944
包み	-10.8944
昼	-10.8947
.........	-10.8948
百	-10.8949
日中	-10.8949
合いません	-10.8953
判断	-10.8953
同じ商品が	-10.8956
168	-10.8957
単	-10.8958
開始	-10.8958
いずれ	-10.8959
はかせ	-10.8961
収納力	-10.8962
きつくて	-10.8962
&#10006;	-10.8963
ぴ	-10.8964
伝え	-10.8965
避け	-10.8965
と思い購入	-10.8965
安くなって	-10.8966
揃って	-10.8966
分から	-10.8967
他のショップ	-10.8967
落ち着いて	-10.8968
んですかね	-10.8968
大量	-10.8969
宅配便	-10.8969
文句	-10.8969
分厚い	-10.897
で簡単に	-10.8971
忙しい	-10.8971
すっかり	-10.8972
エアー	-10.8972
勉強	-10.8973
フルーツ	-10.8973
さほど	-10.8974
ファンデーション	-10.8974
リピートしたいです	-10.8975
作動	-10.8975
連続	-10.8975
好評です	-10.8976
よろしくお願いします	-10.8976
注	-10.8977
判	-10.8977
ドライ	-10.8978
額	-10.8978
早めに	-10.8978
病	-10.8979
写	-10.8979
なるべく	-10.898
ノーマル	-10.898
プッシュ	-10.898
ミネラル	-10.898
視	-10.898
ヵ月	-10.8981
フォーマル	-10.8981
(^0^)	-10.8981
不要	-10.8981
整	-10.8981
アロマ	-10.8981
拡張	-10.8982
見つからず	-10.8982
頼む	-10.8982
七	-10.8982
蟹	-10.8982
趣味	-10.8982
ニュー	-10.8982
合い	-10.8982
低反発	-10.8982
全身	-10.8982
案の定	-10.8983
アイシャドウ	-10.8983
長く使えそうです	-10.8983
スピード	-10.8983
増量	-10.8983
解決	-10.8983
アジャスター	-10.8983
中華	-10.8983
樹脂	-10.8983
慌てて	-10.8983
分と	-10.8983
窓	-10.8983
保湿	-10.8983
11/2	-10.8983
ハンドタオル	-10.8983
メッシュ	-10.8983
曇り	-10.8983
欄	-10.8983
席	-10.8983
コミック	-10.8983
スタイリッシュ	-10.8983
リキッド	-10.8983
石鹸	-10.8983
刺激	-10.8983
基準	-10.8984
アルコール	-10.8984
カッコイイ	-10.8984
ダウニー	-10.8984
少なくとも	-10.8984
百貨店	-10.8984
アルファード	-10.8984
ベランダ	-10.8984
菌	-10.8984
ぎりぎり	-10.8984
軸	-10.8984
徐々に	-10.8984
思いきって	-10.8984
竿	-10.8984
食欲	-10.8984
東	-10.8984
(*_*)	-10.8984
フェイスタオル	-10.8984
磁石	-10.8984
秒で歯が真っ白	-10.8984
オーバー	-10.8984
.。.:*・	-10.8984
タンクトップ	-10.8984
・*:.。.	-10.8984
ペラッペラ	-10.8984
助かっています	-10.8984
気をつけてください	-10.8984
ステッチ	-10.8984
д	-10.8984
ナンバー	-10.8984
どうせ	-10.8984
こまめに	-10.8984
原料	-10.8984
恥ずかしくて	-10.8984
付近	-10.8984
サングラス	-10.8984
何の連絡もなく	-10.8984
ダイヤモンド	-10.8984
重宝してます	-10.8984
インチタブレット	-10.8984
モード	-10.8984
《	-10.8984
ヒモ	-10.8985
》	-10.8985
ささみ	-10.8985
ネーム	-10.8985
決して	-10.8985
不在	-10.8985
バンド	-10.8985
イエローゴールド	-10.8985
ガーネット	-10.8985
安かろう悪かろう	-10.8985
ピーチ	-10.8985
包丁	-10.8985
ならまだしも	-10.8985
ミックス	-10.8985
強力	-10.8986
残念な結果	-10.8986
ジム	-10.8986
(^0^)/	-10.8986
ソース	-10.8986
股上	-10.8987
年日記	-10.8987
お気に入りの	-10.8987
オフホワイト	-10.8987
エビ	-10.8987
いかにも	-10.8987
おきます	-10.8987
ピース	-10.8987
コツ	-10.8987
緩め	-10.8988
フラ	-10.8988
んでしょうね	-10.8988
まだ届いていないので	-10.8988
名入れ	-10.8988
やぶれ	-10.8988
拭く	-10.8989
思ったほど	-10.8989
送られてきました	-10.8989
年くらい前に	-10.8989
ささくれ	-10.8989
代後半	-10.8989
正直言って	-10.899
冊目	-10.899
測って	-10.899
パニエ	-10.899
のり	-10.899
植物	-10.8991
緩く	-10.8991
着れそうです	-10.8992
リピートはありません	-10.8992
昔の	-10.8992
ビス	-10.8992
人もいる	-10.8993
毛糸	-10.8993
上手に	-10.8993
お客さん	-10.8994
届いてみて	-10.8994
量が少ない	-10.8995
思った以上に	-10.8995
リア	-10.8995
交換しました	-10.8996
画像通り	-10.8996
あくまでも	-10.8997
何回か	-10.8998
頭皮	-10.8998
▁1,&#1	-10.8998
チャー	-10.8998
日常	-10.8999
総合的に	-10.8999
マジ	-10.9
とくに	-10.9
大変満足しています	-10.9001
キーケース	-10.9002
スマホケース	-10.9004
片側	-10.9004
紺色	-10.9005
さっと	-10.9006
だか	-10.9006
のかと	-10.9007
だと感じました	-10.9008
1/3	-10.9008
地味	-10.9008
買い足し	-10.9009
が薄い	-10.9009
日かかりました	-10.9009
▁1,,11/30	-10.901
満足できる	-10.901
とゆう	-10.901
不安でした	-10.9012
▁1,"1,000	-10.9012
箱を開けて	-10.9012
スキニー	-10.9012
出来るの	-10.9012
残っている	-10.9014
ブカブカでした	-10.9015
期待してましたが	-10.9015
となると	-10.9015
見事に	-10.9018
不愉快です	-10.902
申し分ない	-10.9021
伸ばして	-10.9021
台所	-10.9023
♪♪♪	-10.9024
取り替え	-10.9024
円近く	-10.9024
私だけ	-10.9024
切れない	-10.9024
使いやすいと思います	-10.9025
使用していましたが	-10.9026
と思うのですが	-10.9029
ないくらい	-10.9032
見えない	-10.9032
値段相当	-10.9033
見つけた	-10.9034
お色	-10.9036
ラッキーでした	-10.9036
目立たない	-10.9037
ひどすぎます	-10.9037
余計に	-10.9039
商品届きません	-10.904
/6	-10.904
か所	-10.904
すごく可愛いです	-10.9041
すぐ届きました	-10.9043
肌触りは	-10.9044
利用する	-10.9045
いいなぁ	-10.9045
ているのですが	-10.9046
Kg	-10.9048
月中	-10.905
するために	-10.905
購入しようと思います	-10.905
半袖	-10.9051
する予定です	-10.9055
感は	-10.9056
のワンピース	-10.9057
がまだ	-10.9058
もう一	-10.9058
と同時に	-10.9059
洗	-10.906
タイミングで	-10.906
考えています	-10.9063
かったけど	-10.9064
テープを	-10.9069
同様	-10.9071
た時	-10.9072
足元	-10.9072
私の場合は	-10.9074
とても可愛くて	-10.9075
という感じでした	-10.9075
初めて購入しました	-10.9076
書け	-10.9078
を狙って	-10.9078
タイムセールで	-10.9078
他の方のレビューに	-10.9079
に頼んで	-10.908
均で売ってそう	-10.908
〜20	-10.908
軽いので	-10.9081
浮き	-10.9083
いつでも	-10.9084
個だけ	-10.9085
個体	-10.9085
たくて購入しました	-10.9085
を受けました	-10.9087
てみましたが	-10.9087
1/2	-10.9087
ような感じで	-10.9087
のわりには	-10.9089
残念な買い物でした	-10.9089
......,	-10.9089
きん	-10.9094
飲んでいます	-10.9094
と言い	-10.9095
お得に購入できました	-10.9099
苦味	-10.9099
友達に	-10.91
注文時に	-10.9102
まだわかりませんが	-10.9104
猫の	-10.9104
ザラザラ	-10.9106
つけると	-10.9109
お値段以上の	-10.911
華奢な	-10.9113
個人	-10.9113
つめ	-10.9113
キャップは	-10.9116
▁2,10%	-10.9116
とても使いやすいです	-10.9118
22.5	-10.9118
わたしは	-10.912
してましたが	-10.9121
部分的に	-10.9123
着用して	-10.9124
とても可愛い	-10.9126
飲んだ	-10.9127
ゆで	-10.9127
▁R	-10.9129
がっかりした	-10.9129
表面は	-10.9129
追加購入	-10.9129
が大好き	-10.9129
個の	-10.913
手持ち	-10.9131
お店から	-10.9135
やすくて	-10.9135
クッションが	-10.9142
個入って	-10.9142
枚単位で	-10.9142
個以上	-10.9146
いまいちでした	-10.915
良い買い物が出来ました	-10.9152
大人の	-10.9155
(^^	-10.9157
強度が	-10.9158
になるのか	-10.916
週間後	-10.9162
ダメだ	-10.9163
数年	-10.9165
可愛いのですが	-10.9166
載せ	-10.9169
ボタンも	-10.9169
一緒	-10.917
も良いし	-10.9176
にしたので	-10.9176
上げて	-10.9177
とっても可愛いです	-10.9177
飲	-10.9178
を頼みました	-10.918
たかったので	-10.918
安定	-10.918
とても嬉しいです	-10.9181
▁1,&#11088;,	-10.9181
リアル	-10.9188
個購入しましたが	-10.9188
で買った	-10.919
息子も	-10.919
の中	-10.9191
日に購入しましたが	-10.9191
大きいし	-10.9193
色合いは	-10.9194
したけど	-10.9196
る時	-10.9201
106	-10.9204
他の店	-10.9205
来年も	-10.9207
髪質	-10.9207
の使用で	-10.9208
ことにしました	-10.9208
うえに	-10.9208
髪の	-10.921
シールが	-10.921
▁「	-10.9215
お得な	-10.9217
月半ばに	-10.922
の時期	-10.922
持ち運び	-10.9222
取られ	-10.9225
キレイな	-10.9226
になると思います	-10.9227
お値段相応	-10.9228
どうかな	-10.9229
かいました	-10.9229
を変え	-10.9229
かなと思いました	-10.9235
以外の	-10.9236
自分用に	-10.9237
お願いしましたが	-10.9239
っていた	-10.9242
くん	-10.9244
こんなこと	-10.9244
に見えない	-10.9247
も付いていて	-10.925
になったら	-10.9251
幅は	-10.9253
ケースに	-10.9253
ようになって	-10.9253
しないと思います	-10.9256
午前中	-10.9261
のために購入	-10.9264
昼間	-10.9265
たま	-10.9265
まだ届いてないです	-10.9266
後の	-10.9273
全体に	-10.9273
心配になり	-10.9273
くなく	-10.9275
円の商品	-10.9276
が多いです	-10.9276
残念なのは	-10.9277
飲んでます	-10.9278
の種類	-10.9281
男の子用	-10.9283
も欲しくなりました	-10.9285
だけでも	-10.9285
有りません	-10.9287
自体も	-10.9287
で正解でした	-10.9288
を付けて	-10.9289
されており	-10.929
枚目	-10.9291
商品と	-10.9292
が無いので	-10.9293
感じます	-10.9294
わけでもなく	-10.9295
して頂き	-10.9296
フリー	-10.9298
んじゃない	-10.9298
それなりの	-10.9303
入らず	-10.9304
使用します	-10.931
こちらを購入しましたが	-10.9311
していただき	-10.9312
ものより	-10.9315
旅行に	-10.9317
微妙でした	-10.9318
信じて	-10.9324
日くらい	-10.9326
週間経っても	-10.9331
▁11	-10.9333
くらいしか	-10.9333
も良いので	-10.9338
以前購入した	-10.9339
充電して	-10.9342
この価格は	-10.9345
きたら	-10.9348
届いてびっくり	-10.9349
を頼んで	-10.9349
が出てき	-10.935
になりましたが	-10.9351
&#10549;&#10549;	-10.9355
、、、,	-10.9357
エア	-10.9361
ことができ	-10.9362
▁1,0.5	-10.9363
事と	-10.9364
剥がれて	-10.9367
にあたり	-10.9368
以上に	-10.9369
組み	-10.937
やたら	-10.9373
ないのでしょうか	-10.9375
購入したが	-10.9375
良いかもしれません	-10.9375
長く使える	-10.9379
先が	-10.938
高いと思います	-10.9381
が良いです	-10.9384
機能も	-10.9388
ぐらいです	-10.9389
しにくい	-10.9393
様です	-10.9399
を購入する	-10.9406
するには	-10.9411
同時に購入した	-10.9413
だったため	-10.9414
220	-10.9418
しっかりした作り	-10.9419
来る	-10.9421
のお買い物	-10.9422
お買い物	-10.9425
普段使いに	-10.9425
なってしまいました	-10.9428
売ってる	-10.9429
092	-10.9429
はなさそうです	-10.9433
感謝です	-10.9436
品です	-10.9436
子供と	-10.9441
リボンが	-10.9441
ウエストは	-10.9445
203	-10.9445
おまけで	-10.9447
重さも	-10.9447
タイプを	-10.9447
これからの	-10.9448
食べたい	-10.9452
全く同じ	-10.9455
安っぽい感じ	-10.9455
してしまいます	-10.9461
タグが	-10.9462
る物	-10.9463
の物を	-10.9463
事に	-10.9465
お揃いで	-10.9466
なんでも	-10.9471
ることが	-10.9477
過ぎました	-10.9478
商品には	-10.9481
最近の	-10.9486
欲しいな	-10.9487
円でお試し	-10.95
系は	-10.9501
たいと思っています	-10.9502
は無理です	-10.9506
ポケットが	-10.9511
着ける	-10.9515
それより	-10.9516
状態が	-10.952
年は	-10.9521
毎日の	-10.9522
取れました	-10.9525
乗	-10.9529
本の	-10.953
どこにも	-10.9539
なっていて	-10.9539
わかって	-10.9539
大変満足です	-10.9541
眠れ	-10.9541
回で	-10.9541
て嬉しいです	-10.9543
通販で	-10.9554
の前に	-10.9554
取り付けて	-10.9564
-20140	-10.9565
ますけど	-10.9568
物に	-10.9568
書いてあった	-10.957
ショップの方	-10.9572
納期が	-10.9573
するまで	-10.9581
/18	-10.9581
▁2,☆10	-10.9583
らないし	-10.9584
うん	-10.9584
均にある	-10.9584
観	-10.9586
連絡がありません	-10.9586
で購入した	-10.9586
どうなってるの	-10.959
円ほど	-10.959
に使います	-10.9592
分くらい	-10.9593
甘	-10.9593
買いたいと思います	-10.9594
取り付けました	-10.96
よく見	-10.9602
166	-10.9602
サイズ購入	-10.9603
入っています	-10.9605
無理でした	-10.9607
もあるし	-10.9615
着てみ	-10.9625
使用できる	-10.963
五	-10.9631
コレで	-10.9636
154	-10.9637
気を	-10.964
選べ	-10.9642
可愛いけど	-10.9645
分も	-10.9651
年の	-10.9653
の分	-10.9654
手軽に	-10.9657
えません	-10.9657
説明書が	-10.9661
点で	-10.9665
使い続けて	-10.9666
即買い	-10.9667
で買えばよかった	-10.9667
試しに購入	-10.9668
コサージュ	-10.9669
るような感じ	-10.967
できなかった	-10.9673
度と	-10.9674
値段のわりに	-10.9674
サイトで	-10.9674
安すぎ	-10.9675
あた	-10.9679
いただきたいです	-10.9684
ハンドル	-10.9686
・・・・。	-10.9688
レビューが	-10.9688
!!!!!!!!!!!!!!!!	-10.9692
読め	-10.9694
ジー	-10.9695
利用しています	-10.9696
電話を	-10.9697
良い商品でした	-10.9698
小ぶり	-10.9698
早いので	-10.9701
82	-10.9703
同じように	-10.9705
全てが	-10.9707
しっかりしてい	-10.9707
取る	-10.971
着れない	-10.9714
他のもの	-10.9716
二枚	-10.9717
41	-10.9718
はなかなか	-10.9719
ピッタリで	-10.972
なさそうです	-10.972
のもので	-10.9722
履かせ	-10.9725
大きくなって	-10.9725
均と同じ	-10.9726
部屋で	-10.9726
10/30	-10.9726
店の	-10.9727
荷物の	-10.9729
を頼んだ	-10.9729
太め	-10.9729
どうなってるのか	-10.9729
の子	-10.9733
MS	-10.9734
インチの	-10.9734
袋が	-10.9735
書きました	-10.9742
カワイイです	-10.9744
黄緑	-10.9745
良い感じ	-10.9745
ピッタリです	-10.9748
選び	-10.975
いつもより	-10.9757
お味	-10.9758
初心者	-10.9761
もあって	-10.9761
望	-10.9761
と悩みましたが	-10.9762
痛くなり	-10.9765
配送は	-10.9771
取れる	-10.9772
かい	-10.9781
うので	-10.9783
点です	-10.9786
袖	-10.9788
ますよね	-10.979
キラキラして	-10.9797
めちゃ	-10.98
香りも	-10.9802
を見	-10.9805
る方は	-10.9808
長さも	-10.9808
布団の	-10.9809
ワンサイズ上	-10.9809
たとき	-10.9813
やすいし	-10.9815
返し	-10.9815
売られている	-10.9815
楽しみにしていたので	-10.9817
育	-10.9817
日目に	-10.9818
だったんですね	-10.9822
枚だけ	-10.9823
に戻り	-10.9824
うか	-10.9824
安心しました	-10.9828
体に	-10.9828
円送料無料	-10.9828
ーい	-10.9832
小柄な	-10.9838
もらおう	-10.9838
会社の	-10.9838
干し	-10.9839
状の	-10.9846
いただいて	-10.9847
トマト	-10.9847
この程度	-10.9847
いる方	-10.9851
値段の割には	-10.9852
セット購入	-10.9854
とり	-10.9856
付かない	-10.9857
ショップの対応	-10.9858
かと思いますが	-10.9864
簡単でした	-10.9865
おもいます	-10.9867
までに	-10.9871
期待した	-10.9872
面に	-10.9875
下さ	-10.9876
意味ない	-10.988
粉が	-10.9881
132	-10.9884
かなりの	-10.9885
加	-10.9889
と思えば	-10.9891
を考え	-10.9894
なのでしょう	-10.9894
破れ	-10.9895
使えるかな	-10.9897
裾は	-10.9903
横幅	-10.9904
誕生日プレゼントに	-10.9908
佐川	-10.9908
ないのが	-10.9909
▁12	-10.991
円で購入でき	-10.9911
ってきて	-10.9911
66	-10.9917
小さ目	-10.9918
ため購入しました	-10.9923
一枚で	-10.9923
る時に	-10.9924
気持ち悪い	-10.9927
派手	-10.9929
品物も	-10.9933
に届き	-10.9934
装着して	-10.9935
と思いきや	-10.9937
▁2,,104	-10.9938
の箱	-10.994
にかけ	-10.9942
メールで問い合わせ	-10.9944
ベルトの	-10.9949
対応も早く	-10.9954
ので問題ないです	-10.9954
質も	-10.9955
は絶対	-10.9956
くれれば	-10.9958
はすごく	-10.9968
子どもが	-10.9974
でも十分	-10.998
しかなく	-10.998
ニー	-10.9981
重たい	-10.9981
問題は	-10.9985
おまけが	-10.9985
高い買い物でした	-10.9986
直しました	-10.999
造り	-10.9994
に連絡	-10.9997
文字が	-10.9999
ております	-11
の部分に	-11.0001
雑に	-11.0002
こちらを購入してみました	-11.0006
11/12	-11.0007
困って	-11.0007
本は	-11.0008
11/7	-11.0008
ホワイトの	-11.0011
013	-11.0021
ただけ	-11.0023
とメール	-11.0029
お願いしたのですが	-11.003
のリボン	-11.0036
しているので	-11.0037
方も	-11.0039
で買うより	-11.0039
,"100	-11.0042
着る	-11.0043
怪しい	-11.0043
裾が	-11.0045
しすぎ	-11.0046
翌朝	-11.0054
金属アレルギー	-11.0056
0.4	-11.0057
可愛さ	-11.0059
な商品です	-11.006
飲み続け	-11.0062
はあると思います	-11.0062
購入できました	-11.0065
付けました	-11.0068
高校生の	-11.0069
薄いので	-11.0073
荷物が	-11.0073
出来ます	-11.0074
の話	-11.0077
斜めに	-11.0081
調理	-11.0081
二回	-11.0084
レンジ	-11.0087
梱包は	-11.0087
ふくらはぎ	-11.0088
・・・・,	-11.0092
当初	-11.0094
見栄え	-11.0096
毛玉が	-11.0097
丁寧で	-11.0099
改善され	-11.0101
だけを	-11.0106
と一緒	-11.0111
しようと思います	-11.0112
書いた	-11.0115
ったのですが	-11.0117
だと思うので	-11.0119
するべき	-11.0121
そうだし	-11.0121
つけました	-11.0123
用意し	-11.0128
がありましたが	-11.013
いかな	-11.0131
(^^;	-11.0134
さい	-11.0139
てびっくり	-11.0145
を作って	-11.0146
メールの	-11.0148
月半ば	-11.0153
必要ない	-11.0154
?!,	-11.0155
ょ	-11.0156
つきません	-11.0156
使っていましたが	-11.0156
がり	-11.0164
一匹	-11.0164
酷	-11.0166
と記載して	-11.0172
娘用に	-11.0172
83	-11.0172
プレゼントしました	-11.0172
レザー	-11.0173
倍でお得	-11.0174
でとても	-11.0175
引	-11.0176
,0.1	-11.0178
見えません	-11.0178
商品自体	-11.018
▁M	-11.0185
,10/15	-11.0185
気持ちになりました	-11.0186
驚き	-11.0189
にプレゼント	-11.0191
元気な	-11.0193
もらう	-11.0193
つなぎ	-11.0194
やすそう	-11.0198
はしっかり	-11.0198
届いてません	-11.0199
撮影	-11.0202
歳の子	-11.0202
面倒です	-11.0207
可能	-11.0208
するのも	-11.0209
受け付け	-11.0211
ではないかと	-11.0211
増えて	-11.0215
お知らせ	-11.0218
ケースと	-11.0218
良さ	-11.0219
,1/10	-11.0219
られました	-11.0221
手の	-11.0223
レビューします	-11.0225
3.5	-11.0226
手続き	-11.0229
味見	-11.0229
なくなったら	-11.023
▁注文	-11.023
ものではありません	-11.0233
保	-11.0233
収	-11.0233
組み立ては	-11.0235
にく	-11.0238
嫌な	-11.024
あったのですが	-11.024
長かった	-11.024
ったこと	-11.0244
写真と	-11.0244
跡	-11.0247
という事で	-11.0248
届かなかった	-11.0249
ハリ	-11.0251
紺	-11.0252
が届いた	-11.0253
ルーム	-11.0253
無事に	-11.0256
なかったけど	-11.0257
みたいなもの	-11.0257
チープ	-11.0258
形状が	-11.0259
でも大丈夫	-11.026
挑戦	-11.026
無しで	-11.0264
あわせ	-11.0265
していただいた	-11.0266
家族の	-11.0268
かったり	-11.0269
なきゃ	-11.027
のようですが	-11.027
易	-11.0272
でこのお値段は	-11.0273
よくわかりません	-11.0273
代金	-11.0274
汚く	-11.0274
ニオイ	-11.0275
黄	-11.0275
下がって	-11.0276
届いたのですが	-11.0276
がついていて	-11.0276
キスカ	-11.0277
に思います	-11.0279
伸びる	-11.028
ケースが	-11.0281
めんどくさい	-11.0282
しめ	-11.0282
が欲しく	-11.0282
に向けて	-11.0285
)」	-11.0289
何回	-11.029
-20150	-11.0295
!?,	-11.0299
を確認して	-11.03
肌色	-11.0303
ギフト	-11.0304
と同等	-11.0306
マチ	-11.0307
はがれ	-11.0309
の一言	-11.0311
使いやすさ	-11.0314
また購入したいと思います	-11.0315
リビングの	-11.0315
バッチリ	-11.0318
減り	-11.0319
迅速な対応	-11.0319
けます	-11.032
くっつき	-11.032
ブラックを購入しました	-11.0321
サイズアップ	-11.0322
が良かった	-11.0323
だからと	-11.0323
この品質	-11.0325
広く	-11.0325
測	-11.033
接続	-11.0333
低価格	-11.0336
だからか	-11.0337
られている	-11.0337
可愛かったので	-11.0339
寄	-11.0339
の状態で	-11.034
ドラッグストア	-11.0341
穴の	-11.0342
した時	-11.0345
ピンクは	-11.0346
を飲んで	-11.0347
固くて	-11.0347
もうひとつ	-11.0348
集	-11.0348
と言うより	-11.0349
の方が良かった	-11.0351
していませんが	-11.0351
1/20	-11.0353
外す	-11.0354
爪が	-11.0358
お菓子	-11.0358
図	-11.036
その間	-11.0362
で売っている	-11.0363
キツい	-11.0366
スリム	-11.0367
激しい	-11.0367
デパート	-11.037
編	-11.037
いいいいいいいいいいいいいいい	-11.0371
温か	-11.0371
また買います	-11.0376
以前の問題	-11.0378
ブル	-11.0378
▽`)	-11.0379
シンプルなデザイン	-11.038
になったの	-11.038
であろう	-11.038
丁寧な対応	-11.0384
,0.5	-11.0386
満	-11.0386
足は	-11.0386
不明	-11.0388
某	-11.0388
だと思うのですが	-11.039
処	-11.0391
円以上で送料無料	-11.0392
期間限定	-11.0393
根元	-11.0394
使いやすかったです	-11.0395
消化	-11.0395
にはなりません	-11.0395
湯	-11.0395
敏感肌	-11.0395
依頼	-11.0395
なくなったので	-11.0397
だったと思います	-11.0397
失礼	-11.0398
皆	-11.0398
購入できる	-11.0398
中古	-11.0399
∀	-11.04
つぶれ	-11.04
10/5	-11.0401
材	-11.0402
のみで	-11.0403
コチラ	-11.0403
誠意	-11.0403
処分	-11.0403
円ショップで売っている	-11.0404
許	-11.0404
敷き	-11.0405
知らせ	-11.0405
羽	-11.0405
あす楽	-11.0406
総	-11.0406
ハーフ	-11.0406
入っておらず	-11.0406
困りました	-11.0406
利	-11.0407
ストレート	-11.0407
連休	-11.0407
ガーゼ	-11.0407
日には	-11.0407
スワロ	-11.0407
よろしくお願い	-11.0407
農	-11.0408
豆	-11.0408
フラワー	-11.0408
オリーブ	-11.0408
滴	-11.0408
血	-11.0408
耐	-11.0408
極	-11.0409
洋	-11.0409
赤み	-11.0409
復	-11.0409
勝	-11.0409
役	-11.0409
タイトル	-11.0409
自信	-11.0409
ダメもとで	-11.0409
ヴァ	-11.041
時間も	-11.041
レギパン	-11.041
税	-11.041
にんじん	-11.041
タイガーアイ	-11.041
困難	-11.041
いつになったら	-11.041
ストーリー	-11.041
世	-11.0411
と謳っている	-11.0411
勘違い	-11.0411
保障	-11.0411
栄養	-11.0411
オーガニック	-11.0411
小銭	-11.0411
紛失	-11.0411
奥	-11.0411
振り込み	-11.0411
馴染む	-11.0411
ソーラー	-11.0411
下半身	-11.0411
兄	-11.0411
周辺	-11.0411
ネットショッピング	-11.0411
宅急便	-11.0411
添付	-11.0411
園	-11.0411
鶏	-11.0411
キャンプ	-11.0411
習	-11.0411
ムートン	-11.0411
信じられません	-11.0411
いったん	-11.0411
マニュアル	-11.0411
乗り心地	-11.0411
調味料	-11.0411
美	-11.0412
降	-11.0412
旧	-11.0412
貼り付け	-11.0412
パスタ	-11.0412
XXL	-11.0412
節	-11.0412
しっくりくる	-11.0412
ピカピカ	-11.0412
呼	-11.0412
泊	-11.0412
クルクル	-11.0412
ケア	-11.0412
有り得ない	-11.0412
補強	-11.0412
テロテロ	-11.0412
レッスン	-11.0412
ハサミ	-11.0412
原材料	-11.0412
^-^	-11.0412
°	-11.0412
ラッシュガード	-11.0412
ヨレヨレ	-11.0412
スゴく	-11.0412
チュール	-11.0412
スポーツ	-11.0412
ヒーター	-11.0412
化繊	-11.0412
ワンピ	-11.0412
気づきました	-11.0412
可能性	-11.0412
確保	-11.0412
道具	-11.0412
しっくりき	-11.0412
喉	-11.0412
蕎麦	-11.0412
類似品	-11.0412
贅沢	-11.0412
□	-11.0412
症	-11.0412
。・:*:・	-11.0412
特価	-11.0412
(+_+)	-11.0412
ゲージ	-11.0412
牛乳	-11.0412
限界	-11.0412
まともな	-11.0412
ジャム	-11.0412
飾って	-11.0412
手放せません	-11.0412
グレープフルーツ	-11.0413
公園	-11.0413
詳しく	-11.0413
体調	-11.0413
閉め	-11.0413
コンシーラー	-11.0413
格安	-11.0413
ありがたかったです	-11.0413
そういった	-11.0413
に間に合いました	-11.0413
ランクル	-11.0413
予想以上に	-11.0413
無香料	-11.0413
真っ赤	-11.0413
負	-11.0413
開発	-11.0413
GOOD	-11.0413
クローゼット	-11.0413
周年記念	-11.0413
コレクション	-11.0413
パネル	-11.0413
パワーストーン	-11.0413
珍しい	-11.0413
いつの間にか	-11.0413
七五三	-11.0413
登山	-11.0413
サッパリ	-11.0413
いくら安くても	-11.0413
もっと早く買えばよかった	-11.0413
〔	-11.0413
プリ	-11.0413
お勧めしません	-11.0413
値段を考えれば	-11.0413
〕	-11.0413
固め	-11.0413
音声	-11.0413
タンク	-11.0413
ヘナ	-11.0413
と書いてあったのに	-11.0413
申し込み	-11.0413
シワシワ	-11.0413
肌荒れ	-11.0413
驚いた	-11.0413
アクセ	-11.0414
ハイハイ	-11.0414
なんといっても	-11.0414
ワックス	-11.0414
イラスト	-11.0414
振り	-11.0414
温度	-11.0414
円前後の	-11.0414
コップ	-11.0414
コース	-11.0415
これからの時期	-11.0415
年以上使っていた	-11.0415
ナビ	-11.0415
慣れれば	-11.0415
のが楽しみです	-11.0415
素足で	-11.0415
カバン	-11.0415
羽毛	-11.0415
サビ	-11.0416
どうぞ	-11.0416
の立場	-11.0416
内部	-11.0416
軽量	-11.0416
セン	-11.0416
レビュー投稿	-11.0416
甘み	-11.0416
香水	-11.0416
痩せ型	-11.0416
食パン	-11.0416
低め	-11.0417
タイ	-11.0417
美味しいワイン	-11.0417
レン	-11.0417
うまい	-11.0418
辿り着きました	-11.0418
日で壊れました	-11.0418
ミン	-11.0419
処分しました	-11.0419
いつ届くのでしょうか	-11.0419
知らず	-11.0419
飲み物	-11.0419
分厚く	-11.0419
ワンサイズ大きめ	-11.042
っくり	-11.042
短め	-11.042
傷んで	-11.0421
軽さ	-11.0421
二重	-11.0421
は無かったです	-11.0421
ソー	-11.0421
バックル	-11.0421
下地	-11.0422
知っている	-11.0423
下の子	-11.0423
何年も	-11.0423
てっきり	-11.0423
年使った	-11.0424
動物	-11.0424
12/4	-11.0425
連絡を	-11.0425
買物	-11.0425
▁mini	-11.0426
キロの息子に	-11.0426
子機	-11.0426
大きさもちょうどよく	-11.0427
34	-11.0427
周りの	-11.0427
▁2,&#1	-11.0427
▁1,,10/5	-11.0427
送料無料だったので	-11.0427
文句無し	-11.0428
首回り	-11.0428
オススメしません	-11.0428
レビュー通り	-11.0428
敏感肌ですが	-11.0429
ゆるくて	-11.0429
どのくらい	-11.0429
商品が届くまで	-11.043
倍キャンペーン	-11.043
染み	-11.043
が多い中	-11.043
☆-1	-11.043
期間限定ポイント	-11.0431
縫製が雑	-11.0431
良い買い物をしました	-11.0432
も少なく	-11.0432
子供服	-11.0432
全く問題なく	-11.0433
外箱	-11.0433
気にならない程度	-11.0433
まだ来ない	-11.0433
袋入り	-11.0434
オシャレで	-11.0434
願い	-11.0434
日にやっと届きました	-11.0435
書体	-11.0435
かかとが	-11.0435
時代	-11.0435
WG	-11.0436
パッケージが	-11.0437
色に	-11.0437
箇所に	-11.0438
円ショップ以下	-11.0438
消耗品なので	-11.0439
悪いです	-11.0439
何故か	-11.0439
¥1000	-11.044
ジャー	-11.044
待っても	-11.0441
無難な	-11.0441
良品	-11.0441
・`)	-11.0442
しかしながら	-11.0442
またお願いします	-11.0442
昨日届きました	-11.0443
てくれた	-11.0443
ように感じました	-11.0444
だった為	-11.0445
商品到着後	-11.0445
円で購入しましたが	-11.0445
このシリーズ	-11.0445
印鑑ケース	-11.0446
おおき	-11.0446
かわらない	-11.0447
書か	-11.0448
(^^)/	-11.0448
感じられない	-11.0448
はめ	-11.0448
何も連絡が	-11.0448
裏面	-11.0449
もういらない	-11.045
かゆい	-11.045
自体が	-11.0451
MA	-11.0453
不可能	-11.0453
チャックが	-11.0453
よかったら	-11.0453
を想像していました	-11.0455
してみ	-11.0455
わんこ	-11.0455
覚悟	-11.0455
しっかりしており	-11.0455
レビューがよかったので	-11.0456
涼しい	-11.0457
使えなかった	-11.0458
だなんて	-11.0458
残った	-11.046
薄付き	-11.046
いつものサイズ	-11.0461
って書いてあった	-11.0461
-01	-11.0461
分かりやすい	-11.0463
のど	-11.0465
早く届きました	-11.0465
を取る	-11.0465
買ったんですが	-11.0466
10/8	-11.0467
届くので	-11.0467
メールが来た	-11.0467
もないのに	-11.0468
さら	-11.0468
と思って購入しましたが	-11.0468
この評価です	-11.0471
期待はずれでした	-11.0472
穴があいて	-11.0472
入れ替え	-11.0473
こず	-11.0474
回目で	-11.0475
着心地は	-11.0475
どうなっているのか	-11.0475
増やし	-11.0475
飲み始めて	-11.0477
飲みやすい	-11.0478
トップスは	-11.0478
色合いが	-11.0479
片付け	-11.0481
するも	-11.0483
おそ	-11.0483
直す	-11.0483
ありそう	-11.0483
私にとっては	-11.0484
送料分	-11.0484
27.5	-11.0485
安くても	-11.0485
メイン	-11.0486
手を	-11.0487
広い	-11.0488
には不向き	-11.0488
っとした	-11.0489
量が	-11.0489
円サプリで	-11.0489
大差	-11.0489
使いにくいです	-11.049
検索したら	-11.0491
ようでした	-11.0491
おススメです	-11.0492
それ以外は	-11.0492
効いている	-11.0493
洗っても	-11.0495
ついていた	-11.0501
履きやすい	-11.0501
産後	-11.0502
ちょっと高い	-11.0504
こんな商品	-11.0506
だろうし	-11.0507
早く届く	-11.0507
入ってました	-11.0509
ているもの	-11.051
割れました	-11.0511
...。,	-11.0511
出来そうです	-11.0512
たようで	-11.0512
粒で	-11.0514
部分と	-11.0515
ありそうな	-11.0516
が多くて	-11.0517
あら	-11.0518
迅速な対応で	-11.0519
大変気に入りました	-11.052
ドラマ	-11.0526
とても助かりました	-11.0529
渋い	-11.0534
思ってたよりも	-11.0535
主に	-11.0536
になるよう	-11.0536
ごく	-11.0536
思っていましたが	-11.0537
円玉	-11.0537
使用したら	-11.0538
リピはないかな	-11.0539
−10	-11.0539
るようなので	-11.0545
とってもかわいいです	-11.0545
やり方	-11.0546
落ち着いた色で	-11.0546
よくわかりませんが	-11.0549
紫色	-11.0551
時から	-11.0552
初めは	-11.0552
した所	-11.0553
ラン	-11.0553
ピンクを購入しました	-11.0554
不安になりました	-11.0554
届いてないので	-11.0555
と言っています	-11.0559
シンプルなので	-11.0559
単位で	-11.0561
また違う	-11.0561
なかったから	-11.0561
側に	-11.0564
安く買える	-11.0564
効果が出	-11.0564
11/6	-11.0564
されていて	-11.0564
の糸が	-11.0566
他のショップで	-11.0567
リピはない	-11.0568
イト	-11.057
倍ポイントで	-11.057
汚い	-11.0574
自分も	-11.0575
かったし	-11.0576
との連絡があり	-11.0576
巻いて	-11.0576
10/25	-11.0577
購入すること	-11.0579
分だけ	-11.0579
全然違いました	-11.0579
底が	-11.0579
だよ	-11.058
割と	-11.0583
拭き	-11.0583
のピンク	-11.0588
使いき	-11.0588
くらいの大きさ	-11.059
しようと思っています	-11.0594
待っています	-11.0597
イイです	-11.0598
最安値	-11.0598
に注文をし	-11.0601
パックを	-11.0601
ズボンは	-11.0601
と共に	-11.0602
日記	-11.0603
かっこ	-11.0605
買いませんでした	-11.0607
売っていないので	-11.0607
色白	-11.061
梱包して	-11.0611
の人は	-11.0617
を頼みましたが	-11.0619
文字の	-11.0619
つま先が	-11.0621
乗れ	-11.0625
に見える	-11.0626
屋さんで	-11.0629
ない事	-11.0632
ましょう	-11.0633
りすぎ	-11.0634
と購入しましたが	-11.0634
たつ	-11.0635
枚購入	-11.0635
背中	-11.0635
塗った	-11.0636
の予定が	-11.0637
有ります	-11.0638
当初の	-11.064
今回購入	-11.0641
オール	-11.0641
おしゃれで	-11.0645
いぃ	-11.0646
届いた商品	-11.0646
混ぜて	-11.0647
まらない	-11.0648
驚きです	-11.0649
年位	-11.0649
の電話	-11.0649
ポン	-11.065
二人	-11.0653
に見えました	-11.0653
▁2,,10000	-11.0653
肩が	-11.0654
〜!	-11.0659
月に購入して	-11.0659
別物	-11.066
とのことですが	-11.0663
良いかも	-11.0663
円なんて	-11.0664
▁2,00	-11.0666
かと思われます	-11.0666
ブラン	-11.0667
ベタ	-11.0669
でお願いしました	-11.067
も大変	-11.0671
かけても	-11.0671
渡し	-11.0675
もとても	-11.0678
母が	-11.0678
なさそうな	-11.0682
少なかった	-11.0682
賞味期限が	-11.0683
ラスト	-11.0683
袖も	-11.0684
かわいいけど	-11.0687
なので星	-11.069
,0.4	-11.0694
あるんだ	-11.0694
オーダー	-11.0695
まっ	-11.0695
そちらは	-11.0696
の注文で	-11.0698
とあまり変わらない	-11.0698
余計	-11.0699
雑な	-11.0702
かないと	-11.0702
夏の	-11.0702
円だった	-11.0704
意味が	-11.0705
ダメですね	-11.0705
ただただ	-11.0712
▁1000	-11.0712
の文字	-11.0713
94	-11.0714
楽天から	-11.0716
おう	-11.0718
存在感があり	-11.072
待たされ	-11.0721
11/10	-11.0726
充電が	-11.0727
たのが	-11.0732
としたら	-11.0732
静か	-11.0732
期待してます	-11.0737
178	-11.0737
隠し	-11.0738
付いています	-11.0738
と思っていました	-11.074
取れません	-11.074
たまりません	-11.074
は難しいですね	-11.0741
と同様	-11.0744
られた	-11.075
干す	-11.0752
いい買い物でした	-11.0752
感があり	-11.0753
気がし	-11.0757
サイズと	-11.0763
長年	-11.0763
ないなら	-11.0763
その点	-11.0764
この評価	-11.0764
ベルトを	-11.0764
付いていて	-11.0766
が無ければ	-11.0769
以前のもの	-11.077
アン	-11.0773
ひとつは	-11.0773
価値あり	-11.0773
到着し	-11.0776
歯が	-11.0777
届き次第	-11.078
どうしようか	-11.0781
ウエストも	-11.0785
しませんが	-11.0786
こともなく	-11.0789
買う予定	-11.0792
その後も	-11.0793
の先端	-11.08
味に	-11.0801
が入っているので	-11.0804
週間くらい	-11.0808
というので	-11.0813
可愛いデザイン	-11.0813
配送され	-11.0816
208	-11.0817
何個	-11.0817
▁2,★10	-11.0818
ソファーの	-11.0819
それまで	-11.0821
使用してみ	-11.0821
ボリュームが	-11.0822
傷が	-11.0827
値段が安いので	-11.0829
しか入っていない	-11.083
作りもしっかりして	-11.0832
量で	-11.0833
多いです	-11.0835
月上旬の	-11.0836
読	-11.0836
のだろうか	-11.0836
日まで	-11.0838
小さいですが	-11.0842
口の	-11.0842
へん	-11.0843
擦	-11.0844
いただいた	-11.0845
気に入ってくれました	-11.0847
の問題	-11.0854
型の	-11.0855
数日後	-11.0858
吸	-11.0862
その上	-11.0863
手触りも	-11.0864
(^^;)	-11.0867
・・・。,	-11.0872
▁;	-11.0873
のものより	-11.089
170	-11.0893
使用すると	-11.0895
あて	-11.0897
ーム	-11.0897
程の	-11.09
種類も	-11.09
分からなかった	-11.09
シュガー	-11.0903
驚いて	-11.0904
ご注文	-11.0905
▁1,,10/3	-11.0909
ありえません	-11.0912
出来た	-11.0917
て助かりました	-11.0917
お店に問い合わせ	-11.0917
暖かさ	-11.0917
他の商品は	-11.0918
この大きさ	-11.0921
今年の	-11.0921
が残念でした	-11.0922
履いてみた	-11.0925
この商品を	-11.093
帽子	-11.0931
....	-11.094
おお	-11.0941
つつ	-11.0944
状	-11.0945
実際には	-11.0946
出せ	-11.0946
袋で	-11.0946
なくなります	-11.0948
その辺	-11.0951
慣れ	-11.0954
☆5	-11.0956
もらった	-11.0961
待ってます	-11.0964
倍くらい	-11.097
丁寧でした	-11.097
に出会いました	-11.097
ちょっとがっかり	-11.0971
違う物	-11.0971
していたのに	-11.0971
、、、。	-11.0971
今現在	-11.0974
少し残念	-11.0979
と感じた	-11.0979
他の物	-11.0979
1/15	-11.0981
試した	-11.0986
たびに	-11.0988
個購入	-11.0989
112	-11.0991
自宅	-11.0991
ショップです	-11.1003
動か	-11.1004
はいつ	-11.1006
0,5	-11.101
透明な	-11.101
っぽくて	-11.1011
用途	-11.1014
ベルトが	-11.1016
場所に	-11.1019
れないので	-11.1022
▁1,01	-11.1024
も同様	-11.1025
調べて	-11.1026
何でも	-11.1026
パックで	-11.1029
をしなければ	-11.1033
の商品が	-11.1033
お洗濯	-11.1041
クオリティは	-11.1044
キツ	-11.1044
▁2,04	-11.1047
お試しに	-11.1048
くなってきたので	-11.1048
とってもいい	-11.1051
着物	-11.1053
▁ちょっと	-11.1058
変わらず	-11.1059
をする	-11.1062
にしよう	-11.1067
とします	-11.1073
最悪な	-11.1076
大きさが	-11.1081
という感じで	-11.1084
回以上	-11.1085
こういうの	-11.109
気にせず	-11.109
豪華	-11.1094
ガラスの	-11.1097
感じて	-11.1102
けば	-11.1105
円だから仕方ない	-11.1105
顔も	-11.1114
安価	-11.1114
1.1	-11.112
悪くないです	-11.1121
袖の	-11.1122
楽しみにして	-11.1126
の質	-11.1128
まとめ	-11.1128
時間がかかる	-11.1129
注文しません	-11.1132
インクが	-11.1133
かぶれ	-11.1136
円でしたが	-11.1139
気持ちいい	-11.1139
ショップは	-11.1141
っぽいです	-11.1142
,10%	-11.1142
センチですが	-11.1144
わずか	-11.1145
づらく	-11.1146
においは	-11.1148
入りの	-11.1152
パックは	-11.1155
明記して	-11.1155
てみたら	-11.1156
のでしょうが	-11.1156
っております	-11.1163
ヶ月になる娘	-11.1163
縫い付け	-11.1164
420	-11.1165
下は	-11.1168
このセット	-11.1169
入れる	-11.1171
値段を考えると	-11.1172
おりますが	-11.1176
ふら	-11.1182
注文したが	-11.1183
えない	-11.1184
利用し	-11.1186
腕が	-11.1187
ちょっとだけ	-11.1187
ma	-11.1188
いいかんじです	-11.1192
急ぎで	-11.1196
代わり	-11.1197
づつ	-11.1198
開けた	-11.12
!!!!!!!!!!!!!!	-11.1206
れそうです	-11.1207
すごいです	-11.121
ってしまった	-11.1213
ようかと	-11.1215
.....	-11.1219
梱包が	-11.1224
含めて	-11.1233
、14	-11.1237
試してみた	-11.1243
至	-11.1243
より少し	-11.1246
パンツの	-11.1248
年以上前	-11.1249
使うことはない	-11.1254
苦し	-11.1256
ダメです	-11.1267
スカートの	-11.1273
商品はとても	-11.1274
んじゃないか	-11.1274
-2,	-11.1274
愛用してます	-11.1275
購入したんですが	-11.1277
無駄に	-11.1279
はきちんと	-11.1285
ユ	-11.1286
日以内に	-11.1287
折	-11.1294
▁2,,106	-11.1294
チリ	-11.1297
さんは	-11.1297
お友達	-11.13
傷も	-11.1301
も無い	-11.1303
本体に	-11.1306
この品	-11.131
連絡があり	-11.1312
来てい	-11.132
のなら	-11.1321
似て	-11.1323
美味しいと	-11.1324
相談	-11.1326
シワが	-11.1327
こんなもんか	-11.1332
ンと	-11.1333
339	-11.1339
なこと	-11.1342
を愛用しています	-11.1344
とてもよく	-11.1348
確認を	-11.1354
足らず	-11.1357
年程	-11.1357
友達にも	-11.1362
を購入してみました	-11.1363
タグに	-11.1363
かた	-11.1367
入荷の	-11.1373
と聞き	-11.1373
足りない	-11.138
できるように	-11.1383
乾燥し	-11.1384
×3	-11.1386
色が違い	-11.1387
ヘタ	-11.1388
にしたのに	-11.1388
ができました	-11.1388
日前	-11.1393
千	-11.1395
▁2,,0.1	-11.1396
るから	-11.1397
デザインは可愛い	-11.1404
いい商品	-11.1407
楽しみにしていただけに	-11.1408
足り	-11.1411
が遅く	-11.1417
買ってみましたが	-11.1417
違いました	-11.1418
イド	-11.1421
の留め具	-11.1422
▁1,07	-11.1424
おもちゃみたい	-11.1424
で迷いましたが	-11.1425
だらけで	-11.1426
お安く購入できて	-11.1427
になっていた	-11.1428
顔に	-11.1428
裏地が	-11.1429
はじめての	-11.1429
込んだ	-11.1429
連絡なし	-11.1434
商品ですが	-11.1437
大丈夫かな	-11.1438
の案内	-11.1443
する前に	-11.1443
作る	-11.145
を使うこと	-11.1459
よりかなり	-11.1461
られず	-11.1463
になってしまう	-11.1464
同じサイズ	-11.1465
11/9	-11.1466
よかったけど	-11.1467
が好み	-11.1468
値上がり	-11.1477
上は	-11.1478
買おうか	-11.1478
ついてました	-11.1478
とのメール	-11.1479
送料を	-11.1482
残りは	-11.1482
これじゃ	-11.1483
試せ	-11.1483
身長が	-11.1486
止	-11.1486
商品レビュー	-11.1488
が好き	-11.149
所で	-11.1497
メールもありません	-11.1498
きっかけ	-11.1502
を買えばよかった	-11.1503
取って	-11.1512
日程度	-11.1513
10/24	-11.1516
ひどすぎる	-11.1517
着れません	-11.1518
営業	-11.1519
へのプレゼント	-11.1525
だったんですが	-11.1526
星を	-11.1529
の間に	-11.153
も購入して	-11.1532
あるもの	-11.1536
▁でも	-11.1537
が入っていない	-11.1538
で買うこと	-11.1539
考えると	-11.1542
10/6	-11.1544
かなあ	-11.1545
で使ってます	-11.1546
が出た	-11.1546
格好	-11.1546
下で	-11.1547
問い合わせたら	-11.1548
買っています	-11.1548
取っ手が	-11.1553
メーカーに	-11.1553
あげました	-11.1554
洗濯を	-11.1554
使用できます	-11.1555
ジョ	-11.1556
高級感があり	-11.1557
さんが	-11.1559
要望	-11.1561
買うべき	-11.1563
到着していません	-11.1565
ピチピチ	-11.157
均の物	-11.1573
寒	-11.1574
つ星	-11.1576
まれ	-11.1578
な商品	-11.1582
分に	-11.1583
・・・」	-11.1588
個しか	-11.1589
あるし	-11.159
一人	-11.1593
中央	-11.1594
ここでは	-11.1594
カバーの	-11.1594
考えたら	-11.1596
細身で	-11.1599
今時	-11.1599
ゴロゴロ	-11.1601
トラ	-11.1601
るようです	-11.1602
らなかったので	-11.1603
分かる	-11.1606
た後	-11.1607
マル	-11.1608
ごとに	-11.1613
を履いて	-11.1615
適当	-11.1615
グリーンの	-11.1616
にひかれて	-11.1616
いい感じでした	-11.1619
とも思いましたが	-11.1622
商品の到着	-11.1623
無しです	-11.1623
のですかね	-11.1628
で注文し	-11.1628
136	-11.1631
と思ってましたが	-11.1631
切れてしまいました	-11.1635
具合が	-11.1643
これはいい	-11.1646
というわけで	-11.1654
先端	-11.1654
ロス	-11.1655
を探していたので	-11.1656
11/30	-11.1658
ねー	-11.1665
リピしてます	-11.1666
まい	-11.1666
月初めに	-11.1666
","	-11.1666
レス	-11.1667
価格も安く	-11.1669
っているので	-11.1669
難し	-11.167
126	-11.1672
綺麗な色	-11.1672
ょう	-11.1677
性も	-11.1678
く感じ	-11.1678
から出た	-11.1681
中には	-11.1682
104	-11.1683
ためか	-11.1684
を注文した	-11.1684
に到着しました	-11.1685
で助かりました	-11.1691
て欲しい	-11.1697
終わって	-11.1697
あるなら	-11.1698
使用していて	-11.1702
現物	-11.1702
AM	-11.1704
頂いて	-11.171
遅	-11.171
スマホの	-11.1713
ファスナーの	-11.1713
用と	-11.1714
歩くと	-11.1718
水合わせ	-11.1721
だまされた	-11.1722
福袋なので	-11.1723
ほか	-11.1725
そこそこ	-11.1728
発送日	-11.1729
に驚きました	-11.1733
送料は	-11.1733
室	-11.1734
調子	-11.1734
を待って	-11.1737
ページに	-11.1739
適	-11.174
二度目	-11.1745
----------	-11.1745
11/23	-11.1746
発送メールが	-11.1751
値段なり	-11.1753
しまうと	-11.1755
注文したら	-11.1756
円って	-11.1758
フワフワ	-11.1758
情報を	-11.1759
渡	-11.1761
に惹かれました	-11.1761
良かったけど	-11.1762
変わる	-11.1763
というところ	-11.1764
はまり	-11.1764
多め	-11.1765
にくくて	-11.1766
ミリは	-11.1766
だとおもいます	-11.1768
書かれている	-11.1768
円で買え	-11.1772
電話も	-11.1772
削	-11.1773
のある商品	-11.1774
があるのか	-11.1775
で充分	-11.1775
高価な	-11.1777
いいのかな	-11.1779
ヘビロテ	-11.178
プレゼントとして	-11.178
書い	-11.1781
返品して	-11.1783
気になった	-11.1785
二度	-11.1787
こちらから問い合わせ	-11.1791
続き	-11.1792
お値段なり	-11.1792
メモ	-11.1793
はダメ	-11.1793
倒	-11.1794
物が届きました	-11.1796
付け替え	-11.1801
ァ	-11.1802
短いです	-11.1802
こちらで購入した	-11.1805
商品発送	-11.1805
円弱	-11.1807
よー	-11.1811
337	-11.1813
酸味が	-11.1814
を超える	-11.1814
ふた	-11.1817
いと思いました	-11.1817
のかと思いました	-11.1818
ェ	-11.1821
皮の	-11.183
プレゼント用	-11.1831
まだ届いてない	-11.1831
支払い	-11.1833
をお勧めします	-11.1834
日になっても	-11.1837
となって	-11.1841
セット購入しました	-11.1842
期待はして	-11.1844
10/17	-11.1846
迷ったのですが	-11.185
使ってましたが	-11.185
他店より	-11.1851
名が	-11.1852
結婚式に	-11.1853
ということなので	-11.1855
も良いです	-11.1855
付属	-11.186
やられた	-11.186
ご注意	-11.1861
をいれ	-11.1862
はいて	-11.1864
当たり外れ	-11.1865
食べてくれ	-11.1867
まっている	-11.1867
均一の	-11.1868
&#10549;,	-11.187
まー	-11.1872
危険	-11.1872
買おうと思います	-11.1873
より安い	-11.1873
探す	-11.1874
に使える	-11.1874
書いてありましたが	-11.1874
別のショップで	-11.1876
るだけで	-11.1879
た事	-11.1881
てますが	-11.1881
日に注文したのに	-11.1882
対象	-11.1882
バス	-11.1882
送料無料の	-11.1886
には見えません	-11.1886
をつける	-11.1886
異	-11.1889
物足りない	-11.1889
重宝	-11.1891
々と	-11.1893
るといいな	-11.1894
娘には	-11.1895
とても良い	-11.1896
リングの	-11.1898
色々と	-11.1899
ヶ月の息子	-11.1899
に買い替え	-11.1901
していると	-11.1902
ウチ	-11.191
ッカー	-11.1911
の返答	-11.1913
刺繍	-11.1918
だぶ	-11.1924
たくさん入って	-11.1927
ーす	-11.1928
商品ページ	-11.1933
少し小さめ	-11.1934
周りに	-11.1935
っぱ	-11.1936
をするので	-11.1938
相性	-11.1939
ああ	-11.1939
参考までに	-11.1939
表現	-11.194
印象を受け	-11.194
したまま	-11.194
ことが多い	-11.1945
10/1	-11.1945
を行い	-11.1946
割には	-11.1946
日たって	-11.1946
どちら	-11.1947
大き過ぎ	-11.1948
とても良く	-11.1948
かも知れませんが	-11.1949
を信じ	-11.1951
れませんでした	-11.1953
ポンプ	-11.1954
の感想です	-11.1955
誇大広告	-11.1958
あるような	-11.1962
購入したら	-11.1966
履けて	-11.1966
クーポンが	-11.1967
午前	-11.1969
ヒビ	-11.1971
年以上前の	-11.1974
自身	-11.1975
最後に	-11.1976
怖くて	-11.1976
ほどではありません	-11.1977
ではないのですが	-11.1983
購入すれば	-11.1983
原	-11.1983
88	-11.1983
のところに	-11.1983
買って良かった	-11.1984
モデルさん	-11.1986
無くなったら	-11.1986
噛んで	-11.1988
155	-11.1989
ニキビ	-11.1992
この形	-11.1992
のものに	-11.1993
「10	-11.1994
芯が	-11.1994
してもらえ	-11.1994
状態です	-11.1996
券	-11.1997
持っていた	-11.1997
煮	-11.1998
向いて	-11.1999
本購入	-11.2
は大変	-11.2001
秋冬	-11.2001
計量	-11.2002
事で	-11.2004
お得ですね	-11.2005
ひっかけ	-11.2005
少なく	-11.2006
円台で	-11.2007
然	-11.2009
円か	-11.2009
メールが来て	-11.2011
期待はずれ	-11.2012
すし	-11.2013
▁T	-11.2013
泣き寝入り	-11.2015
、、、,10	-11.2016
Z	-11.2018
一点	-11.2021
失	-11.2023
その時は	-11.2025
繰り返し	-11.2026
ジッパー	-11.2027
につられ	-11.2028
均にありそう	-11.2028
お得で	-11.2028
ウィッグ	-11.2029
ハン	-11.203
スペースが	-11.2031
履いてい	-11.2031
物の	-11.2033
音沙汰	-11.2033
受注	-11.2034
日に購入し	-11.2035
成	-11.2036
艶	-11.2037
キッチンに	-11.2038
niPhone	-11.2038
も問題ない	-11.2038
175	-11.2039
倍だから	-11.2039
封筒	-11.204
口の中	-11.204
がなくなって	-11.204
コーティング	-11.2042
初回	-11.2042
お安く買え	-11.2042
6.5	-11.2043
動く	-11.2046
^_^;	-11.2047
さないと	-11.2047
銀	-11.2048
の差	-11.2048
持っていて	-11.2048
心地	-11.2049
がきました	-11.2051
今迄	-11.2051
ているうちに	-11.2052
供	-11.2054
たべ	-11.2055
るんだ	-11.2055
きたのは	-11.2056
しかた	-11.2057
試してみました	-11.2057
アクセント	-11.2058
コーナー	-11.2059
頑丈	-11.2059
スジ	-11.2059
手頃	-11.2059
パステル	-11.2059
わかりやすく	-11.206
開けてみて	-11.2061
転	-11.2061
十	-11.2061
すごくいいです	-11.2061
みえます	-11.2062
浴衣	-11.2062
枯れ	-11.2062
ポッキリ	-11.2062
するなら	-11.2063
センチくらい	-11.2063
やわらかく	-11.2063
対	-11.2064
くるぶし	-11.2064
クオカード	-11.2064
の変化	-11.2064
振	-11.2064
箱に入って	-11.2065
醤油	-11.2066
ウニ	-11.2066
学	-11.2066
スクエア	-11.2067
散	-11.2067
フォ	-11.2068
普段使いには	-11.2068
をかけ	-11.2069
快	-11.207
造	-11.207
帰ってき	-11.207
マグ	-11.207
加減	-11.2071
息	-11.2071
気に入ったので	-11.2071
韓国	-11.2071
ショート	-11.2071
浴	-11.2072
刻み	-11.2072
ほんの少し	-11.2072
問合せ	-11.2072
第	-11.2073
だったので購入してみました	-11.2073
混	-11.2074
接	-11.2074
パイル	-11.2074
理	-11.2074
問	-11.2074
及び	-11.2074
しかなかったので	-11.2074
どー	-11.2074
兼	-11.2074
美容室	-11.2074
合成	-11.2075
ターコイズ	-11.2075
断	-11.2075
ポリウレタン	-11.2075
版	-11.2075
両	-11.2075
お味噌	-11.2075
粋	-11.2076
学生	-11.2076
筒	-11.2076
正規の	-11.2076
持たない	-11.2076
精米	-11.2076
謳	-11.2076
再販	-11.2076
羽織	-11.2076
ボトム	-11.2076
パターン	-11.2076
フレア	-11.2076
リサイクル	-11.2076
寸法	-11.2077
ダイニング	-11.2077
癖	-11.2077
盤	-11.2077
妊婦	-11.2077
蛍光	-11.2077
桐	-11.2077
発芽	-11.2077
今だに	-11.2077
授乳	-11.2077
未着	-11.2077
ドキドキ	-11.2077
視認性	-11.2077
裂け	-11.2077
遊べ	-11.2077
ベル	-11.2077
注文が殺到	-11.2078
丼	-11.2078
追	-11.2078
z	-11.2078
納豆	-11.2078
評	-11.2078
にもよる	-11.2078
を迎え	-11.2078
一向に	-11.2078
巾	-11.2078
お洒落	-11.2078
レタス	-11.2078
盛り	-11.2078
待たせ	-11.2078
勝ち	-11.2078
縮んで	-11.2078
ロット	-11.2078
時期が	-11.2078
4〜5	-11.2078
鳥	-11.2078
絶	-11.2078
結婚	-11.2078
明るかった	-11.2078
スタイ	-11.2078
ダボダボ	-11.2078
25.5	-11.2078
ジーンズ	-11.2078
フォルツァ	-11.2078
触り心地	-11.2078
ブラウス	-11.2078
亜	-11.2078
度と買いません	-11.2078
描	-11.2078
本来の	-11.2078
こりゃ	-11.2078
むくみ	-11.2078
拡大	-11.2078
層	-11.2078
モコモコ	-11.2078
株	-11.2078
すっぽり	-11.2078
焼いて	-11.2078
良心的	-11.2078
記憶	-11.2078
>_<	-11.2078
に対する	-11.2078
べたつき	-11.2078
どっち	-11.2078
にきび	-11.2078
ガリガリ	-11.2078
ラーメン	-11.2078
合皮	-11.2078
みたいな感じ	-11.2078
垂れ	-11.2078
砕け	-11.2078
関東	-11.2078
こういった	-11.2078
仕上がって	-11.2078
退	-11.2078
ぐちゃぐちゃ	-11.2079
害	-11.2079
気をつけて下さい	-11.2079
悔しい	-11.2079
ラピス	-11.2079
SIM	-11.2079
ふわっと	-11.2079
勿体ない	-11.2079
月後半に	-11.2079
機械	-11.2079
トレンカ	-11.2079
二の腕	-11.2079
全滅	-11.2079
おためし	-11.2079
外反母趾	-11.2079
良しとします	-11.2079
コーディネート	-11.2079
シャチハタ	-11.2079
ヾ	-11.2079
クローバー	-11.2079
グランドアクシス	-11.2079
勢いで	-11.2079
おむつ	-11.2079
嵐	-11.2079
別途	-11.2079
サプライズ	-11.2079
フカフカ	-11.2079
路	-11.2079
グッズ	-11.2079
欲を言えば	-11.2079
■	-11.2079
錠	-11.2079
推	-11.2079
点検	-11.2079
煙	-11.2079
&#9836;	-11.2079
化学	-11.2079
新たな	-11.2079
胃	-11.2079
せいぜい	-11.2079
科	-11.2079
ビキニ	-11.2079
上半身	-11.2079
離乳食	-11.2079
カタログ	-11.2079
ホームベーカリー	-11.2079
茎	-11.2079
かろうじて	-11.2079
ユルユルで	-11.2079
デビュー	-11.2079
プレーン	-11.2079
⌒	-11.2079
くしゅくしゅ	-11.2079
じゃがいも	-11.2079
ゞ	-11.2079
往復	-11.2079
雑誌	-11.2079
メンバー	-11.2079
&#8265;	-11.2079
(°_°)	-11.2079
カナやん	-11.2079
血圧	-11.2079
いつになったら届くのか	-11.2079
&#10049;	-11.2079
出来栄え	-11.2079
▁lo	-11.2079
〇	-11.2079
ケープ	-11.2079
両親	-11.2079
初期不良	-11.2079
(__)	-11.2079
ソケット	-11.2079
枝	-11.2079
裸足で	-11.2079
引き出し	-11.2079
∀`*)	-11.2079
夢中	-11.2079
手書きのメッセージ	-11.2079
(~_~;)	-11.2079
あたたかく	-11.2079
参考になれば	-11.2079
最短	-11.2079
ぺらぺら	-11.2079
サイコー	-11.2079
kcal	-11.2079
コーギー	-11.2079
野	-11.2079
チタン	-11.2079
工具	-11.2079
アセトン	-11.2079
エッジ	-11.2079
ニセモノ	-11.2079
午後	-11.2079
扉	-11.2079
研	-11.2079
ダサい	-11.2079
発送通知	-11.2079
遊ぶ	-11.2079
手配	-11.2079
今までで一番	-11.2079
臨	-11.2079
ジャージ	-11.2079
着こなし	-11.2079
カリカリ	-11.2079
電波	-11.2079
マキアージュ	-11.2079
適合	-11.2079
カーペット	-11.208
日までに	-11.208
次からは	-11.208
パイプ	-11.208
プチプラ	-11.208
六	-11.208
相変わらず	-11.208
初回限定	-11.208
冷凍庫	-11.208
スワロフスキー	-11.208
メンズ	-11.208
土台	-11.208
長期	-11.208
アニメ	-11.208
ウォーター	-11.208
君	-11.208
圧力鍋	-11.208
理解できません	-11.208
自作	-11.208
有料	-11.208
装飾	-11.208
ショコラ	-11.208
レビューを書け	-11.208
真珠	-11.208
レジャーシート	-11.208
'★,。・:*:・	-11.208
ワンデー	-11.208
重ね履き	-11.208
有名	-11.208
月に入っても	-11.208
不親切	-11.208
案外	-11.208
代物です	-11.208
ナイ	-11.208
特徴	-11.208
ゼリー	-11.208
明細	-11.208
やってみましたが	-11.208
好みの問題	-11.2081
間に合わず	-11.2081
パーカー	-11.2081
天然石	-11.2081
丸出し	-11.2081
水筒	-11.2081
年齢	-11.2081
開く	-11.2081
丸小豆	-11.2081
取り扱い	-11.2081
裏返し	-11.2081
EX	-11.2081
石油	-11.2081
も書きましたが	-11.2081
活	-11.2081
月初旬に	-11.2081
小銭入れ	-11.2081
画質	-11.2081
ハンコ	-11.2081
他の方のレビューを見て	-11.2081
円ショップで売ってる	-11.2081
カフェ	-11.2081
ブック	-11.2081
スタート	-11.2082
短時間	-11.2082
注文してから届くまで	-11.2082
カンジです	-11.2082
月上旬入荷予定	-11.2082
クセ	-11.2082
レビューが良かったので	-11.2082
チビ	-11.2082
水漏れ	-11.2082
喜んでくれて	-11.2082
業務用	-11.2082
お礼	-11.2083
伸縮性のある	-11.2083
彫り	-11.2083
月下旬入荷予定	-11.2083
有難うございました	-11.2083
履いてみて	-11.2083
夜間	-11.2083
センス	-11.2083
リール	-11.2083
フラット	-11.2083
もしかして	-11.2083
ペラ	-11.2083
円の価値もない	-11.2083
濃度	-11.2083
今の時期	-11.2083
と記載がありました	-11.2083
実用性	-11.2083
温かさ	-11.2083
ウム	-11.2083
ってどういうこと	-11.2083
真空パック	-11.2083
送られてきません	-11.2084
一杯	-11.2084
レジ	-11.2084
特別	-11.2084
対象外	-11.2084
250+	-11.2084
アート	-11.2084
▁_)	-11.2084
おすすめできません	-11.2084
出品	-11.2085
効く	-11.2085
曲がっていて	-11.2085
と思ってしまいます	-11.2085
無線	-11.2085
かわいさ	-11.2085
ボア	-11.2085
マズ	-11.2085
履けそうです	-11.2085
コスト	-11.2085
満点	-11.2085
と書いてあるのに	-11.2086
平均	-11.2086
まともに	-11.2086
何処	-11.2086
っぽさ	-11.2086
アドレス	-11.2086
マメ	-11.2086
月上旬発送予定	-11.2086
に貼る	-11.2087
ペットボトル	-11.2087
その日から	-11.2087
どうなってるのでしょうか	-11.2087
そば	-11.2087
送られてきたのは	-11.2087
期待外れ	-11.2087
画像のように	-11.2087
まだ使っていませんが	-11.2088
手違いで	-11.2088
数字	-11.2088
ケチって	-11.2088
モリ	-11.2088
の意味がない	-11.2088
探してました	-11.2088
こちらを見つけて	-11.2088
星ひとつ	-11.2089
とあわせて	-11.2089
キツキツ	-11.2089
義母	-11.2089
分解し	-11.2089
カード入れ	-11.2089
12/7	-11.2089
日傘	-11.2089
かわいー	-11.2089
サイズ選び	-11.209
どれだけ	-11.209
なおしました	-11.209
信じられない	-11.209
届いてみたら	-11.209
お酒	-11.209
断念しました	-11.209
NG	-11.209
日に注文したけど	-11.2091
あれれ	-11.2091
サイズ違い	-11.2091
在庫がなく	-11.2091
また買いたいです	-11.2091
まだ使用していませんが	-11.2091
リブ	-11.2091
何の連絡もない	-11.2091
タダ	-11.2091
不安定	-11.2092
の時は	-11.2092
着替え	-11.2092
生地もしっかりしていて	-11.2092
中敷き	-11.2092
グレード	-11.2092
ジャストフィット	-11.2093
アイス	-11.2093
付いた	-11.2093
一冊	-11.2093
粒子	-11.2093
気泡	-11.2093
飲みましたが	-11.2093
エリ	-11.2094
買い直します	-11.2094
キツくて	-11.2094
オス	-11.2094
履き口	-11.2095
おいしくない	-11.2095
写真を見て	-11.2095
またよろしくお願いします	-11.2095
円ショップと同じ	-11.2096
大きすぎず	-11.2096
才の息子	-11.2096
閉まらない	-11.2097
着るには	-11.2097
開けたら	-11.2097
開けてみると	-11.2098
た結果	-11.2098
ボー	-11.2098
また注文したい	-11.2099
丁度良かったです	-11.2099
円の福袋	-11.21
その時に	-11.21
物凄く	-11.21
お試しセット	-11.21
こんなものかな	-11.2101
良い買い物ができました	-11.2101
高級感があります	-11.2102
傷だらけ	-11.2102
やわらかくて	-11.2103
乾燥する	-11.2103
毎月	-11.2104
円とは思えないほど	-11.2104
基本的に	-11.2104
ちょっとずつ	-11.2104
あぁ	-11.2104
この機種	-11.2104
使い物にならない	-11.2105
果物	-11.2105
まれた	-11.2106
嫌がり	-11.2106
不快な	-11.2107
って何	-11.2107
▁1,,11/6	-11.2107
なさそう	-11.2107
26.5	-11.2109
につられて	-11.2109
入荷が	-11.2109
メール便送料無料	-11.2109
ほんとうに	-11.2111
封	-11.2111
身幅	-11.2111
なんですかね	-11.2112
初めから	-11.2113
まずまず	-11.2113
本体は	-11.2114
洗濯しても	-11.2114
エントリー	-11.2116
わかります	-11.2117
月中旬発送予定	-11.2117
荒れ	-11.2118
写真で見るより	-11.2118
幅広なので	-11.2119
を使っていました	-11.212
事態	-11.212
マッチして	-11.212
んじゃないでしょうか	-11.212
かなり安っぽいです	-11.212
こちらが	-11.2122
座り心地は	-11.2122
いいんですが	-11.2122
丈が長い	-11.2122
友達の	-11.2124
美味しかったので	-11.2124
このメーカーの	-11.2126
日に注文したのですが	-11.2127
パッと	-11.2128
高いのに	-11.2129
▁1,11/30	-11.213
一見	-11.213
怖い	-11.2131
ぶら	-11.2131
ネット購入	-11.2131
味わい	-11.2132
はそんなに	-11.2132
っちゃいました	-11.2133
長いですが	-11.2133
集め	-11.2134
ピッチ	-11.2134
二度と購入しません	-11.2135
インテリアに	-11.2136
ちっちゃい	-11.2137
ジェ	-11.2137
フィルム	-11.2137
との返事	-11.2139
1/18	-11.2139
トロ	-11.2139
に感謝	-11.214
おち	-11.2141
隙間から	-11.2141
高額	-11.2141
円サンプル	-11.2141
スーツケース	-11.2142
週間もかか	-11.2143
押さえ	-11.2144
なんですよね	-11.2144
を注文し	-11.2144
我が家には	-11.2145
もったいないので	-11.2145
機能性	-11.2146
メールが届き	-11.2146
昔から	-11.2146
書かれていますが	-11.2146
販売店	-11.2147
ボタンを	-11.2148
センチの子供に	-11.2148
本当に助かります	-11.2148
の方の	-11.2149
ティー	-11.2149
の下に	-11.215
皮膚が	-11.2151
ちょうどいい感じです	-11.2151
遅かった	-11.2152
みず	-11.2154
本当に残念です	-11.2155
白の	-11.2155
大分	-11.2156
評価を	-11.2159
てはいけない	-11.2162
売っていた	-11.2163
〜〜〜	-11.2163
▁2,01	-11.2165
届くのが	-11.2165
円送料込み	-11.2167
引っ張り	-11.2167
せると	-11.2168
PG	-11.2169
もつ	-11.2174
きていません	-11.2175
を選んだ	-11.2175
買いたいです	-11.2177
ではないですね	-11.2178
を入れましたが	-11.2179
左右に	-11.2179
買えてよかったです	-11.2182
の影響	-11.2182
までの	-11.2183
痛いし	-11.2184
商品については	-11.2185
呆れ	-11.2186
楽しみにしていましたが	-11.2187
人形	-11.2187
りましたが	-11.2187
ることができません	-11.2188
メーカーから	-11.2189
大きめなので	-11.219
個数	-11.2191
洗濯物	-11.2191
と違う	-11.2192
すごくかわいいです	-11.2192
商品の質	-11.2194
できるなら	-11.2194
☆0	-11.2195
をしているので	-11.2196
もすごく	-11.2196
チャームさん	-11.2197
同柄	-11.2197
配送の	-11.2198
おやつに	-11.2199
リピはしない	-11.22
使い易い	-11.2201
レビューを参考にして	-11.2201
になるのでしょうか	-11.2202
早いし	-11.2202
ぽい	-11.2204
とても楽しみです	-11.2204
up	-11.2204
後悔です	-11.2209
156	-11.221
こんな対応	-11.2213
10/16	-11.2213
ミリを購入しました	-11.2213
分くらいで	-11.2213
理由は	-11.2214
153	-11.2214
なんだろう	-11.2214
本数	-11.2218
リピートはない	-11.222
くらいでした	-11.222
かわいいですよ	-11.222
当たり前	-11.222
▁1,???,	-11.2222
問題なしです	-11.2223
▁1,003	-11.2223
子ですが	-11.2223
薄かったです	-11.2224
在庫切れで	-11.2227
ペラペラの	-11.2227
ワインレッド	-11.223
お祝い	-11.223
滑らか	-11.2231
アルミ	-11.2231
届いた物は	-11.2231
年位前	-11.2231
嬉しいですね	-11.2234
なくなりそうです	-11.2235
金額が	-11.2235
▁1,,10%	-11.2237
造りが	-11.2238
光沢があり	-11.2239
使えないので	-11.224
賞味期限も	-11.2241
大きめですが	-11.2241
即日発送	-11.2242
浅い	-11.2243
気になったので	-11.2243
しかないので	-11.2243
が必要な	-11.2245
早々に	-11.2245
の人が	-11.2245
つに	-11.2246
はじめてです	-11.2246
▁2,,117	-11.2246
78	-11.2246
は良いですが	-11.2247
生きて	-11.2247
利用します	-11.2247
飲むと	-11.2247
▁L	-11.2248
厚手で	-11.2248
それ以外	-11.2249
ありますよね	-11.2251
の都合	-11.2252
ブラックを購入	-11.2252
ふたが	-11.2253
ショップからは	-11.2254
なにが	-11.2255
ショ	-11.226
倍だし	-11.226
安心して使える	-11.2261
にたどり着きました	-11.2261
着たら	-11.2262
為に購入	-11.2265
▁2,,118	-11.2266
到着予定	-11.2267
イメージ通り	-11.2269
10/10	-11.2269
フェ	-11.2269
うと	-11.227
のものでした	-11.2271
塗	-11.2272
周りが	-11.2274
キン	-11.2278
去年の	-11.2279
レビュー書いて	-11.228
ケースを	-11.228
という気持ち	-11.2281
。,2	-11.2283
お値段的に	-11.2284
落ちる	-11.2284
の販売	-11.2285
▁1,☆0,	-11.2288
多かった	-11.2289
夏物	-11.2289
蓋の	-11.2289
試してみ	-11.229
自宅で	-11.229
とても残念でした	-11.229
ポット	-11.229
を期待して	-11.2294
ダイソーで	-11.2294
倍だった	-11.2295
この時期に	-11.2297
調整できる	-11.2299
レビューを読んで	-11.2299
元が	-11.2299
オマケの	-11.2299
が少なくて	-11.2299
のほうは	-11.23
イメージより	-11.2301
素材に	-11.2301
急ぎ	-11.2302
を着ています	-11.2305
今年も	-11.2308
生地や	-11.231
めに	-11.2313
デザインと	-11.2315
ショップの対応は	-11.2315
ピンク系	-11.2316
の中から	-11.2316
と書かれて	-11.2317
とも思います	-11.2317
以前より	-11.2319
,,,	-11.2321
届くのに	-11.2322
透けます	-11.2323
お買い物ができました	-11.2323
中では	-11.2326
くま	-11.2327
試してみよう	-11.2328
料理に	-11.2329
面積	-11.233
ふと	-11.2331
我慢して	-11.2332
個購入しました	-11.2333
店の対応は	-11.2334
遅いので	-11.2336
濃さ	-11.2337
いろ	-11.2339
カメラの	-11.234
まっすぐ	-11.234
ましたので	-11.2341
が変わります	-11.2341
本だけ	-11.2341
合います	-11.2341
倒れ	-11.2343
怖いです	-11.2344
別商品	-11.2346
赤の	-11.2347
注意が必要です	-11.2347
飲んでいますが	-11.2347
即購入しました	-11.2347
良いかな	-11.2348
危ない	-11.2349
表に	-11.2349
とても綺麗です	-11.2351
を使用し	-11.2351
イー	-11.2351
日届きました	-11.2353
と比較しても	-11.2353
同じ色	-11.2356
どうか	-11.2356
インド	-11.2356
この夏	-11.2357
全体の	-11.2359
も入っていて	-11.2359
(_	-11.2359
,20	-11.2359
脂が	-11.236
素敵でした	-11.2362
んですよ	-11.2363
用なので	-11.2364
ないけれど	-11.2365
めですが	-11.2365
も使える	-11.2366
購入させて頂きました	-11.2367
行きます	-11.2367
形の	-11.2369
、10%	-11.237
開き	-11.237
の匂いが	-11.2373
感があります	-11.2376
年使っていた	-11.2377
かぁ	-11.2377
でもよかったかな	-11.2379
じゃないと	-11.238
気持ちです	-11.238
だろ	-11.238
定価で	-11.2382
ない限り	-11.2382
お色で	-11.2382
もらいました	-11.2383
なかったし	-11.2383
での使用	-11.2386
歳の子に	-11.2391
持	-11.2395
しましょう	-11.2396
の文字が	-11.2396
何かの	-11.2396
このオイル	-11.2398
クレジットカード	-11.2399
に予約しました	-11.2401
者の	-11.2401
汚れは	-11.2407
を購入したら	-11.2408
発送されて	-11.2408
は初めてですが	-11.241
いつか	-11.2413
利用したいと思います	-11.2413
ないんですが	-11.2415
で着る	-11.2416
何時	-11.2417
発送から	-11.2417
本以上	-11.2419
勿論	-11.2424
を始め	-11.2425
越	-11.2425
と連絡あり	-11.2428
できています	-11.243
私にはちょっと	-11.243
10/11	-11.2432
ネイビーを購入しました	-11.2433
▁1,,06	-11.2434
と言えば	-11.2434
力は	-11.2435
しようとしたら	-11.2435
との事でしたが	-11.2436
言われ	-11.2437
均でも売って	-11.2438
注文します	-11.2439
変え	-11.244
までも	-11.2443
しかたない	-11.2446
一緒です	-11.2449
11/22	-11.245
やれば	-11.245
シルクの	-11.2452
ミリと	-11.2453
とても助かります	-11.2455
ものがありました	-11.2458
楽しみに待って	-11.2459
ルド	-11.246
満足しました	-11.2461
08-	-11.2462
を使用しているので	-11.2464
楽で	-11.2471
を見つけて	-11.2472
迅速に	-11.2473
寝て	-11.2476
光沢感	-11.2478
においが	-11.2481
とおもいました	-11.2481
ことをお勧めします	-11.2482
斜め	-11.2483
いるようですが	-11.2483
切れてしまい	-11.2485
お願いしました	-11.2491
カラーで	-11.2494
髪が	-11.2494
高校生	-11.2496
最初に	-11.2497
離れ	-11.2497
ない状態	-11.2501
はないです	-11.2502
安いから仕方ない	-11.2503
ca	-11.2505
...」	-11.251
着られそうです	-11.2512
連絡は	-11.2512
〜2	-11.2513
方がいいかも	-11.2513
と思ったので	-11.2515
798	-11.2518
11/28	-11.2522
死んで	-11.2522
ダイソーの	-11.2523
合って	-11.2526
ショップは初めて	-11.2529
付いていた	-11.253
かく	-11.2534
後味	-11.2534
甘さが	-11.2536
洗うの	-11.2538
夜は	-11.254
つけています	-11.2542
マイナスです	-11.2543
送られ	-11.2547
細めの	-11.2549
綿の	-11.255
香りです	-11.2553
連絡なく	-11.2554
遅れると	-11.2558
購入したところ	-11.256
ってしまいます	-11.2561
カビが生え	-11.2565
つ購入しました	-11.2565
日で発送	-11.2568
分かりませんでした	-11.2571
10/4	-11.2571
楽しみに	-11.2572
長持ちしそうです	-11.2575
もきちんと	-11.2577
んでしょうか	-11.258
の感想は	-11.258
回りが	-11.258
枚入りで	-11.2581
ちょうどいい感じ	-11.2585
厚みが	-11.2586
の良い	-11.2588
月出産予定	-11.2589
透明の	-11.259
てきた	-11.259
壊れて	-11.2596
(+	-11.2597
サイズにしました	-11.2597
に使用しています	-11.2599
円と	-11.26
お色は	-11.2601
家族が	-11.2602
輝きは	-11.2603
を購入しています	-11.2605
かと思ったのですが	-11.2606
本購入しました	-11.2606
華やか	-11.2607
使いますが	-11.2608
タイプを購入	-11.2612
が割れてい	-11.2613
普通体型	-11.2619
花が	-11.262
心配していましたが	-11.2623
12/1	-11.2625
この店で	-11.2625
ようなら	-11.2625
なったので	-11.2626
のままです	-11.2627
も楽	-11.2628
半分は	-11.2632
気にならない	-11.2635
色や	-11.2637
とかで	-11.2639
とても良かったので	-11.2639
なと	-11.264
▁2,,00	-11.2641
を買ったら	-11.2642
が当たる	-11.2642
滑り	-11.2643
充電し	-11.2643
メールがきました	-11.2646
見つけました	-11.2647
サイズぴったり	-11.2649
かわいくて満足です	-11.2649
その時	-11.265
個目	-11.265
問い合わせ番号	-11.2653
のシート	-11.2657
普通です	-11.2657
開封した	-11.2662
長くて	-11.2662
全体的には	-11.2663
高価で	-11.2664
▁1,108	-11.2667
を使った	-11.2673
までしか	-11.2673
1300	-11.2676
の裏	-11.2676
をしています	-11.2676
甘さ	-11.2678
収まり	-11.2681
来ましたが	-11.2684
続いて	-11.2685
購入したほうが	-11.2686
とてもお得	-11.2687
▁2,,"10	-11.2688
るたびに	-11.269
華やかな	-11.269
ようにも	-11.2695
に見えた	-11.2696
十分な	-11.2699
水に	-11.2705
皆さんが	-11.2706
この店の	-11.2707
のお茶	-11.2709
飲んでいる	-11.271
シャツの	-11.2711
表記は	-11.2712
ここに	-11.2713
がズレ	-11.2714
着いて	-11.2716
肌の	-11.272
干	-11.2726
丈夫そうです	-11.2727
▁A	-11.2728
商品が届いた	-11.2728
やん	-11.2728
の内容	-11.273
食い	-11.273
とは違って	-11.2736
いつもポイント	-11.2736
ーっと	-11.2736
有りました	-11.2737
ますます	-11.274
★0	-11.2741
商品の品質	-11.2741
・・・?	-11.2742
厚手の	-11.2743
本とも	-11.2744
少しは	-11.2745
丈夫です	-11.2746
均と	-11.2747
印鑑は	-11.2748
飲んでみ	-11.2751
センチほど	-11.2754
この冬	-11.2757
かなり薄いです	-11.2758
も薄く	-11.2761
を見た	-11.2762
ネットの	-11.2766
慣れて	-11.2767
ないわ	-11.277
と言うことで	-11.277
★,	-11.2773
ちょっと残念な	-11.2774
引っ張って	-11.2774
入っており	-11.2779
良かったのに	-11.2783
子供達	-11.2786
ないか心配です	-11.2786
スピ	-11.2788
生地も薄く	-11.2793
は良かったのですが	-11.2798
リピは無い	-11.2799
だろうけど	-11.2801
も少ない	-11.2806
いい商品だと思います	-11.2806
を参考に	-11.2807
,100%	-11.2808
自宅に	-11.2809
見つけて	-11.2812
どーなって	-11.2813
利用しないと思います	-11.2819
ゴムを	-11.2819
度目の	-11.282
▁2,,11/1	-11.2821
は要らない	-11.2822
こちらのほうが	-11.2822
購入した方が	-11.2822
はけ	-11.2823
届いたらまたレビュー	-11.2825
とかは	-11.2826
プレゼントで	-11.2828
外して	-11.2831
ここの	-11.2831
あるのか	-11.2834
決定	-11.2838
ならいいかな	-11.2839
ミリを	-11.284
買い替えです	-11.2843
歳と	-11.2845
日以内に発送	-11.2847
半信半疑で	-11.2848
に惹かれて	-11.2849
きく	-11.2852
高いけど	-11.2856
を購入したいと思います	-11.2856
ほぼピッタリ	-11.2858
発送の	-11.286
値段相応な	-11.286
履かせて	-11.2861
ピアスは	-11.2862
安く購入できて	-11.2866
の夕方	-11.2866
所の	-11.2869
予約注文	-11.2869
変形	-11.2873
たので残念です	-11.2873
太めの	-11.2876
色合いも	-11.2879
出荷が	-11.2879
していないのに	-11.2879
もせず	-11.2881
誤差が	-11.2884
があま	-11.2887
探していたのですが	-11.2887
を食べて	-11.2888
ハンドルが	-11.289
ずれ	-11.2891
頭に	-11.2892
ケーブルを	-11.2892
物と	-11.2894
円です	-11.2895
光が	-11.2896
良くない	-11.2906
ない感じです	-11.2908
日以上経っても	-11.2908
ぐらいは	-11.2909
たこと	-11.2918
を感じます	-11.2925
本くらい	-11.2925
733	-11.2927
ブラックは	-11.2929
石の	-11.2931
る為に	-11.2933
と合わせ	-11.2934
切れます	-11.2935
だとか	-11.2935
はイマイチ	-11.2936
不明ですが	-11.2943
はないのでしょうか	-11.2943
物です	-11.295
こちらのお店は	-11.2951
て驚きました	-11.2952
シンプルです	-11.2955
工夫して	-11.2957
寒くて	-11.2959
et	-11.2962
届くのかな	-11.2962
いつ届くの	-11.2964
に入る	-11.2969
か月の	-11.2969
「100%	-11.2969
が変わる	-11.2974
いくので	-11.298
プレゼントの	-11.2984
申し訳ない	-11.2986
シリーズは	-11.2989
が悪いので	-11.2994
▁1,,"10	-11.3
かみ	-11.3006
で購入させて頂きました	-11.3007
リングは	-11.3008
▁1,,108	-11.3008
草	-11.3009
表面の	-11.301
リピしたいです	-11.3011
まった	-11.3011
接着剤の	-11.3012
▁がっかり	-11.3014
吹き	-11.302
ちょっとショック	-11.302
開ける	-11.3022
高くても	-11.3024
気持ち良い	-11.3028
することにしました	-11.3029
品と	-11.3031
位に	-11.3035
時間がかかるので	-11.3044
薄い色	-11.3047
壊れてしまいました	-11.3048
みようと思います	-11.3051
数珠	-11.3051
クオリティです	-11.3053
カバーを	-11.3053
の割には	-11.3053
いけそう	-11.3054
全体	-11.3057
柔らかいので	-11.3058
はみ出し	-11.307
っていたので	-11.3071
カッ	-11.3073
回程度	-11.3077
画像を	-11.308
号を購入	-11.3082
はあり	-11.3083
所も	-11.3088
広げて	-11.3089
ゆとり	-11.309
1/16	-11.3091
安いと思います	-11.3091
足も	-11.3092
貼っ	-11.3097
った時に	-11.3098
ちょっとガッカリ	-11.3099
5%	-11.3099
あっ	-11.3102
いたしました	-11.3103
した方が良い	-11.3108
の高さが	-11.3108
少	-11.3113
安定して	-11.3119
買っても	-11.3119
に近く	-11.3122
寝室	-11.3123
場の	-11.3127
ありませんが	-11.3127
注文を	-11.3127
きながら	-11.3127
厚手	-11.3128
お買い得ですね	-11.3131
欲しいですね	-11.3132
の名前	-11.3144
靴が	-11.3145
使わせていただきます	-11.3145
の入荷が	-11.3146
▁G	-11.3148
とっても可愛くて	-11.3152
おいし	-11.316
重ねて	-11.3166
いる商品	-11.3168
はできない	-11.317
!!!!!!!	-11.3172
感じですね	-11.3175
していないので	-11.3175
の写真	-11.3176
返信は	-11.3179
時間かかり	-11.3185
のお弁当	-11.3185
はないですが	-11.3189
で見ると	-11.3191
se	-11.3194
安心でき	-11.3195
底面	-11.3197
をお願いしました	-11.3197
と言われる	-11.3199
欲しいもの	-11.3203
にはちょっと	-11.3213
ばかりでした	-11.3219
6;	-11.3219
自然に	-11.3219
のが残念	-11.322
▁2,105	-11.3224
本ずつ	-11.3226
感じますが	-11.3226
ブランドの	-11.3226
サイズでも	-11.3227
買って損	-11.3228
混ざって	-11.3228
水槽	-11.3235
きれいでした	-11.3235
に使えます	-11.3236
均に売って	-11.3236
きちんとした	-11.3239
でしたら	-11.3245
室内で	-11.3252
ような気が	-11.3257
イイ感じです	-11.3262
たかも	-11.3262
この値段でこの	-11.3264
腕の	-11.3266
菓子	-11.3266
もう少し大きい	-11.3267
みても	-11.3272
存在感があります	-11.3274
どうかと思います	-11.3276
体型です	-11.3276
届いてない	-11.3278
測定	-11.3281
の幅	-11.3283
膝下	-11.329
話の	-11.329
ないかなぁ	-11.3291
均で売ってる	-11.3293
やってる	-11.3294
おすすめします	-11.3299
物自体は	-11.33
お金を	-11.3302
信じ	-11.3304
匹の	-11.3308
るよう	-11.3311
家族に	-11.3311
でしたよ	-11.3312
680	-11.3313
持ち歩く	-11.3315
錆び	-11.3319
ままです	-11.332
職場	-11.3321
丁寧な	-11.3321
起こ	-11.3321
大事	-11.3325
願	-11.3326
ベリー	-11.3327
履いたら	-11.3334
よいのですが	-11.3334
してある	-11.3335
いまだ	-11.3335
100%?,	-11.3338
伝線	-11.3339
使っているので	-11.3339
クル	-11.3341
見ましたが	-11.3342
なにも	-11.3343
履い	-11.3344
剥げ	-11.3347
しね	-11.3347
を発見	-11.336
たんですけど	-11.336
をしても	-11.3369
与えて	-11.3379
耐久性が	-11.338
しつつ	-11.3384
高かったので	-11.3387
も増え	-11.3392
箱入り	-11.3396
どこが	-11.3397
ヶ月も	-11.3399
こともある	-11.3401
やっと届いた	-11.3402
。。。。。。。。。。。。。	-11.3402
大き	-11.3403
存在	-11.3403
くなってしまう	-11.3404
ネイビーは	-11.341
少なめ	-11.3412
買い物になりました	-11.3412
分けて	-11.3413
ってくらい	-11.3419
っていなかった	-11.3419
すぎました	-11.342
いつ届くのか	-11.342
も出して	-11.3424
が一部	-11.3424
紐を	-11.3432
ココ	-11.3433
平日	-11.3434
良いと	-11.3435
▁100%	-11.3435
モー	-11.3436
ぇ	-11.3437
のは初めて	-11.3437
歳児	-11.3441
の縫い目が	-11.3441
(2	-11.3444
こうか	-11.3446
どうなんでしょう	-11.3447
事前に	-11.3452
半分くらい	-11.3453
だったし	-11.3454
いまだ届きません	-11.3455
考えれば	-11.3458
問題なく使えてい	-11.3458
価値	-11.346
が出来ないの	-11.346
は大丈夫だった	-11.3461
大好き	-11.3465
ものもある	-11.347
されていたので	-11.3471
夜中に	-11.3473
本体を	-11.3476
68	-11.3479
リフォーム	-11.3481
失敗したかな	-11.3482
コンパクトな	-11.3485
円のお試し	-11.3487
74	-11.3488
つけたい	-11.3492
日以上たっても	-11.3498
125	-11.3503
えん	-11.3509
いるため	-11.3513
せない	-11.3518
買いたい	-11.3519
のでそのまま	-11.3519
品質です	-11.3522
贈	-11.3524
する程	-11.3525
頃から	-11.3528
最高に	-11.353
不思議です	-11.3531
してみたら	-11.3532
大き目で	-11.3533
パンツを	-11.3535
大きく見え	-11.3537
くない	-11.3537
円近い	-11.3538
169	-11.354
に購入した	-11.3543
ることに	-11.3546
ポケットの	-11.3552
反省	-11.3554
れてしまいました	-11.3554
枚とも	-11.3556
刻印	-11.3556
u	-11.3558
1,2	-11.3559
問い合わせると	-11.3561
数年前に	-11.3571
にしたのですが	-11.3576
同じ商品を	-11.3579
にぴったりで	-11.358
可愛かった	-11.3581
飲んでみました	-11.3583
毛は	-11.3585
離	-11.3585
重なり	-11.3593
,6	-11.36
簡単です	-11.36
カットされて	-11.36
取説	-11.36
全面	-11.36
歳の子供	-11.36
元に戻	-11.3603
も付いて	-11.3604
が悪いと	-11.3604
の方には	-11.3605
そうな感じです	-11.3606
目を	-11.3607
サイトの	-11.3607
円ショップで買った	-11.3609
なきゃいけない	-11.361
買ってみた	-11.3611
されず	-11.3619
購入したのが	-11.362
探してた	-11.3621
はしない	-11.3624
11/25	-11.3627
かと思うほど	-11.3634
円で安い	-11.3634
されていた	-11.3634
履いています	-11.3639
チープな	-11.3641
活用し	-11.3643
暑	-11.3643
聞こえ	-11.3643
というよりは	-11.3644
のレギンス	-11.3647
身体	-11.3649
ボーダーの	-11.365
7-	-11.365
てきます	-11.3652
買えるので	-11.3653
を出して	-11.3654
日たちましたが	-11.3655
取れそう	-11.3656
回位	-11.3657
ション	-11.3657
デザインです	-11.3658
の表記	-11.366
事が出来ました	-11.366
あがり	-11.3661
買わないと思います	-11.3662
あるから	-11.3664
交換は	-11.3664
新たに購入	-11.3666
のクオリティ	-11.3666
誕生日プレゼント	-11.3676
想像してた	-11.3677
ぶん	-11.3678
代引き	-11.3678
売れ	-11.3679
電話して	-11.368
するような	-11.3686
段階で	-11.3686
いつ発送	-11.369
てて	-11.3691
人気商品	-11.3693
過ぎず	-11.3698
ハード	-11.3699
足で	-11.3699
欠かせ	-11.37
ブラウンを購入しました	-11.3702
する為	-11.3702
0.00	-11.3704
ようと思ったら	-11.3705
かたまり	-11.3707
AR	-11.3708
違いが	-11.3708
てないので	-11.3708
も買いましたが	-11.3713
しようにも	-11.3714
もありませんでした	-11.3714
高さを	-11.3714
前回と	-11.3714
始めました	-11.3716
時間の	-11.372
でぴったりでした	-11.3721
ラム	-11.3723
馴染んで	-11.3725
¥1	-11.3727
も考えましたが	-11.3729
貧弱	-11.3731
だけなら	-11.3731
コシ	-11.3732
人用	-11.3738
とのことなので	-11.3738
バッテリーが	-11.3741
使われ	-11.3743
うす	-11.3744
言われた	-11.3745
84	-11.3749
ほし	-11.3754
とてもかわいい	-11.3754
重いです	-11.3755
仕方ないのですが	-11.3755
ゴルフ	-11.3756
癒され	-11.376
イケ	-11.3762
漏れて	-11.3763
の高い	-11.3763
縫う	-11.3766
かわからない	-11.3767
通学	-11.3769
を含め	-11.3776
10/23	-11.3777
るみたいで	-11.3778
飴	-11.3778
いると思います	-11.3778
変わりません	-11.378
とてもよい	-11.3786
くなった	-11.3786
でちょうどよかった	-11.3789
付いてる	-11.3791
楽しみにしてたのに	-11.3793
でしょうかね	-11.3793
そちらを	-11.3794
カードの	-11.3797
早い対応	-11.3797
ほどけて	-11.3799
透明感	-11.3799
風邪	-11.3799
らなくなり	-11.3802
ブラシを	-11.3804
,07	-11.3806
冬場	-11.3806
経つと	-11.3808
来年用に	-11.381
発送が遅れる	-11.3811
理由で	-11.3811
と表示	-11.3812
いただきます	-11.3818
わけではありませんが	-11.382
拭	-11.382
こんな事	-11.3821
年以上前から	-11.3824
,118	-11.3824
は使えませんでした	-11.3825
上まで	-11.3825
なんだけど	-11.3835
/23	-11.3841
平気	-11.3842
割り	-11.3844
休	-11.3845
練習用に	-11.3845
歳になる	-11.3845
待った	-11.3846
はそれなりに	-11.385
パフ	-11.385
素材感	-11.385
▁やっぱり	-11.3852
何本か	-11.3854
殆ど	-11.3858
個が	-11.3858
この時期	-11.3862
椅子	-11.3862
と変わらず	-11.3865
玄関	-11.3872
を選択	-11.3873
の美味しさ	-11.388
ポケットに入れ	-11.3886
嫌なので	-11.3891
となっており	-11.3892
問い合わせて	-11.3892
ギザギザ	-11.3894
,1/13	-11.3895
わたしの	-11.3897
とうとう	-11.3897
渋	-11.39
エントリーで	-11.3902
、22	-11.3902
これはちょっと	-11.3902
息子へ	-11.3904
余裕で	-11.3906
安いのに	-11.3906
んだから	-11.3907
発売日	-11.391
9.5	-11.3913
済	-11.3916
納期が遅れる	-11.3917
???,	-11.3917
翌日には	-11.3917
思った通り	-11.3921
円ショップのもの	-11.3927
を選び	-11.3928
頼み	-11.3929
実感でき	-11.3929
つけま	-11.393
の練習	-11.3931
良かっただけに	-11.3932
喜び	-11.3935
探していたところ	-11.3935
確認メール	-11.3935
臭いは	-11.3936
買い物ができました	-11.3937
していきたいと思います	-11.3938
シフォン	-11.3939
コンセント	-11.3939
付属品	-11.3942
やわらか	-11.3945
は大きく	-11.3946
出力	-11.3947
完全	-11.3949
変色	-11.3954
楽しみにしていました	-11.3955
が来	-11.3956
ございます	-11.3956
イマイチでした	-11.396
引っか	-11.3964
個に	-11.3965
買いです	-11.3965
かったかな	-11.3967
と思っていたのに	-11.3968
プラスチックが	-11.3968
飛び出て	-11.3969
7.5	-11.3971
てみます	-11.3972
アーム	-11.3976
えば	-11.3977
店頭	-11.3978
浮いて	-11.3979
日と	-11.398
落	-11.3981
使わせて	-11.3984
を買うのは	-11.3985
るのが楽しみです	-11.3986
まだ届かないので	-11.3986
一瞬	-11.3987
るものの	-11.3988
インテリア	-11.3988
ため購入	-11.399
またリピすると思います	-11.399
&#10025;	-11.3992
連絡したら	-11.3994
トップス	-11.3996
仕方ないですね	-11.3998
請求され	-11.3999
配送に	-11.3999
でちょうど良かったです	-11.4
使用していました	-11.4
まだ商品が届きません	-11.4001
使わないので	-11.4002
添え	-11.4003
品質も	-11.4004
均のものより	-11.4005
馬鹿	-11.4007
ぐら	-11.4007
いきたいです	-11.4007
出来上がり	-11.4007
ぽっちゃり	-11.4007
が多かったので	-11.4008
粘着力	-11.4009
ちっちゃ	-11.4009
買わなくて	-11.401
短いので	-11.401
は抜群	-11.4011
水分が	-11.4012
感激	-11.4012
ざんねん	-11.4013
随分	-11.4014
聴	-11.4016
甘いです	-11.4017
不愉快	-11.4017
きのこ	-11.4017
138	-11.4018
いれて	-11.4018
服の	-11.4019
もらえました	-11.402
どうなの	-11.4021
お詫びのメール	-11.4021
いらっしゃ	-11.4021
敷	-11.4022
このショップ	-11.4022
業者	-11.4022
書いてありますが	-11.4023
発光	-11.4026
キロの娘	-11.4028
値段だったので	-11.403
を扱う	-11.4033
マッサージ	-11.4034
はけました	-11.4035
選べて	-11.4036
との比較	-11.4038
厚めの	-11.4038
5-0	-11.4039
冷蔵庫	-11.4039
キャリー	-11.404
つまみ	-11.4041
引っかかり	-11.4041
連絡くらい	-11.4042
あきらめ	-11.4042
替	-11.4042
破けました	-11.4043
異なる	-11.4043
←	-11.4044
を利用して	-11.4044
両端	-11.4044
うううううううううううううう	-11.4045
袖丈	-11.4045
留	-11.4045
下げて	-11.4045
絞り	-11.4046
言われました	-11.4046
了解し	-11.4046
安く買えて	-11.4047
傘	-11.4047
消費	-11.4047
大好きで	-11.4049
塗ると	-11.405
荷	-11.4051
るべき	-11.4051
元に	-11.4051
販売してい	-11.4052
うっす	-11.4056
他の方も書いて	-11.4057
カバー力	-11.4058
洗い替え	-11.4058
が悪いの	-11.4058
穴が開いた	-11.4059
冷え性	-11.4059
終わる	-11.406
シック	-11.4061
剥	-11.4061
丈夫そうで	-11.4063
粗悪	-11.4063
越え	-11.4063
二度と利用しません	-11.4065
受	-11.4065
復活	-11.4065
刃	-11.4066
夕	-11.4066
に変え	-11.4066
来週	-11.4067
酒	-11.4067
使えました	-11.4067
どころ	-11.4067
落ちてしまいます	-11.4068
多頭飼い	-11.4068
チャレンジ	-11.4068
ヌ	-11.4068
透け感	-11.4069
非	-11.4069
収ま	-11.407
2/3	-11.407
不能	-11.407
どうやって	-11.407
英	-11.4071
歪	-11.4071
ホット	-11.4072
硬め	-11.4072
懐かしい	-11.4072
爆	-11.4072
結び	-11.4072
コスメ	-11.4073
費	-11.4073
肝心な	-11.4073
多めに	-11.4073
・・・・・・・・・・	-11.4073
ホイール	-11.4073
実物を見ていたら	-11.4074
頼まれ	-11.4074
治	-11.4074
ちぎれ	-11.4074
てくださった	-11.4074
家庭	-11.4074
18-	-11.4074
苦痛	-11.4074
新生児	-11.4074
ったのに	-11.4074
どういう	-11.4074
フィート	-11.4074
カンタン	-11.4074
にて購入	-11.4075
思案中です	-11.4075
代替品	-11.4075
レッグウォーマー	-11.4075
真空	-11.4075
が乾いて	-11.4075
家族全員	-11.4075
ランニング	-11.4075
帆布	-11.4075
チョコレート	-11.4075
潰れて	-11.4075
選択肢が	-11.4075
歪んで	-11.4076
シャワー	-11.4076
イメージしていた	-11.4076
反	-11.4076
写真を撮	-11.4076
に対応していただき	-11.4076
案	-11.4076
ふち	-11.4076
マグカップ	-11.4076
児	-11.4076
ふっくら	-11.4076
にせよ	-11.4076
麺	-11.4076
廃	-11.4076
均並み	-11.4077
抹茶	-11.4077
重宝します	-11.4077
スペイ	-11.4077
芽	-11.4077
美容	-11.4077
摘	-11.4077
日を過ぎても	-11.4077
期限	-11.4077
十分だと思います	-11.4077
メールが届かない	-11.4077
裁断	-11.4077
設	-11.4077
ギラギラ	-11.4077
網	-11.4077
ございました	-11.4077
敢えて	-11.4077
|	-11.4077
玩具	-11.4077
カタカタ	-11.4077
サスペンダー	-11.4077
不織布	-11.4077
恐	-11.4077
並み	-11.4077
過ごし	-11.4077
#03	-11.4077
アドバイス	-11.4077
国内	-11.4077
ボウル	-11.4077
ダンベル	-11.4078
オリゴ糖	-11.4078
フロント	-11.4078
間隔	-11.4078
スタンダード	-11.4078
気づく	-11.4078
耳栓	-11.4078
添加物	-11.4078
何となく	-11.4078
火曜	-11.4078
タブレット	-11.4078
伺	-11.4078
パシュミナ	-11.4078
SPF	-11.4078
すっぽん	-11.4078
バージョン	-11.4078
特殊	-11.4078
芸	-11.4078
にたどり	-11.4078
キャベツ	-11.4078
どうやら	-11.4078
↑	-11.4078
ひび割れ	-11.4078
ぷっくり	-11.4078
仕方ないです	-11.4078
パンプス	-11.4078
よろしい	-11.4078
至急	-11.4078
密	-11.4078
日曜日	-11.4078
注ぎ口	-11.4078
追伸	-11.4078
コンタクトレンズ	-11.4078
定形外	-11.4078
煎	-11.4078
破断	-11.4078
小麦粉	-11.4078
くたびれてきたので	-11.4078
決意	-11.4078
龍	-11.4078
吸引	-11.4078
炊飯器	-11.4078
妥当だと思	-11.4078
王	-11.4078
賞	-11.4078
余分に	-11.4078
蜂蜜	-11.4078
おしっこ	-11.4078
さわり心地	-11.4078
ルームランプ	-11.4078
開けてビックリ	-11.4078
単体で	-11.4078
囲	-11.4078
完売	-11.4078
,±0	-11.4078
コスプレ	-11.4078
プレミアム	-11.4078
胴	-11.4078
ストッキング	-11.4078
スプリング	-11.4078
クロネコ	-11.4078
小学	-11.4078
ガサガサ	-11.4078
スケール	-11.4078
フェルト	-11.4078
フリクション	-11.4078
使いこなせ	-11.4078
純	-11.4078
豆乳	-11.4078
餌	-11.4078
補	-11.4078
マンションの	-11.4078
楽しめます	-11.4078
畳のリビング	-11.4078
BOX	-11.4078
うるさく	-11.4078
採	-11.4078
歌	-11.4078
購入を決意	-11.4078
ホワイトデー	-11.4078
パリパリ	-11.4078
ビタミン	-11.4078
買い求め	-11.4078
風船	-11.4078
せんべい	-11.4079
マヌカハニー	-11.4079
云々	-11.4079
出番	-11.4079
パナソニック	-11.4079
配慮	-11.4079
接着面	-11.4079
size	-11.4079
とメールが来ました	-11.4079
ライナー	-11.4079
下半身デブ	-11.4079
洗浄	-11.4079
玉ねぎ	-11.4079
自己責任	-11.4079
親戚	-11.4079
一晩	-11.4079
房	-11.4079
項目	-11.4079
99%	-11.4079
バンカーリング	-11.4079
偽装	-11.4079
幼児	-11.4079
肩こり	-11.4079
視聴	-11.4079
er	-11.4079
天井	-11.4079
掛かる	-11.4079
返品しようか	-11.4079
あらゆる	-11.4079
タッチペン	-11.4079
ディズニー	-11.4079
&#128545;	-11.4079
オシッコ	-11.4079
保温	-11.4079
育児	-11.4079
酵素	-11.4079
銀行振込	-11.4079
炎	-11.4079
人参	-11.4079
印影	-11.4079
施工	-11.4079
欲しがって	-11.4079
着け心地も	-11.4079
М	-11.4079
へこみ	-11.4079
チャックの	-11.4079
ハロゲン	-11.4079
ハンドメイド	-11.4079
パラソル	-11.4079
ビミョー	-11.4079
ラジオ	-11.4079
レイク	-11.4079
化粧直し	-11.4079
果汁	-11.4079
梅雨	-11.4079
知識	-11.4079
退院	-11.4079
ツイスト	-11.4079
計算	-11.4079
踊	-11.4079
たすかりました	-11.4079
伝票番号	-11.4079
ほこり	-11.4079
ニッパー	-11.4079
ミナミヌマエビ	-11.4079
ルイボスティー	-11.4079
号を着ていますが	-11.4079
員	-11.4079
12/9	-11.4079
とてもじゃないけど	-11.4079
パカパカ	-11.4079
ロイヤルカナン	-11.4079
優秀	-11.4079
楽しめる	-11.4079
致しません	-11.4079
&#10068;	-11.4079
おもったより	-11.4079
Σ	-11.4079
カプセル	-11.4079
ゼラニウム	-11.4079
リクエスト	-11.4079
在	-11.4079
&#12316;	-11.4079
波	-11.4079
(--;)	-11.4079
トレーニング	-11.4079
トースト	-11.4079
プライベート	-11.4079
何の問題もありません	-11.4079
使っていくうちに	-11.4079
日記帳	-11.4079
おかしくないですか	-11.4079
もうここでは買いません	-11.4079
コロコロ	-11.4079
地震	-11.4079
ペンシル	-11.4079
持ち歩き	-11.4079
▁マァマァ	-11.4079
イヤホン	-11.4079
レンタル	-11.4079
挙	-11.4079
さざれ	-11.4079
昆布	-11.4079
インディゴ	-11.4079
ドライアイ	-11.4079
ホホバオイル	-11.4079
リーズナブルで	-11.4079
寝る前に	-11.4079
精製	-11.4079
バケツ	-11.4079
吸盤	-11.4079
歯磨き	-11.4079
選ばない	-11.4079
トイプードル	-11.4079
キャッシュバック	-11.4079
メッチャ	-11.4079
東京	-11.4079
ちゅうもん	-11.4079
フレンチ	-11.4079
が買えるなんて	-11.4079
南	-11.4079
現象	-11.4079
適切	-11.4079
適度に	-11.4079
地元の	-11.4079
Amazon	-11.4079
ほんのり	-11.4079
よろこんで	-11.4079
ストッパー	-11.4079
検査	-11.4079
気にいりました	-11.4079
雪	-11.4079
苦手な	-11.4079
すんなり	-11.4079
保護シール	-11.4079
均クオリティ	-11.4079
悪化し	-11.4079
規格	-11.4079
(-_-)	-11.4079
は要注意	-11.4079
蜜	-11.4079
返品もできない	-11.4079
のカーブ	-11.4079
バンバン	-11.4079
くすみ	-11.4079
レインコート	-11.4079
デカい	-11.4079
レインブーツ	-11.4079
混入	-11.4079
試供品	-11.4079
チラシ	-11.4079
ディング	-11.4079
orz	-11.4079
しわしわ	-11.4079
としか思え	-11.4079
紛らわしい	-11.4079
貝	-11.4079
麻	-11.4079
ざっくり	-11.408
朱肉	-11.408
ビジュー	-11.408
承	-11.408
キープ	-11.408
漫画	-11.408
舞台	-11.408
が古くなったので	-11.408
ファンデ	-11.408
エビちゃん	-11.408
バースデー	-11.408
明細書	-11.408
装備	-11.408
大阪	-11.408
部屋の雰囲気	-11.408
マウス	-11.408
ホテル	-11.408
ドライバー	-11.408
個人的な	-11.408
してくださり	-11.408
設計	-11.408
ジップ	-11.408
♀	-11.408
週末	-11.408
洗えば	-11.408
ブリオン	-11.408
豚肉	-11.408
&#127872;	-11.408
お味噌汁	-11.408
トライ	-11.408
ペーパー	-11.408
団子	-11.408
新米	-11.408
鮮度	-11.408
買い物をしてしまいました	-11.408
さりげなく	-11.408
外径	-11.408
消毒	-11.408
そっくり	-11.408
暇	-11.408
いちご	-11.408
塗料	-11.408
たいへん	-11.408
スキンケア	-11.408
まいにち	-11.408
飲みはじめて	-11.408
フィットせず	-11.408
編む	-11.408
全然違いますね	-11.408
ロープ	-11.408
ネットで見つけて	-11.4081
追跡番号	-11.4081
届くのが遅い	-11.4081
新居	-11.4081
イラ	-11.4081
説明文	-11.4081
冷え取り	-11.4081
切りっぱなし	-11.4081
一向に届きません	-11.4081
今だに届きません	-11.4081
均の方がマシ	-11.4081
端子	-11.4081
買っちゃいました	-11.4081
重ね付け	-11.4081
股下	-11.4081
ティング	-11.4081
ボン	-11.4081
フィン	-11.4081
最安	-11.4081
▁1,&#11088;	-11.4081
点滅	-11.4081
意味なし	-11.4081
楽チン	-11.4081
使っているうちに	-11.4081
オーガニックコットン	-11.4081
バラスト	-11.4081
家具	-11.4081
小豆	-11.4081
ですけどね	-11.4081
つまんで	-11.4081
積み	-11.4081
勉強代	-11.4081
書店で	-11.4081
桜	-11.4081
期待していなかったのですが	-11.4081
完成車	-11.4081
すっごく	-11.4081
ボトムス	-11.4082
チャン	-11.4082
雑な作り	-11.4082
ドール	-11.4082
が出来て	-11.4082
車種	-11.4082
不安になってきました	-11.4082
触ると	-11.4082
部丈	-11.4082
手帳型	-11.4082
花火	-11.4082
カヴァ	-11.4082
タップ	-11.4082
解除	-11.4082
どうなんだろう	-11.4082
リード	-11.4082
ネック	-11.4082
ヘッドライト	-11.4082
延び	-11.4082
ハム	-11.4082
円ショップ並み	-11.4082
μ	-11.4082
かばん	-11.4082
同時注文	-11.4082
温かくて	-11.4082
大判	-11.4082
参考になる	-11.4082
敷布団	-11.4082
出張	-11.4083
ツリー	-11.4083
へ行く	-11.4083
再生	-11.4083
夏らしく	-11.4083
クラブ	-11.4083
ヤツ	-11.4083
長財布	-11.4083
注意してください	-11.4083
内径	-11.4083
好評でした	-11.4083
病気	-11.4083
また機会がありましたら	-11.4083
☆−1	-11.4083
出てこない	-11.4083
につられて購入しましたが	-11.4083
吸水性	-11.4083
小学生	-11.4083
アホ	-11.4083
あす楽対応	-11.4083
オリーブオイル	-11.4083
ゲル	-11.4083
履かない	-11.4084
^)/*	-11.4084
てもよかったかも	-11.4084
続く	-11.4084
プリンター	-11.4084
減った	-11.4084
エル	-11.4084
未確認	-11.4084
入荷済み	-11.4084
年以上使用した	-11.4084
どうなっているんでしょうか	-11.4084
さらっと	-11.4084
スッキリしていて	-11.4084
US	-11.4084
大根	-11.4084
割程度	-11.4084
がつかず	-11.4084
音楽	-11.4084
ガバガバ	-11.4084
低下	-11.4085
三脚	-11.4085
を通す	-11.4085
効き目	-11.4085
シンプルだけど	-11.4085
おすすめ出来ません	-11.4085
見た瞬間	-11.4085
輸入品	-11.4085
年以上使った	-11.4085
発送が遅い	-11.4085
私には合わなかった	-11.4085
分かっていましたが	-11.4085
わけあり	-11.4085
検討しましたが	-11.4085
HB	-11.4085
倍率	-11.4085
サブ	-11.4085
円で試せるの	-11.4085
流行り	-11.4085
満足いく	-11.4085
スカル	-11.4086
自分のミス	-11.4086
色目	-11.4086
がないです	-11.4086
くっきり	-11.4086
体質	-11.4086
忘れていた	-11.4086
早く使いたいです	-11.4086
っぱなし	-11.4086
ot	-11.4086
届いてすぐ	-11.4086
時間帯	-11.4086
年生	-11.4086
になってきた	-11.4086
と書かれていたので	-11.4087
均と変わらない	-11.4087
ゆるく	-11.4087
フン	-11.4087
素晴らしく	-11.4087
ハードケース	-11.4087
現物を見て	-11.4087
下部	-11.4087
こないので	-11.4087
思ってた以上に	-11.4087
食べきり	-11.4088
均にありました	-11.4088
量れる	-11.4088
座椅子	-11.4088
日に注文したのにまだ届きません	-11.4088
ストア	-11.4088
小花	-11.4088
台紙	-11.4088
アロマオイル	-11.4088
ストップ	-11.4088
犬用	-11.4089
円ショップにある	-11.4089
チラ	-11.4089
????	-11.4089
レビューをみて	-11.4089
縫い付けてあ	-11.4089
倍につられて	-11.4089
ダマ	-11.4089
広がり	-11.4089
円で売ってた	-11.4089
パーツを	-11.4089
食べれる	-11.409
問題無く	-11.409
どうなってるんでしょう	-11.409
円だから仕方ないけど	-11.409
重ね着	-11.409
らしいので	-11.409
フランス	-11.409
アキュビュー	-11.4091
冬物	-11.4091
カニ	-11.4091
クズ	-11.4091
まだ使ってませんが	-11.4092
▁pur	-11.4092
効果を感じ	-11.4092
まぶ	-11.4092
以上は	-11.4092
こんなに遅い	-11.4092
未発送	-11.4092
充電できない	-11.4092
またリピしたいです	-11.4092
のせて	-11.4093
滑らないので	-11.4093
のせいで	-11.4093
ツル	-11.4093
買いに行く	-11.4093
穿く	-11.4093
頑張	-11.4093
そして何より	-11.4093
どうせなら	-11.4094
別で	-11.4094
ラメ入り	-11.4094
ムリ	-11.4094
着てみたら	-11.4094
40%	-11.4094
に少し	-11.4094
は買わない	-11.4094
もう二度と利用しません	-11.4094
円が妥当	-11.4094
薄型	-11.4094
予定通り	-11.4095
BB	-11.4095
ネコ	-11.4095
等々	-11.4095
余計な	-11.4096
と判断し	-11.4096
ヨー	-11.4096
ボディー	-11.4096
手洗い	-11.4096
弾力	-11.4096
完全な	-11.4097
余りにも	-11.4097
腹立たしい	-11.4097
申し訳ないですが	-11.4097
円のときに	-11.4097
わぁ	-11.4097
の精油	-11.4097
ガン	-11.4098
こわれました	-11.4098
使いたくて	-11.4098
その時点で	-11.4098
スキ	-11.4098
トル	-11.4098
覚	-11.4099
白っぽい	-11.4099
縮み	-11.4099
カレンダー	-11.4099
わかりにくい	-11.4099
▁th	-11.4099
▁2,,06	-11.4099
かといって	-11.4099
まだ使用してません	-11.4099
生地は薄い	-11.4099
日焼け	-11.4099
メールにて	-11.4099
当たり前ですが	-11.41
ほうがよかった	-11.41
腰回り	-11.41
時々	-11.41
お魚	-11.41
スキン	-11.41
気にいった	-11.41
願います	-11.41
クリ	-11.4101
パンパン	-11.4101
が見えない	-11.4102
いつも使っている	-11.4102
Wi	-11.4103
とても早かったです	-11.4103
ポイント消化で	-11.4104
飼い	-11.4104
シャー	-11.4104
個ずつ	-11.4104
全色	-11.4104
洗い替え用に	-11.4104
には向いてい	-11.4104
いっしょ	-11.4105
に敷いて	-11.4105
年以上愛用しています	-11.4105
月中旬入荷	-11.4105
コト	-11.4105
量が多い	-11.4106
段々	-11.4106
頼りない	-11.4107
大変助かりました	-11.4107
寸前	-11.4107
▁もう	-11.4109
30%	-11.4109
日経ちますが	-11.4109
ぺら	-11.411
水っぽい	-11.411
いいいいいいいいいいい	-11.411
GW	-11.411
週間前に	-11.4111
いい勉強になりました	-11.4111
にもなるし	-11.4112
ついで買いしました	-11.4113
足りないので	-11.4113
少し大きかったです	-11.4114
になりません	-11.4114
かなりお得です	-11.4114
日過ぎに	-11.4115
味で	-11.4115
円は高いかな	-11.4115
それなのに	-11.4115
かぶり	-11.4115
固まって	-11.4115
これが一番	-11.4116
家の中で	-11.4117
ルト	-11.4117
間もなく	-11.4117
★★★★★	-11.4117
お蔵入りです	-11.4117
使いやすそうで	-11.4118
時現在	-11.4118
円で売っている	-11.4118
ノリ	-11.4119
買い足しました	-11.412
こちらのショップさん	-11.412
イメージ通りでした	-11.412
年式	-11.412
知人	-11.412
しっとり感	-11.4121
答え	-11.4122
無くなっ	-11.4122
を選ぶ	-11.4122
だったのが残念です	-11.4122
数百円	-11.4123
荒い	-11.4123
大きく感じましたが	-11.4124
買い物する	-11.4124
痛くて	-11.4124
のかわかりませんが	-11.4124
キャンセルしたいくらい	-11.4124
まだ届いてないので	-11.4124
が進	-11.4125
在庫がある	-11.4125
▁2,,11/30	-11.4125
/3	-11.4125
予想外	-11.4125
分かりにくい	-11.4126
好みだったので	-11.4126
これと	-11.4127
2.3	-11.4127
みたいだし	-11.4127
イイですね	-11.4127
なくなってきて	-11.4128
履いた	-11.4128
ライトブルー	-11.4129
を作る	-11.413
を希望し	-11.413
って言って	-11.413
向いている	-11.413
乾きやすい	-11.4131
など色々	-11.4131
さば	-11.4132
木目	-11.4132
チェア	-11.4132
0.02	-11.4133
ワンポイント	-11.4133
履いてくれ	-11.4134
重くて	-11.4134
あまり期待して	-11.4134
マッ	-11.4134
やり直し	-11.4134
一時間	-11.4135
日近く	-11.4136
送料無料だし	-11.4137
書かれていましたが	-11.4137
支え	-11.4138
写真の通り	-11.4139
少し大きめですが	-11.4139
人生	-11.414
知らなかった	-11.414
スタッフの	-11.4141
もよいので	-11.4141
リピート購入です	-11.4141
捨てます	-11.4141
と思うぐらい	-11.4141
いつになるか	-11.4141
直後	-11.4142
いいとおもいます	-11.4142
調光	-11.4142
とのことでしたので	-11.4142
と書いてありますが	-11.4144
期待大	-11.4144
まだきません	-11.4145
半分ほど	-11.4145
送られてきたので	-11.4145
じま	-11.4146
ここは	-11.4146
SS	-11.4146
リピートする	-11.4147
カードポケット	-11.4147
来ないので	-11.4148
透明感が	-11.4148
使っていませんが	-11.4148
代金を	-11.4148
いい感じに	-11.4148
返品するのも面倒	-11.4149
でちょうどでした	-11.4149
を持っていて	-11.415
不味い	-11.415
できるだけ	-11.415
いいと思いました	-11.4151
流石に	-11.4151
お湯が	-11.4151
がよい	-11.4151
早く送って	-11.4151
現時点では	-11.4154
動くと	-11.4155
一安心	-11.4155
どうにか	-11.4155
製造から	-11.4155
7.	-11.4155
使えるし	-11.4155
か月の娘	-11.4155
セール価格	-11.4156
が薄れ	-11.4156
口から	-11.4156
順	-11.4156
を使用していましたが	-11.4156
ってるので	-11.4156
枕カバー	-11.4157
のお買い物マラソン	-11.4157
羽毛布団を	-11.4157
検討中	-11.4158
生地はペラペラ	-11.4158
サイズぴったりでした	-11.4158
る際に	-11.4159
使用方法	-11.416
こんなことは初めて	-11.416
見えるし	-11.416
飲み始め	-11.416
難点	-11.4161
こちらも購入	-11.4163
日現在まだ	-11.4163
縫製も雑	-11.4164
巻まで	-11.4164
適当に	-11.4166
急ぎの方	-11.4166
メーカーさん	-11.4168
とても残念な	-11.4168
太いです	-11.4168
には見えない	-11.4169
もらうと	-11.4169
バッチリです	-11.417
男の子なので	-11.4171
使わせて頂き	-11.4171
へた	-11.4172
となっていますが	-11.4173
大きさです	-11.4173
分間	-11.4173
バストサイズ	-11.4174
円とはいえ	-11.4175
このお値段なので	-11.4176
普段着	-11.4177
寒いので	-11.4177
体型なので	-11.4178
日に買って	-11.418
買いたくない	-11.418
12/3	-11.418
ウエストゴム	-11.4181
待ちましたが	-11.4181
履いていますが	-11.4181
をはいて	-11.4181
月曜日に	-11.4182
動いてい	-11.4182
のおまけ	-11.4183
シンプルなデザインで	-11.4183
ホワイトを購入しました	-11.4183
無理ですね	-11.4185
が全然	-11.4186
か月の息子	-11.4186
主人と	-11.4186
内容量	-11.4186
これからの季節に	-11.4186
すごくかわいい	-11.4188
たとえ	-11.4188
待っている	-11.4189
はたして	-11.419
にするか	-11.419
臭いも	-11.4192
その間に	-11.4192
だったかも	-11.4192
にして良かったです	-11.4192
このお値段は	-11.4192
違和感を感じ	-11.4193
届いた商品を見て	-11.4194
匂いは	-11.4194
はきやすい	-11.4195
着られる	-11.4195
値段相応です	-11.4195
違和感が	-11.4196
?????	-11.4198
るわけでも	-11.4198
のも面倒なので	-11.4198
ちゃっちいです	-11.4198
もうこちらで	-11.42
安くなる	-11.42
円ショップで購入した	-11.4201
がひどく	-11.4201
12.5	-11.4201
それよりも	-11.4202
を買ったけど	-11.4203
▁1,&#10067;,	-11.4205
低価格で	-11.4205
TO	-11.4205
でも良かったかも	-11.4206
スタッフの方	-11.4206
(。・	-11.4209
赤ちゃんの	-11.4211
(6	-11.4212
かんじです	-11.4212
げました	-11.4212
早く届いて欲しい	-11.4212
ミリを購入	-11.4213
写真ほど	-11.4214
▁2,,001	-11.4215
別々に	-11.4215
場で	-11.4216
期間が	-11.4216
いいものです	-11.4217
何とも	-11.4218
パッと見	-11.4219
の縫い目	-11.4219
ただ今	-11.4221
ないんです	-11.4222
フィットしない	-11.4223
のはちょっと	-11.4224
っていうの	-11.4225
変わっていました	-11.4225
個ほど	-11.4225
のような感じ	-11.4225
だして	-11.4226
を加えて	-11.4226
とは思います	-11.4226
元気	-11.4227
感じはし	-11.4227
左右で	-11.4227
注文してしまいました	-11.4228
あたりから	-11.423
生地もしっかりして	-11.4231
こないです	-11.4232
なかったため	-11.4233
発送とのことでしたが	-11.4235
店から	-11.4235
mg	-11.4235
によると	-11.4235
の中でも	-11.4238
値引き	-11.4238
→12	-11.4238
商品自体も	-11.424
悲しいです	-11.4241
暑くな	-11.4241
号購入	-11.4242
削り	-11.4242
だね	-11.4242
間に合わせ	-11.4242
間違いなし	-11.4244
届きませんでした	-11.4245
主人は	-11.4245
髪の毛を	-11.4245
手に入らない	-11.4245
を着る	-11.4246
あるだけで	-11.4247
影響	-11.4248
とも思い	-11.4249
油分	-11.425
試してみましたが	-11.4251
イメージと違い	-11.4252
問題が	-11.4254
ボロボロと	-11.4254
自宅の	-11.4255
回目くらい	-11.4255
650	-11.4256
と言われた	-11.4257
生地感	-11.4257
してきました	-11.4258
あったり	-11.4258
かったと思います	-11.4259
踏んで	-11.426
いいかんじ	-11.426
才の	-11.4263
配色	-11.4264
▁P	-11.4264
下がってくる	-11.4264
はいってい	-11.4265
有り難いです	-11.4265
忘れられてい	-11.4266
リピートしたいと思います	-11.4266
ふわふわで	-11.4267
が雑な	-11.4268
が悪くなり	-11.4269
▁2,,10%	-11.427
快適です	-11.4271
商品説明には	-11.4271
ふかふか	-11.4271
を読み	-11.4271
いっか	-11.4274
キツかったです	-11.4275
安価に	-11.4275
買わなくて良かった	-11.4277
枚以上	-11.4278
において	-11.4278
とてもよいです	-11.4278
暗い色	-11.4279
お店です	-11.4279
お店が	-11.428
使い道が	-11.428
季節に	-11.4281
ステンレスで	-11.4281
類は	-11.4283
カ所	-11.4283
承知して	-11.4283
ピンクっぽい	-11.4283
問題あり	-11.4284
も大丈夫	-11.4284
行かない	-11.4286
円ショップレベル	-11.4286
削れ	-11.4286
おなか	-11.4287
質感も	-11.4287
ウチの	-11.4287
レール	-11.4289
できなかったので	-11.4291
出かける	-11.4295
同じ様な	-11.4297
したいと思い	-11.4297
なってきたので	-11.4299
喜んでもらえ	-11.4299
がやたら	-11.43
かずに	-11.43
範囲が	-11.4301
1800	-11.4301
るようで	-11.4301
フタが	-11.4302
カラージェル	-11.4303
を見つけました	-11.4304
期待しすぎ	-11.4305
まくって	-11.4305
円台	-11.4305
理由が	-11.4306
▁2,0.6	-11.4308
在庫ある	-11.4309
なぁと	-11.431
違うタイプ	-11.431
立派で	-11.431
食べやすい	-11.4311
購入前に	-11.4311
100+	-11.4312
休日	-11.4313
手触りは	-11.4316
とても便利です	-11.4316
かたい	-11.4317
なかった為	-11.4317
汚れや	-11.4318
かゆくな	-11.4318
利用することはない	-11.4319
な感じで	-11.4319
来年の	-11.432
待て	-11.4321
あると便利	-11.4322
するタイプ	-11.4323
で着用し	-11.4325
小さいかな	-11.4326
同じでした	-11.4326
過去の	-11.4326
歳の娘の	-11.4327
素材感も	-11.4332
好みでした	-11.4332
遅れて	-11.4333
で検索し	-11.4333
シルエットが	-11.4334
頂ける	-11.4334
透ける	-11.4335
ついてくる	-11.4336
ひどすぎ	-11.4336
こちらのタイプ	-11.4339
脇の	-11.4339
クリーム色	-11.434
にすればよかったです	-11.4341
部屋着に	-11.4341
スムーズでした	-11.4342
お風呂で	-11.4342
注文受付	-11.4343
同サイズ	-11.4345
値段が値段	-11.4345
快適でした	-11.4346
なさすぎ	-11.4347
かわからず	-11.4347
するのですが	-11.4348
期待していただけに残念	-11.4349
明るさも	-11.4349
ファスナーと	-11.4349
届くのか不安	-11.4351
か月の息子に	-11.4352
文字も	-11.4354
持っていき	-11.4354
利用でき	-11.4355
▁笑	-11.4355
画面が	-11.4356
線を	-11.4356
ゴミです	-11.4358
,"10	-11.4359
違う商品	-11.4362
ファスナーも	-11.4363
すればよかったです	-11.4365
お肌	-11.4365
▁2,"	-11.4365
良いですよ	-11.4366
今日から	-11.4367
次も	-11.4367
合わせると	-11.4367
ルー	-11.4367
連絡もなし	-11.4368
すれば大丈夫	-11.4368
すぎでした	-11.4372
速い	-11.4374
戻し	-11.4374
ものが入っていました	-11.4375
のメールが来た	-11.4375
のお知らせ	-11.4377
未だ届かず	-11.4377
落ちてきて	-11.4381
マットな	-11.4382
流行	-11.4383
じゃないし	-11.4385
他の店舗	-11.4386
色味も	-11.4388
の多い	-11.4388
感が増し	-11.4391
持ちやすい	-11.4391
質感は	-11.4393
,10000	-11.4393
んこに	-11.4395
なっているので	-11.4395
確認出来	-11.4395
あるショップ	-11.4397
効果がある	-11.4398
を作りました	-11.4398
us	-11.44
キャップが	-11.44
ることにしました	-11.4401
折り目	-11.4401
良いのかな	-11.4401
もちゃんと	-11.4402
あるのかな	-11.4403
大きいサイズの	-11.4403
柔らかさ	-11.4404
ついでに購入しました	-11.4405
石を	-11.441
中身も	-11.4413
についても	-11.4413
パーツは	-11.4415
袋に入って	-11.4415
--------	-11.4415
しれません	-11.4416
月下旬予定	-11.4416
着心地も	-11.4416
るために購入しました	-11.4417
は最高	-11.4417
▁1,&#10024;,	-11.4418
買うと	-11.4425
違うところ	-11.4428
たかが	-11.4429
ハマり	-11.4434
の言葉	-11.4435
まります	-11.4435
するための	-11.4437
似合い	-11.4437
ジャケットは	-11.4442
のではないかと思いま	-11.4442
に近いです	-11.4443
にすれば良かった	-11.4445
の予備	-11.4447
試しに購入しました	-11.4449
癒されます	-11.445
寝心地は	-11.4451
痩せる	-11.4452
と変わりません	-11.4452
壊し	-11.4453
だす	-11.4457
均とは	-11.4459
様で	-11.4461
日に届いた	-11.4462
PM	-11.4463
書くの	-11.4464
番を購入しました	-11.4464
そこに	-11.4465
改善して	-11.4465
使ってみます	-11.4465
よほど	-11.4465
につき	-11.4466
いろいろと	-11.447
アリです	-11.4471
解らない	-11.4471
の無い	-11.4472
無いの	-11.4473
円は高すぎ	-11.4473
の食感	-11.4474
残念な気持ち	-11.4475
通りの	-11.4476
綺麗な色です	-11.4477
綺麗でした	-11.4478
等を	-11.4479
ダメになる	-11.448
お願いしたい	-11.4481
高級感もあり	-11.4482
ますように	-11.4483
土日	-11.4483
みたいでした	-11.4483
好きでした	-11.4485
はいいと思いますが	-11.4485
とてもかわいらしく	-11.4486
その時の	-11.4489
倍の時	-11.449
見てから	-11.4491
自宅用に	-11.4493
をチェックし	-11.4494
履かせてみ	-11.4496
連絡して	-11.4499
は同じ	-11.4501
期待でき	-11.4502
in	-11.4502
新たに	-11.4504
諦めます	-11.4504
も安心して	-11.4505
お安くて	-11.4506
なりますが	-11.4508
予想より	-11.451
内側が	-11.4512
安くて可愛い	-11.4512
むけ	-11.4513
モノは	-11.4514
見やすく	-11.4514
も気に入って	-11.4515
質感が	-11.4515
ランド	-11.4515
おか	-11.4516
作るの	-11.4517
肩に	-11.4517
が目立ち	-11.4517
葉が	-11.4517
すごく小さい	-11.4519
上品で	-11.4519
注文したのにまだ届きません	-11.452
てん	-11.452
購入しません	-11.4522
寿命が	-11.4523
ながらも	-11.4524
るんでしょうか	-11.4527
時でも	-11.4527
174	-11.4528
小さめです	-11.4528
超えて	-11.4529
ぶかぶかで	-11.4529
だけでは	-11.4533
のものです	-11.4537
290	-11.454
一切連絡	-11.454
身体に	-11.4542
人と	-11.4542
見つけられ	-11.4543
円の送料	-11.4544
面倒だ	-11.4545
悩みました	-11.4546
円だったので購入しました	-11.4546
ラフ	-11.4548
足首が	-11.4548
といって	-11.4548
部は	-11.4552
売ってない	-11.4553
やせ	-11.4555
熱くな	-11.4555
先月	-11.4556
一度に	-11.4557
中身が見え	-11.4557
に問題	-11.4557
見えるので	-11.4558
重たく	-11.4562
109	-11.4564
って思った	-11.4565
と思って購入したのに	-11.4567
月初旬に入荷	-11.457
やっ	-11.4572
金色	-11.4573
胸が	-11.4573
9-0	-11.4574
揃えられ	-11.4574
▁キ	-11.4574
普段から	-11.4575
良さそうな	-11.4576
-4,	-11.4577
れば問題ない	-11.4578
立ってい	-11.4581
とにかく安っぽい	-11.4583
の反応	-11.4583
のこ	-11.4583
て下さい	-11.4583
よく食べ	-11.4584
は利用しません	-11.4584
190	-11.4585
減ら	-11.4586
ような感じ	-11.4588
た為	-11.4589
てきたので	-11.4589
端が	-11.459
糸は	-11.4592
缶詰	-11.4593
も良かったので	-11.4594
きそうで	-11.4595
▁F	-11.4595
使うのが	-11.4596
可愛いですが	-11.4599
注文しても	-11.46
日くらいで	-11.46
ることはありません	-11.4602
の段階で	-11.4602
安っぽかったです	-11.4607
これはひどい	-11.4608
してありました	-11.4609
グレーを購入しました	-11.4611
肉が	-11.4612
日に購入しました	-11.4612
するために購入しました	-11.4613
の穴の	-11.4613
肌も	-11.4615
ておくと	-11.4618
キレイで	-11.4618
率が	-11.462
みな	-11.462
そのため	-11.462
ことはないでしょう	-11.4622
裾の	-11.4622
到着したのは	-11.4625
▁D	-11.4625
細すぎ	-11.4626
持ってる	-11.4626
蕾	-11.4634
☆,100	-11.4635
機能は	-11.4636
日到着予定	-11.4636
つけても	-11.4637
誕生日に	-11.4644
っぽい感じ	-11.4646
レビューにあった	-11.4649
品物です	-11.4651
メールには	-11.4651
気をつけて	-11.4653
黒で	-11.4658
脚が	-11.4661
を探していたところ	-11.4663
少し残念でした	-11.4665
ヒールが	-11.4666
早いです	-11.4667
落ちます	-11.4668
くなったので	-11.4671
たけ	-11.4672
なかなかないので	-11.4675
グラムで	-11.4676
・・・・・・・・・・・・・・	-11.4676
ゴワゴワして	-11.4678
着心地が	-11.468
色合いでした	-11.4681
形で	-11.4683
していただきたいです	-11.4685
うのは	-11.4687
セール中	-11.4687
わせ	-11.4688
種類で	-11.4692
発送してくれ	-11.4698
瞬間	-11.47
商品届きました	-11.4703
それからは	-11.4703
変色して	-11.4709
円の時に購入	-11.4709
くれます	-11.4709
発送完了	-11.471
とのことです	-11.4711
画像と	-11.4712
▁2,,02	-11.4714
面倒な	-11.4716
が良いと思います	-11.4717
の午前中に届きました	-11.4717
シールで	-11.4718
されてしまいました	-11.4719
大満足の	-11.4721
なかなかいい	-11.4722
にと購入しましたが	-11.4723
充電できません	-11.4725
10+	-11.473
のコメント	-11.4731
はかか	-11.4732
足の裏	-11.4733
の重さ	-11.4738
嬉し	-11.4739
着せたい	-11.474
が一番好き	-11.4741
重宝する	-11.4745
ブリ	-11.4746
残る	-11.4749
着せる	-11.4751
いただける	-11.4752
一時	-11.4753
,09	-11.4754
近くのお店で	-11.4754
中身の	-11.4756
化粧水を	-11.4756
プレゼントとして購入しました	-11.4756
とは言えません	-11.4757
クリームが	-11.4762
娘に購入しました	-11.4763
予定でしたが	-11.4766
の孫に	-11.4768
ついてるし	-11.4768
もして	-11.477
本商品	-11.4773
食べてます	-11.4773
に行っても	-11.4774
代用	-11.4774
スク	-11.4774
だったのかな	-11.4775
変に	-11.4777
むら	-11.4778
実店舗で	-11.4778
ピアスに	-11.4783
外側に	-11.4786
を頂きました	-11.4786
なりますね	-11.4787
ショップからの	-11.4787
ずり落ち	-11.4788
てましたが	-11.4797
梱包で	-11.4797
返品はしません	-11.4797
ていませんが	-11.4798
なったら	-11.4801
千切れ	-11.4802
▁1,,04	-11.4807
到着が楽しみです	-11.481
予約した	-11.4812
すぎると	-11.4813
しょうがないのかな	-11.4821
お品でした	-11.4823
白く	-11.4824
いかない	-11.4825
トラン	-11.4825
"1,000	-11.4825
→11/	-11.4826
×4	-11.4829
日現在も	-11.4831
商品を見て	-11.4836
価格が安い	-11.4836
クタ	-11.4837
着心地	-11.484
ソン	-11.484
佐川の	-11.4845
バックの	-11.4846
ピンクを買いました	-11.4849
均の商品	-11.4849
のほうが断然	-11.4849
画像が	-11.485
、17	-11.485
続けてみようと思います	-11.4851
示	-11.4853
ゆとりがある	-11.4855
効果ある	-11.4856
くなってしまった	-11.4858
らないと	-11.4859
状況は	-11.4859
を選択しました	-11.486
の黒を購入	-11.4862
デザインが可愛い	-11.4862
けるので	-11.4863
出すなら	-11.4863
は助かります	-11.4864
出るので	-11.4866
オイルが	-11.4867
いただけない	-11.4868
日ほど使用し	-11.487
&#13213;	-11.4872
と言われて	-11.4877
使い勝手も	-11.4877
いる感じ	-11.4884
はなかったけど	-11.4885
ミリも	-11.4885
は安い	-11.4887
とは言えない	-11.4888
として使用し	-11.4889
弱すぎ	-11.4889
も違う	-11.4892
キツイです	-11.4892
になってしまいましたが	-11.4896
に騙されました	-11.4897
じゃありません	-11.4898
表示され	-11.4903
職場で	-11.4904
粒が	-11.4908
電池が	-11.4911
に惹かれて購入	-11.4911
切ら	-11.4914
やっています	-11.4914
しやすいです	-11.4914
はたっぷり	-11.4919
物だったので	-11.4921
の目安	-11.4925
靴は	-11.4925
のおかげ	-11.4925
洗う	-11.4925
かなりいいです	-11.4933
ーター	-11.4933
ガンガン	-11.4935
のイメージ	-11.4936
なかったのが	-11.4939
がメイン	-11.4942
接着剤	-11.4947
点では	-11.4947
最低な	-11.4948
均以下の	-11.4948
くので	-11.4948
とおも	-11.4953
はありがたい	-11.4954
してしまい	-11.4954
ようかと思って	-11.4958
けな	-11.4958
点を	-11.496
の方と	-11.4962
してみて	-11.4964
着ました	-11.4968
配送業者の	-11.4968
色と	-11.4972
延期	-11.4976
変わりない	-11.4978
になりそうですが	-11.498
お手ごろ	-11.4983
中ですが	-11.4985
価格の	-11.4987
髪に	-11.4987
に比べ	-11.4988
あたりの	-11.4992
いいかもです	-11.4992
を買うこと	-11.4994
納得して	-11.4997
一番上	-11.5003
は三	-11.5005
同様の	-11.5005
に期待して	-11.5016
貼ってあり	-11.5016
まあいいか	-11.5019
延長	-11.5025
が有る	-11.5028
の太さが	-11.5029
よかったな	-11.5029
フライパンで	-11.5031
使用してみて	-11.5035
1.4	-11.5036
具合は	-11.5039
写真が	-11.5045
白っぽく	-11.505
経過	-11.505
10/15	-11.5057
とてもキレイ	-11.5059
は元気	-11.5062
コンパクトに	-11.5064
明日の	-11.5066
あったら	-11.5066
腰に	-11.5069
スカートに	-11.5069
の硬さ	-11.5073
多少は	-11.5074
円の価値は	-11.5074
サイズもピッタリで	-11.5076
美味しくない	-11.5078
不安になり	-11.508
ボタンは	-11.5081
の感想	-11.5082
オイルを	-11.5082
018	-11.5085
されておらず	-11.5085
太ももが	-11.5087
心配しました	-11.5088
縫い目も	-11.5089
程度ですが	-11.5091
円から	-11.5091
サイズ感は	-11.5091
ボトルの	-11.5091
梱包されて	-11.5093
いいや	-11.5101
したいので	-11.5102
シールの	-11.5106
普通は	-11.5107
になってきました	-11.5111
プリン	-11.5112
がついた	-11.5113
わかりますが	-11.5116
してもらいた	-11.512
安かったです	-11.5135
ることなく	-11.5135
があるのが	-11.5139
ed	-11.5141
指が	-11.5143
だったのは	-11.5143
雰囲気が	-11.5147
円の価値はない	-11.5147
似	-11.5147
ラッピングも	-11.5147
アクセサリーに	-11.5149
レースの	-11.5149
歯の	-11.515
リピートで	-11.5151
ことができます	-11.5154
その後の	-11.5156
まで使える	-11.5159
るばかり	-11.516
していたのですが	-11.5161
(5	-11.5167
無難	-11.5169
予約して	-11.5172
▁1,★	-11.518
困	-11.518
☆3	-11.5183
持ちません	-11.5183
言う事	-11.5184
枚買いました	-11.5189
ER	-11.519
利用させていただき	-11.5198
トン	-11.5204
に使っています	-11.5205
のとき	-11.5206
使いづら	-11.5207
たと思います	-11.5209
仕方ないか	-11.5211
だけですが	-11.5213
んだと思います	-11.5214
プレ	-11.5225
ものですが	-11.5226
言っても	-11.5229
頃に	-11.5234
ゴールドの	-11.5234
袋は	-11.5237
ついで	-11.5242
をカットして	-11.5242
今日届いた	-11.5252
買っていましたが	-11.5254
んじ	-11.5255
にはならない	-11.5257
すき	-11.5258
る予定です	-11.5263
色違いを	-11.5266
個セットで	-11.5266
750	-11.5271
できるのは	-11.5271
中学生	-11.5272
の花	-11.5273
下旬に	-11.5274
はないでしょうか	-11.5277
1;	-11.5277
速く	-11.5278
て満足です	-11.5278
違うので	-11.5279
いっぱいに	-11.5283
購入したけど	-11.5289
底に	-11.529
たりと	-11.5296
せます	-11.5297
無事届き	-11.5304
申	-11.5309
にぴったりです	-11.5314
持ち手が	-11.5317
シア	-11.5321
れている	-11.5321
アップして	-11.5323
しばらく使ってみ	-11.5327
だらけの	-11.5328
サンプルも	-11.5333
決定です	-11.5337
は別に	-11.5343
生地に	-11.5344
の効果は	-11.5344
,0.2	-11.5346
かわいいのですが	-11.5348
購入するのは	-11.5348
今月	-11.5348
酷いです	-11.5348
気持ちいいです	-11.5359
でもよかった	-11.5359
▁6	-11.536
がくる	-11.5362
ホース	-11.5364
いつまで	-11.5365
は早い	-11.5373
167	-11.5376
暖ま	-11.5377
忘れて	-11.5377
やってます	-11.5382
!?,10	-11.5382
着いた	-11.5383
日かかる	-11.5384
円で売って	-11.5384
▁かなり	-11.5385
年ほど使って	-11.5386
くらいなら	-11.5388
お部屋	-11.5394
厚みがあり	-11.5399
ッド	-11.5399
990	-11.5401
いいものを	-11.5404
ッツ	-11.5406
るつもりで	-11.5408
悲し	-11.5411
自分でも	-11.5411
お得だ	-11.5413
効果なし	-11.5418
まれて	-11.5418
CM	-11.5419
もー	-11.5422
に変更して	-11.5428
al	-11.5429
てみようと思います	-11.543
は便利	-11.5432
旅行で	-11.5435
もっと安い	-11.5439
と同梱	-11.5441
した方が	-11.5443
たりするので	-11.5445
行った	-11.5448
メインの	-11.5449
285	-11.545
年中	-11.5451
の傷	-11.5452
味でした	-11.5455
きれいな色	-11.5457
立てて	-11.5458
またレビューします	-11.5464
服用	-11.5467
旦那に	-11.5469
を置いて	-11.5469
の分も	-11.5471
のタイプ	-11.5475
が生じ	-11.5477
001	-11.5479
le	-11.5483
したんですが	-11.5483
分かれ	-11.5485
迷っ	-11.5487
あわなかった	-11.5488
感じだったので	-11.5488
▁1,,10000	-11.5489
とっても可愛い	-11.5492
,04	-11.5498
歳まで	-11.5499
他の商品も	-11.5503
入金して	-11.5504
連絡すると	-11.5507
少し大きいです	-11.5511
のビニール	-11.5516
ってくれるので	-11.5521
倍に惹かれ	-11.5524
医師	-11.5533
触	-11.5534
一生	-11.5535
よかったと思います	-11.5535
135	-11.5536
ファーの	-11.5537
チェリー	-11.5537
なってるし	-11.5539
クラック	-11.5542
代目	-11.5543
レビューです	-11.5551
亡	-11.5556
アマゾン	-11.5561
軽いです	-11.5561
あげた	-11.5572
つもりでしたが	-11.5574
電話で問い合わせ	-11.5579
が広く	-11.5579
あまりの	-11.5582
ていたのが	-11.5588
背中が	-11.559
暖か	-11.5592
開封し	-11.5599
マス	-11.56
日注文で	-11.5601
の情報	-11.5602
待たされた	-11.5604
*・	-11.5607
こちらと	-11.5608
長く使え	-11.5613
わかり	-11.5614
を出す	-11.5615
入れられて	-11.5619
騙されました	-11.5619
も出来	-11.562
試着した	-11.5621
均一で	-11.5623
いてます	-11.5625
が酷すぎ	-11.5625
の寿命	-11.5625
も購入しましたが	-11.5625
合わせやす	-11.5628
も一緒	-11.5628
短すぎ	-11.5631
じゃないか	-11.5631
入れるのに	-11.5636
欲しくて	-11.5637
写真で	-11.5638
▁2,,0.2	-11.5639
を使っているので	-11.5641
に最適	-11.5645
充電を	-11.5649
て嬉しかったです	-11.5651
消えました	-11.5652
使ってません	-11.5652
効	-11.5653
近所のスーパー	-11.5653
となっていた	-11.5659
黒を購入	-11.566
年使って	-11.566
にされ	-11.5661
開けてみたら	-11.5662
より安く	-11.5664
枚でした	-11.5666
洗濯して	-11.5666
持っているので	-11.5668
♯	-11.5672
使用していない	-11.5676
発注しました	-11.5685
問題なかったのですが	-11.5686
買うことができました	-11.5687
したことが	-11.5687
日過ぎても	-11.5691
レー	-11.5691
978	-11.5698
しまえば	-11.5699
の問題で	-11.5703
そのとき	-11.5703
とても丁寧で	-11.5704
た感じは	-11.5705
メールで連絡	-11.5712
シュシュ	-11.572
発想	-11.5724
/19	-11.5724
してくださって	-11.5731
ダメな	-11.5731
水を吸	-11.5734
するべきです	-11.5738
????,	-11.5742
良くなり	-11.5743
仕方ないのかもしれませんが	-11.5745
よれ	-11.5747
ちくちく	-11.5747
使いたく	-11.5755
る場合は	-11.5755
なってきました	-11.576
が付いている	-11.576
消えて	-11.5763
使う予定です	-11.5767
円には	-11.5767
に到着した	-11.5768
ゴワゴワ	-11.5768
・)	-11.5775
違うと思います	-11.5776
ってしまい	-11.5781
もついていました	-11.5782
はしませんでしたが	-11.5786
広がって	-11.5786
て欲しいです	-11.579
161	-11.579
は問題ありません	-11.5792
と書い	-11.5792
でなければ	-11.5793
で使用した	-11.5793
ンズ	-11.5793
買えない	-11.5794
とれません	-11.5795
日以内	-11.58
気に入りましたが	-11.5802
は高いです	-11.5803
日に注文して今日	-11.5803
出来たので	-11.5804
10/12	-11.5805
好きな香り	-11.5806
翌日に	-11.5806
到着は	-11.5811
均で売って	-11.5811
使う分には	-11.5822
擦れ	-11.5823
話題	-11.5825
顔や	-11.5826
するつもりです	-11.5827
開いた	-11.5828
回目の	-11.5828
入ってなかった	-11.5828
電池を	-11.583
購入しませんでした	-11.5834
490	-11.5836
うつ	-11.5837
長いので	-11.5839
写真とは	-11.5839
なんですか	-11.584
はありがたいです	-11.5841
しいです	-11.5843
余裕があって	-11.5846
写メ	-11.5853
美味し	-11.5857
きつかったです	-11.5857
となります	-11.5858
実物を見	-11.5859
が入っており	-11.586
!!!!!!!!!	-11.5861
一粒	-11.5864
は簡単でした	-11.5872
・・・・・・・・・・・・・・・	-11.5873
メール便でも	-11.5874
LE	-11.5881
やすかったので	-11.5883
グリーンを購入	-11.5884
▁2,,07	-11.589
もう少し小さい	-11.5893
を着用し	-11.5898
納期は	-11.5898
なんですけど	-11.5905
荷物を	-11.5905
色違いも	-11.5907
ノー	-11.5907
の仕方	-11.5908
ので再度購入	-11.5908
であった	-11.591
キュ	-11.5911
お金返	-11.5912
されてます	-11.5913
年以上愛用して	-11.5913
はダメですね	-11.5915
だから仕方ない	-11.5916
試着し	-11.5917
ーは	-11.5918
る状態	-11.5918
気がする	-11.592
を購入したので	-11.5921
の袋が	-11.5921
ひき	-11.5922
装着は	-11.5923
に発注	-11.5923
素材を	-11.5923
サイズを注文	-11.5924
違いは	-11.5926
があったり	-11.5927
って言う	-11.5928
ですよー	-11.5931
他にも色々	-11.5932
履きます	-11.5933
買うなら	-11.5933
レベルで	-11.5938
つけたり	-11.5942
お得なので	-11.5947
の太さ	-11.5956
乗せて	-11.5956
アシ	-11.5957
買いに行	-11.5962
10/19	-11.5963
の保証	-11.5964
白で	-11.5964
より大きい	-11.5968
をしていた	-11.5969
っく	-11.597
クオリティー	-11.597
日の朝	-11.5972
いうと	-11.5974
悩んだ	-11.5974
指で	-11.598
されているのか	-11.5984
▁2,03	-11.5986
かなって感じです	-11.5988
どうかは	-11.5988
部分だけ	-11.5989
楽しいです	-11.599
だなと思い	-11.5992
用紙	-11.5994
薄手で	-11.5994
調べたら	-11.5996
美味しいし	-11.6002
いたものの	-11.6005
お安いし	-11.6006
を付けた	-11.6008
を使っているの	-11.6009
高いな	-11.6011
カラフルな	-11.6013
やすいと思います	-11.6015
に購入したのですが	-11.6019
シャンプーと	-11.6019
が待ち遠しいです	-11.6023
の子どもに	-11.6023
の差が	-11.6027
薄すぎて	-11.6029
よく見て	-11.603
しょうがないですね	-11.6031
顔を	-11.6031
ったけど	-11.6033
きませんでした	-11.6034
キッ	-11.6034
かわいいのに	-11.6036
あんな	-11.6039
るでしょう	-11.6042
のミシン	-11.6047
▁2,103	-11.6049
年ほど前から	-11.6051
良くないです	-11.6051
にこ	-11.6051
越し	-11.6051
味を	-11.6054
小さめで	-11.6055
だろうと思い	-11.6056
清潔	-11.6064
ましです	-11.6064
ホワイトを	-11.6067
大切	-11.6074
キャップの	-11.6074
んだろうけど	-11.6075
と悩み	-11.6076
度目	-11.6079
ラメが	-11.6082
モチーフ	-11.6086
と一緒に購入	-11.6087
安っぽいし	-11.6089
あまり変わらない	-11.609
もいいですね	-11.6091
買わなきゃ良かった	-11.6094
をしている	-11.6096
倍で購入	-11.6096
イオン	-11.6097
ホールの	-11.61
価格です	-11.61
カード決済	-11.6101
型に	-11.6105
スコ	-11.611
色合いで	-11.6112
満足の	-11.6116
両方購入	-11.6119
が強くて	-11.612
近所で	-11.6121
ホーム	-11.6122
全く問題ありません	-11.6123
予定だったのに	-11.6125
いい加減な	-11.6126
に混ぜて	-11.6129
,108	-11.6129
にすごく	-11.6131
よって	-11.6132
折れて	-11.6133
日発送で	-11.6134
てきてしまいました	-11.6134
我が子	-11.6135
アリ	-11.614
個人差	-11.614
ブロー	-11.6143
気になるので	-11.6144
円ショップにも	-11.6146
あわない	-11.6147
利用した	-11.6147
なくなってしまい	-11.6148
考慮	-11.6148
色は写真	-11.615
ついてません	-11.6152
日に注文した	-11.6153
イベントが	-11.6154
ルビ	-11.6154
るのが楽しみ	-11.6155
がきつく	-11.6156
に疑問	-11.6157
の感じが	-11.6158
この福袋	-11.616
ことが出来ました	-11.6161
枚しか	-11.6162
分ぐらい	-11.6164
焦げ	-11.6167
危	-11.617
焦	-11.6172
に関して	-11.6173
を想像して	-11.6173
あわず	-11.6173
重要	-11.6176
がおかしい	-11.6177
一通	-11.6178
使っていたのですが	-11.6182
造りも	-11.6182
付けた感じ	-11.6183
濃いです	-11.6184
しておいて	-11.6185
はないかな	-11.6186
るかも	-11.6187
まとま	-11.6188
補充	-11.6191
自宅用	-11.6191
扱ってい	-11.6199
▁2,&#11088;	-11.6199
回目の購入	-11.62
りする	-11.6201
問題ないと思います	-11.6206
引っ張ると	-11.6206
連絡がきました	-11.6207
ちゃち	-11.621
レビューがよかった	-11.621
がよくなった	-11.6212
デザインは可愛いので	-11.6212
どうなっているの	-11.6212
お出かけ	-11.6213
をやめ	-11.6213
迷いました	-11.6214
穴があ	-11.6214
RI	-11.6216
惜しい	-11.6217
使用出来	-11.6219
家族も	-11.6219
厚みは	-11.6219
この味	-11.622
るみたい	-11.6221
同様に	-11.6221
の処理が	-11.6223
違	-11.6226
と思って買いました	-11.6227
がないから	-11.6227
▁私は	-11.6229
っきり	-11.6232
タイミング	-11.6233
指定日に	-11.6234
簡易	-11.6237
硬く	-11.6238
楽天市場	-11.6238
円という安さ	-11.6239
とてもかわいくて	-11.6244
ローション	-11.6245
を使わ	-11.6247
かと思いきや	-11.6247
▁2,,08	-11.6249
書けません	-11.6252
ならないので	-11.6254
しっとりして	-11.6255
はなかなかない	-11.6256
んじゃないかな	-11.6257
たったの	-11.6257
くっ付	-11.6257
ほぼ同じ	-11.6258
サイズを買いました	-11.6259
にあるので	-11.6259
均などで	-11.6263
28-0	-11.6264
お高い	-11.6265
色使い	-11.6266
の日記	-11.6269
発売日に	-11.6272
触れ	-11.6273
しっかりしているし	-11.6274
と返信	-11.6274
服を	-11.6277
地の	-11.6277
洗うと	-11.6278
もらえたので	-11.628
が嫌い	-11.628
できるし	-11.6282
薄すぎる	-11.6284
びました	-11.6284
の部分の	-11.6285
するよう	-11.6285
即購入	-11.6286
スタッフ	-11.6289
を購入しようと	-11.6291
かゆ	-11.6291
に合わない	-11.6292
愛犬	-11.6294
が落ちた	-11.6295
使用できません	-11.6296
させてもらいます	-11.6296
散々	-11.6297
現在届きません	-11.6298
華奢	-11.6304
確認すると	-11.6308
を使用していますが	-11.631
を開けて	-11.631
出かけ	-11.6312
レビューの評価	-11.6314
何にでも	-11.6314
使っていました	-11.6316
洗濯も	-11.6318
浮	-11.6319
問い合わせをした	-11.632
値段相応かな	-11.6321
んだら	-11.6322
ておいて	-11.6324
続けています	-11.6325
糸が出て	-11.6326
毎	-11.6326
ってきます	-11.6328
考えられ	-11.6329
小さかったので	-11.6329
と言うので	-11.633
一つです	-11.6335
もよかったかな	-11.6335
に設置して	-11.6336
頂	-11.6336
ふかふかで	-11.6338
きいてい	-11.6339
すぎるので	-11.6339
素材なので	-11.634
連絡します	-11.634
驚	-11.6342
307	-11.6342
ではなくて	-11.6346
-03	-11.6346
比べると	-11.6346
踏	-11.6346
クレ	-11.6347
味が濃	-11.6347
/28	-11.6349
がありますし	-11.6353
問い合わせても	-11.6354
倍にひかれて	-11.6354
こん	-11.6355
友人の	-11.6355
サイズ調整	-11.6358
安いですが	-11.6358
でかすぎ	-11.6359
ステー	-11.6362
が安かったので	-11.6362
祝いに	-11.6362
売っていない	-11.6362
在庫がない	-11.6362
相当な	-11.6362
をあげ	-11.6364
発送したとのメール	-11.6368
たいところ	-11.6368
ないように思います	-11.6368
ラッシュ	-11.6372
サイズなので	-11.6372
のライン	-11.6374
が気になり	-11.6375
勧め	-11.6378
激安で	-11.6378
日本語	-11.6379
お安かったので	-11.6379
対応で	-11.638
が広が	-11.6382
そうだったので	-11.6383
喜んでいました	-11.6384
お願いして	-11.6384
早々	-11.6384
被	-11.6387
のアルミ	-11.6387
息子用に	-11.6388
ラインストーン	-11.6391
イチゴ	-11.6392
劣る	-11.6392
使い易	-11.6392
を重ねて	-11.6393
大喜び	-11.6394
期待していたので	-11.6396
粗	-11.6397
きな粉	-11.6397
乾	-11.6401
円ですから	-11.6402
順次	-11.6403
想像通り	-11.6403
薄くなり	-11.6404
素晴らし	-11.6404
その日の	-11.6405
直後に	-11.6407
ダブ	-11.6409
スポ	-11.6413
また購入します	-11.6413
大正解でした	-11.6413
少しぽっちゃり	-11.6414
利用したいです	-11.6414
!!!,10	-11.6415
を知り	-11.6418
例	-11.6419
ルーペ	-11.642
私の場合	-11.642
▁1,0.1	-11.6421
どうしたら	-11.6423
程度しか	-11.6423
冷	-11.6424
ことはありません	-11.6424
使えるもの	-11.6426
の組み合わせ	-11.6427
もらいたいです	-11.6427
良ければ	-11.6427
割りに	-11.6428
少し余裕がある	-11.6429
有難う	-11.6429
ないんですね	-11.643
ウェ	-11.643
ダニ	-11.643
▁110	-11.6431
いただく	-11.6431
ヶ月程	-11.6432
に置く	-11.6433
しただけで	-11.6433
充電できました	-11.6434
が載って	-11.6434
乾かす	-11.6438
我が家に	-11.6439
新鮮	-11.6439
れば良い	-11.6439
ができませんでした	-11.644
ドラゴンボール	-11.6442
ぉ	-11.6443
設置でき	-11.6444
側が	-11.6446
いいやと	-11.6447
固さ	-11.645
教えて	-11.6452
を注文する	-11.6453
あったが	-11.6453
座面	-11.6456
ていくと	-11.6457
だということ	-11.6457
噛み	-11.6457
持ち運ぶ	-11.6458
よろしく	-11.6459
堅	-11.6462
入りますが	-11.6462
のデニム	-11.6463
たいして	-11.6464
長持ち	-11.6464
と違いました	-11.6466
決ま	-11.6467
満足のいく	-11.6468
かもしれないですが	-11.6469
液体	-11.6472
無いし	-11.6472
事になりました	-11.6472
除	-11.6473
ったりする	-11.6476
広げると	-11.6477
発生	-11.6478
カゴ	-11.6478
と比較して	-11.648
ボレロ	-11.648
にあた	-11.6481
ダイエット効果	-11.6482
イエローを購入	-11.6482
現時点で	-11.6483
選べるので	-11.6485
薄めで	-11.6485
高額な	-11.6485
すぐ壊れ	-11.6487
るとか	-11.6488
覚悟で	-11.6489
クマ	-11.6489
飲みやすく	-11.6489
価格的に	-11.649
かわかりませんが	-11.6492
色ちがい	-11.6495
してしまいましたが	-11.6497
お直し	-11.6497
お手頃価格	-11.6499
につけても	-11.65
月中旬発送	-11.65
の底の	-11.6501
潰	-11.6502
限	-11.6503
円ぽっきり	-11.6504
果	-11.6505
も入る	-11.6507
真っ	-11.6509
できていた	-11.6509
欲しい方	-11.651
了承	-11.6511
購入予定です	-11.6511
チェ	-11.6511
防げ	-11.6511
気に入ったようで	-11.6512
溶	-11.6513
置くと	-11.6514
で買うと	-11.6515
帰宅	-11.6516
、200	-11.6518
でもらった	-11.6519
まだ発送され	-11.6519
号は	-11.6521
日ぐらい	-11.6523
私としては	-11.6525
&#10036;	-11.6526
が妥当	-11.6526
調達	-11.6527
皮膚	-11.6527
良いかと思います	-11.6528
優しく	-11.6528
の頃は	-11.6529
丈夫そうな	-11.6529
ものなど	-11.653
入っていなかった	-11.653
円はお得です	-11.653
並んでいる	-11.6531
ボリュームも	-11.6532
わざと	-11.6533
サイズ的に	-11.6533
ガツガツ	-11.6535
咲	-11.6536
気長に	-11.6537
詰め替え	-11.6539
ちょうどでした	-11.6539
同じくらいの	-11.6539
洋服を	-11.6541
週間ほど	-11.6541
寸	-11.6541
無いかな	-11.6542
にくかったです	-11.6543
通常価格	-11.6543
われたので	-11.6543
姪	-11.6543
こんなことなら	-11.6544
愛用している	-11.6544
充	-11.6546
頃には	-11.6547
ケチ	-11.6547
裏表	-11.6548
豊富	-11.6548
許せる	-11.6549
プル	-11.6549
工	-11.655
値段的に	-11.655
途	-11.655
字体	-11.6551
ついで買い	-11.6552
中国産	-11.6552
職	-11.6552
▁1,1/1	-11.6552
大正解	-11.6552
ヶ月の娘に購入	-11.6553
かかるので	-11.6553
高品質	-11.6553
に使えない	-11.6555
書いてます	-11.6555
蒸	-11.6556
2,3	-11.6556
させられました	-11.6557
ピュア	-11.6557
を入れました	-11.6558
持続	-11.6559
ボタン電池	-11.6559
履きやすく	-11.6559
答	-11.6559
たのが間違い	-11.6559
ペンダント	-11.6559
終わった	-11.656
ぽっきり	-11.656
外国	-11.656
持たせ	-11.6561
登録	-11.6561
起毛	-11.6562
周	-11.6562
フェイク	-11.6562
破格	-11.6563
義	-11.6563
子どもの	-11.6563
補修	-11.6563
ってくると	-11.6564
詰まった	-11.6564
土曜	-11.6564
かかれて	-11.6565
開花し	-11.6565
プロテイン	-11.6566
飛	-11.6566
アウト	-11.6566
逃	-11.6566
去	-11.6567
湯船	-11.6567
おかしくな	-11.6567
一カ月	-11.6567
庫	-11.6567
っぽい感じです	-11.6568
取り扱って	-11.6568
数値	-11.6568
装	-11.6568
見事	-11.6568
ギャ	-11.6568
並	-11.6569
こだわ	-11.6569
円の時	-11.6569
否	-11.6569
こわれ	-11.657
訂正	-11.657
盛	-11.657
ハンバーグ	-11.657
覚悟していましたが	-11.657
日々	-11.657
激	-11.657
送料無料にするため	-11.657
ヶ月待ち	-11.6571
---	-11.6571
支柱	-11.6571
アダプタ	-11.6572
面倒くさ	-11.6572
廃棄処分	-11.6572
カロリ	-11.6572
鉛筆	-11.6572
マジック	-11.6572
映え	-11.6572
唇	-11.6572
憤慨して	-11.6572
グッド	-11.6573
さわやか	-11.6573
お客	-11.6573
映画	-11.6573
リップ	-11.6573
メッセージ	-11.6573
騙	-11.6573
安くなっていたので	-11.6573
糖	-11.6573
塩加減	-11.6574
くるみ	-11.6574
つきませ	-11.6574
伸縮	-11.6574
未使用	-11.6574
治療	-11.6574
筈	-11.6574
宜しくお願い	-11.6574
美しく	-11.6574
価	-11.6574
診断	-11.6574
ジューシー	-11.6574
コイル	-11.6574
お買いもの	-11.6574
−−−−−−−−−−−	-11.6574
えてくれ	-11.6574
刻	-11.6574
フレッシュ	-11.6574
滅	-11.6575
食卓	-11.6575
吸水	-11.6575
実寸	-11.6575
気づか	-11.6575
遅配	-11.6575
敏感	-11.6575
シリアルナンバーが	-11.6575
妊娠中	-11.6575
晩	-11.6575
酢	-11.6575
木くず	-11.6575
ペンチで	-11.6575
安く購入出来	-11.6575
田舎	-11.6575
餃子	-11.6576
麦	-11.6576
かぼちゃ	-11.6576
から見れば	-11.6576
ご注文頂きました	-11.6576
結論	-11.6576
テレビ台	-11.6576
と勘違いして	-11.6576
入らなかった	-11.6576
汁	-11.6576
調べてみると	-11.6576
換	-11.6576
プーマ	-11.6576
かぶせ	-11.6576
を求めて	-11.6576
ペタンコ	-11.6576
買い増し	-11.6576
ご了承	-11.6576
リンク設定	-11.6576
消費期限	-11.6576
わかれば	-11.6576
ウキウキ	-11.6576
卒業	-11.6576
氷	-11.6576
の有無	-11.6576
ビックリするほど	-11.6576
ロイカナ	-11.6576
24〜24.5	-11.6576
軟	-11.6576
ランドセル	-11.6576
ハイネック	-11.6576
値下げ	-11.6576
善	-11.6577
iphone	-11.6577
ごたえ	-11.6577
助	-11.6577
売れている	-11.6577
台座	-11.6577
数秒後	-11.6577
管	-11.6577
ひとまわり	-11.6577
洗った後	-11.6577
精	-11.6577
完食	-11.6577
このケース	-11.6577
バタバタ	-11.6577
葉っぱ	-11.6577
旅	-11.6577
虫よけ	-11.6577
弁	-11.6577
店舗に連絡	-11.6577
鯉	-11.6577
出会え	-11.6577
貼れ	-11.6577
おばあちゃん	-11.6577
様子をみ	-11.6577
に出会う	-11.6577
のレザーシュー	-11.6577
スペック	-11.6577
睫毛	-11.6577
郵便	-11.6577
重厚感	-11.6577
美味い	-11.6577
町	-11.6577
(−−;)	-11.6577
織	-11.6577
代半ば	-11.6577
あわてて	-11.6577
とめる	-11.6577
四隅	-11.6577
なじんで	-11.6577
が判明	-11.6578
新規	-11.6578
資	-11.6578
文句は言	-11.6578
熟	-11.6578
腑に落ち	-11.6578
気温	-11.6578
想定内でした	-11.6578
冷たく	-11.6578
コントロール	-11.6578
フープ	-11.6578
個体差	-11.6578
制	-11.6578
かも知れないです	-11.6578
ポリマー	-11.6578
群	-11.6578
充実	-11.6578
沸	-11.6578
改	-11.6578
セレクトショップ	-11.6578
正確に	-11.6578
レーヨン	-11.6578
余程の	-11.6578
文房具	-11.6578
花びら	-11.6578
馬	-11.6578
ブルベ	-11.6578
食物繊維	-11.6578
樹	-11.6578
一時的に	-11.6578
借りて	-11.6578
年補償	-11.6578
慣れるまで	-11.6578
歩いたり	-11.6578
気兼ねなく使え	-11.6578
頬	-11.6578
じゅうぶん	-11.6578
手数料	-11.6578
ココナッツ	-11.6578
協	-11.6578
そりゃ	-11.6578
パーフェクト	-11.6578
何とも言えない	-11.6578
指紋	-11.6578
送料が無料	-11.6578
ガックリ	-11.6578
ティファール	-11.6578
周囲	-11.6578
偶然	-11.6578
恐らく	-11.6578
うるさい	-11.6578
最終	-11.6578
テイスト	-11.6578
バーナー	-11.6578
本格的に	-11.6578
繊細な	-11.6578
認定	-11.6578
誰が見ても	-11.6578
落胆	-11.6578
クッション性	-11.6578
本格的な	-11.6578
粘着	-11.6578
衣	-11.6578
豚	-11.6578
気に入るものが	-11.6578
汲み上げ	-11.6578
飼育	-11.6578
つかまり	-11.6578
報	-11.6578
スケジュール	-11.6578
ダルダル	-11.6578
バタフライ	-11.6578
不恰好	-11.6578
冷やす	-11.6578
泳	-11.6578
像	-11.6578
覆	-11.6578
陽	-11.6578
ハンドソープ	-11.6578
メタボ	-11.6578
何と言っても	-11.6578
導入	-11.6578
EEE	-11.6578
FAX	-11.6578
まではいかない	-11.6578
コンバース	-11.6578
ステップ	-11.6578
セパレート	-11.6578
パレット	-11.6578
何日か	-11.6578
個別包装	-11.6578
卵	-11.6578
届かなければ	-11.6578
担当者	-11.6578
防災	-11.6578
震災	-11.6578
のやりとり	-11.6578
△	-11.6578
何度やっても	-11.6578
カパカパ	-11.6578
ダントツ	-11.6578
ヌルヌル	-11.6578
ミネトンカ	-11.6578
今まで食べていた	-11.6578
捺印	-11.6578
断熱	-11.6578
濡れた	-11.6578
試行錯誤	-11.6578
といえば	-11.6578
カチューシャ	-11.6578
止まる	-11.6578
馴染み	-11.6578
シェル	-11.6578
対処	-11.6578
尾	-11.6579
◆◆	-11.6579
ことは無いです	-11.6579
と割り切って	-11.6579
どうなっていますか	-11.6579
アンティーク	-11.6579
セロハン	-11.6579
マリオ	-11.6579
厳密	-11.6579
始まり	-11.6579
蓄光	-11.6579
仲	-11.6579
帽	-11.6579
LDK	-11.6579
スベスベ	-11.6579
ボタンホール	-11.6579
ボクサーパンツ	-11.6579
継	-11.6579
菜	-11.6579
カタチ	-11.6579
気もします	-11.6579
も抜群	-11.6579
カモフラ	-11.6579
ノズル	-11.6579
モノトーン	-11.6579
ワンタッチ	-11.6579
削除	-11.6579
奇	-11.6579
安かろう	-11.6579
強調されて	-11.6579
端っこ	-11.6579
贈答用	-11.6579
開梱して	-11.6579
ピアノの	-11.6579
ケータイ	-11.6579
常備	-11.6579
馴染ませ	-11.6579
いちばん	-11.6579
ぐんぐん	-11.6579
アウイナイト	-11.6579
アパート	-11.6579
キメが	-11.6579
スクリーン	-11.6579
ナショナル	-11.6579
バニラ	-11.6579
ブロック	-11.6579
ミサンガ	-11.6579
二つ折り	-11.6579
京都	-11.6579
凹凸	-11.6579
対応悪すぎ	-11.6579
斜め掛け	-11.6579
概ね満足	-11.6579
骨盤	-11.6579
季	-11.6579
含有量	-11.6579
改良され	-11.6579
納得のいく	-11.6579
ワーク	-11.6579
5〜6	-11.6579
ぐっすり	-11.6579
バレエ	-11.6579
プライマー	-11.6579
リュックサック	-11.6579
暴	-11.6579
症状	-11.6579
蝶	-11.6579
袴	-11.6579
覆われて	-11.6579
&#10548;	-11.6579
*******	-11.6579
ケージ	-11.6579
論	-11.6579
お買得	-11.6579
インチのタブレット	-11.6579
パイソン	-11.6579
ユーカリ	-11.6579
絡まって	-11.6579
開け閉めする	-11.6579
香料	-11.6579
まるっきり	-11.6579
探せば	-11.6579
くださる	-11.6579
&#10017;&#8411;	-11.6579
&#8252;&#65039;	-11.6579
&#8263;	-11.6579
ていこうと思います	-11.6579
ほんわか	-11.6579
まだ使ってないですが	-11.6579
アンパンマン	-11.6579
合成皮革	-11.6579
寝かせ	-11.6579
小冊子	-11.6579
仲間	-11.6579
省	-11.6579
食べてくれます	-11.6579
蘇	-11.6579
なじみ	-11.6579
わくわくわくわくわくわくわく	-11.6579
かえって	-11.6579
オールインワン	-11.6579
ビジネス	-11.6579
代前半	-11.6579
備蓄	-11.6579
悩みに悩んで	-11.6579
▁IRIDIUM	-11.6579
φ	-11.6579
いかがなものかと	-11.6579
グレイ	-11.6579
ディスペンサー	-11.6579
リーズナブルな	-11.6579
乱	-11.6579
心遣い	-11.6579
替わり	-11.6579
桁	-11.6579
焼肉	-11.6579
続かない	-11.6579
衛生面	-11.6579
読まずに	-11.6579
施	-11.6579
&#10085;	-11.6579
~~~~~~	-11.6579
術	-11.6579
BLACK	-11.6579
♂	-11.6579
まだ発送されてない	-11.6579
を新調	-11.6579
オカモト	-11.6579
スムージー	-11.6579
トンネル	-11.6579
ドキドキしながら	-11.6579
日付指定	-11.6579
日時指定	-11.6579
衝動買い	-11.6579
うまうまうまうまうまうまうま	-11.6579
ちゃっちぃ	-11.6579
やさしい	-11.6579
可もなく不可もなく	-11.6579
裁縫	-11.6579
コミコミ	-11.6579
うれしいかぎり	-11.6579
そんなよくないそんなよくない	-11.6579
どうなってますか	-11.6579
なまぐさくてうまくない	-11.6579
また利用させて頂きます	-11.6579
オフィス	-11.6579
クレンジング	-11.6579
セーブル	-11.6579
ファーストピアス	-11.6579
ポットから飛び出	-11.6579
ライフ	-11.6579
ローズマリー	-11.6579
下駄	-11.6579
僕	-11.6579
吸引力も	-11.6579
日間の海外旅行	-11.6579
月上旬に届く	-11.6579
片付きました	-11.6579
珍しく	-11.6579
穴あき	-11.6579
美容院で	-11.6579
まあいいまあいいまあいいまあいい	-11.6579
××××××××××××××	-11.6579
&#10023;	-11.6579
よれよれです	-11.6579
キチンと	-11.6579
サクサク	-11.6579
受け取れました	-11.6579
投光器	-11.6579
決算	-11.6579
被害	-11.6579
貼りやす	-11.6579
酸化	-11.6579
コンサート	-11.6579
丈は長めですが	-11.6579
あるかないか	-11.6579
のメールアドレス	-11.6579
べたべた	-11.6579
タッセル	-11.6579
ドリンク	-11.6579
マンダリン	-11.6579
レオタード	-11.6579
レビュー記入で	-11.6579
ワイズ	-11.6579
動かせる	-11.6579
差し込む	-11.6579
疑わしい	-11.6579
補給	-11.6579
見つかり	-11.6579
遅れますと	-11.6579
関節	-11.6579
認め	-11.6579
0727,	-11.6579
、、、、、、、、	-11.6579
&#11093;&#65039;	-11.6579
q	-11.6579
たすかります	-11.6579
アイフォン	-11.6579
サルエル	-11.6579
タートル	-11.6579
ミルキー	-11.6579
周年おめでとう	-11.6579
(#^.^#)	-11.6579
カラビナ	-11.6579
恋	-11.6579
士	-11.6579
(*^.^*)	-11.6579
(^○^)	-11.6579
///	-11.6579
サーチ	-11.6579
スタッズ	-11.6579
スプラウト	-11.6579
タッパー	-11.6579
ナンバー灯	-11.6579
光の加減	-11.6579
取り出すのが	-11.6579
満タン	-11.6579
脱いで	-11.6579
週間以内に	-11.6579
間近に	-11.6579
デメリット	-11.6579
デジタル	-11.6579
月に産まれる	-11.6579
うどん	-11.6579
ぱっと見	-11.6579
スピルリナ	-11.6579
ダークパープル	-11.6579
トータル	-11.6579
均並	-11.6579
味わえ	-11.6579
他の方のレビューを参考に	-11.6579
つかいものになりません	-11.6579
ミトン	-11.6579
円で試せてよかった	-11.6579
勝負	-11.6579
強引	-11.6579
掛かり	-11.6579
消滅	-11.6579
穀米	-11.6579
確認したところ	-11.6579
面白かった	-11.6579
ナッツ	-11.6579
ラケット	-11.6579
三角形	-11.6579
慣らし	-11.6579
まんぞく	-11.6579
(^-^;	-11.6579
さいあく	-11.6579
ウェスト	-11.6579
スイーツ	-11.6579
ゾーン	-11.6579
ヒザ	-11.6579
事情	-11.6579
人差し指	-11.6579
偽物	-11.6579
吐き	-11.6579
届けていただき	-11.6579
幕	-11.6579
着させます	-11.6579
週明け	-11.6579
植え	-11.6579
建	-11.6579
購入日時	-11.6579
いまどき	-11.6579
効率	-11.6579
持ち歩け	-11.6579
inc	-11.6579
ビビッド	-11.6579
一旦	-11.6579
不誠実	-11.6579
事務	-11.6579
変換	-11.6579
希釈	-11.6579
日に発送しましたとメールが	-11.6579
洗い上がり	-11.6579
粘土	-11.6579
もこもこ	-11.658
お急ぎの方は	-11.658
おなじ	-11.658
と大差なし	-11.658
今年の夏は	-11.658
蛍光灯	-11.658
車検	-11.658
とんでもない	-11.658
キュービック	-11.658
ハッキリ言って	-11.658
書かないで	-11.658
産まれた	-11.658
締め付け感	-11.658
:2013/11/	-11.658
ウッド	-11.658
ガラケー	-11.658
スキマ	-11.658
今更	-11.658
押入れ	-11.658
北	-11.658
楽天を利用して	-11.658
ここ数年	-11.658
ゴミ箱行き	-11.658
ワッペン	-11.658
布おむつ	-11.658
スペーサー	-11.658
モカシン	-11.658
丈夫そうだし	-11.658
ぶっちゃけ	-11.658
タッチ	-11.658
噛む	-11.658
たるみ	-11.658
サラダ	-11.658
ポストに投函されてい	-11.658
傲慢	-11.658
四角	-11.658
片手で	-11.658
発送が早くて	-11.658
登場	-11.658
繊細で	-11.658
見当たらず	-11.658
母の日の	-11.658
とてもじゃないですが	-11.658
ランダム	-11.658
均で見つけてしま	-11.658
胴回り	-11.658
の後継	-11.658
ツヤツヤ	-11.658
元値	-11.658
知人に	-11.658
はめ込み	-11.658
均で見かける	-11.658
スカルプ	-11.658
′	-11.658
こなべちゃん	-11.658
ぽちゃ	-11.658
を伸ばす	-11.658
ダメージ	-11.658
ボビン	-11.658
ワイド	-11.658
公式サイト	-11.658
思いっきり	-11.658
留め金が	-11.658
発症し	-11.658
貼り付き	-11.658
需要	-11.658
アメリカン	-11.658
シャープ	-11.658
チキン	-11.658
出てこなくなりま	-11.658
に行けば	-11.658
ブツブツ	-11.658
レーション	-11.658
入園式	-11.658
朝起きて	-11.658
残念なことに	-11.658
酸っぱい	-11.658
レモングラス	-11.658
歳半の	-11.658
素早い対応で	-11.658
グレードアップ	-11.658
コードレス	-11.658
出産祝い	-11.658
印相体	-11.658
押せ	-11.658
日焼け止め	-11.658
送料も無料で	-11.658
しなやか	-11.658
臭くて	-11.658
アンプ	-11.658
活動	-11.658
ソープ	-11.658
ミニチュアダックス	-11.658
勧められ	-11.658
尿	-11.658
月に予約したのに	-11.658
在庫処分	-11.658
欠点	-11.658
キッズ	-11.658
落下	-11.658
うちの子には	-11.658
さほど気になりません	-11.658
間に合うように	-11.658
いくらなんでも	-11.658
安心して購入できました	-11.658
のお返し	-11.658
なんの連絡もありません	-11.658
フリフリ	-11.658
時間が掛かる	-11.658
目の乾き	-11.658
フォト	-11.658
入荷次第	-11.658
ユニクロの	-11.658
7〜8	-11.658
体格	-11.658
LAN	-11.658
冷たい	-11.658
短くなった	-11.658
まとまり	-11.658
〉	-11.6581
中途半端な	-11.6581
薄味で	-11.6581
通園	-11.6581
漂白	-11.6581
驚く	-11.6581
もちもち	-11.6581
ドライフード	-11.6581
天然木	-11.6581
引っ越し作業	-11.6581
ぺろ	-11.6581
ウインド	-11.6581
スマート	-11.6581
母にあげ	-11.6581
microSD	-11.6581
リスク	-11.6581
甲高	-11.6581
疑問が残ります	-11.6581
腰痛持ち	-11.6581
返品したいくらいです	-11.6581
送られてくる	-11.6581
未来	-11.6581
請	-11.6581
井	-11.6581
うっかり	-11.6581
それっきり	-11.6581
シュン	-11.6581
スライサー	-11.6581
上乗せ	-11.6581
右足の	-11.6581
最低限の	-11.6581
差額	-11.6581
未定	-11.6581
小さじ	-11.6581
電子レンジ	-11.6581
発行	-11.6581
ジャンク	-11.6581
のびのび	-11.6581
迷いに迷って	-11.6581
ver	-11.6581
ッター	-11.6581
が大半	-11.6581
に貼り	-11.6581
く見えます	-11.6581
この値段で買えて	-11.6581
ほろ	-11.6581
まえに	-11.6581
予想以上の	-11.6581
円ショップのダイソーで	-11.6581
均に行ったら	-11.6581
寄せ	-11.6581
トゥ	-11.6581
近くのスーパーで	-11.6581
3〜4	-11.6581
残念だったのは	-11.6581
か検討中です	-11.6581
ジョン	-11.6581
縦横	-11.6581
ともかく	-11.6581
刃先	-11.6581
ドリップ	-11.6581
いびつ	-11.6581
コンディショナー	-11.6581
端末	-11.6581
引っ張られ	-11.6581
イメージと違って	-11.6581
付きなので	-11.6581
ピザ	-11.6581
とうり	-11.6581
心配していた	-11.6581
長く着れそうです	-11.6581
後ろ側	-11.6582
感心し	-11.6582
痒くて	-11.6582
磨き	-11.6582
腰痛	-11.6582
のはずですが	-11.6582
安ければ	-11.6582
ダサイ	-11.6582
どういうことでしょうか	-11.6582
包んで	-11.6582
半減	-11.6582
実物見てたら	-11.6582
印字	-11.6582
幾	-11.6582
ところどころ	-11.6582
しっかりしたつくり	-11.6582
ミニスカ	-11.6582
判りません	-11.6582
洗濯後の	-11.6582
メールがきて	-11.6582
糖度	-11.6582
ack	-11.6582
という事もあり	-11.6582
下がってきて	-11.6582
強風	-11.6582
毛が抜け	-11.6582
身に着け	-11.6582
店頭で見て	-11.6582
現品	-11.6582
迷惑迷惑迷惑迷惑迷惑迷惑迷惑	-11.6582
首輪	-11.6582
エコバッグ	-11.6582
ボールペン	-11.6582
家族みんな	-11.6582
歳の息子の	-11.6582
踏み	-11.6582
防音	-11.6582
荒く	-11.6582
薄くなった	-11.6582
ボーン	-11.6582
カオス	-11.6582
`*)	-11.6582
かさばる	-11.6582
一週間ほどで	-11.6582
別売り	-11.6582
スライス	-11.6582
号帆布	-11.6583
深さ	-11.6583
近々	-11.6583
皆無	-11.6583
入手	-11.6583
小学校	-11.6583
教えてください	-11.6583
非対応	-11.6583
かぶって	-11.6583
痛む	-11.6583
スルー	-11.6583
ヶ月の息子へ	-11.6583
不満はありません	-11.6583
長い期間	-11.6583
レジン	-11.6583
が良かっただけに残念です	-11.6583
パーマ	-11.6583
ED	-11.6583
年以上ぶり	-11.6583
分もしないうちに	-11.6583
匹のうち	-11.6583
かわりました	-11.6583
びっくりするくらい	-11.6583
スーパーボール	-11.6583
再び	-11.6583
粉々	-11.6583
ふくさ	-11.6583
透明の袋	-11.6583
やばい	-11.6583
はっきりしない	-11.6583
値段が安かったので	-11.6583
均とは違う	-11.6583
愛用者	-11.6583
10/20	-11.6583
てる方	-11.6583
ヘラ	-11.6583
ピンチ	-11.6583
匹居	-11.6583
しちゃいました	-11.6583
とはいきません	-11.6583
それに比べると	-11.6584
第一	-11.6584
高くつく	-11.6584
ような気もします	-11.6584
ウィ	-11.6584
安全性	-11.6584
円均一のお店	-11.6584
月末発送予定	-11.6584
ヨレ	-11.6584
が減る	-11.6584
アイズ	-11.6584
ユノ	-11.6584
宜しくお願いします	-11.6584
組み立ても簡単で	-11.6584
と書いていたので	-11.6584
は問題ないのですが	-11.6584
満充電	-11.6584
ペア	-11.6584
フリース	-11.6584
聞く	-11.6584
こっちのほうが	-11.6584
が出ました	-11.6584
歳の息子が	-11.6584
配合	-11.6584
再配達	-11.6584
ほっと	-11.6584
リピ予定です	-11.6584
ような跡	-11.6584
好感	-11.6584
一番下の	-11.6584
裏切られた	-11.6584
今から楽しみです	-11.6584
楽しみにしていたのに	-11.6584
`;)	-11.6584
開けてびっくり	-11.6585
クール	-11.6585
を求めるなら	-11.6585
試食	-11.6585
リピートはしません	-11.6585
外す時に	-11.6585
今さら	-11.6585
ピンセット	-11.6585
度以下で	-11.6585
色鉛筆	-11.6585
他社製品	-11.6585
黄色っぽい	-11.6585
ライム	-11.6585
何の変化も	-11.6585
同社	-11.6585
安心して使えます	-11.6585
年近く愛用しています	-11.6585
ho	-11.6586
サンド	-11.6586
SUP	-11.6586
ふくら	-11.6586
音がします	-11.6586
なら買わなかったのに	-11.6586
分で壊れました	-11.6586
HD	-11.6586
いつも通りの	-11.6586
ドライブ	-11.6586
百均の	-11.6586
運動前に	-11.6586
ジン	-11.6586
ガラ	-11.6586
ガイ	-11.6586
筋肉	-11.6586
計ったら	-11.6586
こちらを発見	-11.6586
確認できませんでした	-11.6586
お通じ	-11.6586
されているのでしょうか	-11.6586
簡易包装	-11.6586
気になる方は	-11.6586
若い	-11.6586
が酷く	-11.6586
無駄使い	-11.6586
畳んで	-11.6586
キット	-11.6586
>>	-11.6586
フチ	-11.6587
丁寧な梱包	-11.6587
ハイカット	-11.6587
に比べたら	-11.6587
違うメーカーの	-11.6587
がほしく	-11.6587
二千円	-11.6587
デスク	-11.6587
こだわり	-11.6587
口当たり	-11.6587
二段	-11.6587
均で売っているような	-11.6587
級品	-11.6587
というかんじです	-11.6587
こたつ	-11.6587
安定しない	-11.6587
実感しています	-11.6587
ヘル	-11.6587
粗品	-11.6587
音質	-11.6587
楽しみにしてましたが	-11.6587
抜けてしまう	-11.6587
痛んで	-11.6587
お安くなっていたので	-11.6588
こんなに遅いなら	-11.6588
干しても	-11.6588
大活躍しそうです	-11.6588
カギ	-11.6588
ラバー	-11.6588
ムダ	-11.6588
あーあ	-11.6588
なくて済み	-11.6588
おねがいします	-11.6588
なかなか見つからず	-11.6588
食べきれ	-11.6588
発送も速	-11.6588
XS	-11.6588
暖かそうです	-11.6588
豊か	-11.6589
常用	-11.6589
12/17	-11.6589
ing	-11.6589
使い回し	-11.6589
になってしまって	-11.6589
ブチ	-11.6589
さや	-11.6589
ドロ	-11.6589
子供っぽい	-11.6589
先方に	-11.6589
ユー	-11.6589
が台無し	-11.6589
半分以上	-11.6589
手段	-11.6589
丁度良く	-11.659
困っています	-11.659
投げ	-11.659
なんというか	-11.659
円ならこんなものかな	-11.659
を乗せる	-11.659
聴く	-11.659
きがします	-11.659
納得できる	-11.659
一つ一つ	-11.659
未だに届かない	-11.659
同じメーカーの	-11.659
条件で	-11.659
が間違っている	-11.659
軽め	-11.659
遅くなるなら	-11.659
モレ	-11.659
ジョギング	-11.6591
舞い	-11.6591
固く	-11.6591
ダシ	-11.6591
フィットします	-11.6591
が異常に	-11.6591
見られる	-11.6591
先程	-11.6591
こんな事なら	-11.6591
リスト	-11.6591
更新されてい	-11.6591
にしたくて	-11.6591
おまけつき	-11.6591
鮮やかな	-11.6591
嬉しくて	-11.6591
作りもしっかりしています	-11.6592
のに苦労しました	-11.6592
カラーレンズ	-11.6592
乗っている	-11.6592
2306	-11.6592
ーラー	-11.6592
まだ届いてないけど	-11.6592
快く	-11.6592
成り	-11.6592
再入荷	-11.6592
パパ	-11.6592
表裏	-11.6592
同じ柄が	-11.6592
的中	-11.6592
行事	-11.6593
の予約販売	-11.6593
光量	-11.6593
穿い	-11.6593
とても喜んでいました	-11.6593
お値段以下	-11.6593
届く予定	-11.6593
初代	-11.6593
日の夜に注文して	-11.6593
メールで問い合わせても	-11.6593
住所	-11.6593
ないなんて	-11.6593
ることにします	-11.6594
肌触りもよく	-11.6594
ということもあり	-11.6594
と思うんですが	-11.6594
日に注文をして	-11.6594
使えず	-11.6594
コイン	-11.6594
みかん	-11.6594
気のせい	-11.6594
何かしら	-11.6594
贈り物	-11.6594
枚のうち	-11.6594
翌々日には	-11.6595
よければ	-11.6595
ちゃんと届くのか	-11.6595
自分でやる	-11.6595
イチ	-11.6595
レオ	-11.6595
円オフクーポン	-11.6595
一口	-11.6595
きつすぎ	-11.6596
だけじゃなく	-11.6596
事を願	-11.6596
合計金額	-11.6596
の方が好きです	-11.6596
煮物	-11.6596
寒さ	-11.6596
生地が薄くて	-11.6596
アナ	-11.6596
YG	-11.6596
とても良い商品だと思います	-11.6596
思っていたほど	-11.6596
日に頼んだのに	-11.6597
という感想	-11.6597
ネットで調べ	-11.6597
日経過	-11.6597
かなぁと思いましたが	-11.6597
商品が届いていません	-11.6597
早さ	-11.6597
嫌がるので	-11.6597
買ってきて	-11.6597
年使用した	-11.6598
来年まで	-11.6598
)))	-11.6598
ウル	-11.6598
とあるが	-11.6598
到着せず	-11.6598
黒に近い	-11.6598
たんでしょうか	-11.6598
持続します	-11.6598
ぶつ	-11.6598
何のために	-11.6598
春先に	-11.6598
3.0	-11.6599
50%	-11.6599
隠せ	-11.6599
ホワイトゴールド	-11.6599
開封したら	-11.6599
みえる	-11.6599
電源が落ち	-11.6599
に思えます	-11.6599
PP	-11.6599
やっと到着しました	-11.6599
キラキラしていて	-11.6599
掛け布団	-11.6599
試着したら	-11.66
のか分かりませんが	-11.66
スキー	-11.66
同じような商品が	-11.66
フルーツ系	-11.66
ネル	-11.66
匹とも	-11.66
ちょっと大きいかな	-11.66
をチョイス	-11.66
真っ直ぐ	-11.66
ちょっと違いました	-11.66
いたけど	-11.6601
終了しました	-11.6601
レビューみて	-11.6601
と併用して	-11.6601
買って良かったと思います	-11.6601
こちらを購入したのですが	-11.6601
▁1,,1/11	-11.6601
枯れた	-11.6601
先ほど	-11.6601
月上旬入荷	-11.6602
集めています	-11.6602
このお値段だし	-11.6602
丈が少し短	-11.6602
速さ	-11.6602
のようなものが	-11.6602
咲く	-11.6602
差し替え	-11.6602
履きやすくて	-11.6602
届く前に	-11.6602
辛口	-11.6602
バル	-11.6603
つもつけたくない	-11.6603
日に発送され	-11.6603
女性用	-11.6603
開封後	-11.6603
決めて	-11.6603
全く違いました	-11.6604
ちょっときつい	-11.6604
なかなか届かず	-11.6604
12/16	-11.6604
⇒1	-11.6604
▁1,,11/9	-11.6604
を聞いて	-11.6604
買えました	-11.6604
安いとはいえ	-11.6605
魅力的で	-11.6605
が出ていて	-11.6605
怖いですね	-11.6605
取れず	-11.6605
着けたら	-11.6605
ウス	-11.6605
夏用	-11.6605
じわ	-11.6605
暗すぎ	-11.6605
左側	-11.6605
足首まで	-11.6605
(^-^)/	-11.6605
まじ	-11.6605
届いた商品には	-11.6606
星マイナス	-11.6606
期待したのですが	-11.6606
今頃	-11.6606
楽になりました	-11.6606
コットンパック	-11.6606
仕事場	-11.6607
と記載されていましたが	-11.6607
本束	-11.6607
円未満で	-11.6607
単位まで	-11.6607
に応じて	-11.6607
26.0	-11.6608
ok	-11.6608
こっちの方が	-11.6608
生地はしっかりしています	-11.6608
ということでしょうか	-11.6608
円につられて	-11.6608
^^*	-11.6609
めでしたが	-11.6609
開けた瞬間	-11.6609
書いてるのに	-11.6609
歩いていると	-11.6609
少しきつめ	-11.6609
ることがあるので	-11.6609
ろうと思います	-11.661
お皿	-11.661
なら買わなかった	-11.661
円かぁ	-11.661
買って正解でした	-11.661
お任せにしました	-11.661
順番に	-11.6611
もうリピはないです	-11.6611
履きましたが	-11.6611
身頃	-11.6611
は少ないです	-11.6611
お値段も安いので	-11.6611
気付いた	-11.6611
あきらめました	-11.6612
そんな事	-11.6612
サイズが合わなかった	-11.6612
月中旬に注文して	-11.6612
日間ほど	-11.6612
キログラム	-11.6612
表側	-11.6612
▁1,,11/4	-11.6613
均で売ってました	-11.6613
未登録で	-11.6613
が高いので	-11.6613
あまり感じられません	-11.6613
この価格なら	-11.6613
大小	-11.6613
▁1,,10/28	-11.6613
ご確認	-11.6614
0.05	-11.6614
聞こえました	-11.6614
そうな生地	-11.6614
庭で	-11.6615
値段相応だと思います	-11.6615
一式	-11.6615
ライトピンク	-11.6615
装着したら	-11.6616
丈が長いので	-11.6616
安く売って	-11.6616
リピはないですね	-11.6616
送料がかかる	-11.6617
本来は	-11.6617
わざとらし	-11.6617
か月ほど	-11.6617
電話対応	-11.6617
PS	-11.6617
以下の商品	-11.6617
こもり	-11.6618
だったのと	-11.6618
違いますね	-11.6618
ET	-11.6619
安かったけど	-11.6619
▁1,,10/10	-11.6619
べきでした	-11.6619
くなるので	-11.6619
安いものは	-11.662
一か月	-11.662
翌日発送	-11.662
台目	-11.662
私が買った	-11.662
かもしれないけど	-11.662
お出かけの時	-11.6621
センチとありましたが	-11.6621
ではないでしょう	-11.6621
という思い	-11.6621
効果あり	-11.6621
マーチンは	-11.6621
▁エッセンシャルオイル	-11.6621
んだり	-11.6622
(←	-11.6622
我慢します	-11.6622
何らかの	-11.6622
小指	-11.6622
-0.5	-11.6623
することが多いので	-11.6623
る事もなく	-11.6623
商品到着まで	-11.6623
られています	-11.6623
見にくい	-11.6624
対応悪い	-11.6624
事もある	-11.6624
このお店は	-11.6624
パープルを購入	-11.6624
銀色	-11.6625
にもなりました	-11.6625
円札	-11.6625
いいなあ	-11.6625
物を探していたので	-11.6625
戸惑いました	-11.6625
買ってみたいです	-11.6626
良かったな	-11.6626
良さを	-11.6626
重たいので	-11.6626
持っていくので	-11.6626
かなり迷いましたが	-11.6626
着た感じは	-11.6626
とは思えないほど	-11.6627
本革	-11.6627
はくと	-11.6627
丈が短い	-11.6627
宅	-11.6627
12/18	-11.6627
ってことで	-11.6628
とっても気に入りました	-11.6628
ことありますが	-11.6628
地味な	-11.6628
サイズ表記	-11.6628
リピしています	-11.6628
個包装	-11.6629
着れるかな	-11.6629
可愛いものが	-11.6629
前髪	-11.6629
の表面が	-11.6629
でももっと	-11.6629
箸先	-11.6629
良い物を	-11.663
を使っていたので	-11.663
商品は届きません	-11.663
▁1,,11/10	-11.663
点かない	-11.663
今まで通り	-11.6631
迅速に対応していただき	-11.6631
猫用	-11.6631
あれこれ	-11.6631
生体	-11.6632
やわらかいので	-11.6632
方向に	-11.6632
動かない	-11.6632
品良く	-11.6632
との事なので	-11.6633
▁1,,10/14	-11.6633
日に発注し	-11.6633
注文していた	-11.6634
ステキな	-11.6634
洗濯すると	-11.6634
ドット柄	-11.6635
悪くありません	-11.6635
二度と買い物しません	-11.6635
掛かった	-11.6635
糸が飛び出	-11.6635
のつなぎ目	-11.6636
号を買いました	-11.6636
▁1,,0.7	-11.6637
だめでした	-11.6637
を起こ	-11.6637
行う	-11.6638
使ってませんが	-11.6638
よぉ	-11.6638
大満足しています	-11.6638
ちっとも	-11.6639
も違うし	-11.664
円でも買わな	-11.664
まあまあですね	-11.664
イイと思います	-11.664
いつものように	-11.664
パッケージには	-11.664
った感	-11.664
頂きます	-11.6641
ヶ月ほどで	-11.6642
真夏	-11.6642
カウンターで	-11.6642
音も静かで	-11.6642
暗かった	-11.6643
その為	-11.6643
この時点で	-11.6643
写真で見る	-11.6643
使えるのは	-11.6644
を買おうかな	-11.6644
気に入らない	-11.6644
試しに購入してみました	-11.6645
丁度良いです	-11.6645
クリームを	-11.6645
レビューもいい	-11.6645
字体も	-11.6645
経ちましたが	-11.6646
というわけではない	-11.6646
▁1,,1/13	-11.6646
プレゼントが	-11.6646
メールもなく	-11.6646
限定ポイント	-11.6646
もうかれこれ	-11.6647
こちらを見つけました	-11.6647
もぉ	-11.6647
もう買わないと思います	-11.6647
ヨーグルトに	-11.6648
本まとめ買い	-11.6648
デザインがかわいい	-11.6648
箱買い	-11.6649
パープルを購入しました	-11.6649
締め付け	-11.6649
与えています	-11.6649
度数	-11.6649
揃い	-11.6649
毎に	-11.665
楽しかった	-11.6651
もろい	-11.6651
半分位	-11.6651
保育園で	-11.6652
お米が	-11.6652
時間がた	-11.6652
ゴールドを購入	-11.6652
傷がつき	-11.6653
見た感じ	-11.6653
▁1,,10.5	-11.6653
キレイに貼	-11.6653
注文確認	-11.6654
する必要があり	-11.6654
0215	-11.6655
楽しくて	-11.6655
おしゃれな	-11.6655
ひく	-11.6655
12/12	-11.6655
円だったし	-11.6655
調整しました	-11.6655
ものを探していたので	-11.6655
との回答でした	-11.6657
ショップに連絡し	-11.6657
ショップからのメール	-11.6658
687	-11.6658
充分です	-11.6658
ゆとりがあります	-11.6659
どの程度	-11.6659
匂いが気になる	-11.6659
とても早くて	-11.666
▁I	-11.666
どこまで	-11.666
ジッパーが	-11.666
ヶ月の子供に	-11.666
見ていて	-11.666
点灯しなくなり	-11.666
均で買えそう	-11.666
こんなショップ	-11.6661
オススメですよ	-11.6661
楽天ブックスは	-11.6661
もうすでに	-11.6662
チェック柄	-11.6663
温め	-11.6663
弱め	-11.6663
と書いている	-11.6663
スリムな	-11.6664
早く届け	-11.6664
のが良いです	-11.6665
オレンジ色	-11.6665
はいいが	-11.6665
使い続けています	-11.6665
分けました	-11.6666
ヒドイ	-11.6666
・*	-11.6666
よりやや	-11.6666
本当に良かったです	-11.6666
隠れるくらい	-11.6667
残ります	-11.6667
に使えるかな	-11.6667
円とは言え	-11.6668
冷蔵庫に	-11.6668
明日から	-11.6668
したいところですが	-11.6668
か悩み	-11.6669
でこの価格は	-11.6669
円均一商品	-11.6669
画像で見るより	-11.6669
大きさでした	-11.6669
ものだと思います	-11.667
伸びるので	-11.667
言うことなしです	-11.6671
なんの連絡もない	-11.6671
大人でも	-11.6672
違うのは	-11.6672
飲みやすくて	-11.6672
役に立たない	-11.6672
包み方	-11.6673
から見ると	-11.6673
表紙が	-11.6673
▁H	-11.6674
着れました	-11.6674
リピはなし	-11.6674
するだけで	-11.6675
今回の商品	-11.6676
12/11	-11.6676
無用で	-11.6676
その旨を	-11.6676
皆様の	-11.6676
糊が	-11.6676
週間ほどで	-11.6677
12/6	-11.6677
ボレロは	-11.6678
円でこれは	-11.6678
となっているので	-11.6678
足が疲れ	-11.6678
どり	-11.6679
接着剤で	-11.6679
薄っぺらい	-11.668
直します	-11.668
とても不安です	-11.668
泣き寝入りです	-11.668
こっちから	-11.6681
然と	-11.6681
備考欄に	-11.6681
開けると	-11.6682
価格的には	-11.6682
フィルムを	-11.6682
まだ実際に	-11.6682
使い物になりませんでした	-11.6683
▁2,,0.9	-11.6683
知っていました	-11.6683
待ちますが	-11.6684
入っていない	-11.6684
少しゆるい	-11.6685
ができます	-11.6686
クレジットの	-11.6687
冬には	-11.6687
使い勝手が悪い	-11.6687
保育園の	-11.6687
飲みやすかった	-11.6688
とお願いして	-11.6689
煮出し	-11.6689
サイズよりも	-11.669
お菓子を	-11.669
商品が届く	-11.6691
ブルーブラック	-11.6691
みなさんのレビュー	-11.6692
▁1,11/4	-11.6692
うちだけ	-11.6692
と考えると	-11.6692
堅い	-11.6694
肌が弱い	-11.6694
ふく	-11.6694
とにかくかわいい	-11.6694
送料まで	-11.6694
リピ買い	-11.6695
臭いし	-11.6695
ミルクを	-11.6699
えー	-11.6699
が気に入り購入しました	-11.67
と言われても	-11.67
好みで	-11.67
開封時	-11.6701
結果的に	-11.6701
とはいえません	-11.6704
はずして	-11.6704
代金も	-11.6705
人家族	-11.6705
海外から	-11.6705
にありそうな	-11.6706
まぁいいかな	-11.6706
このクオリティー	-11.6706
機能がついている	-11.6706
月下旬発送予定が	-11.6706
個です	-11.6706
日目から	-11.6707
付いてるし	-11.6707
メモリ	-11.6707
縫い方	-11.6708
遅すぎる	-11.6709
サイズ的には	-11.6709
が見れ	-11.6709
均のものよりは	-11.6709
もう少し早く	-11.671
点中	-11.671
送っていただけ	-11.671
おすすめ度	-11.6711
歩きやすく	-11.6711
して頂きたいです	-11.6711
コネクタ	-11.6712
かかと部分	-11.6712
だけではなく	-11.6712
客を	-11.6712
頼みます	-11.6713
のお店には	-11.6714
日以上かかる	-11.6714
突っ張り	-11.6714
年以上使用しています	-11.6714
っき	-11.6715
が見える	-11.6715
通常ポイント	-11.6715
ヶ月の子供が	-11.6716
すぐに対応	-11.6716
注文しない	-11.6716
寿命は	-11.6717
のデザインなので	-11.6718
ばっちりです	-11.6718
安っぽく感じま	-11.6718
を履いています	-11.6718
レビューを書くと	-11.6719
にもいいと思います	-11.6719
る訳	-11.6719
ベージュを購入しました	-11.672
同じものを見つけてしまいました	-11.672
買い直しました	-11.672
さには	-11.6721
気がして	-11.6721
が欲しかったけど	-11.6722
期待しすぎた	-11.6722
当時の	-11.6723
いい買い物が出来ました	-11.6723
と交換しました	-11.6723
これほど	-11.6723
一日中	-11.6724
を注文したら	-11.6724
のメールが届き	-11.6724
このショップは	-11.6725
主人も	-11.6725
に負けて	-11.6726
お値段の割に	-11.6726
と反省	-11.6726
の部分から	-11.6726
日夜	-11.6727
安っぽいかな	-11.6728
ふくらはぎが	-11.6728
再利用	-11.6729
そのあと	-11.673
無さそう	-11.673
安心感	-11.673
日本製で	-11.673
の出し入れ	-11.6731
かのように	-11.6731
いるのが気になり	-11.6731
リメイク	-11.6731
慣れない	-11.6732
になってしまったので	-11.6732
の始末が	-11.6732
購入される方	-11.6732
されているので	-11.6733
も入っています	-11.6733
指先	-11.6733
上着の	-11.6733
痛みが	-11.6734
を押	-11.6735
アイロンをかけ	-11.6735
値段も値段	-11.6736
二足	-11.6737
支払いは	-11.6738
知りませんでした	-11.6738
そこから	-11.6739
安さにひかれ	-11.674
フィットし	-11.674
だろうから	-11.6741
ハンガーを	-11.6741
長袖を	-11.6741
発送時期	-11.6741
な内容	-11.6742
ゴムは	-11.6742
伸びない	-11.6743
つも付けたくない	-11.6743
滑り止めを	-11.6743
楽天スーパーセール	-11.6743
口で	-11.6744
ある中で	-11.6745
ないですし	-11.6745
-8	-11.6745
売っています	-11.6745
引出	-11.6746
食べるのが	-11.6746
ハンドル部分	-11.6746
を感じました	-11.6746
上着	-11.6747
と混ぜて	-11.6747
仕上がります	-11.6748
発送元	-11.6748
そうそう	-11.6748
時間がかかります	-11.6749
均よりも	-11.6749
この度	-11.6749
これぐらい	-11.675
ということでした	-11.675
想像通りの	-11.675
水槽に入れ	-11.6751
にあたる	-11.6752
リピ決定	-11.6753
レンズも	-11.6753
ヶ月の子供	-11.6753
ぱさ	-11.6754
最低最悪	-11.6754
も同じでした	-11.6755
円ぐらい	-11.6755
しっかりした物	-11.6755
には合わなかった	-11.6757
袖は	-11.6759
お店の対応も早く	-11.6759
収納袋	-11.6759
早速使っています	-11.6759
お色です	-11.6759
が折れて	-11.676
とても美味しいです	-11.6761
枚注文して	-11.6761
るんですが	-11.6761
人なら	-11.6762
配送会社	-11.6762
板の	-11.6763
生まれて	-11.6763
円ぐらいの	-11.6764
訳でも	-11.6765
当初は	-11.6765
喜びました	-11.6765
0-09	-11.6765
ごつい	-11.6765
なめらかで	-11.6766
くなったら	-11.6766
大きめです	-11.6766
その上に	-11.6767
数年で	-11.6768
1600	-11.6768
易い	-11.6768
とほぼ同じ	-11.677
同封されてい	-11.677
はずれでした	-11.677
対応が悪すぎ	-11.677
倍になる	-11.677
のような生地	-11.677
ている感じです	-11.6771
金色の	-11.6771
つ購入して	-11.6771
お手	-11.6771
に問題があり	-11.6771
扱いやすく	-11.6772
を履いていますが	-11.6772
177	-11.6772
他のショップでは	-11.6773
かたは	-11.6773
嬉しい限り	-11.6773
が壊れてしまったので	-11.6774
▁X	-11.6774
−1	-11.6776
まぁまぁです	-11.6776
対応していただけ	-11.6777
のメールが来て	-11.6779
発送予定日	-11.6779
センチ位	-11.6779
[...]
