<unk>	0
<s>	0
</s>	0
、	-3.22098
。	-3.32083
n	-3.4107
の	-3.88096
。\	-3.88859
が	-4.04676
い	-4.19388
は	-4.40219
で	-4.45609
\	-4.51063
に	-4.53133
も	-4.66729
を	-4.83911
と	-4.87293
です	-5.09984
,	-5.15025
▁	-5.33839
!	-5.44185
し	-5.51204
10	-5.51969
▁1,	-5.60477
▁2,	-5.7628
1	-5.77029
か	-5.77224
な	-5.8397
でした	-5.87198
(	-5.90467
2	-5.94122
から	-5.98196
...	-5.98316
?	-5.98652
て	-5.98728
ので	-5.99175
100	-6.06413
して	-6.15271
月	-6.15386
円	-6.16192
なので	-6.1634
た	-6.25418
や	-6.25703
る	-6.26207
お	-6.29399
く	-6.29965
って	-6.30102
ー	-6.31915
)	-6.3196
日	-6.34
購入	-6.35071
ました	-6.36579
でも	-6.38202
り	-6.38343
ですが	-6.39721
3	-6.39794
ます	-6.4353
5	-6.52427
▁1,,10	-6.55262
とても	-6.56055
には	-6.56583
4	-6.57285
・・・	-6.58507
ない	-6.5932
つ	-6.61023
▁2,,	-6.63043
▁2,,10	-6.63949
cm	-6.66441
この	-6.66842
〜	-6.69208
かな	-6.7312
した	-6.73559
ら	-6.75428
ポイント	-6.76575
き	-6.77504
する	-6.78237
▁1,,	-6.78686
また	-6.78818
なら	-6.80814
まだ	-6.81147
さ	-6.81927
本	-6.84814
商品	-6.85121
購入しました	-6.86985
ス	-6.88314
▁1,100	-6.89852
と思います	-6.89902
ん	-6.93273
11	-6.9385
す	-6.94132
め	-6.95214
み	-6.95904
より	-6.96938
サイズ	-7.00105
倍	-7.0076
けど	-7.01279
少し	-7.0146
mm	-7.01671
▁1,10	-7.0276
6	-7.03352
もう	-7.03511
個	-7.03531
ル	-7.03902
分	-7.05014
・	-7.06327
ですね	-7.07775
!!	-7.09163
」	-7.1007
1000	-7.10641
「	-7.10774
え	-7.11196
しました	-7.11213
かなり	-7.11452
,10	-7.11461
だけ	-7.11639
っ	-7.11838
ま	-7.12072
、\	-7.12514
ちょっと	-7.12615
発送	-7.12923
ね	-7.13277
う	-7.13884
用	-7.14869
物	-7.15657
8	-7.16878
12	-7.19226
あ	-7.19549
センチ	-7.1975
年	-7.2026
♪	-7.20442
枚	-7.20478
注文	-7.20773
着	-7.20805
まで	-7.20913
にも	-7.22627
中	-7.23832
色	-7.25482
のですが	-7.25569
▁2,,100	-7.25804
を購入しました	-7.27016
7	-7.27642
100%	-7.2815
します	-7.30064
☆	-7.30567
いて	-7.31413
を購入	-7.32459
一	-7.32561
9	-7.32674
では	-7.33149
コ	-7.33156
ラ	-7.33749
わ	-7.33929
リ	-7.34099
ません	-7.34341
良い	-7.34694
日に	-7.34802
よ	-7.35248
だったので	-7.36144
▁2,10	-7.37029
こ	-7.37473
,100	-7.37907
ただ	-7.39178
)\	-7.39321
しか	-7.39435
0	-7.39654
だ	-7.40162
いい	-7.40753
そう	-7.41052
▁1,,11	-7.41463
たら	-7.4168
れ	-7.42306
手	-7.42385
という	-7.42701
マ	-7.42732
事	-7.43047
った	-7.43204
ク	-7.43289
20	-7.43499
など	-7.44544
ア	-7.44643
カ	-7.45805
円で	-7.46006
イ	-7.46012
品	-7.46068
だった	-7.4675
かわいい	-7.46917
くらい	-7.47549
良かったです	-7.48037
見	-7.48073
だと	-7.48358
なく	-7.48606
▁1,,100	-7.49205
連絡	-7.50151
ほど	-7.51559
使用	-7.52697
メール	-7.52761
ッ	-7.53342
レビュー	-7.53363
数	-7.53788
ン	-7.53954
ないので	-7.5417
水	-7.54513
時	-7.54862
感じ	-7.55757
いた	-7.56428
-	-7.56532
ず	-7.56909
安い	-7.57321
ド	-7.5763
大	-7.57978
ある	-7.58053
使って	-7.5812
/	-7.58552
よく	-7.58638
ト	-7.60227
L	-7.60632
回	-7.61221
袋	-7.61542
残念です	-7.61679
その	-7.62285
g	-7.62319
そうです	-7.62385
ましたが	-7.62516
ると	-7.62832
30	-7.64713
本当に	-7.65244
います	-7.66058
これ	-7.6639
商品は	-7.6675
の方が	-7.66985
あまり	-7.67261
これは	-7.68161
今	-7.68264
何	-7.68315
足	-7.68875
よう	-7.6902
点	-7.69581
。,	-7.70086
なかった	-7.70244
!,	-7.70261
すぐに	-7.70266
チ	-7.71115
として	-7.71183
レ	-7.71571
あり	-7.71718
T	-7.72386
対応	-7.72562
でしたが	-7.72606
購入しましたが	-7.73374
どう	-7.73388
M	-7.73731
いました	-7.73833
度	-7.73855
せ	-7.73875
▁2,100	-7.74183
やはり	-7.74191
目	-7.74213
同じ	-7.74625
ご	-7.76147
いつも	-7.76252
購入した	-7.77544
気	-7.78515
笑	-7.7877
いいです	-7.78955
のに	-7.7944
とか	-7.80198
下	-7.80539
ピンク	-7.80601
すぐ	-7.80638
後	-7.80728
んで	-7.80785
方	-7.80831
タ	-7.80928
他の	-7.81072
もう少し	-7.81788
るので	-7.81947
こと	-7.82096
デザイン	-7.82706
ば	-7.82758
味	-7.82932
もっと	-7.83765
人	-7.84417
よかったです	-7.85146
かも	-7.85282
ところ	-7.85635
感	-7.85898
ような	-7.85973
したら	-7.86783
前に	-7.87082
届きました	-7.87178
出	-7.87186
使い	-7.87557
のか	-7.87648
15	-7.8813
すごく	-7.88296
全く	-7.88797
白	-7.88815
小さい	-7.88957
よかった	-7.88966
早く	-7.88967
違う	-7.89088
体	-7.89456
可愛い	-7.89651
残念	-7.90343
高い	-7.90436
確認	-7.90552
上	-7.90738
やっぱり	-7.90763
均の	-7.90891
ありがとうございました	-7.91176
リピ	-7.91223
と思って	-7.91851
のは	-7.92346
満足です	-7.92404
ますが	-7.93265
になる	-7.93439
なのに	-7.93502
け	-7.93611
黒	-7.93747
今回	-7.93782
ヶ月	-7.93844
カバー	-7.94018
子	-7.94285
買って	-7.94469
商品が	-7.94666
届いて	-7.94803
号	-7.94858
S	-7.95082
届いた	-7.95132
つけ	-7.95255
だと思います	-7.9541
サ	-7.95524
プレゼント	-7.96002
ケース	-7.96234
セット	-7.96966
くて	-7.97164
kg	-7.97356
今まで	-7.97416
いる	-7.9808
代	-7.9889
18	-7.98971
だし	-7.99393
とっても	-7.99536
もの	-7.99559
購入して	-7.99692
私は	-7.99771
これで	-7.99906
ダ	-7.99994
ように	-8.00385
量	-8.00454
している	-8.00584
じ	-8.00624
大変	-8.00756
110	-8.0084
良かった	-8.01702
値段	-8.02379
外	-8.02439
なし	-8.02586
があり	-8.02909
ため	-8.03535
タイプ	-8.03588
ナ	-8.03746
G	-8.03774
予定	-8.03807
になりました	-8.04439
時に	-8.04499
到着	-8.04531
・・	-8.04614
16	-8.04783
グ	-8.04889
均	-8.05125
できる	-8.0517
いたので	-8.05631
問題	-8.05668
すると	-8.06137
今回は	-8.06214
o	-8.06217
ジ	-8.06333
たので	-8.06339
用に	-8.06793
時間	-8.07354
▁2,,11	-8.0772
位	-8.07945
120	-8.08117
入れ	-8.08187
ノ	-8.08641
ど	-8.08848
。。。	-8.08959
14	-8.0898
だから	-8.09086
しています	-8.09145
円の	-8.09201
【	-8.09373
】	-8.09373
ている	-8.09398
パ	-8.1008
作り	-8.10113
もなく	-8.10229
小	-8.10229
問い合わせ	-8.10633
生	-8.10703
★	-8.11309
メ	-8.11385
なかなか	-8.11489
こちらの	-8.1151
び	-8.11823
ミリ	-8.12135
しましたが	-8.12211
リピート	-8.12344
キロ	-8.12396
A	-8.12589
;	-8.12758
配送	-8.12979
利用	-8.13076
々	-8.1308
ウ	-8.13205
されて	-8.13271
ロ	-8.13554
しかも	-8.13648
になって	-8.13658
週間	-8.13842
送料	-8.14238
?,	-8.1431
食べ	-8.14505
がある	-8.14517
付け	-8.14954
キ	-8.15106
ブ	-8.1579
とは	-8.1581
バ	-8.16115
シ	-8.16414
所	-8.16498
ツ	-8.16539
面	-8.16604
にしました	-8.16799
ニ	-8.17111
ち	-8.17156
と思い	-8.17439
前	-8.17479
なくて	-8.17753
全然	-8.18005
しても	-8.18037
ぐらい	-8.1805
と思いました	-8.18328
13	-8.1847
買った	-8.18593
画像	-8.18981
方が	-8.19004
交換	-8.19093
ム	-8.1911
素材	-8.1922
ミ	-8.19327
ブラック	-8.19485
評価	-8.19593
ろ	-8.1968
ないです	-8.1973
通り	-8.19832
毎日	-8.20184
生地	-8.20207
いません	-8.20419
均で	-8.21082
ビ	-8.21114
大きい	-8.21407
っと	-8.21494
星	-8.21572
ませんでした	-8.21588
あと	-8.21607
ようです	-8.21998
ズ	-8.22213
でしょう	-8.22234
む	-8.22296
注文した	-8.22438
...。	-8.2245
なんて	-8.22569
かった	-8.22597
まず	-8.22617
結構	-8.2304
.	-8.233
こんな	-8.23628
ています	-8.23763
m	-8.24078
+	-8.24519
口	-8.25022
普段	-8.25489
以上	-8.25693
たい	-8.25805
&#10071;,	-8.25881
等	-8.26114
送料無料	-8.26183
質	-8.26522
色は	-8.26607
買う	-8.26755
さん	-8.26941
程	-8.27172
フ	-8.2733
17	-8.27733
通	-8.27777
24	-8.28169
赤	-8.28191
なぁ	-8.28254
買い	-8.28338
私の	-8.2858
色が	-8.28612
先	-8.28675
と思う	-8.28773
それ	-8.29268
んですが	-8.29569
状態	-8.29637
取り付け	-8.29751
:	-8.29759
じゃない	-8.2991
ではない	-8.3017
ショップ	-8.30695
初めて	-8.30716
23	-8.30942
届く	-8.31135
カラー	-8.31445
でしょうか	-8.31453
良く	-8.31534
れば	-8.31804
モ	-8.31939
へ	-8.31964
箱	-8.32305
ものが	-8.32365
入り	-8.32389
肌	-8.33407
500	-8.3348
がっかり	-8.33539
使える	-8.33544
返品	-8.33592
二	-8.33598
テ	-8.33916
年以上	-8.33988
使う	-8.34175
すぎ	-8.34301
のもの	-8.34352
柄	-8.3469
歳	-8.34749
満足	-8.35019
間	-8.35142
ても	-8.35258
ぶ	-8.35273
日に注文して	-8.35349
色も	-8.35374
効果	-8.35489
i	-8.35499
石	-8.35505
れる	-8.35616
価格	-8.35685
買いました	-8.35918
50	-8.36011
正直	-8.3635
ありません	-8.36417
まだ届きません	-8.36428
×	-8.36448
グレー	-8.36524
予約	-8.36578
いましたが	-8.37097
&	-8.37172
▁́	-8.3718
傷	-8.37182
そ	-8.37415
,11	-8.38215
残念でした	-8.38325
見て	-8.38696
かわいいです	-8.38869
ケ	-8.39095
オ	-8.39138
,1000	-8.39435
同	-8.39539
しない	-8.39638
充電	-8.3974
~	-8.39746
自分で	-8.39769
良いです	-8.39779
重	-8.39807
私には	-8.39902
合	-8.4005
以前	-8.40185
欲しい	-8.40296
結局	-8.40612
しません	-8.4063
よい	-8.40862
形	-8.41212
しっかり	-8.41217
ボ	-8.41448
スト	-8.41563
薄い	-8.41708
になり	-8.41734
商品の	-8.418
写真	-8.4195
げ	-8.42101
そうな	-8.42103
品質	-8.42152
よりも	-8.42253
と同じ	-8.42309
入荷	-8.42324
できない	-8.42347
匹	-8.42382
店	-8.42495
しかし	-8.42652
サイズが	-8.42793
安く	-8.42794
食	-8.42821
になります	-8.42878
リー	-8.42966
力	-8.43043
てしまいました	-8.43087
00	-8.43143
的に	-8.43175
...,	-8.43265
種類	-8.43271
たくさん	-8.4329
デ	-8.43785
これから	-8.43843
ホワイト	-8.44169
やっと	-8.44381
だけで	-8.44759
寝	-8.45079
E	-8.4508
販売	-8.45083
なかったので	-8.45242
大きさ	-8.45638
息子	-8.45717
取り	-8.45785
毛	-8.45786
切れ	-8.45801
番	-8.45896
C	-8.45959
買い物	-8.45974
一番	-8.46134
いつ	-8.46146
気持ち	-8.4617
ちゃんと	-8.46511
やすい	-8.46557
不安	-8.46758
ハ	-8.46782
入	-8.46788
、1	-8.46808
なって	-8.47004
程度	-8.47053
そして	-8.4716
みたい	-8.47243
▁1,1000	-8.47384
付き	-8.4786
うーん	-8.4787
のような	-8.48721
K	-8.48781
つけて	-8.49308
私	-8.49349
きた	-8.49357
型	-8.49596
▁2,,1000	-8.49703
ずっと	-8.49901
ガ	-8.49995
めて	-8.50142
行	-8.50282
された	-8.50426
お得	-8.50483
花	-8.50541
P	-8.50677
パンツ	-8.50743
部分	-8.50745
ット	-8.50865
部分が	-8.51068
なのか	-8.51267
こんなに	-8.51316
円ショップで	-8.51435
長	-8.51488
無い	-8.51537
エ	-8.5154
22	-8.51583
れて	-8.51639
粒	-8.51664
あります	-8.51805
売って	-8.51849
内	-8.51893
期待	-8.51927
特に	-8.51993
嬉しいです	-8.5201
・・・,	-8.5208
^^	-8.52435
ネ	-8.5258
そのまま	-8.52701
注文しました	-8.52896
不	-8.52917
80	-8.52973
大きく	-8.53261
書	-8.53294
持ち	-8.53559
25	-8.53583
家	-8.53626
汚れ	-8.53642
為	-8.53835
気に入って	-8.5393
半	-8.54202
ダメ	-8.5433
入って	-8.54509
別	-8.54586
期待して	-8.54644
光	-8.54654
w	-8.54656
台	-8.54659
いますが	-8.5468
19	-8.54724
使用して	-8.5476
違い	-8.54814
27	-8.54995
ではなく	-8.55006
大満足です	-8.55034
きました	-8.55205
大きめ	-8.55531
追記	-8.55673
され	-8.55739
ブルー	-8.55842
かったです	-8.55933
なり	-8.56132
ピ	-8.56331
金	-8.56367
頃	-8.56443
ワ	-8.56588
キャンセル	-8.56598
悪い	-8.56663
性	-8.56666
んだ	-8.56679
ベージュ	-8.56685
服	-8.56687
書いて	-8.573
十分	-8.57401
助かりました	-8.5772
のメール	-8.581
ふ	-8.5812
のかな	-8.58344
メール便	-8.58376
待って	-8.58423
ばかり	-8.5845
???	-8.58591
▁1,,1000	-8.58616
まぁ	-8.58776
届くの	-8.58953
パック	-8.58989
きて	-8.5904
美味しい	-8.59222
円ショップ	-8.59225
ック	-8.59239
今日	-8.59534
付	-8.59551
生地が	-8.59632
子供	-8.5965
梱包	-8.59877
あげ	-8.59903
サイズは	-8.60202
薄	-8.60285
系	-8.60404
香り	-8.60536
お店	-8.60554
!!!	-8.60598
電話	-8.60599
に注文して	-8.60811
結果	-8.60881
届きません	-8.61128
たり	-8.61326
おまけ	-8.6134
感じです	-8.61401
かと	-8.61471
びっくり	-8.61778
??	-8.61855
楽	-8.61881
紙	-8.6194
着用	-8.62332
定	-8.62532
夏	-8.62731
できません	-8.62783
地	-8.62882
現在	-8.62972
お試し	-8.63017
ひ	-8.63204
ちょうど	-8.63335
内容	-8.63505
風	-8.63752
実	-8.6379
元	-8.63983
・・・。	-8.64001
出来	-8.64087
早速	-8.64141
られて	-8.64163
にして	-8.64165
必要	-8.64233
注文して	-8.64273
お願い	-8.64618
28	-8.64629
、100	-8.64759
ということで	-8.64783
を買いました	-8.65098
W	-8.65242
B	-8.65248
不良品	-8.65265
プ	-8.65676
仕方ない	-8.65696
無	-8.6598
りました	-8.66266
月に	-8.66267
っている	-8.66331
O	-8.66341
経	-8.66363
0.5	-8.66612
届き	-8.6663
合わせ	-8.66657
まあ	-8.66699
01	-8.66785
イン	-8.67067
差	-8.67176
この商品	-8.67202
外れ	-8.67223
の娘に	-8.67381
正	-8.67487
長い	-8.67504
グリーン	-8.67514
なる	-8.67719
音	-8.67734
ガッカリ	-8.67951
安っぽい	-8.67982
落ち	-8.68157
のでしょうか	-8.68288
心配	-8.68304
があります	-8.68306
買え	-8.68338
いたのですが	-8.68386
にくい	-8.68576
』	-8.68646
『	-8.68647
母	-8.68657
シルク	-8.68658
車	-8.68666
替え	-8.68672
糸	-8.68766
知	-8.68774
いたら	-8.68962
ようで	-8.69309
月上旬	-8.69396
ール	-8.69587
ぼ	-8.69805
ボタン	-8.69838
好み	-8.69877
パン	-8.69885
長く	-8.69896
時は	-8.69911
助かります	-8.70148
来	-8.70315
つき	-8.70408
リング	-8.70525
。"	-8.70691
すぎて	-8.70712
ポ	-8.7079
くる	-8.70839
靴	-8.7094
非常に	-8.70948
受注番号	-8.70998
ml	-8.71009
最悪	-8.71076
自分	-8.71151
130	-8.71345
洗濯	-8.71404
21	-8.71444
発	-8.71565
を購入しましたが	-8.71832
夜	-8.7184
90	-8.71902
ざ	-8.72192
三	-8.72198
かなぁ	-8.72242
してます	-8.72288
無し	-8.72624
過ぎ	-8.72716
日で	-8.72858
普通に	-8.72868
の物	-8.73007
えて	-8.73321
があって	-8.73381
ポケット	-8.73394
肉	-8.73402
シール	-8.73467
ときに	-8.73693
るのが	-8.73826
本日	-8.74005
履いて	-8.74216
ピッタリ	-8.74261
製品	-8.74407
化	-8.74596
ペラペラ	-8.74616
とも	-8.74812
&#10071;	-8.74826
していて	-8.74882
していた	-8.74915
a	-8.7493
中に	-8.74973
楽天	-8.75028
かもしれません	-8.75091
生地も	-8.75227
思い	-8.75353
一度	-8.75381
便利	-8.75661
大丈夫	-8.75689
再	-8.758
e	-8.75811
D	-8.75821
顔	-8.75836
40	-8.75849
丸	-8.75853
購入したのですが	-8.76162
感じで	-8.76219
できて	-8.76232
かと思います	-8.76276
開	-8.76579
ぐ	-8.76586
を見て	-8.76615
ゴム	-8.7663
細	-8.76886
デザインは	-8.76939
若干	-8.771
とにかく	-8.77104
ものを	-8.77359
ないし	-8.77377
遅い	-8.77831
ゆ	-8.78061
と言う	-8.78064
日に届きました	-8.78102
ソ	-8.78135
のほうが	-8.78182
セ	-8.78257
ウエスト	-8.78363
機能	-8.78366
R	-8.78367
円ショップの	-8.7846
こちらは	-8.78463
引き	-8.78484
みて	-8.78789
&#	-8.78866
のある	-8.78924
青	-8.79131
安くて	-8.79186
、11	-8.79203
様	-8.79267
っぽい	-8.79381
履き	-8.79624
髪	-8.79649
全部	-8.79722
ありました	-8.79921
すぎる	-8.7998
いるので	-8.80002
もあり	-8.80006
になった	-8.80099
ること	-8.80151
ベ	-8.80349
購入する	-8.80364
もある	-8.80513
*	-8.80527
......	-8.80559
ありがとうございます	-8.80779
満足しています	-8.80919
きちんと	-8.80941
ラッピング	-8.80945
ほぼ	-8.80964
あって	-8.81082
はない	-8.81217
→	-8.81232
いない	-8.81238
200	-8.81271
雑	-8.81333
とのこと	-8.8149
ないと	-8.81542
用に購入しました	-8.8162
長さ	-8.81687
作	-8.81756
ッと	-8.81882
だろう	-8.81939
いいと思います	-8.82216
普通の	-8.82239
指	-8.8224
指定	-8.82248
ピアス	-8.82256
ベルト	-8.82262
式	-8.82265
けれど	-8.82269
まったく	-8.82311
物を	-8.82467
全て	-8.82493
だけど	-8.82691
ぎ	-8.82743
巻	-8.82843
割	-8.82962
ことが	-8.83169
お値段	-8.83189
▁1,11	-8.83199
ついて	-8.83344
使っています	-8.83383
飲み	-8.83456
新	-8.83519
ゴ	-8.83529
朝	-8.83588
&#10071;&#65039;	-8.83591
確かに	-8.83595
半分	-8.83801
カット	-8.83872
さらに	-8.83939
るのに	-8.83994
-0	-8.84069
きます	-8.84136
普通	-8.84191
みたいな	-8.84343
側	-8.84418
26	-8.84475
がありました	-8.84654
つか	-8.84888
約	-8.84935
家族	-8.84946
身長	-8.84956
可愛いです	-8.85224
たのですが	-8.85254
思ったより	-8.85286
別の	-8.85379
るし	-8.85384
商品を	-8.85544
すれば	-8.85613
じゃ	-8.85693
購入し	-8.85738
ながら	-8.85829
なんで	-8.86018
なんか	-8.86194
で購入	-8.86239
送って	-8.86305
ネイビー	-8.86312
値段相応	-8.86314
しばらく	-8.86314
何か	-8.86569
のみ	-8.86637
みると	-8.86677
か月	-8.86966
一つ	-8.87192
ことを	-8.87283
品物	-8.87477
ライト	-8.87879
気に入りました	-8.87893
かかる	-8.87903
本体	-8.8799
薄く	-8.88045
したところ	-8.88112
自分の	-8.88611
ほうが	-8.88673
見え	-8.88732
生地は	-8.88757
残り	-8.88858
_	-8.88935
としては	-8.89042
、2	-8.89045
かけ	-8.89061
色の	-8.89067
届かず	-8.89106
があるので	-8.89112
通常	-8.89131
29	-8.89288
これなら	-8.89494
買いましたが	-8.8969
使え	-8.89847
はず	-8.89952
全	-8.89957
方は	-8.9009
早い	-8.90226
丈	-8.90247
低	-8.90354
月中旬	-8.90407
計	-8.9046
I	-8.9052
コットン	-8.90529
とりあえず	-8.90543
スマホ	-8.90544
ほとんど	-8.90546
はありません	-8.90551
安	-8.90732
商品も	-8.90807
なければ	-8.90862
られ	-8.9093
気に	-8.91186
くらいの	-8.91246
ということ	-8.91423
表示	-8.91515
円なら	-8.91549
感じました	-8.91636
部	-8.91686
返	-8.91687
色々	-8.91848
店舗	-8.91884
こちら	-8.91918
シャ	-8.91957
バッグ	-8.91992
こちらで	-8.92168
ものは	-8.92252
02	-8.92383
強	-8.92508
出荷	-8.9263
無理	-8.92684
物が	-8.92885
らず	-8.92927
ちゃ	-8.9297
でき	-8.93167
ほ	-8.93279
使った	-8.93345
首	-8.93403
収納	-8.93411
バー	-8.93414
リボン	-8.93459
小さめ	-8.93462
カード	-8.93514
肩	-8.93564
ですよ	-8.93687
最近	-8.93699
均に	-8.93785
なかったです	-8.93786
が悪い	-8.93795
臭い	-8.93858
らない	-8.93859
デザインが	-8.93932
の商品	-8.93981
ショック	-8.94049
幅	-8.94068
厚	-8.94184
記載	-8.94191
に届きました	-8.94253
当	-8.94326
てしまい	-8.94343
できます	-8.94368
させ	-8.94467
だったら	-8.94472
気がします	-8.9451
中の	-8.94737
使えない	-8.94864
弱	-8.94888
のため	-8.949
冬	-8.94938
調整	-8.94955
シート	-8.95002
気に入っています	-8.9511
言う	-8.95237
"	-8.95291
やって	-8.95401
わかりません	-8.95428
ります	-8.95641
はとても	-8.95918
届かない	-8.96048
高	-8.96066
を買って	-8.96205
部分の	-8.96318
H	-8.96408
スカート	-8.96469
子ども	-8.96489
みます	-8.96541
返信	-8.96592
明	-8.96683
見える	-8.9669
みたいです	-8.96776
絶対	-8.96913
いいですね	-8.96942
なん	-8.97055
翌日	-8.97158
ことは	-8.9717
食べて	-8.97281
有	-8.97389
余裕	-8.97577
チャ	-8.97739
の方	-8.97802
イメージ	-8.97828
木	-8.97838
部屋	-8.97941
印象	-8.97945
ゴールド	-8.97965
込み	-8.97968
注意	-8.98003
いまいち	-8.98003
期間	-8.98087
出来ない	-8.98095
カー	-8.98131
変	-8.98145
上げ	-8.98243
こちらの商品	-8.9827
月下旬	-8.98398
その後	-8.98425
少ない	-8.98469
ネットで	-8.98485
とき	-8.98494
たいと思います	-8.98557
キレイ	-8.98642
安心して	-8.98651
が入って	-8.98769
効果は	-8.98838
間に	-8.9932
が出	-8.99426
ペ	-8.99481
製	-8.99495
イマイチ	-8.99568
金額	-8.99571
安いので	-8.99573
シュ	-8.99587
使用する	-8.99599
装着	-8.99607
ませんが	-8.99815
たのに	-8.99984
買わない	-9.00063
出し	-9.00281
名	-9.00302
ぴったり	-9.00325
好きな	-9.00441
(^	-9.00446
こちらを	-9.00495
味は	-9.00569
できました	-9.00701
動	-9.00811
軽い	-9.00881
歳の	-9.01034
玉	-9.01046
感が	-9.01115
包装	-9.01136
細身	-9.01167
これを	-9.01215
しまい	-9.01235
返事	-9.01263
着て	-9.01303
見た目	-9.01312
可愛くて	-9.01319
を使って	-9.01336
されている	-9.0135
上に	-9.01354
無く	-9.01486
のお	-9.01825
なった	-9.0189
セール	-9.01963
するので	-9.02198
的な	-9.02233
立	-9.02612
k	-9.02688
もありません	-9.02724
..	-9.02744
話	-9.02755
s	-9.0276
プラスチック	-9.02767
買い替え	-9.02803
用の	-9.02842
のように	-9.02858
場所	-9.02858
取	-9.02918
思っていたより	-9.03109
っています	-9.03166
前の	-9.03236
ぁ	-9.03266
微妙	-9.03301
座	-9.03316
商品です	-9.03335
レビューで	-9.03615
こう	-9.03877
なくなりました	-9.03952
なのですが	-9.0404
が必要	-9.04128
ったら	-9.04137
気になる	-9.04206
フィット	-9.04222
飲んで	-9.04245
がなく	-9.04277
!,10	-9.04331
N	-9.04365
布	-9.04373
端	-9.04385
粉	-9.04406
納得	-9.04408
ていました	-9.04416
クリーム	-9.0442
300	-9.04432
画面	-9.04443
レベル	-9.04467
おいしい	-9.04502
いただけ	-9.04644
福袋	-9.04686
あたり	-9.04735
伸び	-9.04797
アップ	-9.04956
サイズで	-9.04997
思って	-9.05059
濃い	-9.05302
使ってます	-9.05375
ないのに	-9.05428
小さく	-9.05542
安心	-9.05891
がついて	-9.05944
なんだか	-9.05999
画	-9.06036
着せ	-9.06036
ゴミ	-9.06062
仕事	-9.0607
追加	-9.06075
ブラウン	-9.06075
タオル	-9.06078
オイル	-9.06092
しっかりしていて	-9.06152
掛け	-9.06258
07	-9.06281
クーポン	-9.06351
コン	-9.06369
気が	-9.0667
注文しましたが	-9.06914
使用しています	-9.06933
が少し	-9.0714
発送予定	-9.07145
倍で	-9.07183
細い	-9.07202
わからない	-9.07229
ヤ	-9.07251
そんなに	-9.07265
購入してみました	-9.07374
られる	-9.07409
日に注文	-9.07579
ヒ	-9.07687
▁2,1000	-9.07728
いです	-9.07741
ちなみに	-9.07775
キラキラ	-9.07776
大きすぎ	-9.07784
きれい	-9.07791
レビューを	-9.07821
臭	-9.07899
ひどい	-9.08019
嫌	-9.0832
ング	-9.08708
60	-9.08776
送	-9.08869
遅れる	-9.08902
裏	-9.09099
なの	-9.09301
素	-9.09391
実際	-9.09448
したので	-9.09464
布団	-9.09489
105	-9.09494
文字	-9.09497
耐久性	-9.09499
綺麗に	-9.09502
凄く	-9.09516
インチ	-9.09562
てしまう	-9.09661
前回	-9.09684
03	-9.09743
広	-9.0975
穴が	-9.09772
サイズを	-9.09862
サイズも	-9.09913
さすがに	-9.10018
持って	-9.10077
注文したのに	-9.10084
みた	-9.10202
やすく	-9.1029
来て	-9.10523
問題なく	-9.10525
今は	-9.10531
私が	-9.10599
日の	-9.10705
くらいで	-9.10712
ロー	-9.10748
(*	-9.10794
まって	-9.10837
使用した	-9.10851
即	-9.10973
おすすめ	-9.11138
真	-9.1123
ディ	-9.11236
超	-9.11239
オレンジ	-9.11259
履く	-9.11269
周り	-9.11287
時期	-9.1129
今後	-9.11349
^)	-9.11359
年近く	-9.11369
味が	-9.1161
それでも	-9.11651
(^^)	-9.11763
と思っています	-9.11835
せず	-9.12198
実際に	-9.12332
ったり	-9.12352
円均一	-9.12568
したいと思います	-9.12819
近く	-9.12878
の息子に	-9.12951
デザインも	-9.12953
かったので	-9.12978
底	-9.13018
−	-9.13034
透明	-9.13041
角	-9.13045
70	-9.13194
割れ	-9.13257
切	-9.13356
円なので	-9.13576
遅れ	-9.13792
意味	-9.13895
使っていた	-9.13996
てしまいます	-9.14023
簡単に	-9.14109
のために	-9.14127
者	-9.14177
06	-9.14195
が多い	-9.14297
希望	-9.14309
出来ません	-9.14386
がっかりです	-9.14402
が届きました	-9.14477
なぜ	-9.14598
べ	-9.14601
クオリティ	-9.14667
サイズの	-9.14738
表	-9.1481
値	-9.14817
、「	-9.14827
速	-9.14837
掃除	-9.14843
たっぷり	-9.14847
沢山	-9.14851
F	-9.14851
多少	-9.14853
おもちゃ	-9.14854
電池	-9.14855
ファスナー	-9.14858
してくれ	-9.14934
おすすめです	-9.14939
パール	-9.14965
在庫	-9.15015
日間	-9.15241
バック	-9.15446
一緒に	-9.15456
回り	-9.15538
出して	-9.1556
るのか	-9.15598
と一緒に	-9.15668
色で	-9.1571
つく	-9.15761
良かったので	-9.15761
われ	-9.15787
娘	-9.15978
綺麗な	-9.16113
何度も	-9.16203
▁1,,0	-9.16298
付いて	-9.163
横	-9.16464
るように	-9.16566
線	-9.16698
保	-9.16699
LED	-9.16702
しっとり	-9.16705
○	-9.16707
の中で	-9.1671
他	-9.16764
厚み	-9.16832
色合い	-9.16847
主人	-9.16848
やすいです	-9.16885
との事	-9.17001
的	-9.17075
の色	-9.17267
失敗	-9.17303
ート	-9.17305
たいです	-9.17378
があれば	-9.17379
直	-9.17677
んですね	-9.17729
これが	-9.17847
みたら	-9.18123
以下	-9.18125
あるので	-9.18266
かもしれませんが	-9.184
最	-9.18456
ーン	-9.18482
週	-9.18549
しまいます	-9.18583
旅行	-9.18588
マイナス	-9.18589
裾	-9.1859
組み立て	-9.18591
[	-9.18594
どんな	-9.18597
大人	-9.1861
売り切れ	-9.18633
透け	-9.18714
すごい	-9.18722
そうで	-9.18758
ひとつ	-9.18805
ティ	-9.18859
短い	-9.18864
もない	-9.18873
あれ	-9.1899
買える	-9.19513
待ち	-9.19571
,0	-9.19694
引	-9.197
したのに	-9.19744
たった	-9.19745
キー	-9.19778
ビックリ	-9.19793
への	-9.19912
^	-9.20044
をつけ	-9.20113
使います	-9.20295
センチの	-9.20301
切り	-9.20377
解	-9.20395
開け	-9.2049
腰	-9.20507
¥	-9.20512
]	-9.20516
抜け	-9.20516
いっぱい	-9.20532
ペン	-9.20582
はかなり	-9.20589
ハイ	-9.20637
マシ	-9.20684
軽くて	-9.20739
考え	-9.20887
欲しかった	-9.20925
らしい	-9.20956
気に入ってます	-9.20981
重い	-9.21025
をして	-9.21111
いので	-9.2115
後に	-9.2123
,"	-9.21241
穴	-9.21402
ここ	-9.21438
同じような	-9.21449
ていて	-9.21467
発送メール	-9.21562
いただき	-9.21572
どこ	-9.21598
痛	-9.21763
手に	-9.21798
ネット	-9.21904
短	-9.2191
なりました	-9.21989
しっかりした	-9.22002
喜んで	-9.22089
したのですが	-9.22111
がない	-9.22117
オススメです	-9.22166
未	-9.22232
やや	-9.22273
場	-9.22315
がとても	-9.22326
印	-9.2247
もちろん	-9.22471
ギ	-9.22477
土	-9.2248
チェック	-9.22485
変化	-9.22492
体重	-9.22561
みました	-9.2264
体型	-9.22804
子供の	-9.22814
壊れ	-9.2286
を入れて	-9.22916
ラン	-9.23017
▁2,0	-9.23022
こちらに	-9.23057
キロの	-9.23156
みましたが	-9.23231
商品自体は	-9.23246
リピです	-9.23287
ですか	-9.23446
履け	-9.23497
・・・・	-9.23663
おります	-9.23671
を探していました	-9.23696
好き	-9.23715
あれば	-9.23732
11/1	-9.23775
ドレス	-9.23785
な感じ	-9.23794
わず	-9.23796
残	-9.23949
そんな	-9.23964
0.2	-9.23979
お買い得	-9.24051
るのは	-9.24081
入る	-9.24191
円だから	-9.24194
次	-9.24376
たって	-9.24383
難	-9.24414
機	-9.2443
l	-9.2444
液	-9.24467
チェーン	-9.24472
レッド	-9.24472
▁̄	-9.24473
コンパクト	-9.24477
畳	-9.24477
点灯	-9.24478
説明	-9.24487
間違い	-9.24488
最低	-9.2449
少々	-9.24499
?,10	-9.24528
きません	-9.24532
お腹	-9.24592
よね	-9.24633
お金	-9.24926
高く	-9.24941
してから	-9.24958
は無い	-9.24964
袖	-9.25082
状態で	-9.25098
てる	-9.25142
折れ	-9.25222
違います	-9.25228
未だに	-9.25315
場合	-9.25387
おり	-9.25404
あった	-9.25407
欲しいです	-9.25565
残念な	-9.25701
ロン	-9.25748
茶	-9.25755
って感じです	-9.25978
ヘ	-9.25987
るような	-9.26012
゚	-9.26026
の方は	-9.26074
0.1	-9.26145
愛用	-9.26244
常	-9.26298
れない	-9.26317
日発送	-9.26476
運	-9.26494
紐	-9.26495
胸	-9.26502
無料	-9.26503
状況	-9.26507
耳	-9.26512
平	-9.26513
大きな	-9.26519
明るい	-9.26523
ション	-9.26534
シャツ	-9.26541
何も	-9.2661
すべて	-9.26624
円ショップに	-9.26632
聞	-9.26639
は初めて	-9.26691
有り	-9.26737
ブラ	-9.26797
される	-9.26905
らしく	-9.26914
けて	-9.2693
と思った	-9.26979
ほつれ	-9.27002
ときは	-9.27218
ずつ	-9.27257
匂い	-9.27268
時の	-9.27363
であれば	-9.27403
使いやすいです	-9.27497
自体は	-9.27614
!?	-9.27918
出来る	-9.27967
があったので	-9.27993
05	-9.28098
子供が	-9.28134
そこ	-9.28172
音が	-9.28182
強い	-9.28228
`	-9.28405
もよく	-9.28446
初	-9.28464
を感じ	-9.28479
二度と	-9.28479
すら	-9.28503
ュ	-9.28516
調	-9.28525
苦	-9.28532
会	-9.28577
ゲ	-9.2859
ポリエステル	-9.28596
”	-9.28597
グラム	-9.28597
レンズ	-9.28611
仕上がり	-9.28615
安かったので	-9.28699
時点で	-9.2874
手間	-9.28749
気分	-9.28749
ずに	-9.28794
着け	-9.28827
すること	-9.28884
いませんでした	-9.28948
今年	-9.28979
まま	-9.28996
スター	-9.29024
こちらから	-9.2903
る事	-9.29088
いただきました	-9.2922
合い	-9.29271
せいか	-9.29304
減	-9.29349
レビューを見て	-9.29411
消	-9.29465
止め	-9.29477
04	-9.29527
分で	-9.2965
産	-9.29736
良いと思います	-9.29799
試しに	-9.29927
回目	-9.29984
たち	-9.30005
t	-9.30054
と思いますが	-9.30079
出て	-9.30145
は少し	-9.30235
ビニール	-9.30404
日目	-9.30421
予定です	-9.30462
足が	-9.30495
かり	-9.30502
変更	-9.30546
期	-9.30552
というか	-9.30564
身	-9.30579
X	-9.30675
具	-9.30682
頭	-9.30696
を入れ	-9.307
葉	-9.3072
だらけ	-9.30725
吸	-9.30728
油	-9.30728
ロング	-9.30792
多分	-9.30793
残念ながら	-9.30796
たくない	-9.30884
着る	-9.31
いいかな	-9.31029
届くまで	-9.3103
オフ	-9.31114
温	-9.3126
迅速	-9.31609
円でも	-9.3164
;)	-9.31665
合わない	-9.31702
ようと	-9.31729
に入れ	-9.31729
パー	-9.31733
ファー	-9.31774
下さい	-9.31883
しまう	-9.31896
洗	-9.31912
ください	-9.31973
るもの	-9.32144
していました	-9.32164
って感じ	-9.32166
コレ	-9.32174
ちゃん	-9.32175
大満足	-9.32278
ショップで	-9.3235
我が家	-9.32356
メールで	-9.32385
試	-9.32392
と言われ	-9.3248
入れて	-9.32515
重ね	-9.32558
レース	-9.32586
いろいろ	-9.326
要	-9.32633
バラ	-9.32635
ないのですが	-9.32637
まとめ買い	-9.32639
トップ	-9.32649
得	-9.32697
色味	-9.32701
で購入しました	-9.32707
押し	-9.32741
番号	-9.32772
ける	-9.32875
難しい	-9.32877
相	-9.32882
表記	-9.32884
目の	-9.32894
配達	-9.32901
ブーツ	-9.32902
フード	-9.32902
小さな	-9.32903
易	-9.32909
キツ	-9.32938
OK	-9.32951
ネジ	-9.32982
日現在	-9.33023
マット	-9.33043
タン	-9.33062
作って	-9.3307
悪く	-9.33086
味も	-9.3309
悪	-9.33123
ップ	-9.33419
ダイヤ	-9.3359
入っていて	-9.33623
に購入しました	-9.337
31	-9.33847
以外	-9.33862
取れ	-9.33877
開けて	-9.33895
楽しみにして	-9.33974
ファ	-9.3402
言って	-9.34069
丈夫	-9.34071
うれしいです	-9.34203
ないかな	-9.34259
てます	-9.34359
と思いましたが	-9.34389
を購入し	-9.34392
値段が	-9.34536
使いやすい	-9.34564
流	-9.34632
言	-9.34734
思っていた	-9.34744
っぽく	-9.34812
!!,	-9.34856
大きさも	-9.34919
対	-9.35023
器	-9.35083
驚	-9.3509
来た	-9.35103
使わない	-9.35121
今のところ	-9.35122
使おう	-9.35125
純正	-9.35126
詰め	-9.35128
検品	-9.35162
商品でした	-9.35194
再度	-9.35195
95	-9.35292
たところ	-9.35307
上の	-9.35349
なさそう	-9.35386
ていた	-9.35387
円以上	-9.3541
かけて	-9.35421
メーカー	-9.35492
させて	-9.35579
いく	-9.35615
ものでした	-9.35646
足の	-9.35675
円は	-9.35766
うちに	-9.35809
ct	-9.35837
と言って	-9.35945
るか	-9.36037
大きくて	-9.36067
比べ	-9.36186
見えない	-9.36199
があった	-9.36278
くなって	-9.363
10%	-9.36395
にしましたが	-9.36459
なくても	-9.36666
なもの	-9.3671
実物	-9.36776
的には	-9.36976
08	-9.37013
買ってみました	-9.37076
ページ	-9.37229
だけに	-9.37265
このお値段	-9.37372
脱	-9.37373
皮	-9.37385
革	-9.37388
ガラス	-9.37389
使えます	-9.37389
クッション	-9.37394
そちら	-9.37395
腕	-9.37395
歯	-9.37396
イエロー	-9.37397
開封	-9.37408
会社	-9.37408
楽しみです	-9.3741
連絡も	-9.37489
まだ届いていません	-9.37507
柔らかく	-9.3763
届いたのは	-9.37654
ーム	-9.37772
イイ	-9.37791
ピー	-9.37911
♪,	-9.37945
多い	-9.38015
ありがたいです	-9.3813
けば	-9.3813
それと	-9.38135
連絡が	-9.38219
が良い	-9.38293
熱	-9.3834
早くて	-9.38476
ちょうどいい	-9.38485
お店で	-9.38587
アイ	-9.38597
感じます	-9.38655
をしました	-9.38779
出す	-9.38852
お勧め	-9.39022
シンプルで	-9.39077
注文し	-9.39157
太い	-9.39358
他店で	-9.39365
便利です	-9.39422
続けて	-9.39466
きれいな	-9.395
思った	-9.39552
円だったので	-9.39556
参考に	-9.39607
包	-9.3962
料	-9.39652
使っている	-9.39678
っぱ	-9.39684
板	-9.39711
冊	-9.39715
&#8252;	-9.39716
猫	-9.39717
綿	-9.39719
ヨ	-9.39724
こういう	-9.3973
ハズレ	-9.39731
明るく	-9.39734
作業	-9.39737
ター	-9.39754
ワイン	-9.39757
ものと	-9.39792
荷物	-9.3981
靴下	-9.39816
クリア	-9.39819
,1	-9.39832
%	-9.39841
黄色	-9.39852
始め	-9.39873
をした	-9.39886
も良い	-9.39925
オススメ	-9.39996
v	-9.4
を買う	-9.40083
などの	-9.40113
壊れました	-9.40159
際	-9.40194
に近い	-9.40205
どちらも	-9.40483
自体	-9.40643
ですし	-9.40683
について	-9.40724
日ほど	-9.4075
ちょ	-9.41025
発送が	-9.4103
スーパー	-9.41279
しますが	-9.41297
ならない	-9.41322
いけ	-9.41438
どの	-9.41522
肌に	-9.41528
検討	-9.41548
匂いが	-9.41574
質感	-9.41789
ずれ	-9.41932
10000	-9.41968
心地	-9.41983
送料込	-9.42003
到着しました	-9.42006
配	-9.42014
頼んだ	-9.42037
は初めてです	-9.42069
>	-9.4209
立ち	-9.42092
習	-9.42094
適	-9.42094
泣	-9.42097
p	-9.42098
ナチュラル	-9.42102
飛	-9.42104
カワイイ	-9.42106
ではないので	-9.42118
ほしかった	-9.42123
不満	-9.42124
からの	-9.42136
表面	-9.42148
売	-9.42222
お値段も	-9.42368
悩み	-9.42412
ければ	-9.42418
しないと	-9.42445
▁2,,0	-9.42489
円以下	-9.42541
日以上	-9.4267
早	-9.42788
はまだ	-9.42836
れません	-9.42928
が悪く	-9.4307
書き	-9.43124
一回	-9.43137
後ろ	-9.43181
ほしい	-9.43241
よりは	-9.43285
インク	-9.43285
れます	-9.4335
硬い	-9.43369
に入れて	-9.43542
丁度	-9.43627
がありません	-9.43741
が良く	-9.43764
いつもは	-9.43828
▁2,11	-9.43853
フィ	-9.44101
になっている	-9.44191
可愛く	-9.44281
方も	-9.44317
電	-9.44356
試してみ	-9.44395
気に入った	-9.44413
心	-9.44431
V	-9.44485
感じでした	-9.44491
、12	-9.44516
湯	-9.44525
達	-9.44534
レギンス	-9.44539
パープル	-9.44539
=	-9.44541
疲れ	-9.44541
シルバー	-9.44543
'	-9.44543
んですけど	-9.44559
とはいえ	-9.44574
近	-9.44583
ウール	-9.44607
全体的に	-9.44652
無事	-9.44672
名前	-9.4468
ろう	-9.44713
きつい	-9.44722
たく	-9.44772
しようと	-9.44791
してください	-9.44876
同様	-9.44878
気になりません	-9.4488
面倒	-9.44884
かわいくて	-9.44889
^^;	-9.45056
いらない	-9.45141
説明書	-9.45174
嬉しかったです	-9.45246
ですよね	-9.45389
なります	-9.45431
張り	-9.45537
軽く	-9.45629
倍ポイント	-9.45954
軽	-9.46087
もいい	-9.46093
普段は	-9.46157
11/2	-9.4618
ーター	-9.46268
探して	-9.46288
にくく	-9.46453
太	-9.46474
お気に入り	-9.46522
てしまった	-9.46561
そうなので	-9.46752
信	-9.46797
好	-9.4682
曲	-9.46838
忘れ	-9.46877
使えません	-9.469
応	-9.46956
ぽ	-9.4696
雨	-9.46986
価値	-9.47008
U	-9.47013
段	-9.47028
親	-9.47031
せっかく	-9.47034
ぃ	-9.47035
テープ	-9.47038
OFF	-9.47039
爪	-9.47041
ボリューム	-9.47041
無駄	-9.47042
ネックレス	-9.47043
自然	-9.47052
発注	-9.47055
毎回	-9.47076
男の子	-9.47078
の部分が	-9.47105
しまった	-9.4711
試着	-9.47123
が付いて	-9.47129
キズ	-9.47142
部分に	-9.47187
ライン	-9.47195
無かった	-9.47215
ース	-9.47339
白い	-9.47536
この商品は	-9.47563
あまりにも	-9.47694
ピッタリでした	-9.47768
円くらい	-9.47774
最初	-9.47789
日注文	-9.4784
りません	-9.47863
キャ	-9.47934
イル	-9.4796
値段も	-9.48055
続け	-9.48064
シー	-9.48065
だな	-9.48067
ショックです	-9.48093
お得です	-9.48147
の大きさ	-9.48174
感想	-9.4824
買いません	-9.4829
効果が	-9.4829
た感じ	-9.48325
甘い	-9.48596
受け	-9.48793
未だ	-9.48795
片	-9.49024
他に	-9.49063
昨日	-9.4907
のサイズ	-9.49083
かわい	-9.49187
安いから	-9.49263
嬉しい	-9.49298
糸が	-9.493
米	-9.49371
食べる	-9.49402
中で	-9.49459
なんと	-9.4946
満	-9.49515
お品	-9.49568
学	-9.49574
こんなもの	-9.49583
Y	-9.49601
バッテリー	-9.49601
シリーズ	-9.49603
ぬ	-9.49604
インナー	-9.49607
(>_<)	-9.49607
遠	-9.49608
緩	-9.49611
ぞ	-9.49613
悩んで	-9.49615
脚	-9.49617
飲む	-9.49617
しっかりして	-9.49635
方には	-9.49665
均一	-9.49682
ここまで	-9.49714
正解でした	-9.49746
分丈	-9.49761
の時に	-9.4977
がないので	-9.49799
様な	-9.49844
いまだに	-9.49883
均レベル	-9.49887
個入り	-9.49889
重さ	-9.49942
買えばよかった	-9.50073
似	-9.50095
0.3	-9.50155
されました	-9.5025
150	-9.50323
ぴったりでした	-9.50338
ありませんでした	-9.50341
購入です	-9.50435
増え	-9.50469
はじめて	-9.50474
メール便で	-9.50489
ものの	-9.5049
こない	-9.50572
縫い	-9.50641
まし	-9.50739
に注文	-9.50792
ないですね	-9.51074
しょうがない	-9.51122
でしたので	-9.51208
落とし	-9.51225
来年	-9.51437
られない	-9.51515
相当	-9.51617
ミス	-9.51624
入っていました	-9.51657
様に	-9.51673
さんの	-9.51675
際に	-9.51675
余	-9.5173
!!!!!!!	-9.51826
せる	-9.51838
当たり	-9.5185
してる	-9.51853
つもり	-9.51867
届け	-9.51955
自	-9.5201
わけ	-9.5202
このショップ	-9.52029
才	-9.52091
ホ	-9.52161
かんじ	-9.52206
賞味期限	-9.52225
球	-9.52225
犬	-9.52231
ようやく	-9.52233
ぷ	-9.52234
(^-^)	-9.52234
蓋	-9.52234
(*^^*)	-9.52235
印鑑	-9.52239
フォ	-9.52241
乳	-9.52242
限定	-9.52248
女性	-9.5225
履き心地	-9.52253
カシミヤ	-9.52258
と思うので	-9.52266
ブラシ	-9.52267
ジェル	-9.52273
愛用しています	-9.52304
プラス	-9.52319
締め	-9.5233
皆さん	-9.52368
普段使い	-9.52372
タイツ	-9.5238
何度か	-9.52404
たけど	-9.52407
していない	-9.52481
つい	-9.52506
商品に	-9.52633
注文したのですが	-9.52737
ではありません	-9.52741
39	-9.52764
てしまったので	-9.52767
▁1,0	-9.52793
良	-9.52833
37	-9.52854
時間が	-9.5292
思います	-9.52991
980	-9.53091
店で	-9.53113
過ぎて	-9.53123
見つけ	-9.53197
来ました	-9.53201
安いし	-9.53269
黒い	-9.53448
この価格	-9.53501
ところが	-9.53536
。,10	-9.53581
が楽しみです	-9.53647
用に購入	-9.53746
次回	-9.53844
直し	-9.53863
食べた	-9.53924
ことも	-9.54129
1,000	-9.54259
強く	-9.54307
カ月	-9.54342
書かれて	-9.5442
メーカーの	-9.54496
万	-9.54619
が出て	-9.54662
したいです	-9.54724
目が	-9.54749
違いました	-9.54756
娘の	-9.54773
いい感じ	-9.54774
最悪です	-9.54775
便	-9.54803
安さ	-9.54819
両	-9.54876
違和感	-9.54877
年くらい	-9.54894
格	-9.54907
しっかりしています	-9.54914
補	-9.54928
薬	-9.54931
▽	-9.54932
旦那	-9.54936
おしゃれ	-9.54937
映	-9.54942
春	-9.54942
深	-9.54942
スッキリ	-9.54942
命	-9.54942
コスパ	-9.54944
ハンガー	-9.54946
f	-9.54947
鉢	-9.54948
美	-9.54949
手元に	-9.54951
自宅	-9.54952
塩	-9.54953
だいぶ	-9.54958
方法	-9.54961
財布	-9.54968
シワ	-9.55018
前から	-9.55019
一切	-9.55034
モノ	-9.55044
売り	-9.55048
ハン	-9.5514
このまま	-9.55157
入荷予定	-9.55168
触	-9.55172
枚入り	-9.55234
万円	-9.55256
きつく	-9.55271
に出	-9.55309
歩	-9.55315
薄くて	-9.55533
縫	-9.55577
一週間	-9.55608
倍だったので	-9.55763
だめ	-9.55788
売っている	-9.55804
があると	-9.55865
もし	-9.55921
出来て	-9.55921
におい	-9.55963
しまって	-9.55989
こちらのお店	-9.56109
しながら	-9.56124
とのことで	-9.56204
いくら	-9.56328
なのかな	-9.56461
新しい	-9.56552
かかって	-9.56603
バン	-9.56717
確認して	-9.56752
変え	-9.56849
にした	-9.56911
見えます	-9.56988
人には	-9.57076
色違い	-9.5729
頼んで	-9.57311
測	-9.5735
ることができ	-9.57365
張	-9.57434
55	-9.57542
してしまいました	-9.57574
人は	-9.57612
冷	-9.57636
全体	-9.57673
思え	-9.57696
処理	-9.57701
対策	-9.57711
同梱	-9.57715
明るさ	-9.57717
オシャレ	-9.5772
模様	-9.57721
加工	-9.57722
昼	-9.57722
誤	-9.57724
混	-9.57725
ボロボロ	-9.57728
当然	-9.5773
パーツ	-9.57738
友人	-9.57739
詐欺詐欺詐欺詐欺詐欺詐欺詐欺詐欺	-9.57739
読み	-9.57763
サイト	-9.57765
時計	-9.57817
なりません	-9.57824
せめて	-9.57855
済み	-9.57879
サイズを購入しました	-9.57927
がっかりしました	-9.58002
&#10024;,	-9.58033
使用しました	-9.5804
何の	-9.58308
はずれ	-9.58312
楽しみ	-9.58338
固	-9.58345
買い物でした	-9.58439
付けて	-9.58442
なのでしょうか	-9.58507
この値段で	-9.5862
ヶ月で	-9.58632
タイプの	-9.58647
近所の	-9.58652
がよく	-9.5872
だったのに	-9.5874
していましたが	-9.588
違って	-9.58826
まれて	-9.58917
系の	-9.58988
ると思います	-9.59022
失敗した	-9.59023
ここで	-9.59117
買ったのに	-9.59133
お願いしました	-9.59233
後の	-9.59283
場合は	-9.59338
ワン	-9.59549
不安です	-9.59686
はちょっと	-9.59723
空	-9.59728
&#10084;,	-9.59734
れました	-9.59738
ラメ	-9.59765
という感じ	-9.59799
なかったのですが	-9.5986
行き	-9.5998
と書いて	-9.6014
多く	-9.60159
と思っていましたが	-9.60168
ていたので	-9.6026
末	-9.60283
効	-9.60305
見た目は	-9.60328
まだ届かない	-9.60334
ックス	-9.60382
丁寧	-9.60408
訳	-9.60532
加	-9.60561
u	-9.60562
以降	-9.60571
汗	-9.60571
よかったよかったよかったよかった	-9.60572
投	-9.60574
ω	-9.60574
機会	-9.60575
サンプル	-9.60577
結婚式	-9.60578
パッケージ	-9.60578
左右	-9.6058
次第	-9.6058
ケーブル	-9.60581
ゆったり	-9.60596
かもしれない	-9.60602
ピン	-9.60648
充分	-9.60653
薄手	-9.6075
娘に	-9.60775
こんなもん	-9.60841
38	-9.60929
楽天で	-9.60931
まとめて	-9.60969
ピンクの	-9.61042
歩き	-9.61044
になってしまいました	-9.6109
ほんとに	-9.61133
っていた	-9.61193
られた	-9.61206
だったのですが	-9.61207
っていて	-9.61379
送料込み	-9.61395
▁1,,1	-9.61549
人が	-9.61563
大好き	-9.61596
買った方が	-9.61725
ワンサイズ	-9.61739
なのが	-9.6174
とは言え	-9.61757
っこ	-9.6179
変わり	-9.61814
を考えると	-9.61826
書いてあった	-9.62088
上がり	-9.62128
になりそうです	-9.62229
止	-9.62273
利用し	-9.6229
写真と	-9.62363
られません	-9.62383
迷いましたが	-9.62397
どうなってる	-9.62421
寒い	-9.62439
素敵な	-9.62503
次は	-9.62513
スク	-9.62536
なくなり	-9.62572
ってる	-9.62594
上が	-9.62766
きたので	-9.62772
して欲しい	-9.63014
らないので	-9.63016
買おう	-9.6309
あとは	-9.63117
などは	-9.63278
だと思いました	-9.63392
注文から	-9.63415
字	-9.63474
私も	-9.63487
予想	-9.63498
縮	-9.63503
h	-9.63503
キャップ	-9.63513
検索	-9.63514
重宝しています	-9.63514
-20150	-9.63516
緑	-9.63518
昔	-9.63518
調節	-9.63521
込んで	-9.63524
おいしく	-9.63525
容器	-9.63525
箇所	-9.63537
ヒール	-9.6355
記念	-9.63551
驚きました	-9.63567
綺麗です	-9.63597
フック	-9.63606
プレ	-9.63625
他店	-9.6363
やっと届きました	-9.63642
太さ	-9.63653
36	-9.63677
タグ	-9.63704
かどうか	-9.63732
対応も	-9.63786
気になります	-9.63821
後悔	-9.63828
塗り	-9.63883
一枚	-9.64036
使い方	-9.64061
ショックでした	-9.64097
したり	-9.64106
なんとか	-9.64113
洗い	-9.64162
と思ったら	-9.64185
先に	-9.64188
素敵	-9.64199
くらいです	-9.64255
ではありませんでした	-9.64295
目に	-9.64309
それから	-9.64465
月の	-9.64471
この値段	-9.64521
幅が	-9.64558
こちらで購入	-9.64657
きましたが	-9.64744
オー	-9.64852
起き	-9.64908
を持って	-9.64997
/6	-9.65041
頂き	-9.65054
見た	-9.65071
んですか	-9.65124
柔らかい	-9.65136
-1	-9.65184
っぽ	-9.65252
みたいで	-9.65318
中身	-9.65319
を探して	-9.65322
に注文し	-9.65406
柄の	-9.65425
香りが	-9.65498
42	-9.65552
に合わせて	-9.65558
140	-9.65765
ステ	-9.65883
&#11088;	-9.65949
来ない	-9.65964
なんだ	-9.66057
良さそう	-9.66077
99	-9.66159
在庫が	-9.6616
しかない	-9.66192
ありますが	-9.6628
記	-9.66289
ーーー	-9.66316
が違う	-9.66386
写真より	-9.66421
防	-9.66475
乾燥	-9.66513
誕生日	-9.66534
泡	-9.66538
目立つ	-9.66542
取り寄せ	-9.66543
丈は	-9.66544
放	-9.66545
ボトル	-9.66547
帯	-9.66549
設置	-9.66549
通販	-9.6655
ベビー	-9.6655
反応	-9.66555
感謝	-9.66565
固定	-9.66569
女の子	-9.6657
金具	-9.66613
安っぽく	-9.66643
発見	-9.66691
分からない	-9.66691
多	-9.66747
たくて	-9.6677
サン	-9.66839
日後に	-9.66843
少	-9.66845
丁寧に	-9.66899
おらず	-9.66933
っても	-9.66962
35	-9.66967
されていない	-9.66972
とメール	-9.66998
お店に	-9.6701
限り	-9.67052
てました	-9.67063
びっくりしました	-9.67064
甘	-9.67101
というより	-9.67102
ってくれ	-9.67128
&#11088;,	-9.67137
33	-9.67141
色々な	-9.67171
年ほど	-9.67199
今度は	-9.6722
少なく	-9.67244
1.5	-9.67265
0.6	-9.673
どれも	-9.67301
容量	-9.67362
記載されて	-9.67404
濃	-9.67407
開いて	-9.67432
かず	-9.67456
小さくて	-9.67539
日に購入	-9.67582
遅すぎ	-9.67667
に戻	-9.67766
発色	-9.6777
/3	-9.67798
ますね	-9.67895
ヶ月の娘に	-9.67909
なお	-9.6799
108	-9.68059
以上の	-9.6808
いい感じです	-9.68142
それなり	-9.68158
としても	-9.68242
日に注文し	-9.68256
安かった	-9.68275
d	-9.68327
シンプル	-9.68431
しております	-9.68471
が多く	-9.68476
シンプルな	-9.68514
発売	-9.68579
臭いが	-9.68608
ザ	-9.68802
わない	-9.68818
簡単	-9.68838
ってます	-9.68867
実物は	-9.68912
育	-9.68915
送り	-9.68916
c	-9.6907
つです	-9.69094
にしては	-9.69133
現	-9.69207
のうち	-9.69312
屋	-9.69422
出る	-9.69434
膝	-9.69552
ようなので	-9.69555
過	-9.69621
損	-9.69627
ゼ	-9.69636
こちらも	-9.69636
天	-9.69639
ストラップ	-9.69655
芯	-9.69665
テーブル	-9.69666
うまく	-9.69667
信用	-9.69668
&#11088;&#65039;	-9.69668
終わり	-9.69672
ダイソー	-9.69672
居	-9.69675
自転車	-9.69675
入金	-9.69677
断	-9.69678
類	-9.69685
裏地	-9.69689
細かい	-9.69692
たま	-9.69692
もう一	-9.69715
円の価値	-9.69717
まあまあ	-9.69721
調子	-9.69723
足首	-9.69766
人に	-9.6979
ショップから	-9.69812
完了	-9.69814
一部	-9.69817
ありましたが	-9.69846
痛い	-9.69848
してました	-9.69856
見た目も	-9.69857
ドライ	-9.6986
均以下	-9.69876
商品ページ	-9.69877
ジャストサイズ	-9.69886
安物	-9.69972
47	-9.70007
考えて	-9.70008
揃え	-9.70008
ずら	-9.70014
の為	-9.70046
汚れが	-9.70222
言い	-9.70239
円も	-9.70284
くなる	-9.70298
リン	-9.70414
近くの	-9.70423
乗	-9.70561
なー	-9.70833
時には	-9.70941
写真の	-9.71121
10/1	-9.71127
足り	-9.7125
思いました	-9.7128
着れる	-9.71287
▁2,,110	-9.71287
今回の	-9.71293
他の方の	-9.71299
円とは思えない	-9.7134
届いていません	-9.71447
を使う	-9.71449
ッチ	-9.71485
最初は	-9.71545
かかと	-9.7179
させていただきました	-9.719
のかもしれませんが	-9.71908
千円	-9.72074
の中に	-9.72075
ごと	-9.7215
方の	-9.72221
歳の娘	-9.72249
となって	-9.72268
にある	-9.72316
紫	-9.72329
明日	-9.72335
ようですが	-9.7237
?)	-9.72409
まだまだ	-9.72519
エア	-9.72524
なったら	-9.72618
の購入	-9.72765
可能	-9.72866
ですので	-9.72872
単	-9.72873
連	-9.72882
優	-9.72885
シャンプー	-9.72892
針	-9.72893
痩せ	-9.72893
トイレ	-9.72894
圧	-9.72896
並	-9.72898
筆	-9.72898
キッチン	-9.72898
おかしい	-9.72899
関	-9.729
リビング	-9.72902
手触り	-9.72902
暖か	-9.72905
サービス	-9.72905
設定	-9.72907
ホール	-9.7291
似たような	-9.72912
ミシン	-9.72913
の連絡	-9.72923
まさか	-9.72931
悩みましたが	-9.72967
専用	-9.7297
な感じです	-9.72981
ミニ	-9.73024
下げ	-9.73042
とおもいます	-9.73058
とてもいいです	-9.73092
したもの	-9.73122
センチの娘に	-9.73126
に変更	-9.73155
お米	-9.7318
注文番号	-9.7321
カン	-9.7327
頂きました	-9.73315
マン	-9.73436
になると	-9.73523
きっと	-9.73525
すでに	-9.73538
他の商品	-9.73587
動き	-9.73619
くれた	-9.73651
▁゚	-9.73678
存在感	-9.737
お気に入りです	-9.73705
入っていた	-9.73719
リピートです	-9.73731
使えそうです	-9.73748
年間	-9.73913
しているので	-9.73972
それに	-9.74065
均と	-9.7424
国産	-9.7432
てみると	-9.74328
実際は	-9.74337
着られ	-9.74402
高かった	-9.74411
届いたので	-9.74448
娘も	-9.74465
売ってる	-9.7447
がいい	-9.7449
に行く	-9.7452
てくれ	-9.74521
ちが	-9.74567
ひど	-9.74576
003	-9.74589
高級感	-9.74592
ショップに	-9.74616
袋に	-9.74638
はないと思います	-9.74645
やら	-9.74691
やり	-9.74701
こちらの商品は	-9.74732
ゆる	-9.7481
分かり	-9.74828
を購入して	-9.74962
もち	-9.75169
見えて	-9.75209
見ると	-9.75225
絶対に	-9.75256
うち	-9.7527
購入したのに	-9.75295
置	-9.75298
別に	-9.75328
使い勝手	-9.75347
ですかね	-9.75363
無いので	-9.75409
でしょ	-9.75434
るのも	-9.75575
それも	-9.75598
分の	-9.75654
しっかりと	-9.75686
との連絡	-9.75716
98	-9.75761
香	-9.75801
酸	-9.75856
できた	-9.75888
柄も	-9.7589
子供も	-9.75896
かかりました	-9.75898
安いです	-9.75913
1.	-9.75928
おまけの	-9.75955
娘が	-9.75961
使用している	-9.75982
リア	-9.76051
遅	-9.76133
綺麗で	-9.76141
装	-9.76149
結	-9.76196
持	-9.762
文	-9.76202
#	-9.76212
わざわざ	-9.76214
ホント	-9.76226
づらい	-9.76228
&#1285	-9.76229
◎	-9.7623
アクリル	-9.7623
理由	-9.7623
ギリギリ	-9.76231
修理	-9.76231
バランス	-9.76233
遅延	-9.76233
隙間	-9.76234
ナイロン	-9.76238
たまたま	-9.76241
も無く	-9.76241
折り	-9.76243
豆	-9.76244
除	-9.76245
もったいない	-9.76248
料理	-9.76251
割引	-9.76253
ほかの	-9.76262
部分は	-9.76266
ローズ	-9.76285
を使っていましたが	-9.76286
ボール	-9.76287
すぎず	-9.76294
ロック	-9.76305
メールも	-9.76311
処分	-9.76311
申し	-9.76322
わかって	-9.76358
注文する	-9.76372
もついて	-9.76394
がありますが	-9.76399
これからも	-9.76438
日も	-9.76441
押	-9.76446
プラ	-9.76506
〜\	-9.76579
思う	-9.76581
んだけど	-9.76613
があるの	-9.76639
温か	-9.76723
好きです	-9.76736
長さが	-9.7674
形が	-9.76741
片方	-9.76895
書け	-9.76908
来ません	-9.77011
お風呂	-9.7704
破け	-9.77067
置き	-9.77087
スーパーで	-9.7712
ったので	-9.77125
みなさん	-9.77127
決め	-9.77159
破	-9.7724
のが残念です	-9.77346
写真を	-9.77387
いいのですが	-9.77397
側の	-9.77448
とても残念です	-9.77492
肌が	-9.77506
という感じです	-9.77513
落	-9.77518
ができ	-9.77678
購入したので	-9.77679
ような感じ	-9.77715
大きかった	-9.7773
着れ	-9.77852
セールで	-9.77855
を見	-9.77863
よいです	-9.77914
白く	-9.77952
ついた	-9.77986
などで	-9.78004
は無理	-9.78009
あったので	-9.78071
ガッカリです	-9.78073
巻き	-9.78109
とこ	-9.7811
消え	-9.78203
落ちて	-9.78247
2013	-9.7836
やすくて	-9.78366
になっても	-9.78424
特	-9.78504
しまいました	-9.78514
安心です	-9.78616
今から	-9.78627
友達	-9.78793
かなと	-9.78814
縫製	-9.78836
の為に	-9.78865
問題ありません	-9.78881
均のもの	-9.78888
ショップさん	-9.78912
選択	-9.79087
浮	-9.7911
日程	-9.79162
r	-9.79176
言われ	-9.79191
で十分	-9.79339
柄が	-9.79405
あると	-9.79412
敷	-9.79455
いつもの	-9.79501
立て	-9.7952
を注文しました	-9.79522
た方が	-9.79534
えました	-9.79558
クリスマス	-9.79592
男	-9.79605
っくり	-9.79614
選べる	-9.79625
法	-9.79665
異	-9.79668
視	-9.79668
季節	-9.79673
床	-9.79675
ワンピース	-9.79676
絵	-9.79676
ぅ	-9.79676
渡	-9.79677
ラッキー	-9.79677
アレルギー	-9.79678
スポンジ	-9.79678
明らかに	-9.79679
J	-9.79681
棒	-9.79681
天然	-9.79694
防水	-9.79739
選べ	-9.79744
お安い	-9.79745
が欲しくて	-9.79769
造り	-9.79774
長時間	-9.79793
きり	-9.79798
お安く	-9.79823
成分	-9.79845
欠け	-9.79861
それほど	-9.79926
決めました	-9.79958
必要な	-9.79972
長め	-9.80031
元気	-9.80044
とても気に入りました	-9.80098
...,10	-9.80106
薄め	-9.80126
つもりです	-9.80161
お茶	-9.80224
もらった	-9.80224
寒	-9.80258
個人	-9.80282
が欲しかった	-9.80323
プロ	-9.80334
ラック	-9.80335
乗せ	-9.80363
他にも	-9.80408
個人的には	-9.80429
月末	-9.80535
破れ	-9.80559
我が家の	-9.80563
後は	-9.80675
足りない	-9.80729
迷って	-9.80731
辛	-9.80811
買わなかった	-9.80818
はしません	-9.80884
は全く	-9.80892
1.0	-9.80951
と迷いましたが	-9.81068
それを	-9.81088
97	-9.8111
これだけ	-9.81142
こちらで購入しました	-9.81198
他で	-9.81233
硬	-9.81241
商品だと思います	-9.81342
キン	-9.81421
物も	-9.81478
美味しいです	-9.8166
はありますが	-9.8178
はなく	-9.81788
くれて	-9.81858
だい	-9.81931
お得感	-9.82042
の違い	-9.82056
動か	-9.82125
いるのに	-9.82171
さすが	-9.82188
海	-9.8222
それが	-9.82237
下の	-9.82354
程度の	-9.82398
イス	-9.824
については	-9.82432
の香り	-9.82439
くれました	-9.82441
ニット	-9.82487
☆,	-9.82587
セットで	-9.82596
に発送	-9.82719
知って	-9.82763
編	-9.829
美味しく	-9.82988
成	-9.83046
はき	-9.83182
モデル	-9.83187
転	-9.83195
検	-9.83199
道	-9.83214
ィ	-9.83227
携帯	-9.83228
根	-9.83233
順	-9.83239
参	-9.8324
ぺ	-9.83241
保存	-9.83243
税	-9.83244
b	-9.83245
若	-9.83245
iPhone	-9.83246
勝	-9.83246
活躍	-9.83246
荒	-9.83246
ダイエット	-9.83248
箸	-9.83249
仕様	-9.8325
チクチク	-9.8325
雰囲気	-9.83251
シューズ	-9.83253
こっち	-9.83254
ズボン	-9.83256
付属の	-9.83257
定価	-9.83258
わたし	-9.83258
スーツ	-9.83265
をする	-9.83267
かわ	-9.83317
ファン	-9.83336
両方	-9.83356
着心地	-9.83358
11/30	-9.83358
元々	-9.8336
するため	-9.83379
なのは	-9.83422
レビューを参考に	-9.83422
捨てました	-9.83425
67	-9.83444
ではないです	-9.8345
何より	-9.83451
を買いましたが	-9.83459
できず	-9.83462
っていう	-9.83501
屋さん	-9.83511
事は	-9.83564
面倒なので	-9.83566
43	-9.83571
まる	-9.83599
到着して	-9.83619
所に	-9.83631
自分が	-9.83646
にあった	-9.83716
感じがします	-9.83762
ですから	-9.8378
45	-9.83826
価格で	-9.83885
店頭で	-9.83893
48	-9.8393
届いたら	-9.83988
円は高い	-9.84047
0.0	-9.84064
たか	-9.84075
履いた	-9.84102
66	-9.84107
ぶり	-9.84192
かなと思います	-9.84207
出来るの	-9.84242
魅力	-9.84279
てきました	-9.84454
以前の	-9.84484
購入しています	-9.84501
共に	-9.84606
試して	-9.84673
使えて	-9.84772
てしまって	-9.84873
秒	-9.84886
さえ	-9.84947
入っている	-9.8496
使用していた	-9.84978
とは思えない	-9.85002
もあるので	-9.85031
捨て	-9.85046
ものです	-9.85075
肌触り	-9.85199
分かりません	-9.85201
うちの	-9.8524
拭	-9.85285
置いて	-9.85388
なしです	-9.85409
の商品です	-9.85422
73	-9.85602
これでは	-9.85667
対応が	-9.85701
はじめ	-9.85708
2000	-9.85726
高さ	-9.85735
どちら	-9.85763
はあまり	-9.85784
外に	-9.85793
ないように	-9.85879
送料無料で	-9.85894
丈が	-9.85967
同じもの	-9.8598
物は	-9.85995
49	-9.86073
均より	-9.86097
せい	-9.86215
娘は	-9.86218
生地の	-9.86228
たのか	-9.86288
いいな	-9.86338
こちらを購入しました	-9.86373
痛く	-9.86445
いいいいいいいいいいいいいいいい	-9.86451
組	-9.86489
なくなる	-9.86502
いれば	-9.86587
チン	-9.86588
前後	-9.86603
レビューに	-9.86625
主	-9.86653
?!	-9.86677
対応は	-9.867
正解	-9.86701
期待していた	-9.86713
かん	-9.86735
あったか	-9.86775
買ったので	-9.86788
初め	-9.86833
てよかったです	-9.86854
切って	-9.86909
倒	-9.86926
判	-9.86942
粗	-9.86943
テレビ	-9.86945
秋	-9.86947
関係	-9.86948
虫	-9.8695
火	-9.86952
和	-9.86953
⇒	-9.86953
はっきり	-9.86954
鏡	-9.86954
落ち着いた	-9.86955
ジャケット	-9.86956
左	-9.86956
快適	-9.86956
ゆとり	-9.86957
涙	-9.86957
かれこれ	-9.86958
理解	-9.8696
送られてきた	-9.8696
急ぎ	-9.86962
牛	-9.86962
製造	-9.86963
ブランド	-9.86963
断然	-9.86963
小さかった	-9.86966
カメラ	-9.86987
ランプ	-9.86991
使い心地	-9.87009
気にならない	-9.8703
にしても	-9.87058
ポチ	-9.87099
に惹かれて	-9.87131
すべき	-9.87144
与え	-9.87173
なくなった	-9.8719
わかる	-9.87191
オン	-9.87194
使用し	-9.87262
不足	-9.87268
`)	-9.87288
合わなかった	-9.87327
信じ	-9.87351
円という	-9.87353
に使う	-9.87423
2015	-9.87455
ことに	-9.87486
を選びました	-9.87489
ただけで	-9.8759
と感じました	-9.87593
逆に	-9.87656
余り	-9.87671
素晴らしい	-9.87716
茶色	-9.87774
均でも	-9.87921
はやく	-9.87933
おりました	-9.87946
がすごく	-9.87952
するのは	-9.87962
買ってよかったです	-9.87989
色違いで	-9.87998
美味しかったです	-9.88006
だが	-9.88043
買ったのですが	-9.88136
ちょっとした	-9.88196
らなかった	-9.88277
,"1,000	-9.88296
混ぜて	-9.88302
65	-9.88398
お店の	-9.88636
円で購入	-9.88639
変な	-9.88644
買わ	-9.88696
単位で	-9.8875
変わらない	-9.88868
46	-9.88972
きれいに	-9.89044
大きかったです	-9.89106
86	-9.89159
読んで	-9.89307
.\	-9.89308
イト	-9.89388
弱い	-9.89399
93	-9.8944
・・・,10	-9.89455
になったので	-9.89535
つもりで	-9.89785
入らない	-9.89848
800	-9.89905
ってしまう	-9.8995
ないけど	-9.89976
いいもの	-9.89997
ないでしょう	-9.90022
にならない	-9.90064
",	-9.90103
安っぽいです	-9.90107
月末に	-9.90133
最高	-9.90202
どれ	-9.90206
一緒	-9.9023
年前	-9.90285
はありませんでした	-9.90405
割には	-9.90405
が一番	-9.90504
できませんでした	-9.90556
ていませんが	-9.90611
いま	-9.90696
しっかりしている	-9.90741
ョ	-9.90742
然	-9.90755
状	-9.90774
んだろう	-9.90782
種	-9.90786
しようと思います	-9.90789
覚悟	-9.90793
真ん中	-9.90793
ストレス	-9.90794
シリコン	-9.90796
ありえない	-9.90796
ボード	-9.90797
社	-9.90801
準備	-9.90801
色んな	-9.90803
ゎ	-9.90804
ジュース	-9.90804
あっという間に	-9.90804
甲	-9.90805
大き目	-9.90805
束	-9.90805
必ず	-9.90806
と思われます	-9.90806
0.9	-9.90806
洋服	-9.90813
),	-9.90814
役	-9.90815
不便	-9.90816
余計	-9.90819
コンタクト	-9.90821
につられて	-9.90823
そういう	-9.90823
手帳	-9.90836
お手頃	-9.90879
ることは	-9.90918
内に	-9.90921
さま	-9.90958
2.5	-9.90966
そこまで	-9.90969
漏れ	-9.91024
更に	-9.91027
お願いします	-9.91043
背中	-9.91176
どうしよう	-9.9119
▁2,,"	-9.91204
おかげで	-9.91212
るのでしょうか	-9.91231
使えませんでした	-9.91323
でよかったです	-9.9133
価格が	-9.91367
続	-9.91371
の子に	-9.91386
ようと思います	-9.91395
!」	-9.91411
なぜか	-9.91486
心配です	-9.91519
▁2	-9.91542
酷い	-9.91828
見たら	-9.91839
カル	-9.91844
3000	-9.91863
以前から	-9.91963
焼	-9.91981
2014	-9.91982
0.8	-9.92
早かった	-9.92141
コード	-9.92152
良いので	-9.92161
ために	-9.92168
古い	-9.92184
外出	-9.92322
してくれる	-9.92356
の高さ	-9.92379
向き	-9.92384
買えて	-9.92392
使えそう	-9.92417
ぴったりです	-9.92418
購入後	-9.92543
できるので	-9.92621
という事	-9.92627
32	-9.92691
でこの値段は	-9.92821
意味が	-9.92875
変えて	-9.9294
あた	-9.92976
ゆるい	-9.93059
他の色	-9.93071
感は	-9.93075
ひと	-9.93178
を入れる	-9.93405
枚は	-9.93547
色です	-9.93548
分も	-9.93662
アン	-9.93696
た瞬間	-9.93697
想像	-9.93763
で購入しましたが	-9.93788
いいので	-9.93823
ほしいです	-9.93845
400	-9.93874
!,100	-9.93916
かと思いました	-9.93918
とありましたが	-9.9392
と思っていたのですが	-9.94069
均の方が	-9.9411
支	-9.94137
×2	-9.94229
以内	-9.94289
迷い	-9.94311
つかない	-9.94387
0%	-9.94395
らい	-9.94405
もないし	-9.9447
バリ	-9.94517
ジャスト	-9.94525
下旬	-9.94583
国	-9.94698
灯	-9.94756
旨	-9.94758
華	-9.94775
ところで	-9.94777
輪	-9.94779
一体	-9.9478
敏	-9.94785
カラット	-9.94791
野菜	-9.94797
キャンペーン	-9.94797
カレー	-9.94798
あわせ	-9.94798
(^_^;)	-9.94798
ブレスレット	-9.948
返答	-9.948
又	-9.948
日経っても	-9.94801
散	-9.94802
すこし	-9.94803
剤	-9.94804
各	-9.94804
完全に	-9.94805
世	-9.94807
込む	-9.94808
塗装	-9.94811
キャッチ	-9.94812
クッキー	-9.94816
手持ちの	-9.9482
経過	-9.9482
ペット	-9.94837
少量	-9.94857
ついでに	-9.94858
してますが	-9.94872
ポスト	-9.94878
めっちゃ	-9.94881
XL	-9.94888
キツイ	-9.94911
。。。,	-9.94913
のはずが	-9.94918
キロの娘に	-9.94921
満足してます	-9.94936
かったのですが	-9.94942
気をつけ	-9.95002
強度	-9.95021
到着した	-9.95031
曲がって	-9.95086
可愛いので	-9.95113
たかったので	-9.95137
一日	-9.95165
つくり	-9.95198
のまま	-9.95201
お届け	-9.95226
買って良かったです	-9.95232
がありましたが	-9.95236
▁1,,"	-9.95239
ジャー	-9.95244
まだこない	-9.95314
の方に	-9.95319
良かったのですが	-9.95329
空気	-9.95338
ほどの	-9.95409
いって	-9.95447
▁2,100%	-9.9548
交換して	-9.9551
とてもかわいいです	-9.95516
こんなこと	-9.95542
洗って	-9.95543
幅広	-9.95609
手に入	-9.95612
おいて	-9.95614
とおも	-9.95619
12/1	-9.95664
もうすぐ	-9.95708
力が	-9.95723
も同じ	-9.95778
使いたい	-9.95783
にしよう	-9.95793
いいのに	-9.95835
ザー	-9.95877
いいかも	-9.95913
の上に	-9.95915
もないので	-9.95918
購入します	-9.9593
以外は	-9.96001
になっています	-9.9602
調べ	-9.96173
円だし	-9.96196
アー	-9.96392
日に注文しましたが	-9.96398
その他	-9.96401
同じ商品	-9.96421
持っている	-9.96523
安定	-9.9654
ポイントが	-9.96569
していただけ	-9.96597
縫い目が	-9.96689
入った	-9.96791
と比べて	-9.96801
向	-9.9688
お店の方	-9.96911
購入したいと思います	-9.96997
68	-9.97015
デコ	-9.97083
良い買い物	-9.97087
改善	-9.97141
納期	-9.97171
日に発送	-9.97191
ちょうどいいです	-9.97255
言えば	-9.97275
ガー	-9.97376
気になって	-9.97442
のほう	-9.97511
ありそうな	-9.9755
同時に	-9.97595
はもう	-9.97654
てみたら	-9.97681
雑な	-9.97696
しかありません	-9.97696
買いたい	-9.97771
疑問	-9.97786
で使う	-9.97831
だったから	-9.97912
57	-9.97913
^)/	-9.97913
来る	-9.97934
読	-9.98059
?」	-9.98095
剥がれ	-9.98149
出せ	-9.9821
初めての	-9.98273
到着まで	-9.98329
他の方	-9.98372
59	-9.98382
んでしょうか	-9.98396
ちょうど良い	-9.98409
腹	-9.98716
みんな	-9.98739
見る	-9.98753
入ってる	-9.98779
行って	-9.98825
迷っ	-9.9886
勝手に	-9.98864
処	-9.9887
保証	-9.9889
▁^	-9.98892
女	-9.98908
剥	-9.98932
化粧水	-9.98943
級	-9.9895
保管	-9.9895
ぴ	-9.98955
反	-9.98957
羽	-9.98958
アルバム	-9.98959
∀	-9.9896
怒	-9.98961
DVD	-9.98961
枕	-9.98961
イベント	-9.98962
あんまり	-9.98962
幼稚園	-9.98963
客	-9.98963
札	-9.98963
カーテン	-9.98963
コーヒー	-9.98963
変わらず	-9.98964
ブカブカ	-9.98964
ヽ	-9.98964
∇`*)	-9.98964
ベッド	-9.98965
-20140	-9.98967
それぞれ	-9.98967
助	-9.98967
仕方なく	-9.98968
操作	-9.98968
骨	-9.98968
削	-9.98971
案内	-9.98972
と比べると	-9.98972
許容範囲	-9.98973
率	-9.98974
きつめ	-9.98974
機種	-9.98974
優しい	-9.98975
情報	-9.98977
●	-9.98978
眼	-9.9898
受付	-9.98983
向け	-9.98985
脂	-9.98985
感覚	-9.98986
入っているので	-9.98987
不可	-9.98987
になっていて	-9.98993
回答	-9.98994
やすそう	-9.99005
周年	-9.99007
だそうです	-9.99009
不明	-9.99021
返金	-9.99031
待つ	-9.99033
ことにしました	-9.9905
もともと	-9.99052
感動	-9.99069
PC	-9.9908
もらう	-9.99093
一言	-9.99095
も良く	-9.99099
安くなって	-9.99121
600	-9.99162
しょ	-9.99172
のに残念です	-9.99173
ショップの対応	-9.99187
ちょうど良かったです	-9.99189
選んだ	-9.99208
持ち手	-9.99222
頂いて	-9.99231
食事	-9.99251
どうしても	-9.99257
もっと早く	-9.993
日に予約	-9.99309
まらない	-9.99323
買うの	-9.99351
店舗で	-9.99411
壊れた	-9.9943
お値段以上	-9.99496
違った	-9.99516
ますよ	-9.99552
赤ちゃん	-9.99592
83	-9.99599
注文してから	-9.99615
下着	-9.99639
最高です	-9.99647
のび	-9.99687
付く	-9.99718
細く	-9.99763
51	-9.99782
商品が届きました	-9.99817
サイ	-9.99838
度に	-9.99918
とおり	-9.99971
乾き	-9.99972
やつ	-9.99972
柔らか	-9.99997
160	-10.0001
▁1,,10/2	-10.0014
海外	-10.0017
ょう	-10.0017
ともに	-10.0019
使い勝手が	-10.002
きれ	-10.0021
ればいい	-10.0026
暗い	-10.0027
買います	-10.0037
まるで	-10.0042
円均一で	-10.0042
枚も	-10.0061
人気	-10.0062
見かけ	-10.0064
問題なし	-10.0066
▁1,100%	-10.0066
だけに残念です	-10.0066
るのですが	-10.007
まわり	-10.0071
うれしい	-10.0072
届いた商品は	-10.0075
配送も	-10.0087
してもらえ	-10.0092
度目	-10.0092
短く	-10.0096
(*^	-10.0098
もらえる	-10.0101
のかもしれません	-10.0115
んじゃ	-10.0116
ないか	-10.0122
いると	-10.0123
値段の割に	-10.0124
連絡もありません	-10.0124
他社	-10.0134
秒で	-10.0137
てしまうので	-10.0156
くなりました	-10.0171
の使用	-10.0175
大きいサイズ	-10.0194
品質は	-10.0194
このお値段で	-10.0195
しませんでした	-10.0197
んです	-10.0205
乾	-10.0209
かかり	-10.0217
均で売って	-10.0219
かなー	-10.022
さんで	-10.0224
3.	-10.0227
送料込みで	-10.0234
さら	-10.0235
で気に入りました	-10.0246
納品	-10.0251
るなんて	-10.0261
色を	-10.0264
と後悔	-10.0267
までに	-10.028
のものを	-10.0283
何回	-10.0287
ではなかった	-10.0289
毎	-10.0292
お買い物	-10.0294
かわいく	-10.0308
日は	-10.0309
54	-10.0313
ショップの	-10.0315
枚で	-10.0319
これに	-10.0321
メイン	-10.0324
購入できる	-10.0325
理	-10.0327
封	-10.0328
やすさ	-10.0328
業	-10.0329
児	-10.0329
終	-10.0329
杯	-10.0329
工	-10.033
不良	-10.033
戦	-10.033
掲載	-10.0331
@	-10.0331
突	-10.0331
&#9825;	-10.0331
ふわふわ	-10.0331
ハンドル	-10.0331
ヌ	-10.0331
プラセンタ	-10.0331
(*^_^*)	-10.0331
ダウン	-10.0331
23.5	-10.0332
ステンレス	-10.0332
換	-10.0332
踏	-10.0332
仕上げ	-10.0332
跡	-10.0332
四	-10.0332
スプレー	-10.0332
何故	-10.0332
とは思いますが	-10.0332
髪の毛	-10.0332
大事に	-10.0332
工夫	-10.0332
ご飯	-10.0333
治	-10.0333
被	-10.0333
急いで	-10.0333
バイク	-10.0334
記入	-10.0334
◆	-10.0334
ロール	-10.0334
具合	-10.0334
コメント	-10.0335
ジョ	-10.0335
剥げ	-10.0336
安全	-10.0337
広げ	-10.0338
ジュ	-10.0338
まだ届いてない	-10.0338
ないため	-10.0338
ツヤ	-10.0338
中身が	-10.0339
サイド	-10.034
合わず	-10.0342
カップ	-10.0343
を購入する	-10.0345
水色	-10.0347
コート	-10.0348
太め	-10.0349
新品	-10.0351
ポリ	-10.0356
ズレ	-10.0357
電気	-10.036
分かって	-10.036
しま	-10.0362
厚さ	-10.0365
いったい	-10.0365
ないから	-10.0366
よかったので	-10.0367
ちゃいました	-10.0368
気味	-10.037
編み	-10.0374
薄さ	-10.0379
られます	-10.0384
減ら	-10.0388
良いもの	-10.0391
期待しています	-10.0392
過ぎる	-10.0399
チラ	-10.0399
持つ	-10.0401
探し	-10.0401
が入っている	-10.0408
ものなので	-10.0409
ように思います	-10.0411
花柄	-10.0414
食感	-10.0415
すみません	-10.0416
寒く	-10.042
高いです	-10.042
期待し	-10.0422
人で	-10.0424
されています	-10.0425
買い物をし	-10.0432
ならず	-10.0435
同じものが	-10.0438
差が	-10.0442
る方	-10.0446
後日	-10.0449
半年	-10.0454
クリ	-10.0455
に取り付け	-10.0457
取る	-10.0465
ところに	-10.0499
▁1,,10/1	-10.0503
を利用して	-10.0503
る感じ	-10.0509
縫製も	-10.0516
均で買った	-10.0519
トン	-10.052
納期が	-10.0523
少し大きい	-10.0523
,110	-10.0544
というのは	-10.0548
大丈夫でした	-10.0549
とありますが	-10.0557
用に買いました	-10.0567
さんに	-10.0573
てくれる	-10.0577
付いている	-10.0577
のために購入しました	-10.0581
によって	-10.0581
かと思って	-10.0587
とのことでしたが	-10.0587
お店の対応も	-10.0598
良いのですが	-10.0614
たこと	-10.0614
このお店	-10.0617
年ぶり	-10.0618
おまけに	-10.0625
ていないので	-10.0628
も入って	-10.0638
するのが	-10.0658
なか	-10.0675
が壊れ	-10.0676
お試しで	-10.0677
評価は	-10.0678
感じられ	-10.0682
選び	-10.0683
-04	-10.0686
してほしい	-10.0694
-2	-10.0696
クタ	-10.0704
に合う	-10.0706
限	-10.0707
最近は	-10.0713
もありますが	-10.0716
レベルです	-10.0718
中です	-10.0726
等の	-10.0729
になるので	-10.0733
分かりませんが	-10.0739
を使用しています	-10.0748
良くて	-10.0753
だけの	-10.0761
おいしいです	-10.0761
たりして	-10.0768
振	-10.0769
▁1,☆0	-10.0769
かわいいし	-10.0772
クロ	-10.0773
休	-10.0775
目立ち	-10.0778
*)	-10.0779
金具が	-10.078
▁1,,11/1	-10.0782
珠	-10.0782
果	-10.0785
鼻	-10.0785
ヘッド	-10.0785
識	-10.0785
段ボール	-10.0785
活躍しそうです	-10.0786
&#10025;	-10.0786
復	-10.0786
眠	-10.0786
ツルツル	-10.0786
声	-10.0786
y	-10.0786
そろそろ	-10.0786
直ぐに	-10.0786
是非	-10.0786
メイク	-10.0786
思ってたより	-10.0786
フィルム	-10.0786
肝心の	-10.0786
伸縮性	-10.0786
我慢	-10.0786
パウダー	-10.0786
x	-10.0787
段階	-10.0787
バラバラ	-10.0787
電球	-10.0787
不快	-10.0787
観	-10.0787
すっきり	-10.0787
光沢	-10.0787
機会があれば	-10.0787
半額	-10.0788
たぶん	-10.0788
右	-10.0788
カロリー	-10.0788
ボックス	-10.0789
間違って	-10.079
欠品	-10.0791
鍋	-10.0792
ボディ	-10.0792
キュ	-10.0794
出産	-10.0796
フリー	-10.08
二つ	-10.0801
楽しく	-10.0802
地味	-10.0803
洗う	-10.0803
どうなっている	-10.0806
ポン	-10.0806
円サプリ	-10.0806
心配でしたが	-10.0806
失敗しました	-10.0807
の説明	-10.0808
痛み	-10.0808
大差	-10.0811
使いたいと思います	-10.0812
ゆう	-10.0816
とてもいい	-10.0818
時も	-10.0819
を考えて	-10.0819
楽しみにしていた	-10.0819
良かったかも	-10.082
決	-10.0823
細め	-10.0823
こちらを購入	-10.0823
カビ	-10.0824
重量	-10.0827
月中旬に	-10.0828
のない	-10.0829
最初から	-10.0833
にくいです	-10.0843
少し大きめ	-10.0848
数回	-10.085
毛玉	-10.0853
自分に	-10.0855
ビン	-10.0855
形は	-10.0858
♪♪♪	-10.086
るため	-10.0867
しっかりとした	-10.0872
いたします	-10.088
の穴	-10.088
お値段が	-10.0882
室内	-10.0882
といっても	-10.0889
みようと思います	-10.0891
こちらのショップ	-10.0897
レビューも	-10.09
が多いので	-10.0905
の様な	-10.0907
たのは	-10.0911
と思い購入しました	-10.0914
▁)	-10.0915
急に	-10.0915
子供には	-10.0928
さほど	-10.0932
だけに残念	-10.0933
間違えて	-10.0938
行く	-10.0942
この店	-10.0944
量も	-10.0951
食べてくれ	-10.0957
年前に	-10.0968
で買うより	-10.0977
安く買えて	-10.0984
十分です	-10.0987
ついている	-10.099
(;	-10.0999
とても良い	-10.1004
待ちました	-10.101
まった	-10.1014
頂いた	-10.1019
ているので	-10.1022
それなりに	-10.1023
年前の	-10.1024
単位	-10.104
使いやすく	-10.1042
を考え	-10.1052
売ってました	-10.1052
日着	-10.1054
ことで	-10.106
お得でした	-10.1074
しろ	-10.1081
本セット	-10.1085
古	-10.1086
,3	-10.1087
つで	-10.1096
ヶ月の	-10.1101
たつ	-10.1104
大きいです	-10.1105
を作る	-10.1109
購入でき	-10.112
子供は	-10.1137
と書いてあったので	-10.114
次の	-10.1141
収	-10.1146
の間	-10.1148
なってきたので	-10.1148
ないのは	-10.1149
室	-10.1161
といった	-10.1172
どこに	-10.1204
だと思い	-10.1214
選	-10.1226
なんですが	-10.1228
サプリ	-10.1242
暖かく	-10.1244
してほしいです	-10.1247
充	-10.1249
すべ	-10.125
活	-10.1254
晩	-10.1261
印刷	-10.1261
スタッフ	-10.1262
ブレス	-10.1262
マラソン	-10.1262
鮮	-10.1262
負担	-10.1262
炊	-10.1262
さっそく	-10.1262
りんご	-10.1262
決済	-10.1262
口コミ	-10.1262
〓	-10.1262
コストパフォーマンス	-10.1262
股	-10.1262
縁	-10.1262
至	-10.1262
&#10084;&#65038;	-10.1262
不思議	-10.1262
ぽっちゃり	-10.1262
滅	-10.1262
にも関わらず	-10.1262
筋	-10.1262
枠	-10.1262
御	-10.1262
故障	-10.1263
0.7	-10.1263
消費	-10.1263
興味	-10.1264
疑	-10.1264
細かく	-10.1264
生活	-10.1264
小さすぎ	-10.1265
リピしたい	-10.1266
ソファー	-10.1266
使い道	-10.1267
当たる	-10.1267
つま先	-10.1268
学生	-10.1268
ハート	-10.1268
られている	-10.1268
訳あり	-10.127
ベスト	-10.127
本人	-10.1272
位置	-10.1272
クロス	-10.1272
高すぎ	-10.1273
きっちり	-10.1273
在庫あり	-10.1274
期待はして	-10.1275
最大	-10.1276
載せ	-10.1279
シミ	-10.1282
っちゃ	-10.1283
つきました	-10.1284
商品が届きません	-10.1285
食品	-10.1297
ガッカリしました	-10.1298
ではありませんが	-10.1299
エル	-10.1307
るようになりました	-10.1307
敷き	-10.1309
素敵です	-10.1317
酸味	-10.1317
ほう	-10.1317
と合わせて	-10.1318
外側	-10.1318
のゴム	-10.1318
かっこ	-10.1323
:2	-10.1327
だと思って	-10.1333
このような	-10.1342
お得だと思います	-10.1342
おいしかったです	-10.1343
失敗でした	-10.1353
この値段なら	-10.1355
水着	-10.1362
をかけ	-10.1368
5000	-10.1368
後悔しています	-10.1371
円位	-10.1373
ており	-10.1383
しないと思います	-10.1391
ような気がします	-10.1394
だったけど	-10.1395
こちらにしました	-10.1403
ダメでした	-10.1404
使うの	-10.1414
もあって	-10.1422
されてる	-10.1424
返品したい	-10.1427
に見えます	-10.1428
長さは	-10.1435
来年も	-10.1442
ビー	-10.1444
安価	-10.1446
してみましたが	-10.1454
何度	-10.1458
焼き	-10.1468
を買った	-10.1481
に比べて	-10.1485
一人で	-10.1487
付ける	-10.1489
悪くない	-10.1492
ってしまいました	-10.1494
るけど	-10.1494
して下さい	-10.1496
次回は	-10.1502
になっていたので	-10.1505
かしら	-10.1507
!!!!!	-10.1511
頂け	-10.1517
を履いて	-10.1523
送料も	-10.1525
一人	-10.1552
離	-10.1555
下がって	-10.1566
個セット	-10.1572
縫い目	-10.1575
はわかりませんが	-10.1578
隠れる	-10.1593
良かったかな	-10.16
が入っていました	-10.1607
発送は	-10.1609
を受け	-10.161
滑	-10.1612
急	-10.1617
実物を見て	-10.162
商品到着	-10.1625
!,11	-10.1636
肌触りも	-10.1641
書いた	-10.165
75	-10.1658
になっていました	-10.1658
イド	-10.1663
以前に	-10.1684
してみました	-10.1694
買ったら	-10.1699
つま	-10.1706
ないかも	-10.1712
数年	-10.1713
かっこいい	-10.1715
買っ	-10.1716
文句	-10.1717
丁寧で	-10.173
の商品でした	-10.173
厚く	-10.1733
として購入しました	-10.1736
ブル	-10.1739
した感じ	-10.174
▁1,,01	-10.1744
皆さんのレビュー	-10.1747
ブリ	-10.1747
ケースは	-10.1749
接	-10.1753
納	-10.1753
汚	-10.1757
月初旬	-10.1758
注	-10.176
写	-10.176
<	-10.176
可	-10.1761
システム	-10.1761
ふくらはぎ	-10.1761
モニター	-10.1761
擦	-10.1761
始末	-10.1761
皿	-10.1762
ぶかぶか	-10.1762
ソフト	-10.1762
組み合わせ	-10.1762
縦	-10.1762
嘘	-10.1762
艶	-10.1762
妹	-10.1762
&#13213;	-10.1762
聴	-10.1762
込んだ	-10.1762
電源	-10.1762
ストレッチ	-10.1762
親切	-10.1762
範囲	-10.1762
ボーダー	-10.1762
にもかかわらず	-10.1762
↓	-10.1762
学校	-10.1762
いろんな	-10.1762
マグネット	-10.1762
※	-10.1762
依頼	-10.1762
慣れて	-10.1763
スイッチ	-10.1763
管理	-10.1763
滑り止め	-10.1763
過去	-10.1764
激安	-10.1764
わからず	-10.1764
ビーズ	-10.1765
更新	-10.1765
駄目	-10.1765
ネイル	-10.1765
ヒップ	-10.1765
思い切って	-10.1766
スタイル	-10.1766
おしり	-10.1767
脱げ	-10.1767
充電器	-10.1767
リップ	-10.1768
どおり	-10.177
プール	-10.177
合ってい	-10.1771
クリスマスプレゼント	-10.1772
均商品	-10.1773
日記	-10.1779
0.4	-10.1779
振り	-10.178
重く	-10.1781
発送も早く	-10.1783
お勧めします	-10.1783
ビックリしました	-10.1785
部屋着	-10.1787
隠れ	-10.1787
不安でしたが	-10.179
売れ	-10.1793
レモン	-10.1793
があったら	-10.1794
だけあって	-10.1795
ヶ月になる	-10.1797
注文後	-10.1798
なと思いました	-10.1799
0.15	-10.1801
壊れて	-10.1804
小さいので	-10.1812
届いたのが	-10.1812
入っていませんでした	-10.1813
電話で	-10.1819
見つけました	-10.1822
歩いて	-10.1825
現物	-10.1832
使ってみて	-10.1843
レン	-10.1845
日購入	-10.1846
甘く	-10.1852
日頃	-10.1852
による	-10.1857
と書いてある	-10.1858
濃く	-10.186
回も	-10.1869
を選んで	-10.1884
サイズを購入	-10.1893
合う	-10.1898
んじゃないか	-10.19
ニー	-10.1901
お得な	-10.1903
お勧めです	-10.1905
ゴムの	-10.1905
ラスト	-10.1907
にしたい	-10.1909
これまで	-10.1911
箱に	-10.1911
滑り	-10.1913
増	-10.1913
&#10084;	-10.1913
たまま	-10.1917
一本	-10.1927
到着後	-10.193
と言われました	-10.1936
購入すれば	-10.196
と一緒に購入しました	-10.1965
に置いて	-10.197
様子	-10.1975
が取れ	-10.1978
時間がかかり	-10.1981
を見たら	-10.1986
その時	-10.1988
飲め	-10.1998
上品	-10.2011
良さそうです	-10.2018
高め	-10.2021
と変わらない	-10.2021
いただいた	-10.2038
楽天の	-10.2041
日に注文した	-10.2051
当て	-10.2057
発送しました	-10.2062
りませんでした	-10.2064
戻	-10.2075
ちょっと残念	-10.2083
見つけた	-10.2084
均に売って	-10.2085
届いた商品	-10.2086
に注文しましたが	-10.2091
売っていました	-10.2094
書いてある	-10.2095
ヶ月の娘	-10.2096
飲	-10.2097
買ったけど	-10.2113
ちゃんとした	-10.2126
はなかなか	-10.2141
たまに	-10.2158
他のお店	-10.2165
の子供に	-10.2171
よく見	-10.2173
内側の	-10.2181
なかったけど	-10.2184
しなければ	-10.2185
生まれ	-10.2191
ぴったりで	-10.2197
ことなく	-10.2206
はけ	-10.2213
た事	-10.2215
てみました	-10.2215
店に	-10.2217
ために購入しました	-10.222
&#10024;	-10.2227
向いて	-10.2227
と思ってます	-10.2238
もらって	-10.2239
というのが	-10.2239
日後	-10.2239
使えるので	-10.2246
肩幅	-10.2247
もありましたが	-10.2247
品物は	-10.2247
経ちますが	-10.2251
午前中	-10.2253
べき	-10.2258
音沙汰	-10.2263
に惹かれ	-10.2263
あったのに	-10.2265
待たされ	-10.2266
取って	-10.2267
激	-10.2281
額	-10.2284
遊	-10.2284
材	-10.2284
打	-10.2285
予	-10.2286
お詫び	-10.2287
評	-10.2287
冷凍	-10.2287
不信感	-10.2288
論	-10.2288
独特の	-10.2288
盤	-10.2288
ドラッグストア	-10.2288
終了	-10.2288
お客様	-10.2288
迄	-10.2288
お揃い	-10.2288
&#10035;&#65038;	-10.2288
東	-10.2288
ああああああああああああああああ	-10.2288
弾	-10.2288
気軽に	-10.2288
遮光	-10.2288
保護	-10.2288
踵	-10.2288
アウトレット	-10.2289
デニム	-10.2289
フレーム	-10.2289
仕方がない	-10.2289
呼	-10.2289
悲しい	-10.2289
昨年	-10.2289
降	-10.2289
魚	-10.2289
留め具	-10.2289
チョコ	-10.2289
接続	-10.2289
完成	-10.2289
極	-10.229
ましょう	-10.229
直接	-10.229
襟	-10.229
廃	-10.229
照明	-10.229
太もも	-10.229
遊び	-10.229
ソックス	-10.2291
運動	-10.2291
むしろ	-10.2291
が悪かった	-10.2291
取り外し	-10.2292
届くのが楽しみです	-10.2292
楽しい	-10.2293
迷惑迷惑迷惑迷惑迷惑迷惑迷惑迷惑	-10.2293
モン	-10.2293
or	-10.2293
""	-10.2293
分け	-10.2293
安定感	-10.2294
買い物が出来ました	-10.2294
回転	-10.2296
タッチ	-10.2296
っぱなし	-10.2296
接着	-10.2296
サイズ感	-10.2298
にすればよかった	-10.2299
と書かれて	-10.23
マスク	-10.23
合いませんでした	-10.2302
セン	-10.2305
中心	-10.2305
たもの	-10.2305
のかも	-10.2307
の為に購入しました	-10.2307
今日届きました	-10.2309
に対して	-10.231
作品	-10.2313
へのプレゼント	-10.2315
既に	-10.2315
ちょうどよく	-10.2316
リピはないです	-10.2317
2〜3	-10.2318
全然違う	-10.2318
かわいかったです	-10.2322
今までは	-10.2325
エコ	-10.2327
もう買わない	-10.2334
か心配です	-10.2334
無かったので	-10.2335
価格も	-10.2336
文句なし	-10.2337
おやつ	-10.234
ってしまった	-10.2342
を使っています	-10.2343
使いましたが	-10.2345
ーん	-10.2347
購入して良かったです	-10.2352
はありませんが	-10.2352
まとめ買いしました	-10.2352
フル	-10.2353
er	-10.2358
ものすごく	-10.2359
していたので	-10.2367
このお店で	-10.2373
実感	-10.2375
と思ったのですが	-10.2375
試せ	-10.2377
の記載	-10.2378
てみたところ	-10.238
作る	-10.2389
とは違う	-10.2393
即納	-10.2394
本人も	-10.2397
いいけど	-10.2401
枚数	-10.2402
なんの	-10.2405
切った	-10.2409
といった感じです	-10.2409
乗り	-10.2413
わけではない	-10.2413
二人	-10.2426
安く購入できて	-10.2432
隠	-10.2442
飲んでいます	-10.2442
早かったです	-10.2443
日の夜	-10.2446
-07	-10.2446
太く	-10.2448
気分です	-10.245
プレゼントに	-10.2453
出来ました	-10.2457
購入してしまいました	-10.2458
柄は	-10.2476
くなり	-10.2477
せずに	-10.249
使い始め	-10.2498
薄いです	-10.25
日にち	-10.2502
となりました	-10.251
とてもよかったです	-10.251
?,11	-10.252
内側	-10.253
と考え	-10.253
これって	-10.2537
もうちょっと	-10.2538
日本	-10.2542
感想は	-10.2558
問題ないです	-10.2562
後から	-10.2562
割に	-10.2564
早く届いて	-10.2568
無いです	-10.2571
近い	-10.2574
今後も	-10.2587
ユ	-10.2594
良いですね	-10.2598
年ぶりの	-10.2598
ないもの	-10.2602
ヶ月の息子	-10.261
他のショップで	-10.2615
本物	-10.2616
気に入り	-10.262
ふた	-10.2624
ばら	-10.2627
ランク	-10.263
させていただきます	-10.2632
近所	-10.2636
欲しかったです	-10.2637
の部分は	-10.2646
目的	-10.265
座って	-10.2658
つにしました	-10.266
間違え	-10.266
ありがたい	-10.267
やすかった	-10.267
商品自体	-10.2677
58	-10.2682
ので助かります	-10.2684
時間がかかる	-10.2684
もう二度と	-10.2688
暗く	-10.2695
によっては	-10.2708
値段なり	-10.271
71	-10.2718
買えば	-10.2726
ほんと	-10.2735
逆	-10.274
ことができました	-10.2745
縫製が	-10.2746
部分を	-10.2754
かと思い	-10.2755
丁度いい	-10.2765
でこの値段	-10.2769
とても良かったです	-10.277
スムーズ	-10.2771
掛	-10.2778
今度	-10.2778
上げて	-10.2781
いる方	-10.2783
??,	-10.2783
背	-10.2785
多かった	-10.2787
梱包も	-10.2791
ということは	-10.2792
とは違い	-10.2793
くなります	-10.2811
伸びて	-10.2811
百	-10.2813
すぎます	-10.2813
と違って	-10.2816
アリ	-10.2825
つかって	-10.2826
が欲しかったので	-10.2826
愛	-10.2831
届かないので	-10.2833
皆	-10.2833
負	-10.2835
円は安い	-10.2836
レンジ	-10.2838
なったので	-10.284
謝	-10.284
以下の	-10.2841
精	-10.2842
延	-10.2842
追跡	-10.2842
行った	-10.2843
邪魔	-10.2843
了承	-10.2843
破損	-10.2843
グラス	-10.2843
棚	-10.2844
に関しては	-10.2844
チープ	-10.2844
五	-10.2844
ホルダー	-10.2844
オーダー	-10.2844
リモコン	-10.2844
彼	-10.2844
スタンド	-10.2844
クレジット	-10.2844
順次発送	-10.2844
オモチャ	-10.2844
これからの季節	-10.2844
ジャン	-10.2844
ケーキ	-10.2844
アイボリー	-10.2844
豊富	-10.2844
フィルター	-10.2844
ヴァ	-10.2844
(-_-;)	-10.2844
迅速な対応	-10.2844
プラチナ	-10.2844
ハード	-10.2844
孫	-10.2844
歪	-10.2844
想像以上に	-10.2844
進	-10.2844
サラサラ	-10.2844
消耗品	-10.2844
まだ届いてません	-10.2844
お弁当	-10.2844
真っ白	-10.2844
予備	-10.2844
健康	-10.2844
劣	-10.2844
条件	-10.2844
だんだん	-10.2844
認識	-10.2844
スペース	-10.2845
パジャマ	-10.2845
図	-10.2845
頑張って	-10.2845
変わった	-10.2845
ハロウィン	-10.2845
件	-10.2845
麦	-10.2845
質問	-10.2845
いきなり	-10.2845
運動会	-10.2845
チェ	-10.2845
やめました	-10.2845
接着剤	-10.2845
トラブル	-10.2846
傘	-10.2846
UP	-10.2846
パッド	-10.2846
sh	-10.2846
もしくは	-10.2846
騙された	-10.2846
洗顔	-10.2847
歳児	-10.2847
性能	-10.2847
材質	-10.2847
当初	-10.2848
感激	-10.2848
タイヤ	-10.2848
形状	-10.2848
料金	-10.2849
硬くて	-10.2849
ステキ	-10.285
在庫切れ	-10.2851
しっかりした作り	-10.2851
その旨	-10.2851
くっついて	-10.2851
夕方	-10.2852
崩れ	-10.2853
ストール	-10.2855
またリピします	-10.2855
ヒビ	-10.2855
まぁまぁ	-10.2855
になってしまった	-10.2856
一応	-10.2859
いい加減	-10.2859
本日届きました	-10.2862
値段が値段	-10.2862
代金	-10.2864
プチ	-10.2866
入れる	-10.2866
円でも高い	-10.2866
受け取り	-10.2867
つきます	-10.2871
使用感	-10.2872
凄い	-10.2874
日に注文したのに	-10.2879
気になりました	-10.2879
品切れ	-10.2881
との事で	-10.2896
だったのか	-10.2896
写真では	-10.2897
色落ち	-10.2898
ひも	-10.29
した方がいい	-10.2901
ソー	-10.2908
留め	-10.291
その点	-10.2912
円で購入しました	-10.2918
LL	-10.2919
本入り	-10.2922
連絡もなく	-10.2924
円の時に	-10.2926
電話を	-10.293
覚え	-10.2938
困る	-10.2939
を選択	-10.2939
それは	-10.2949
900	-10.2952
本当は	-10.2952
そのうち	-10.2959
部分も	-10.297
先日	-10.2977
と思い購入しましたが	-10.2981
ヘア	-10.2982
なかったのに	-10.2985
代わり	-10.2988
が楽しみ	-10.2992
▁1,,11/2	-10.2997
子供用	-10.2997
大変でした	-10.3005
-02	-10.3007
長く使え	-10.3012
買い物ができ	-10.3015
上から	-10.3019
すごくいい	-10.303
枚セット	-10.3031
の表示	-10.3033
二度と買いません	-10.3034
発売日	-10.3045
かわからない	-10.3048
ひどいです	-10.3059
お店の対応は	-10.306
塗って	-10.3063
もあった	-10.3064
直後	-10.3065
付きで	-10.307
着丈	-10.3072
しており	-10.3072
お肌	-10.3076
号を購入しました	-10.3079
ちゃう	-10.3079
中身は	-10.3083
10.5	-10.3083
んー	-10.3087
丈夫で	-10.3098
使用後	-10.311
1100	-10.3129
じゃなく	-10.3132
ねぇ	-10.3137
こちらのショップで	-10.3165
だって	-10.3167
集	-10.3185
キレイな	-10.3188
探	-10.3216
袖が	-10.3218
混ぜ	-10.322
くなってしまいました	-10.3233
色でした	-10.3235
微妙に	-10.3237
見せ	-10.324
辛い	-10.3241
試した	-10.3243
▁2,110	-10.3264
固い	-10.3266
美味しかった	-10.3266
この価格で	-10.3268
11/4	-10.33
やすいので	-10.3306
よさそう	-10.3312
直しました	-10.3318
壊	-10.3322
一ヶ月	-10.3323
をみて	-10.3325
少しだけ	-10.3334
書きました	-10.3338
画像より	-10.3339
仕方ないですが	-10.3345
たとき	-10.3349
ていたり	-10.3352
にひかれて	-10.3359
の使用で	-10.3361
使うので	-10.3364
購入したもの	-10.3368
欠	-10.3393
入れられ	-10.3406
暗	-10.3407
▁2,,105	-10.3412
良さ	-10.3417
しやすく	-10.342
円で買える	-10.3421
噛	-10.3422
友達に	-10.3423
ぱ	-10.3424
ジェ	-10.3427
部品	-10.3428
ショ	-10.3428
能	-10.3428
原	-10.3429
在	-10.3429
皮膚	-10.343
絶	-10.343
テンション	-10.343
園	-10.3431
夫	-10.3431
引っ越し	-10.3431
任	-10.3431
山	-10.3431
\(^	-10.3431
エラー	-10.3431
ラベンダー	-10.3431
SHOP	-10.3431
まだこないまだこないまだこない	-10.3431
さっぱり	-10.3432
使い物になりません	-10.3432
教えて	-10.3432
意外と	-10.3432
馬	-10.3432
取っ手	-10.3432
シーズン	-10.3432
舞	-10.3432
アロマ	-10.3432
スプーン	-10.3432
報	-10.3432
飼	-10.3432
バッチリ	-10.3432
ボンド	-10.3432
勉強になりました	-10.3432
パサパサ	-10.3432
マジックテープ	-10.3432
大きいので	-10.3432
また利用したいです	-10.3432
挟	-10.3432
けっこう	-10.3432
経ちました	-10.3432
症	-10.3432
積	-10.3432
粘	-10.3432
都	-10.3432
脇	-10.3432
ブログ	-10.3432
Д	-10.3432
わかります	-10.3433
上手く	-10.3433
算	-10.3433
今だに	-10.3433
大切に	-10.3433
お世話になっ	-10.3433
缶	-10.3433
こだわ	-10.3433
砂糖	-10.3433
おススメ	-10.3433
継続	-10.3433
恐	-10.3433
24.5	-10.3433
防寒	-10.3434
させて頂きます	-10.3434
どんどん	-10.3434
変わる	-10.3434
偽	-10.3434
銀	-10.3434
運転	-10.3434
放置	-10.3434
移動	-10.3434
期限	-10.3434
員	-10.3434
エアコン	-10.3435
言葉	-10.3435
終わって	-10.3435
のではないでしょうか	-10.3436
華やか	-10.3436
間に合わない	-10.3436
円でも買わない	-10.3436
適当	-10.3436
最後の	-10.3436
プリント	-10.3437
洗濯機	-10.3437
割高	-10.3438
シーツ	-10.3439
遅くなる	-10.344
生産	-10.3441
合計	-10.3441
歩く	-10.3441
待った	-10.3444
と思いながら	-10.3446
ロゴ	-10.3446
SH	-10.3446
タイムセール	-10.3448
パット	-10.3451
よくわかりません	-10.3454
安く購入でき	-10.3455
この店で	-10.3457
買ってしまいました	-10.3463
フタ	-10.3466
ドット	-10.3466
&#10067;,	-10.3467
期待した	-10.3469
忘れて	-10.3471
使ったら	-10.3481
シン	-10.3484
回くらい	-10.3484
もう一度	-10.3487
溶け	-10.3488
塗	-10.3494
▁1,,0.5	-10.3496
なんだろう	-10.3496
中々	-10.35
リピします	-10.35
要らない	-10.3503
74	-10.3503
ちょうどよい	-10.3506
裏に	-10.3509
スムーズに	-10.351
だろうと	-10.3512
書きます	-10.3513
ないのか	-10.3516
お色	-10.3518
当たり前	-10.3526
途中で	-10.3526
干し	-10.354
ホームセンターで	-10.3541
るうちに	-10.3541
のかしら	-10.3543
大好きな	-10.3546
79	-10.3546
ていなかった	-10.3547
スーパーセールで	-10.3547
した時	-10.3549
とても可愛いです	-10.355
,000	-10.3553
お安いので	-10.3558
中国製	-10.3558
かっこいいです	-10.3566
困	-10.3566
とあったので	-10.3568
作れ	-10.3569
何回も	-10.3571
いままで	-10.3573
収ま	-10.358
モカ	-10.3584
可愛かったです	-10.3586
重ねて	-10.3586
ちゃった	-10.3586
お店の対応	-10.3598
点セット	-10.3598
余裕があり	-10.3601
あるのですが	-10.3603
ちゃちい	-10.3603
このサイズ	-10.3607
ラク	-10.3608
▁2,0.5	-10.3608
履いています	-10.3611
簡単な	-10.3613
使用感は	-10.3618
円ショップでも	-10.3627
使用していましたが	-10.3635
でこのお値段は	-10.3636
?,100	-10.364
感じる	-10.367
来ず	-10.3674
集め	-10.3686
とても良いです	-10.3688
ad	-10.3692
...,11	-10.3694
を想像して	-10.3695
使用します	-10.3703
他社の	-10.3711
きたら	-10.3714
らなかったので	-10.3718
だったのが	-10.3729
つぶ	-10.3733
メールで問い合わせ	-10.374
るだけで	-10.3743
起	-10.3757
翌	-10.3768
っぽい感じ	-10.3778
163	-10.3782
小物	-10.3793
へん	-10.3809
発送の連絡	-10.3835
っちゃう	-10.3842
!!,10	-10.3863
ならば	-10.3865
肌触りが	-10.387
クーポンで	-10.387
ではなかったです	-10.3872
この本	-10.3878
ちゃち	-10.3891
使い続け	-10.3895
何とか	-10.3902
買ったほうが	-10.3906
履かせ	-10.3917
干	-10.3933
週間以上	-10.3934
2.	-10.3936
スーパーセール	-10.3941
送る	-10.3942
おいしかった	-10.3951
月下旬発送	-10.3957
っていました	-10.3959
売られている	-10.3961
カットして	-10.3965
始めて	-10.3968
デス	-10.3972
毛玉が	-10.3974
日に注文しました	-10.399
買い換え	-10.4012
受	-10.4014
聞き	-10.4015
周	-10.4033
も簡単で	-10.4034
ェ	-10.4043
加減	-10.4045
念	-10.4047
死	-10.4049
価	-10.405
登	-10.4055
フェ	-10.4055
望	-10.4055
科	-10.4056
総	-10.4056
障	-10.4056
磨	-10.4056
制	-10.4056
保育園	-10.4057
円には見えない	-10.4057
鳴	-10.4057
拡張	-10.4057
アイテム	-10.4057
寸	-10.4057
移	-10.4057
エントリー	-10.4057
フルーツ	-10.4057
迷惑	-10.4057
粗悪品	-10.4057
パッキン	-10.4057
銭	-10.4057
ありがとう	-10.4057
タイミング	-10.4057
苗	-10.4057
カッコいい	-10.4057
オマケ	-10.4057
兄	-10.4057
軟	-10.4057
原因	-10.4057
撃	-10.4057
必需品	-10.4057
重宝しそうです	-10.4057
券	-10.4057
目立たな	-10.4057
めちゃくちゃ	-10.4057
ハウス	-10.4057
ハッキリ	-10.4057
雪	-10.4057
ぉ	-10.4057
持ち運び	-10.4057
密	-10.4057
席	-10.4058
初心者	-10.4058
比較的	-10.4058
申し訳ない	-10.4058
評判	-10.4058
何の連絡もありません	-10.4058
咲	-10.4058
日本製	-10.4058
いらっしゃ	-10.4058
アクセサリー	-10.4058
断念	-10.4058
影響	-10.4058
ウォー	-10.4058
涼し	-10.4058
経験	-10.4058
否	-10.4058
他の方のレビューに	-10.4058
かも知れません	-10.4058
医	-10.4058
z	-10.4058
クリーニング	-10.4058
どういうこと	-10.4059
走行	-10.4059
はっきり言って	-10.4059
衛	-10.4059
配送業者	-10.4059
プリン	-10.406
大量に	-10.406
アイロン	-10.406
と思えば	-10.4061
自動	-10.4061
1〜2	-10.4061
決定	-10.4061
レビューを書く	-10.4061
ウェ	-10.4061
ダブル	-10.4062
消化	-10.4062
死着	-10.4062
ゼロ	-10.4063
未だに届きません	-10.4063
私的には	-10.4063
アレンジ	-10.4064
長袖	-10.4064
コットンパール	-10.4064
ダックス	-10.4064
クリップ	-10.4065
ノート	-10.4071
ヘタ	-10.4071
なんとなく	-10.4072
年末	-10.4074
冷え	-10.4076
を探していて	-10.4077
最初の	-10.4077
倍の時に	-10.4082
という印象	-10.4084
もう買いません	-10.4088
このお値段なら	-10.4089
よく見ると	-10.4092
の購入です	-10.4093
エン	-10.4095
なくなったら	-10.4096
ごろ	-10.4097
らせ	-10.4103
損した気分です	-10.4104
使ってみましたが	-10.4107
カメ	-10.4109
というのも	-10.4114
れませんでした	-10.412
はありましたが	-10.4122
使用中	-10.4126
とても満足しています	-10.4133
壊れる	-10.4133
▁2,,0.5	-10.4136
大丈夫です	-10.4137
と思うくらい	-10.414
円クーポン	-10.4141
^*)	-10.4142
想像より	-10.4143
かかります	-10.4144
やわらかい	-10.4145
いろいろな	-10.4146
あるもの	-10.4152
均で売っている	-10.4161
ないこと	-10.4162
円引き	-10.4168
良かったと思います	-10.4173
切れました	-10.4176
お買い得です	-10.4181
ユー	-10.4187
購入できました	-10.4194
今では	-10.4198
流れ	-10.4201
10/5	-10.4202
★5	-10.4217
ユニ	-10.4218
焼け	-10.4222
ストーン	-10.4233
イヤ	-10.4234
夏に	-10.4235
とても便利	-10.4237
問題ありませんでした	-10.4238
疑問です	-10.4238
されます	-10.4239
着れない	-10.4244
使い続けて	-10.4244
♪♪	-10.4248
やすいし	-10.4259
ある程度	-10.4263
ビックリです	-10.4271
★1	-10.4272
暑い	-10.4272
個中	-10.4274
こんな感じ	-10.4279
小さいサイズ	-10.4281
送りました	-10.4281
風味	-10.4288
あるのに	-10.429
中国	-10.431
当日	-10.4311
。。。。。。。。。。。。。。。。	-10.4313
158	-10.4316
クル	-10.4319
が弱く	-10.4322
ベタ	-10.4327
もいいし	-10.4328
と感じます	-10.4333
新しいもの	-10.4333
してません	-10.4339
くなってきて	-10.4342
カス	-10.435
のが残念	-10.4351
られませんでした	-10.4352
を見ると	-10.4353
この程度	-10.4355
円とは	-10.4359
合わ	-10.4365
して頂き	-10.4369
届いてから	-10.4381
☆4	-10.4383
気持ち悪	-10.4386
かないと	-10.4391
使っていて	-10.4395
まち	-10.441
長すぎ	-10.4424
良い物	-10.4427
ちょうどよかった	-10.4431
変わりません	-10.4435
162	-10.4439
連絡があり	-10.4446
比べて	-10.4447
購入した方が	-10.4452
着けて	-10.4455
使いにくい	-10.4455
安価な	-10.4468
キャラ	-10.4474
願	-10.4477
予約商品	-10.4478
んですよね	-10.4484
調べて	-10.45
考えると	-10.4506
本当	-10.4515
つかえ	-10.452
食べられ	-10.4526
けます	-10.4538
の良さ	-10.4539
ごみ	-10.4548
可愛かった	-10.4553
画像では	-10.4568
バスト	-10.457
使いたいです	-10.4593
するのも	-10.4616
なりませんでした	-10.4623
出来ます	-10.4638
トロ	-10.4638
出ない	-10.464
おりません	-10.4656
でしょうね	-10.4676
んでしょうね	-10.4682
発送完了メール	-10.4691
月下旬入荷	-10.4693
お味	-10.4698
▁1,,110	-10.4698
造	-10.4706
買ってよかった	-10.471
折	-10.4713
タイト	-10.4722
走	-10.4722
非	-10.4722
齢	-10.4722
どころか	-10.4722
マーク	-10.4723
病院	-10.4723
お値打ち	-10.4723
ナイフ	-10.4723
射	-10.4723
を頼みました	-10.4723
聞こえ	-10.4723
コンビニ	-10.4723
チューブ	-10.4723
市販の	-10.4723
くすんだ	-10.4723
と思いつつ	-10.4724
パーセント	-10.4724
オムツ	-10.4724
さすがっすさすがっすさすがっす	-10.4724
ふんわり	-10.4724
の仕方	-10.4724
ワイヤー	-10.4724
浅	-10.4724
月半ば	-10.4724
楽しみに待って	-10.4724
両面テープ	-10.4724
害	-10.4724
安物買いの銭失い	-10.4724
伝票	-10.4724
忙しい	-10.4724
たびに	-10.4724
節	-10.4724
美味しさ	-10.4724
インテリア	-10.4724
病	-10.4724
梅	-10.4724
><	-10.4724
愛犬	-10.4724
わかりました	-10.4725
手書きの	-10.4725
久しぶりに	-10.4725
www	-10.4725
使うのが楽しみです	-10.4725
に比べると	-10.4725
厳しい	-10.4725
奥	-10.4725
必須	-10.4725
考慮	-10.4725
ぜひ	-10.4725
認	-10.4725
鞄	-10.4725
困ります	-10.4725
ストライプ	-10.4725
(^_^)	-10.4726
判断	-10.4726
精油	-10.4726
住	-10.4726
どうなっているのでしょうか	-10.4726
歯ブラシ	-10.4726
改めて	-10.4727
と思いきや	-10.4727
書き込み	-10.4727
指輪	-10.4727
吸収	-10.4727
男性	-10.4728
何だか	-10.4728
掃除機	-10.4729
いくつか	-10.4729
値上げ	-10.473
ううううううううううううううう	-10.473
家にある	-10.473
7.5	-10.4731
ホット	-10.4731
結び	-10.4731
使い捨て	-10.4731
去年	-10.4731
無くなったら	-10.4732
知らない	-10.4733
6.5	-10.4733
た時に	-10.4733
着れそうです	-10.4734
クラス	-10.4734
km	-10.4735
先端	-10.4735
ベット	-10.4736
無地	-10.4736
ネック	-10.4736
年保証	-10.4736
カーキ	-10.4737
ヶ月以上	-10.4737
休み	-10.4738
チップ	-10.4739
ストック	-10.4739
はずなのに	-10.4741
写真通り	-10.4746
目安	-10.4747
甘さ	-10.4748
といわれ	-10.4749
伝え	-10.4751
悩んだ	-10.4754
早い対応	-10.476
遅すぎます	-10.4761
でこの価格は	-10.4766
商品が届いて	-10.4766
遅れるなら	-10.477
プル	-10.4777
しっかりしてます	-10.4782
ムラ	-10.479
どうせ	-10.4793
クオリティー	-10.4794
上下	-10.4803
トレ	-10.4807
日以内に	-10.4809
たため	-10.481
たりする	-10.4811
にするか	-10.4815
入っています	-10.4818
ショップレビュー	-10.4821
回ほど	-10.4822
届いている	-10.4827
と書いてありましたが	-10.4834
喜んでいました	-10.4836
少なくて	-10.4837
わりに	-10.4841
に取り付けました	-10.4844
なくなったので	-10.485
購入したいです	-10.4851
どこか	-10.4856
商品説明に	-10.4857
157	-10.4858
食べました	-10.4862
破れて	-10.4866
よさそうです	-10.4866
仕方ないかな	-10.4872
合わせて	-10.4873
出来た	-10.4882
▁1,"	-10.4899
お友達	-10.4911
とても満足です	-10.4916
ヶ月の子供	-10.4918
枚目	-10.4919
さないと	-10.4921
700	-10.4936
なくなります	-10.494
綺麗な色	-10.4945
良し	-10.4952
到着予定	-10.4967
月上旬発送	-10.4976
にしてみました	-10.498
気になっていた	-10.4981
購入者	-10.4984
開いた	-10.4987
ちょっと高い	-10.4989
を付けて	-10.4998
送られ	-10.5007
★2	-10.5016
くせ	-10.502
▁2,,09	-10.5023
入りました	-10.5028
ヶ月の息子に	-10.5032
させて頂きました	-10.5033
メールが来て	-10.5034
捨てる	-10.5048
買い直し	-10.5052
のでしょうが	-10.5059
の下に	-10.5067
まして	-10.5067
行け	-10.5073
商品説明	-10.5075
暑	-10.5085
んですかね	-10.5085
問い合わせたところ	-10.5094
付いていて	-10.5095
全く同じ	-10.5097
とってもかわいい	-10.5099
発送まで	-10.51
がっかりでした	-10.5102
開き	-10.5116
困って	-10.5117
探していました	-10.512
になりそう	-10.5126
があるのか	-10.5128
取付	-10.513
リピートしています	-10.5139
内側に	-10.5139
使用してみ	-10.515
使用できる	-10.5154
洗濯して	-10.5157
こちらのショップは	-10.5159
かなと思いましたが	-10.5181
履ける	-10.5181
入ります	-10.5188
999	-10.5193
だなぁ	-10.5196
届いていない	-10.5221
になってました	-10.5238
10/15	-10.525
とのことでした	-10.5259
箱を開け	-10.527
.6	-10.5281
日くらい	-10.5289
個人的に	-10.5291
似た	-10.5297
を探していたので	-10.5301
ているもの	-10.5329
浮気	-10.5331
途中	-10.5337
ac	-10.5341
ないといけない	-10.536
寄	-10.5362
怖	-10.5363
といった感じ	-10.5366
触れ	-10.5367
営業	-10.5375
買わなくて	-10.5394
黄	-10.5399
伝	-10.5407
と記載があ	-10.5408
大喜び	-10.5412
中敷	-10.5414
封筒	-10.5418
メールが来た	-10.5419
っちり	-10.5421
届くのでしょうか	-10.5423
十	-10.5424
使いき	-10.5426
ティー	-10.5427
1/2	-10.5431
父	-10.5432
―	-10.5434
始めた	-10.5434
庫	-10.5435
&#65038;	-10.5435
快	-10.5435
改	-10.5435
費	-10.5436
不愉快	-10.5436
メッセージ	-10.5437
題	-10.5437
撮	-10.5437
災	-10.5437
穿	-10.5437
おそらく	-10.5438
砂	-10.5438
浴	-10.5438
◯	-10.5438
そっち	-10.5438
デニール	-10.5438
連休	-10.5438
スタンプ	-10.5438
チョット	-10.5438
あす楽	-10.5438
混ざって	-10.5438
糖	-10.5438
フリル	-10.5438
蓄	-10.5438
ラベル	-10.5438
お出かけ	-10.5438
握	-10.5438
鉄	-10.5438
&#10084;&#65039;	-10.5438
食いつき	-10.5438
伸ばして	-10.5438
(≧∇≦)	-10.5438
ちゃっちい	-10.5438
しまえば	-10.5438
退	-10.5438
チワワ	-10.5438
ーグル	-10.5438
支払い	-10.5438
分からず	-10.5438
ドライヤー	-10.5438
胴	-10.5438
酒	-10.5438
ミント	-10.5438
謎	-10.5438
群	-10.5438
&#127925;	-10.5438
よろしくお願いします	-10.5438
永	-10.5438
楽しんで	-10.5438
筒	-10.5438
うれしかった	-10.5439
リュック	-10.5439
煮	-10.5439
こども	-10.5439
鍵	-10.5439
並べて	-10.5439
裁	-10.5439
証	-10.5439
エンジン	-10.5439
渋	-10.5439
写真で見る	-10.5439
0036;&#65038;,	-10.5439
誕生日プレゼントに	-10.5439
パワー	-10.5439
草	-10.5439
窮屈	-10.5439
背もたれ	-10.5439
なきゃ	-10.5439
紹介	-10.5439
シルエット	-10.5439
ヵ月	-10.5439
迷わず	-10.5439
終わる	-10.5439
養	-10.5439
失	-10.5439
折り返し	-10.5439
誠	-10.544
一目惚れ	-10.544
肩ひも	-10.544
単価	-10.544
スニーカー	-10.544
整	-10.544
プレート	-10.544
市	-10.5441
ニュー	-10.5441
オリーブ	-10.5441
防止	-10.5441
小分け	-10.5442
成長	-10.5442
注意書き	-10.5443
ちっちゃ	-10.5443
ホック	-10.5444
ウィ	-10.5444
チャーム	-10.5445
レザー	-10.5447
円ポッキリ	-10.5447
入荷待ち	-10.5447
キャリー	-10.5448
感触	-10.5448
毛布	-10.5448
と思ってしまいました	-10.545
発送連絡	-10.545
の私でも	-10.545
イメージ通り	-10.5452
お買い得だと思います	-10.5452
になってしまい	-10.5455
ポット	-10.5455
暖かいです	-10.5456
ソール	-10.5458
エビ	-10.546
硬さ	-10.5462
取れて	-10.5464
先生	-10.5468
日で届きました	-10.5474
一気に	-10.5475
無くなっ	-10.5477
まとま	-10.5477
ケチ	-10.5479
になってしまいます	-10.5484
させてもら	-10.5487
ーーーーーーーーーーーーーーーー	-10.5499
しっかりしているので	-10.5502
ダメですね	-10.5504
ーラー	-10.5508
なにより	-10.5509
が多くて	-10.5509
気に入ったので	-10.5514
ような気が	-10.5516
ラブ	-10.5517
ガス	-10.5521
重み	-10.5523
探していたら	-10.5523
カール	-10.5524
と思うほど	-10.5525
^_^	-10.5526
回以上	-10.5528
測って	-10.5534
細くて	-10.5536
になってきました	-10.5537
につける	-10.5541
気に入	-10.5542
引っか	-10.5548
よいと思います	-10.5565
重たい	-10.5567
剥がれて	-10.5586
るといいな	-10.5586
しっかりしてる	-10.5589
何個	-10.5599
分けて	-10.5614
酷	-10.5617
してくれて	-10.5627
できれば	-10.5634
発送される	-10.5643
内容でした	-10.5655
つぶれ	-10.5657
やわらかく	-10.5664
次の日	-10.5671
メールがきました	-10.5679
やすかったです	-10.568
願い	-10.5686
恥ずかしい	-10.5694
痛くなり	-10.573
本目	-10.5742
簡単でした	-10.5749
感じませんでした	-10.575
年前から	-10.576
10.2	-10.5769
広く	-10.5779
あるけど	-10.5792
▁2,,04	-10.5795
いいかもしれません	-10.5824
千	-10.5832
において	-10.5844
嫌な	-10.5854
無くなり	-10.5857
歩け	-10.5859
▁2,,00	-10.5862
日出荷	-10.5864
開ける	-10.5877
なんでしょうか	-10.5881
感じられません	-10.5901
あったけど	-10.5907
試しに購入	-10.5913
買	-10.5914
いいですよ	-10.5916
均でも売って	-10.5925
落ちる	-10.5936
送った	-10.5941
気になった	-10.595
▁2,,05	-10.5966
飲み始め	-10.5967
サイズアップ	-10.5969
高すぎる	-10.5973
くさい	-10.5977
ジン	-10.5982
問題なく使え	-10.599
そうだし	-10.5992
他の店	-10.6005
.8	-10.6019
注文したら	-10.6031
他の人	-10.6036
円程度	-10.6047
後悔しました	-10.6061
切れる	-10.6066
迷	-10.607
;;	-10.6079
購入していましたが	-10.6086
/19	-10.6088
許せる	-10.6095
プリ	-10.6095
こちらの方が	-10.6099
を見た	-10.6128
まだ発送され	-10.6133
バイ	-10.6152
紺	-10.6161
嬉し	-10.618
吹	-10.6194
の位置が	-10.6199
帳	-10.6202
径	-10.6205
責	-10.6206
結婚	-10.6206
&#10549;	-10.6206
玄米	-10.6207
巾	-10.6207
コラーゲン	-10.6207
クリーナー	-10.6207
祈	-10.6207
高校生	-10.6207
震	-10.6207
あちこち	-10.6207
ぜんぜん	-10.6207
(・∀・)	-10.6207
スキニー	-10.6207
ヘビロテ	-10.6207
スエード	-10.6207
よっぽど	-10.6207
贈	-10.6207
リピーターです	-10.6207
メートル	-10.6207
期待を込めて	-10.6207
トレーナー	-10.6207
スリッパ	-10.6207
お菓子	-10.6207
また利用したいと思います	-10.6207
神	-10.6207
そもそも	-10.6207
。・:*:・	-10.6207
よろしく	-10.6207
アウト	-10.6207
イライラ	-10.6207
ミラー	-10.6207
USB	-10.6207
j	-10.6207
ダンボール	-10.6207
〜〜〜〜〜〜〜〜〜〜〜〜〜〜〜〜	-10.6208
ショーツ	-10.6208
データ	-10.6208
すっかり	-10.6208
最安値	-10.6208
滑らか	-10.6208
フライパン	-10.6208
ミルク	-10.6208
mAh	-10.6208
頻繁に	-10.6208
羽毛布団	-10.6208
蒸	-10.6208
トマト	-10.6208
ショート	-10.6208
静電気	-10.6208
キスカ	-10.6208
血	-10.6208
となっていたので	-10.6208
off	-10.6208
日たっても	-10.6208
用意し	-10.6208
焦げ	-10.6208
玄関	-10.6208
通勤	-10.6208
とは思えません	-10.6208
リネン	-10.6209
梱包も丁寧で	-10.6209
グラグラ	-10.6209
スパッツ	-10.6209
洗剤	-10.6209
反省	-10.6209
韓国	-10.6209
施	-10.6209
ネクタイ	-10.6209
相談	-10.621
出会え	-10.621
格好	-10.621
不在	-10.621
新しく	-10.621
と同等	-10.621
未満	-10.621
映像	-10.6211
無理やり	-10.6211
ファイル	-10.6211
尚	-10.6211
バルブ	-10.6211
無視	-10.6212
エステ	-10.6212
読む	-10.6212
に向けて	-10.6212
当たり外れ	-10.6213
たしかに	-10.6213
ティング	-10.6213
ベース	-10.6213
はさみ	-10.6214
le	-10.6214
解凍	-10.6214
期待はずれ	-10.6215
戻ってき	-10.6215
カフェ	-10.6215
使えなくなりました	-10.6215
ON	-10.6217
ガード	-10.6217
まくり	-10.6217
派手	-10.6218
吹き	-10.6219
また購入したいです	-10.6221
毎年	-10.6221
CD	-10.6221
480	-10.6222
身体	-10.6222
実家	-10.6222
買い足し	-10.6223
不安になります	-10.6223
日に頼んで	-10.6227
届いたものは	-10.6228
上部	-10.6228
付け替え	-10.6228
ピンクゴールド	-10.6228
頼んだのに	-10.6229
日焼け	-10.623
このお値段でこの	-10.6232
ゴミ箱	-10.6232
これだったら	-10.6233
ロット	-10.6235
お手入れ	-10.6236
目立ちます	-10.6236
大喜びでした	-10.6239
の感想です	-10.6239
画像通り	-10.624
満足できる	-10.624
乾く	-10.624
レビューがよかった	-10.6241
非常に残念です	-10.6242
大丈夫そうです	-10.6243
二週間	-10.6244
年以上前に	-10.6246
音沙汰なし	-10.6247
直す	-10.6248
立派な	-10.6248
才の娘	-10.625
10/31	-10.6253
素人	-10.6254
高級	-10.6257
手入れ	-10.6257
程よく	-10.6263
ウチ	-10.6263
できなかった	-10.6267
染め	-10.6269
過ぎました	-10.6272
キャンセルしたい	-10.6276
選びました	-10.6278
安っぽくて	-10.628
細さ	-10.628
----------	-10.6287
と記載して	-10.6287
寄り	-10.6292
日の午前中に	-10.6301
動く	-10.6304
柔らかくて	-10.6305
フィット感	-10.6306
短くて	-10.6307
大好きなので	-10.6307
バル	-10.6312
おきます	-10.6323
/28	-10.6323
開く	-10.6331
チャー	-10.6333
これ以上	-10.634
あったのですが	-10.6366
次の日に	-10.6398
感じがしました	-10.641
するべき	-10.642
それ以外	-10.6428
交換しました	-10.6437
って感じでした	-10.6448
浮いて	-10.6459
じゃなくて	-10.6459
じゃなかった	-10.6462
素材感	-10.6468
ないのでしょうか	-10.6475
ことはありません	-10.6481
メールが届きました	-10.6488
ものが届きました	-10.6501
乗って	-10.6513
買ってみた	-10.6524
揃って	-10.6532
高級感があり	-10.6559
その間	-10.6568
拭き	-10.657
探した	-10.6582
ッター	-10.6591
いただいて	-10.6592
こんなものかな	-10.6608
かったのに	-10.6618
減り	-10.6629
12/2	-10.6635
しているのですが	-10.6637
入らず	-10.6645
無くて	-10.6649
取れました	-10.665
そんなこと	-10.6659
購入させて頂きました	-10.6665
決ま	-10.6666
リピしました	-10.6678
とてもお得	-10.6691
受け付け	-10.6704
上品な	-10.6728
その上	-10.6738
10.1	-10.677
ケア	-10.6778
張って	-10.6785
ようかと思って	-10.6789
注文確認メール	-10.6811
思い出	-10.6826
存在感があり	-10.6831
ようかと	-10.6833
ことにします	-10.6844
ちゃいます	-10.6844
いいのかな	-10.6867
飲んでみ	-10.6888
伸びる	-10.6889
円ショップに売って	-10.6891
汚く	-10.6913
が好きなので	-10.6921
まとめ	-10.6924
凹	-10.6935
留	-10.6939
苦労	-10.6953
信じて	-10.6961
カブ	-10.6965
まれた	-10.6967
供	-10.6967
越し	-10.6969
損した気分	-10.6977
着きました	-10.7015
大失敗	-10.7032
設	-10.7038
案	-10.7038
騙	-10.7038
きっかけ	-10.7038
サポート	-10.7038
仮	-10.7038
浸	-10.7038
洋	-10.7039
売る	-10.7039
フローリング	-10.7039
宅	-10.704
こぼれ	-10.704
スープ	-10.704
楽天ブックス	-10.704
殺	-10.704
囲	-10.704
ゴワゴワ	-10.704
悲	-10.704
シングル	-10.704
つかまり	-10.704
サンダル	-10.704
羽織	-10.704
申し訳ありません	-10.704
菜	-10.704
ギフト	-10.704
裏起毛	-10.704
届かなかった	-10.704
くるぶし	-10.704
なめらか	-10.704
淡	-10.704
兼	-10.704
アルファード	-10.7041
キャンプ	-10.7041
語	-10.7041
早めに	-10.7041
惑	-10.7041
あきらめ	-10.7041
耐	-10.7041
久々に	-10.7041
見つからず	-10.7041
麺	-10.7041
正規品	-10.7041
&#10069;	-10.7041
チーズ	-10.7041
リットル	-10.7041
突然	-10.7041
汁	-10.7041
フォーマル	-10.7041
標準	-10.7041
欄	-10.7041
メッキ	-10.7041
手軽に	-10.7041
整理	-10.7041
ループ	-10.7041
カーディガン	-10.7041
すばらしい	-10.7041
弟	-10.7041
どう見ても	-10.7041
ゴロゴロ	-10.7041
ザラザラ	-10.7041
ナンバー	-10.7041
予防	-10.7041
オーガニック	-10.7041
アンダー	-10.7041
ティッシュ	-10.7041
スティック	-10.7041
デパート	-10.7041
さらさら	-10.7041
落ち着いて	-10.7041
ぼったくり	-10.7041
ホコリ	-10.7041
礼	-10.7041
スピード	-10.7041
“	-10.7041
量販店	-10.7041
Z	-10.7041
パーティー	-10.7041
とは思いませんでした	-10.7042
佐川	-10.7042
ミネラル	-10.7042
最後まで	-10.7042
タイマー	-10.7042
宅配便	-10.7042
リクライニング	-10.7042
刃	-10.7042
づらく	-10.7042
新たに	-10.7042
探していたところ	-10.7042
ソーラー	-10.7043
パツパツ	-10.7043
ヶ所	-10.7043
家庭	-10.7043
翌朝	-10.7043
もしかしたら	-10.7043
許	-10.7043
一般的な	-10.7043
ar	-10.7044
向かない	-10.7044
寝室	-10.7044
不具合	-10.7044
値上がり	-10.7044
高価な	-10.7044
読んだ	-10.7045
セリア	-10.7045
ずーっと	-10.7045
洗い替え	-10.7045
アルミ	-10.7046
ばっちり	-10.7046
ポンプ	-10.7046
想像通り	-10.7046
増量	-10.7047
セーター	-10.7047
打ち	-10.7047
ことが出来ました	-10.7047
午前	-10.7047
作りもしっかりしていて	-10.7047
IN	-10.7048
癒され	-10.7048
真冬	-10.7048
小ぶり	-10.7048
起こ	-10.7049
切り替え	-10.7049
かぶれ	-10.7049
夏場	-10.7049
送付	-10.705
タイトル	-10.705
上記	-10.705
かっこよく	-10.7051
数珠	-10.7051
苦手な	-10.7051
バター	-10.7051
面白い	-10.7051
調光	-10.7051
作動	-10.7052
高くても	-10.7053
HP	-10.7053
購入履歴	-10.7055
それにしても	-10.7055
難しく	-10.7055
盛り	-10.7056
モデルさん	-10.7056
無くなる	-10.7058
-03	-10.7058
植物	-10.706
同時購入	-10.7061
実質	-10.7063
折り目	-10.7064
であること	-10.7066
間違いなく	-10.7067
オススメします	-10.7067
んですけどね	-10.707
シンプルなデザイン	-10.707
と言った	-10.7071
固め	-10.7071
を受けました	-10.7072
枚ずつ	-10.7073
収納力	-10.7073
お知らせ	-10.7074
期待していたのですが	-10.7074
を使ってましたが	-10.7074
手頃	-10.7075
膝上	-10.7075
足りず	-10.7075
つまり	-10.7075
包み	-10.7077
待たされた	-10.7078
所々	-10.708
インド	-10.7081
ナシ	-10.7083
気にせず	-10.7085
あえて	-10.7098
生地が薄い	-10.7101
してみたら	-10.7101
美味しくて	-10.7104
メールが来ましたが	-10.7105
ノン	-10.7117
バカ	-10.7118
日常	-10.7118
呆れ	-10.7119
年程	-10.7128
買ってしまった	-10.7136
そうにありません	-10.7145
すぐに届きました	-10.7147
凹み	-10.7149
横幅	-10.7152
そのような	-10.7153
低価格	-10.7153
ビニール袋	-10.7174
▁1,,03	-10.7183
歳の子	-10.7187
日に到着しました	-10.7189
それより	-10.7196
こんな事	-10.7202
毛穴	-10.7203
ちょっと残念でした	-10.7212
飲んだ	-10.7213
検討中	-10.7215
が好きで	-10.722
その辺	-10.7233
履かせて	-10.7233
育て	-10.7251
均より安い	-10.726
▁2,,03	-10.7273
痒	-10.7286
を探してました	-10.7293
他のショップ	-10.7298
持っていますが	-10.7301
増やし	-10.7304
違	-10.7306
出来れば	-10.7321
円だから仕方ない	-10.7332
楽しみにしていました	-10.7337
にはなりません	-10.7343
買いに行	-10.7371
商品が届かない	-10.7374
仕方ないのかな	-10.7388
に対応していただき	-10.7403
離れ	-10.7405
残った	-10.7419
ma	-10.7432
履きやすい	-10.7447
大きいもの	-10.7449
商品名	-10.7474
揃	-10.7478
安すぎ	-10.7478
ぇ	-10.7479
してもらいました	-10.7482
の値段で	-10.7487
そのもの	-10.7492
大丈夫かな	-10.7493
同じように	-10.7494
つきません	-10.7497
丁度良い	-10.7498
った時に	-10.7499
感じがし	-10.7516
短かった	-10.7534
入りませんでした	-10.7574
静か	-10.7578
、12/	-10.7586
折って	-10.7591
もらいました	-10.7593
るべき	-10.7609
頂	-10.7627
考えられ	-10.763
ことが多い	-10.7649
想像していた	-10.7678
てみたいと思います	-10.7682
が壊れたので	-10.7692
千切	-10.7697
^-^	-10.7716
載って	-10.775
辺り	-10.7753
しまっている	-10.7765
覚	-10.7792
となっている	-10.7796
裂	-10.7822
ve	-10.7838
ょ	-10.784
ことができ	-10.7847
と感じた	-10.7853
溶	-10.7865
んですよ	-10.7866
取られ	-10.7875
いつになったら	-10.7889
させていただ	-10.7901
ぜ	-10.7917
申	-10.7923
が欲しく	-10.7924
が妥当	-10.7926
途	-10.793
有難	-10.7934
利	-10.7941
答	-10.7943
くなってしまう	-10.7944
船	-10.7945
サークル	-10.7945
つなぎ	-10.7946
情	-10.7947
アトピー	-10.7948
嬉しかった	-10.7948
照	-10.7948
問	-10.7948
追	-10.7948
マットレス	-10.7948
便秘	-10.7948
ショッピング	-10.7948
栓	-10.7949
たのしみ	-10.7949
撮影	-10.7949
豚	-10.7949
妻	-10.7949
プッシュ	-10.7949
絹	-10.7949
▁1,★0	-10.7949
第	-10.7949
ブレンド	-10.7949
消しゴム	-10.7949
スカスカ	-10.7949
コサージュ	-10.7949
教	-10.7949
パネル	-10.7949
滴	-10.7949
好評です	-10.7949
給	-10.7949
履けません	-10.7949
おまかせ	-10.7949
遊んでいます	-10.7949
ハンカチ	-10.7949
パソコン	-10.795
こりゃ	-10.795
ベタベタ	-10.795
アクセント	-10.795
を狙って	-10.795
ぽっきり	-10.795
|	-10.795
壁	-10.795
某	-10.795
点満点	-10.795
下半身	-10.795
????????????????	-10.795
クオカード	-10.795
またリピートします	-10.795
机	-10.795
請	-10.795
いい買い物ができました	-10.795
描	-10.795
ゥ	-10.795
お蔵入り	-10.795
一向に	-10.795
宣伝	-10.795
とどきました	-10.795
スリム	-10.795
明記して	-10.795
可愛さ	-10.795
化粧品	-10.795
購入を決めました	-10.795
(><)	-10.795
ハーフ	-10.795
フワフワ	-10.795
限界	-10.795
ヤマト	-10.795
エプロン	-10.795
掴	-10.795
樹脂	-10.795
メガネ	-10.795
階	-10.795
可愛らしい	-10.795
問合せ	-10.795
思っていた以上に	-10.795
ボルト	-10.795
と思われる	-10.795
もらいたいです	-10.795
宅配	-10.795
チャックが	-10.795
美容液	-10.795
引っ掛け	-10.7951
パステル	-10.7951
オークル	-10.7951
彫	-10.7951
繰り返し	-10.7951
紫外線	-10.7951
トリートメント	-10.7951
ニオイ	-10.7951
ワンシーズン	-10.7951
散歩	-10.7951
履こう	-10.7951
馴染んで	-10.7951
承知して	-10.7951
ボトム	-10.7951
示	-10.7951
展開	-10.7951
ダークブラウン	-10.7951
アダプタ	-10.7952
センター	-10.7952
併用して	-10.7952
使いやすそうです	-10.7952
クレーム	-10.7952
インソール	-10.7952
井	-10.7952
激しい	-10.7952
UV	-10.7952
ちいさ	-10.7952
シャブリ	-10.7952
芽	-10.7953
農	-10.7953
解消	-10.7953
をおすすめします	-10.7953
異常	-10.7953
入園	-10.7953
秋冬	-10.7953
わりと	-10.7954
不親切	-10.7954
まさに	-10.7954
ウエストのゴム	-10.7954
ゆっくり	-10.7954
エクステ	-10.7954
ずり落ち	-10.7954
ヤマト運輸	-10.7955
配線	-10.7955
肩紐	-10.7955
喜んでもらえ	-10.7956
そこそこ	-10.7956
ついつい	-10.7956
可能性	-10.7957
お得に購入できました	-10.7957
et	-10.7957
厚手の	-10.7958
グリップ	-10.7958
ネーム	-10.7958
年以上前から	-10.7959
靴底	-10.7959
年前に購入した	-10.7959
以前の問題	-10.7959
子供たち	-10.7959
刻み	-10.796
曲げ	-10.796
この手の	-10.796
布地	-10.796
動作	-10.796
うすい	-10.796
リピートしたいです	-10.7961
入金確認	-10.7961
モーター	-10.7961
包装紙	-10.7962
うっす	-10.7962
しないうちに	-10.7962
袖口	-10.7963
だいたい	-10.7963
を使っていたのですが	-10.7964
干す	-10.7965
探す	-10.7965
こんなに遅い	-10.7966
大容量	-10.7966
多数	-10.7967
年以上使っています	-10.7968
香水	-10.7968
TV	-10.7968
円には見えません	-10.797
温度	-10.797
ソース	-10.7975
手配	-10.7975
喜んでいます	-10.7975
11/7	-10.7977
タンク	-10.7977
使えば	-10.7979
小粒	-10.798
期待していましたが	-10.7982
洗濯したら	-10.7983
レバー	-10.7984
水玉	-10.7984
暖かさ	-10.7984
返品交換	-10.7984
下地	-10.7987
mA	-10.7989
カンジで	-10.7989
くらいの大きさ	-10.799
気にいって	-10.8001
水分が	-10.8002
なっているので	-10.8002
だったのでしょうか	-10.8002
染み	-10.8003
越え	-10.801
はかせ	-10.8011
年来	-10.8012
に見えた	-10.8013
裏側	-10.8013
が出てき	-10.8014
買い換えました	-10.8015
楽しみにしています	-10.8016
営業日	-10.8029
はがれ	-10.8032
今回初めて	-10.8035
効き	-10.8037
他店より	-10.8048
作りもしっかりして	-10.8054
木目	-10.8055
落ち着き	-10.8055
リピートしてます	-10.8057
裂け	-10.8081
タイム	-10.8086
が悪いのか	-10.8091
塗った	-10.8094
連絡もなし	-10.8096
10/27	-10.8097
支え	-10.8098
6000	-10.8101
空いて	-10.8107
分かれ	-10.8107
8000	-10.8114
読め	-10.812
と思ったけど	-10.8127
ほうが良い	-10.8128
が遅く	-10.8136
続き	-10.8145
値段相当	-10.8176
対応も早く	-10.8207
待	-10.8223
送ってくださ	-10.8227
あったり	-10.8243
ものばかり	-10.8257
当方	-10.8281
気持ちいい	-10.8284
はまり	-10.8294
青色	-10.8343
改善され	-10.837
見てみると	-10.8401
▁1,&#1	-10.8408
出てきて	-10.8427
じゃないですか	-10.8436
値段が安いので	-10.8441
シック	-10.8449
カッタ	-10.8488
様子を見	-10.8491
ように感じます	-10.8502
倍でお得	-10.852
温め	-10.8523
はいってい	-10.8554
デザインは可愛い	-10.8567
共	-10.8569
均で売ってる	-10.859
履きたい	-10.8598
引っ張っ	-10.8608
イヤリング	-10.8637
11/9	-10.8656
みなさんのレビュー	-10.8675
一緒に購入した	-10.8699
ほつれてい	-10.8709
選んで	-10.8713
合わせやす	-10.8717
るのが楽しみです	-10.8724
飲める	-10.8729
たほうがいい	-10.873
素晴らし	-10.874
と思っていたら	-10.8748
悩	-10.8751
連絡が来	-10.8758
ホームセンター	-10.8762
作った	-10.8771
箱に入って	-10.878
使わせて	-10.8794
量が多い	-10.8796
安っぽく見え	-10.8828
愛用してます	-10.8844
る為に	-10.8844
11/5	-10.8861
乗れ	-10.8869
メールが届き	-10.887
透	-10.8878
----------------	-10.8882
ライブ	-10.8882
&#10067;	-10.889
入っており	-10.8905
使いたかった	-10.8913
---	-10.8916
には見えません	-10.8929
盛	-10.8932
考	-10.8932
刻	-10.8939
勧め	-10.8939
潰	-10.8943
去	-10.8943
持っていて	-10.8946
受注	-10.8947
瞬	-10.8947
カジュアル	-10.8948
キャメル	-10.8948
沢	-10.8948
承	-10.8949
ずいぶん	-10.8949
堅	-10.8949
入浴剤	-10.8949
龍	-10.8949
材料	-10.8949
絞	-10.8949
フレア	-10.8949
定期的に	-10.8949
験	-10.8949
慢	-10.8949
ジッパー	-10.8949
危険	-10.8949
疹	-10.8949
祭	-10.8949
まだ届いていないので	-10.8949
なるべく	-10.8949
七	-10.8949
泳	-10.8949
レシピ	-10.8949
スタイリッシュ	-10.8949
購入致しました	-10.8949
仲	-10.8949
だまされた	-10.8949
務	-10.8949
丁寧な対応	-10.8949
慮	-10.895
お土産	-10.895
助かってます	-10.895
長持ちする	-10.895
せんべい	-10.895
good	-10.895
諦めました	-10.895
円以上で送料無料	-10.895
&#10006;	-10.895
オニキス	-10.895
姪	-10.895
めんどくさい	-10.895
気長に	-10.895
付属品	-10.895
と言う事で	-10.895
は抜群	-10.895
扱いやすい	-10.895
泣き寝入り	-10.895
癖	-10.895
窓	-10.895
しょぼい	-10.895
持たない	-10.895
ほんの少し	-10.895
義	-10.895
ふつう	-10.895
特有の	-10.895
瓶	-10.895
ごめんなさい	-10.895
クリスタル	-10.895
粘着力	-10.895
復活	-10.895
陰	-10.895
ピチピチ	-10.895
危	-10.895
噴	-10.895
文章	-10.895
過ごせ	-10.895
随	-10.895
ドキドキ	-10.895
プチプチ	-10.895
菌	-10.895
蜜	-10.895
バリエーション	-10.895
ファンデーション	-10.8951
も欲しくなりました	-10.8951
&#8252;&#65038;	-10.8951
コーティング	-10.8951
炎	-10.8951
ダンス	-10.8951
................	-10.8951
職場	-10.8951
∀`)	-10.8951
アジャスター	-10.8951
院	-10.8951
腐	-10.8951
二度と利用しません	-10.8951
コンセント	-10.8951
挙	-10.8951
おむつ	-10.8951
ゾ	-10.8951
Q	-10.8951
ひどすぎます	-10.8951
維	-10.8951
錆	-10.8951
刻印	-10.8951
オーブン	-10.8952
療	-10.8952
飛び出て	-10.8952
倍のときに	-10.8952
毒	-10.8952
▽`)	-10.8952
カートリッジ	-10.8952
ノーマル	-10.8952
天板	-10.8952
房	-10.8952
全身	-10.8952
現状	-10.8952
大き過ぎ	-10.8952
帽子	-10.8952
直径	-10.8953
ごはん	-10.8953
喜んでくれました	-10.8953
高額	-10.8953
分厚い	-10.8953
ホーム	-10.8953
いつ届くのでしょうか	-10.8953
苦情	-10.8953
困りました	-10.8953
ホームページ	-10.8953
カラコン	-10.8953
多めに	-10.8954
を求める	-10.8954
(^0^)/	-10.8954
ルナソル	-10.8954
溝	-10.8954
根元	-10.8954
オーバー	-10.8955
リンゴ	-10.8955
かわらない	-10.8955
使いやすかったです	-10.8955
国内	-10.8956
ひっかか	-10.8956
手続き	-10.8956
未だ届きません	-10.8957
なにこれ	-10.8958
オススメできません	-10.8958
円ショップで売っている	-10.8958
であろう	-10.8959
用途	-10.8959
使いやすさ	-10.8959
動画	-10.8959
予想通り	-10.896
不要	-10.896
食器	-10.896
みえます	-10.896
レビューを見ると	-10.8961
残っている	-10.8962
買って損	-10.8962
思った通り	-10.8963
丈が長い	-10.8963
レビューを書いて	-10.8963
字体	-10.8963
固くて	-10.8963
歳の息子に	-10.8965
おすすめしません	-10.8965
年日記	-10.8965
に見えました	-10.8966
変形	-10.8966
ヒモ	-10.8966
中古	-10.8966
試しましたが	-10.8967
裏面	-10.8968
噛み	-10.8969
こちらを購入してみました	-10.8969
バンド	-10.897
ミリ玉	-10.8971
高評価	-10.8971
毛糸	-10.8972
つまみ	-10.8972
違和感なく	-10.8972
苦笑	-10.8973
星一つ	-10.8973
越	-10.8973
を知り	-10.8973
フィン	-10.8973
気に入ったようです	-10.8977
買物	-10.8977
時間指定	-10.8979
半袖	-10.8981
片側	-10.8981
に置く	-10.8982
梱包されて	-10.8982
着てみると	-10.8985
させてもらいました	-10.8999
困っていました	-10.8999
紺色	-10.9013
メール便送料無料	-10.902
回目の購入	-10.9036
怖いです	-10.9051
暖ま	-10.9052
イメージしていた	-10.9053
出てくる	-10.9054
なった気がします	-10.9058
値段も安く	-10.906
薄付き	-10.9062
組立	-10.9083
▁2,&#1	-10.91
書いてありますが	-10.9124
均にありそう	-10.9134
紫色	-10.9134
何も連絡が	-10.9151
もよかったかな	-10.9152
円で購入でき	-10.9169
てはいけない	-10.9174
一緒に買った	-10.9186
塗る	-10.9204
のせいで	-10.9214
縫い付け	-10.9248
を希望し	-10.9266
飲み続け	-10.9285
か月の息子	-10.9289
着れません	-10.9306
利用させていただき	-10.9307
で買うこと	-10.9331
同時に購入した	-10.9341
か月の娘	-10.9346
あがり	-10.9367
遅かった	-10.9377
取れない	-10.94
厚めで	-10.9404
酷すぎ	-10.9489
どうなんでしょう	-10.9495
考えています	-10.9561
迅速に対応して	-10.9593
というわけで	-10.9616
履いている	-10.9626
そうな感じです	-10.9632
残念な感じ	-10.9675
かわいかった	-10.9814
安いから仕方ない	-10.9836
店頭	-10.9868
と書いてありました	-10.9885
染	-10.9917
娘用に	-10.9919
替	-10.9971
済	-10.9994
荷	-11.0003
即買い	-11.0014
知らせ	-11.0019
となっていた	-11.003
,1/13	-11.0033
履歴	-11.0043
しっかりしており	-11.0044
派	-11.0046
喜	-11.0053
ショルダー	-11.0055
此	-11.0057
紅	-11.0057
団	-11.0058
規	-11.0059
喜び	-11.0059
要望	-11.0059
作りが雑	-11.0059
路	-11.0059
幼	-11.0059
に頼まれて	-11.006
拡	-11.006
佐川急便	-11.006
慎重に	-11.006
タブレット	-11.006
添	-11.006
糊	-11.006
ストーリー	-11.006
ニキビ	-11.006
イチゴ	-11.006
穀	-11.006
チャコール	-11.006
贈り物	-11.006
吐	-11.006
めちゃめちゃ	-11.006
北海道	-11.006
ふかふか	-11.006
お薦め	-11.006
ミディアム	-11.006
・・・・・・・・・・・・・・	-11.006
(;_;)	-11.006
劇	-11.006
馴染み	-11.006
公	-11.006
貼り付け	-11.006
北	-11.006
波	-11.006
オリジナル	-11.0061
シャープ	-11.0061
姉	-11.0061
書くの	-11.0061
チュニック	-11.0061
夫婦	-11.0061
ああああああああああああああ	-11.0061
他の方のレビューにもありましたが	-11.0061
スワロ	-11.0061
協	-11.0061
耳たぶ	-11.0061
だと思うのですが	-11.0061
埃	-11.0061
我が子	-11.0061
あり得ない	-11.0061
しょうひん	-11.0061
いいねいいねいいねいいねいいね	-11.0061
挿	-11.0061
うちの子は	-11.0061
スケスケ	-11.0061
無添加	-11.0061
薄っぺら	-11.0061
コーナー	-11.0061
環境	-11.0061
&#10049;	-11.0061
おもしろい	-11.0061
腿	-11.0061
(^^;;	-11.0061
ディズニー	-11.0061
ポーチ	-11.0061
待ち遠しいです	-11.0061
真っ黒	-11.0061
冷蔵庫	-11.0061
ついで買い	-11.0061
スポーツ	-11.0061
燃	-11.0061
喜ばれ	-11.0061
適度な	-11.0061
発表会	-11.0061
フレンチ	-11.0061
凸	-11.0061
構造	-11.0061
汲み上げ	-11.0061
サプリメント	-11.0061
デカイ	-11.0061
態	-11.0061
←	-11.0061
バージョン	-11.0061
通気性	-11.0061
締め付け感	-11.0061
ふだん	-11.0061
いちいち	-11.0061
ちぎれ	-11.0061
を超える	-11.0061
ベーシック	-11.0061
排	-11.0061
月出産予定	-11.0061
&#10006;&#65039;	-11.0061
買わなきゃよかった	-11.0061
どーなって	-11.0061
網	-11.0061
半信半疑で	-11.0061
&#10549;&#65038;	-11.0061
タイガーアイ	-11.0061
マフラー	-11.0061
厚めの	-11.0061
清潔	-11.0061
テカテカ	-11.0061
問題なさそうです	-11.0061
ハサミ	-11.0061
了解し	-11.0061
スライド	-11.0061
も考えましたが	-11.0061
婦	-11.0061
浴衣	-11.0061
金属アレルギー	-11.0061
見栄え	-11.0061
漢字	-11.0061
安っぽさ	-11.0061
旧	-11.0061
儀	-11.0061
ペーパー	-11.0061
英語	-11.0062
馴染む	-11.0062
圧迫感	-11.0062
従	-11.0062
可愛らしく	-11.0062
新鮮な	-11.0062
フラワー	-11.0062
糸くず	-11.0062
にんじん	-11.0062
黄緑	-11.0062
終わった	-11.0062
サテン	-11.0062
導	-11.0062
騙されました	-11.0062
他の方も書いて	-11.0062
田	-11.0062
中央	-11.0062
おかしくな	-11.0062
素足で	-11.0062
診	-11.0062
パルプ	-11.0062
確実に	-11.0062
ガーゼ	-11.0062
徳	-11.0062
プレミアム	-11.0062
チャレンジ	-11.0063
cc	-11.0063
座り心地	-11.0063
自信	-11.0063
ふっくら	-11.0063
クシュクシュ	-11.0063
調理	-11.0063
泡立ち	-11.0063
在庫管理	-11.0063
ゆるゆる	-11.0063
工場	-11.0064
自身	-11.0064
例	-11.0064
困難	-11.0064
失礼	-11.0064
技術	-11.0064
現時点で	-11.0064
ばっかり	-11.0064
年位前	-11.0064
小さ目	-11.0064
準	-11.0064
の悪さ	-11.0064
運送会社	-11.0064
摘	-11.0064
匹死着	-11.0064
何年も	-11.0064
延長	-11.0065
しっぱい	-11.0065
バンパー	-11.0065
ワンデー	-11.0065
^_^;	-11.0065
ゲーム	-11.0065
添付	-11.0065
持ち歩く	-11.0065
作成	-11.0065
us	-11.0065
毎朝	-11.0066
カーペット	-11.0066
背面	-11.0067
はんこ	-11.0067
しょっぱい	-11.0067
縫製が雑	-11.0067
怖くて	-11.0067
届くのか不安	-11.0068
引っかかり	-11.0068
補強	-11.0068
乾燥肌	-11.0068
と思える	-11.0069
普通体型	-11.0069
最後に	-11.007
不可能	-11.007
ic	-11.007
父の日	-11.007
首周り	-11.0071
となっていましたが	-11.0071
ワンピ	-11.0071
月初めに	-11.0071
胸元	-11.0072
Na	-11.0073
残念な気持ち	-11.0073
を作りました	-11.0074
年以上使っていた	-11.0077
付かない	-11.0079
長く使えそうです	-11.008
実物を見	-11.0081
るようになった	-11.0081
雨の日	-11.0086
にして正解でした	-11.0086
嫌いな	-11.0087
有難いです	-11.0088
特別	-11.009
どうなっているのか	-11.0091
11/8	-11.0091
買うべき	-11.0094
値段のわりに	-11.0095
しようと思っています	-11.0096
はみ出し	-11.0097
長かった	-11.0116
1/20	-11.0118
のだろうか	-11.0121
いつになったら届くのでしょう	-11.0136
分かりやすい	-11.0147
が悪すぎ	-11.0156
と言うことで	-11.0163
年以上愛用して	-11.0164
10/9	-11.0177
たまりません	-11.0179
のに苦労し	-11.018
嫌がる	-11.0191
頼んでみました	-11.0204
動きやすい	-11.0207
袋に入って	-11.0211
を愛用して	-11.0225
を買おうと思	-11.0228
092	-11.0236
で売られてい	-11.0244
分かる	-11.0245
気もします	-11.0259
書かれていますが	-11.0261
安く購入出来	-11.0267
載	-11.0272
付いていた	-11.0347
開けてみて	-11.0367
くれれば	-11.038
瞬間	-11.0391
考えれば	-11.0408
有りません	-11.0413
期待しすぎ	-11.0449
わけでもなく	-11.0514
レビューを読んで	-11.0534
となっており	-11.0572
なくなってしまい	-11.0577
熱くな	-11.0781
が多かったので	-11.0872
が気になり	-11.0962
を使っているの	-11.0971
スタイ	-11.0989
はめた	-11.0993
入っていなかった	-11.0997
面倒だ	-11.1
ものではありません	-11.1056
実感でき	-11.115
暖	-11.1156
立派	-11.1247
見つけられ	-11.1248
,1/10	-11.1262
ァ	-11.1278
のわりには	-11.1286
した方が良い	-11.1288
駄	-11.1297
メント	-11.1304
(^0^)	-11.1305
ブラウス	-11.1307
継	-11.1309
趣味	-11.1309
覗	-11.1309
併	-11.1309
案の定	-11.1309
低反発	-11.131
《	-11.131
衣	-11.131
版	-11.131
紋	-11.131
私にとっては	-11.131
た途端	-11.131
ペンダント	-11.131
影	-11.131
蕾	-11.131
覆	-11.131
厳	-11.131
待たせ	-11.131
貝	-11.131
ささみ	-11.131
》	-11.131
(*_*)	-11.131
比べ物にならない	-11.131
ペンシル	-11.131
軸	-11.131
勘	-11.131
思った以上に	-11.131
野	-11.131
と勘違いして	-11.131
対象外	-11.131
省	-11.131
嵐	-11.131
わかりやすく	-11.1311
ワクワク	-11.1311
カリカリ	-11.1311
ダウニー	-11.1311
ポリウレタン	-11.1311
珍しい	-11.1311
ぎりぎり	-11.1311
カッコイイ	-11.1311
代後半	-11.1311
モチーフ	-11.1311
鳥	-11.1311
ベランダ	-11.1311
モチモチ	-11.1311
竿	-11.1311
逃	-11.1311
欠かせない	-11.1311
安かろう悪かろう	-11.1311
秒で歯が真っ白	-11.1311
ぐちゃぐちゃ	-11.1311
貴	-11.1311
飴	-11.1311
ダボダボ	-11.1311
.。.:*・	-11.1311
つもつけたくない	-11.1311
リフォーム	-11.1311
営	-11.1311
&#10548;	-11.1311
していただきたいです	-11.1311
中途半端	-11.1311
老	-11.1311
・*:.。.	-11.1311
有り難い	-11.1311
д	-11.1311
こまめに	-11.1311
グッズ	-11.1311
スウェット	-11.1311
宜しくお願い	-11.1311
ペラッペラ	-11.1311
コミック	-11.1311
均並み	-11.1311
小型犬	-11.1311
恥ずかしくて	-11.1311
有難うございま	-11.1311
項	-11.1311
パニエ	-11.1311
ありえません	-11.1311
アイシャドウ	-11.1311
ラーメン	-11.1311
助かっています	-11.1311
仕方ありません	-11.1311
ビキニ	-11.1311
に最適	-11.1311
錠	-11.1311
ジーンズ	-11.1311
ウィッグ	-11.1311
カビが生え	-11.1311
重宝してます	-11.1311
&#10549;&#10549;	-11.1311
邪	-11.1311
シフォン	-11.1311
モード	-11.1311
もらおう	-11.1311
メッシュ	-11.1311
研	-11.1311
請求され	-11.1311
ざんねん	-11.1311
百貨店	-11.1311
重宝する	-11.1311
量が少ない	-11.1311
フェイスタオル	-11.1311
誇大広告	-11.1311
良心的	-11.1311
ハンドタオル	-11.1311
リサイクル	-11.1311
業者	-11.1311
ならまだしも	-11.1311
アルコール	-11.1311
リキッド	-11.1311
とあまり変わらない	-11.1311
今の時期	-11.1311
陥	-11.1311
救	-11.1312
仕上がって	-11.1312
毛羽立	-11.1312
気をつけてください	-11.1312
カタログ	-11.1312
取説	-11.1312
寸法	-11.1312
すっぽり	-11.1312
思いきって	-11.1312
んじゃないでしょうか	-11.1312
ボレロ	-11.1312
ラインストーン	-11.1312
扉	-11.1312
///	-11.1312
申し分ない	-11.1312
精米	-11.1312
ゴミ箱行き	-11.1312
インチタブレット	-11.1312
サングラス	-11.1312
厚手で	-11.1312
送られてきました	-11.1312
ダイヤモンド	-11.1312
ひっかけ	-11.1312
には不向き	-11.1312
総合的に	-11.1312
特典	-11.1312
お客さん	-11.1312
日本語	-11.1312
漂	-11.1312
おばさん	-11.1312
あんな	-11.1312
華奢な	-11.1313
ささくれ	-11.1313
持続	-11.1313
露	-11.1313
▁1,"1,000	-11.1313
あくまでも	-11.1313
謳	-11.1313
景	-11.1313
アクセ	-11.1313
職	-11.1313
般	-11.1313
卒業	-11.1313
何の連絡もなく	-11.1313
済む	-11.1313
蜂	-11.1313
紅茶	-11.1313
★★★★	-11.1313
週間経っても	-11.1313
二の腕	-11.1314
遊べ	-11.1314
にくかったです	-11.1314
原料	-11.1314
蟹	-11.1318
午	-11.264
与	-11.2649
商	-11.2734
帽	-11.2736
織	-11.2736
〕	-11.2736
柱	-11.2737
〔	-11.2737
鶏	-11.2738
徴	-11.2738
担	-11.2738
校	-11.2738
採	-11.2738
談	-11.2739
喉	-11.2739
王	-11.2739
□	-11.2739
泊	-11.2739
晴	-11.2739
誌	-11.2739
独	-11.2739
麻	-11.2739
肥	-11.2739
彩	-11.2739
界	-11.2739
覧	-11.274
賞	-11.274
魔	-11.274
芸	-11.274
°	-11.274
領	-11.274
士	-11.274
尾	-11.274
狙	-11.2741
往	-11.2741
純	-11.2741
爆	-11.2741
働	-11.2742
ヴ	-11.2743
膜	-11.2746
履	-11.3312
静	-11.3372
更	-11.4295
締	-11.4352
専	-11.4365
植	-11.4374
到	-11.4395
糠	-11.4401
ォ	-11.4402
息	-11.4402
勤	-11.4403
労	-11.4403
庭	-11.4404
郵	-11.4404
焦	-11.4404
君	-11.4404
尽	-11.4404
管	-11.4405
句	-11.4405
我	-11.4405
旅	-11.4405
術	-11.4405
構	-11.4405
資	-11.4405
卒	-11.4405
亜	-11.4405
欧	-11.4406
貨	-11.4406
釈	-11.4406
響	-11.4406
ゞ	-11.4406
♯	-11.4406
枝	-11.4406
凝	-11.4406
酢	-11.4406
⌒	-11.4406
■	-11.4406
熟	-11.4406
株	-11.4406
茎	-11.4406
交	-11.4406
縞	-11.4406
’	-11.4406
ヾ	-11.4406
塵	-11.4406
仏	-11.4406
壇	-11.4406
西	-11.4406
〇	-11.4406
亡	-11.4407
旦	-11.4407
陽	-11.4407
炭	-11.4407
六	-11.4407
粋	-11.4407
亀	-11.4407
胃	-11.4407
推	-11.4407
街	-11.4407
桐	-11.4407
臨	-11.4407
煙	-11.4408
弁	-11.4408
沿	-11.4408
称	-11.4408
妙	-11.4408
層	-11.4409
氷	-11.4409
丼	-11.4409
唇	-11.4409
奇	-11.4409
島	-11.441
豊	-11.4411
漏	-11.6281
既	-11.6294
夕	-11.6372
辺	-11.6383
説	-11.6399
桜	-11.6399
漬	-11.6402
飯	-11.6403
尋	-11.6404
↑	-11.6405
遜	-11.6405
松	-11.6405
蚊	-11.6405
嫁	-11.6405
珍	-11.6405
餌	-11.6405
伺	-11.6405
憤	-11.6405
攻	-11.6405
希	-11.6405
列	-11.6406
奮	-11.6406
歌	-11.6406
県	-11.6406
踊	-11.6406
゙	-11.6406
南	-11.6406
眉	-11.6406
釜	-11.6406
Σ	-11.6406
傾	-11.6406
М	-11.6406
門	-11.6406
如	-11.6406
搾	-11.6406
蝋	-11.6407
膨	-11.6407
英	-11.6407
♀	-11.6407
境	-11.6407
吊	-11.6407
煎	-11.6407
辞	-11.6407
清	-11.6407
暇	-11.6407
招	-11.6407
警	-11.6408
浄	-11.6408
柔	-11.6409
縛	-11.6409
述	-11.641
因	-11.641
椎	-11.641
凍	-11.6413
鶴	-11.6414
μ	-11.642
福	-11.8437
匂	-11.8508
筈	-11.8898
興	-11.8902
幾	-11.8903
略	-11.8903
乏	-11.8903
像	-11.8903
季	-11.8904
駆	-11.8904
塊	-11.8905
矢	-11.8905
善	-11.8905
薦	-11.8905
}	-11.8905
怠	-11.8905
拍	-11.8905
頬	-11.8905
鯉	-11.8905
町	-11.8905
φ	-11.8906
敬	-11.8906
樹	-11.8906
′	-11.8906
九	-11.8906
幕	-11.8906
湾	-11.8906
蝶	-11.8906
尿	-11.8906
q	-11.8906
昧	-11.8906
霧	-11.8906
蘇	-11.8906
票	-11.8906
恋	-11.8906
桁	-11.8906
〉	-11.8906
僕	-11.8906
羅	-11.8906
卵	-11.8906
△	-11.8906
汽	-11.8906
♂	-11.8906
州	-11.8906
掃	-11.8906
滞	-11.8906
患	-11.8907
乱	-11.8907
禁	-11.8907
袴	-11.8907
只	-11.8907
扇	-11.8907
沸	-11.8907
恥	-11.8907
愕	-11.8907
著	-11.8907
築	-11.8908
介	-11.8908
斗	-11.8908
奨	-11.8908
競	-11.8908
烈	-11.8908
舌	-11.8908
呑	-11.8909
免	-11.8909
灰	-11.8909
鎖	-11.8909
稼	-11.8909
訴	-11.8909
建	-11.891
暴	-11.891
嵩	-11.891
里	-11.8911
察	-11.8911
凄	-12.2
崩	-12.2175
友	-12.2205
ヶ	-12.2208
蔵	-12.2232
芳	-12.2235
巡	-12.2237
泥	-12.2237
柳	-12.2237
闘	-12.2237
駐	-12.2238
技	-12.2238
屈	-12.2238
掻	-12.2238
模	-12.2238
藁	-12.2238
弊	-12.2238
酔	-12.2238
鑑	-12.2238
区	-12.2239
{	-12.2239
候	-12.2239
◇	-12.2239
八	-12.2239
叶	-12.2239
志	-12.2239
櫛	-12.2239
稀	-12.2239
戴	-12.2239
森	-12.2239
煩	-12.2239
垢	-12.2239
幹	-12.2239
宛	-12.2239
益	-12.2239
刊	-12.2239
忌	-12.2239
宿	-12.2239
崎	-12.2239
叩	-12.2239
融	-12.2239
衿	-12.2239
∇	-12.2239
〈	-12.2239
剃	-12.2239
曖	-12.2239
芝	-12.2239
蒼	-12.2239
甥	-12.2239
輩	-12.2239
鈴	-12.2239
霊	-12.2239
σ	-12.224
偏	-12.224
蛾	-12.224
駅	-12.224
惨	-12.224
熊	-12.224
紡	-12.224
唐	-12.224
妖	-12.224
腫	-12.224
斬	-12.224
護	-12.224
源	-12.224
徹	-12.224
敵	-12.224
圏	-12.2241
坊	-12.2241
ぢ	-12.2241
刈	-12.2241
冒	-12.2241
猛	-12.2241
歴	-12.2241
係	-12.2242
占	-12.2242
杜	-12.2242
繁	-12.2242
典	-12.2242
津	-12.2242
虹	-12.2242
争	-12.2243
銘	-12.2244
拠	-12.2244
林	-12.2247
昨	-12.3073
呆	-12.6672
舗	-12.7018
嬉	-12.7197
展	-12.7233
了	-12.7235
策	-12.7236
宣	-12.7237
肝	-12.7237
奪	-12.7238
喰	-12.7238
財	-12.7238
令	-12.7238
環	-12.7238
議	-12.7239
$	-12.7239
傍	-12.7239
険	-12.7239
漢	-12.7239
乙	-12.7239
伏	-12.7239
腸	-12.7239
з	-12.7239
▼	-12.7239
丿	-12.7239
哀	-12.7239
Ο	-12.724
伊	-12.724
匙	-12.724
吟	-12.7241
剛	-12.7242
墨	-12.7242
伴	-12.7246
契	-13.6873
塞	-13.6874
埼	-13.6875
垣	-13.6876
嘔	-13.6877
嗚	-13.6878
唾	-13.6879
吃	-13.688
刀	-13.6881
俗	-13.6882
俄	-13.6883
侘	-13.6884
̈	-13.6885
館	-13.6886
陶	-13.6887
遥	-13.6888
諾	-13.6889
薫	-13.689
臼	-13.6891
腔	-13.6892
署	-13.6893
纏	-13.6894
絨	-13.6895
箔	-13.6896
箋	-13.6897
礎	-13.6898
瞭	-13.6899
癌	-13.69
瘍	-13.6901
疫	-13.6902
猶	-13.6903
熨	-13.6904
烹	-13.6905
烏	-13.6906
溢	-13.6907
洞	-13.6908
毯	-13.6909
橘	-13.691
柑	-13.6911
暦	-13.6912
旺	-13.6913
撥	-13.6914
摩	-13.6915
搬	-13.6916
揮	-13.6917
拒	-13.6918
抽	-13.6919
惣	-13.692
宴	-13.6921
委	-13.6922
姓	-13.6923
填	-13.6924
厄	-13.6925
努	-13.6926
功	-13.6927
剪	-13.6928
冗	-13.6929
儲	-13.693
仰	-13.6931
餃	-13.6932
顧	-13.6933
闊	-13.6934
逸	-13.6935
迂	-13.6936
褪	-13.6937
舎	-13.6938
腑	-13.6939
腎	-13.694
胆	-13.6941
肪	-13.6942
緊	-13.6943
睫	-13.6944
眩	-13.6945
盆	-13.6946
皺	-13.6947
痕	-13.6948
甜	-13.6949
牙	-13.695
燭	-13.6951
演	-13.6952
滲	-13.6953
渇	-13.6954
氏	-13.6955
掘	-13.6956
捺	-13.6957
懲	-13.6958
慨	-13.6959
恰	-13.696
姫	-13.6961
嗅	-13.6962
唖	-13.6963
僚	-13.6964
傲	-13.6965
偶	-13.6966
阪	-13.6967
還	-13.6968
跳	-13.6969
貯	-13.697
裟	-13.6971
袈	-13.6972
茸	-13.6973
籍	-13.6974
秀	-13.6975
睡	-13.6976
玩	-13.6977
漫	-13.6978
泉	-13.6979
汎	-13.698
殊	-13.6981
朴	-13.6982
斐	-13.6983
披	-13.6984
戚	-13.6985
嵌	-13.6986
審	-13.6987
宮	-13.6988
却	-13.6989
勇	-13.699
但	-13.6991
錯	-13.6992
趾	-13.6993
谷	-13.6994
縄	-13.6995
眺	-13.6996
炒	-13.6997
溜	-13.6998
沖	-13.6999
械	-13.7
拝	-13.7001
把	-13.7002
懸	-13.7003
憶	-13.7004
己	-13.7005
域	-13.7006
司	-13.7007
募	-13.7008
僅	-13.7009
±	-13.701
隔	-13.7011
隅	-13.7012
酵	-13.7013
贅	-13.7014
薔	-13.7015
薇	-13.7016
茹	-13.7017
琲	-13.7018
珈	-13.7019
洒	-13.702
昆	-13.7021
援	-13.7022
夢	-13.7023
函	-13.7024
隣	-13.7025
醤	-13.7026
辿	-13.7027
躊	-13.7028
躇	-13.7029
穫	-13.703
摂	-13.7031
揺	-13.7032
抵	-13.7033
徐	-13.7034
垂	-13.7035
及	-13.7036
剰	-13.7037
云	-13.7038
且	-13.7039
鹿	-13.704
迎	-13.7041
蕎	-13.7042
苔	-13.7043
肢	-13.7044
砕	-13.7045
爽	-13.7046
濁	-13.7047
汲	-13.7048
栽	-13.7049
査	-13.705
朱	-13.7051
揚	-13.7052
慎	-13.7053
帆	-13.7054
培	-13.7055
双	-13.7056
卓	-13.7057
償	-13.7058
借	-13.7059
京	-13.706
鹸	-13.7061
鉛	-13.7062
釣	-13.7063
遣	-13.7064
褒	-13.7065
統	-13.7066
敢	-13.7067
抑	-13.7068
慌	-13.7069
師	-13.707
宜	-13.7071
堂	-13.7072
互	-13.7073
賛	-13.7074
訂	-13.7075
暫	-13.7076
抗	-13.7077
埋	-13.7078
豪	-13.7079
裸	-13.708
蛍	-13.7081
芋	-13.7082
罪	-13.7083
磁	-13.7084
璧	-13.7085
沈	-13.7086
枯	-13.7087
懐	-13.7088
奢	-13.7089
距	-13.709
祖	-13.7091
曇	-13.7092
繰	-13.7093
紹	-13.7094
窮	-13.7095
癒	-13.7096
殆	-13.7096
暮	-13.7097
控	-13.7098
幸	-13.7099
唯	-13.71
─	-13.7101
貧	-13.7102
授	-13.7103
戸	-13.7104
惚	-13.7105
娠	-13.7106
噌	-13.7107
繍	-13.7108
潤	-13.7109
怪	-13.711
迫	-13.7111
衝	-13.7112
膚	-13.7113
棄	-13.7114
斜	-13.7115
守	-13.7116
促	-13.7117
椅	-13.7118
条	-13.7119
惜	-13.712
捨	-13.7121
康	-13.7121
企	-13.7122
貰	-13.7123
挑	-13.7124
催	-13.7125
避	-13.7126
詫	-13.7127
稿	-13.7128
勿	-13.7129
勢	-13.713
需	-13.7131
濡	-13.7132
抱	-13.7133
愉	-13.7134
勧	-13.7135
━	-13.7135
≧	-13.7136
≦	-13.7137
耗	-13.7138
提	-13.7139
忙	-13.714
姿	-13.7141
頻	-13.7142
槽	-13.7143
妊	-13.7144
複	-13.7145
稚	-13.7146
飽	-13.7147
妥	-13.7148
菓	-13.7149
晶	-13.715
是	-13.7151
寿	-13.7152
輝	-13.7153
詳	-13.7154
練	-13.7155
操	-13.7156
雰	-13.7157
録	-13.7158
繊	-13.7159
隙	-13.716
栄	-13.7161
繋	-13.7162
痩	-13.7163
誰	-13.7164
沙	-13.7165
汰	-13.7166
勉	-13.7167
箇	-13.7168
索	-13.7169
基	-13.717
魅	-13.7171
輸	-13.7172
湿	-13.7173
帰	-13.7174
含	-13.7175
ゅ	-13.7176
祝	-13.7177
由	-13.7178
頑	-13.7179
狭	-13.718
燥	-13.7181
曜	-13.7182
疲	-13.7183
致	-13.7184
範	-13.7185
択	-13.7186
呂	-13.7187
惹	-13.7188
尻	-13.7189
告	-13.719
刺	-13.7191
躍	-13.7192
̄	-13.7193
諦	-13.7194
飾	-13.7195
較	-13.7196
誕	-13.7197
修	-13.7198
故	-13.7199
粧	-13.72
涼	-13.7201
慣	-13.7201
池	-13.7202
求	-13.7203
閉	-13.7204
討	-13.7205
忘	-13.7206
属	-13.7207
詰	-13.7208
迅	-13.7209
払	-13.721
族	-13.7211
備	-13.7212
存	-13.7213
扱	-13.7214
ヵ	-13.7215
微	-13.7215
宝	-13.7216
裕	-13.7217
久	-13.7218
貼	-13.7219
悔	-13.722
象	-13.7221
́	-13.7222
抜	-13.7223
局	-13.7224
づ	-13.7225
完	-13.7226
濯	-13.7227
簡	-13.7228
敗	-13.7229
伸	-13.723
始	-13.7231
掲	-13.7232
緒	-13.7232
央	-13.7233
健	-13.7233
梱	-13.7233
販	-13.7234
丁	-13.7235
趣	-13.7236
比	-13.7236
那	-13.7237
綺	-13.7237
遮	-13.7237
婚	-13.7238
馴	-13.7238
麗	-13.7238
紛	-13.7239
概	-13.7239
刷	-13.7239
抹	-13.7239
玄	-13.7239
況	-13.7239
潔	-13.7239
章	-13.7239
寧	-13.7239
容	-13.7239
依	-13.724
秘	-13.724
富	-13.724
携	-13.724
韓	-13.724
佐	-13.724
武	-13.724
必	-13.724
頼	-13.7241
川	-13.7242
意	-13.7242
想	-13.7243
詐	-13.7244
標	-13.7245
欺	-13.7245
込	-13.7246
悟	-13.7247
須	-13.7247
旬	-13.7247
確	-13.7248
欲	-13.7249
仕	-13.725
普	-13.7251
絡	-13.7252
ャ	-13.7253
以	-13.7254
ゃ	-13.7255
届	-13.7256
使	-13.7257
思	-13.7258
誇	-13.7259
購	-13.7259
