<unk>	0
<s>	0
</s>	0
、	-3.1829
n	-3.44437
の	-3.80598
。	-3.81666
。\	-3.88604
が	-3.95125
。"	-4.21904
は	-4.40609
で	-4.42332
に	-4.42351
も	-4.58362
","	-4.69125
を	-4.74574
と	-4.80434
▁"1","	-4.93096
▁"2","	-5.01193
です	-5.01928
\	-5.07953
"	-5.46374
し	-5.57532
▁	-5.61811
▁"2","","	-5.62877
ので	-5.78722
▁"1","","	-5.79856
て	-5.80426
な	-5.8136
か	-5.8255
でした	-5.88544
から	-5.9583
して	-6.00985
1	-6.02531
2	-6.05107
なので	-6.1417
(	-6.17267
ます	-6.20498
い	-6.20542
た	-6.21353
る	-6.22711
とても	-6.24954
ました	-6.25772
お	-6.30923
や	-6.34705
購入	-6.36211
り	-6.36582
でも	-6.37746
!	-6.40582
って	-6.41645
ですが	-6.42197
。","	-6.47584
ー	-6.47801
く	-6.48573
には	-6.50654
3	-6.54312
この	-6.57768
ら	-6.59139
ない	-6.60234
...	-6.61894
また	-6.64751
?	-6.67395
ス	-6.67774
!\	-6.67823
)	-6.68853
つ	-6.70968
した	-6.75814
少し	-6.78741
する	-6.7962
購入しました	-6.82245
!"	-6.82714
!","	-6.84532
、\	-6.85655
日	-6.8668
サイズ	-6.86987
と思います	-6.89512
さ	-6.89782
き	-6.90111
ん	-6.91874
かな	-6.92167
けど	-6.95676
いて	-6.96304
なら	-6.96557
しました	-6.96719
ちょっと	-6.96726
5	-6.97351
のですが	-6.9815
4	-6.98738
す	-6.99275
商品	-7.00278
まだ	-7.03012
いい	-7.05135
み	-7.05504
良い	-7.06434
色	-7.06736
物	-7.07396
より	-7.07766
〜	-7.07977
ル	-7.09684
かなり	-7.09936
」	-7.10765
「	-7.11124
・	-7.12113
本	-7.15013
だけ	-7.15122
にも	-7.15213
・・・	-7.15497
着	-7.15797
します	-7.18439
いた	-7.18506
め	-7.19771
ただ	-7.19782
用	-7.23277
良かったです	-7.24894
リ	-7.24942
分	-7.25185
使用	-7.26189
ね	-7.26332
ですね	-7.27242
残念です	-7.2747
ま	-7.28207
もう	-7.28562
一	-7.29111
あ	-7.29365
品	-7.29455
ず	-7.30219
う	-7.30687
った	-7.31519
残念	-7.33509
まで	-7.33695
だ	-7.34022
います	-7.34328
中	-7.34414
では	-7.35372
だったので	-7.3572
なく	-7.37286
ト	-7.37653
ク	-7.38216
ません	-7.38405
cm	-7.38704
こ	-7.39275
すぐに	-7.39361
という	-7.39395
イ	-7.39533
他の	-7.40396
あまり	-7.40733
円	-7.41084
よ	-7.41179
大	-7.4143
感じ	-7.41757
よく	-7.41973
10	-7.42306
いる	-7.42477
ン	-7.42746
カ	-7.43544
わ	-7.43956
こと	-7.45039
水	-7.45818
何	-7.45978
コ	-7.46405
ほど	-7.4656
ため	-7.47149
だった	-7.47458
ド	-7.4847
出	-7.48477
ア	-7.48794
手	-7.50691
注文	-7.50789
その	-7.51068
もう少し	-7.51689
なかった	-7.51984
これ	-7.5266
ッ	-7.52792
いました	-7.53146
M	-7.535
L	-7.53782
っ	-7.54032
大変	-7.54156
だと	-7.5417
満足です	-7.54197
見	-7.54424
くらい	-7.54772
ましたが	-7.54976
すごく	-7.55194
として	-7.55437
本当に	-7.55446
など	-7.55749
個	-7.56121
安い	-7.56247
そう	-7.56563
ラ	-7.57577
発送	-7.57601
事	-7.58711
デザイン	-7.58721
のか	-7.58793
用に	-7.58844
【	-7.59223
...\	-7.59505
)\	-7.5954
人	-7.59806
しか	-7.60135
そうです	-7.60592
時	-7.60707
使って	-7.6112
ないので	-7.61135
すぐ	-7.61498
たら	-7.6276
回	-7.6338
あり	-7.63858
いつも	-7.63982
届きました	-7.63991
ご	-7.64192
のに	-7.64268
対応	-7.64485
枚	-7.65144
S	-7.65409
かも	-7.65616
よかったです	-7.65631
足	-7.6568
を購入しました	-7.6592
目	-7.66662
チ	-7.66675
を購入	-7.66834
マ	-7.66922
購入しましたが	-7.67535
年	-7.67554
6	-7.67836
だと思います	-7.68478
度	-7.68584
使う	-7.6928
可愛い	-7.69694
後	-7.70204
がある	-7.7029
タ	-7.70749
...","	-7.71057
ば	-7.71168
レビュー	-7.71732
とっても	-7.7175
のは	-7.72214
数	-7.72253
え	-7.73191
白	-7.73269
黒	-7.73401
ある	-7.73697
ロ	-7.73972
感	-7.74153
全く	-7.74539
味	-7.74892
届いて	-7.75011
交換	-7.75496
商品は	-7.75605
ると	-7.75927
やはり	-7.76143
良かった	-7.76423
外	-7.76541
でしたが	-7.76785
これは	-7.76987
ように	-7.77192
?\	-7.77505
私は	-7.77828
-	-7.78087
袋	-7.78166
もの	-7.78278
もっと	-7.78885
-20	-7.79264
点	-7.79398
上	-7.79398
方	-7.79772
満足	-7.80007
時間	-7.80269
所	-7.8047
時に	-7.80776
ませんでした	-7.80821
プレゼント	-7.81056
したら	-7.8119
ブ	-7.81784
できる	-7.82783
下	-7.82983
気	-7.83068
小さい	-7.83135
なかなか	-7.83148
・・・","	-7.83191
かわいい	-7.83336
ム	-7.83462
んで	-7.83676
T	-7.839
れ	-7.84379
センチ	-7.84535
月	-7.85515
】	-7.85742
ありがとうございました	-7.85922
早く	-7.86122
同じ	-7.86139
レ	-7.86204
o	-7.86437
になりました	-7.86653
笑	-7.86686
ようです	-7.87178
になって	-7.8719
いたので	-7.87314
買って	-7.87569
ような	-7.87883
使い	-7.88004
いいです	-7.88909
子	-7.89112
シ	-7.89533
届いた	-7.89722
高い	-7.89724
ところ	-7.89994
ピンク	-7.90037
があり	-7.90531
セット	-7.90873
購入した	-7.91214
普段	-7.91295
前	-7.9269
色が	-7.93164
すると	-7.93373
前に	-7.93462
とか	-7.9356
今回	-7.93646
と思いました	-7.93681
生	-7.93698
今回は	-7.93871
キ	-7.94234
ミ	-7.94334
しています	-7.94572
どう	-7.94712
良いです	-7.94886
だし	-7.95633
残念でした	-7.95638
値段	-7.95652
利用	-7.95946
体	-7.96084
ち	-7.96266
む	-7.96324
A	-7.96372
返品	-7.96382
今	-7.96677
している	-7.96977
ケース	-7.97031
タイプ	-7.97093
写真	-7.97248
ツ	-7.97404
購入して	-7.97809
やっぱり	-7.98547
作り	-7.98921
よかった	-7.99039
20	-7.99555
リピート	-7.9968
るので	-7.9999
以前	-8.00173
今まで	-8.00215
サ	-8.00429
8	-8.00431
食べ	-8.00686
美味しい	-8.01084
7	-8.0112
と思って	-8.0163
等	-8.01694
メ	-8.01726
リピ	-8.0194
の方が	-8.02284
フ	-8.02321
なくて	-8.02411
ナ	-8.02544
へ	-8.02571
期待	-8.03843
しましたが	-8.03999
違う	-8.04042
,	-8.04161
初めて	-8.04268
になる	-8.04362
色も	-8.04526
サイズが	-8.05102
エ	-8.05341
私の	-8.05425
気に入りました	-8.05528
っと	-8.05622
あと	-8.0564
大きい	-8.05801
価格	-8.05862
せ	-8.05884
面	-8.06062
確認	-8.06092
もなく	-8.06164
こちらの	-8.06336
思ったより	-8.0667
配送	-8.06859
全然	-8.06984
だけで	-8.07285
々	-8.07388
・・・\	-8.07863
ヶ月	-8.08279
び	-8.08332
と思い	-8.08387
良く	-8.08468
パ	-8.08506
★	-8.08579
入れ	-8.09238
なし	-8.09375
部分が	-8.09395
小	-8.09845
量	-8.10178
ジ	-8.10243
先	-8.10516
じ	-8.10544
しっかり	-8.10861
しない	-8.11046
よう	-8.1113
質	-8.11483
いるので	-8.11614
しかし	-8.11628
よい	-8.11751
だから	-8.1224
カバー	-8.124
特に	-8.12714
?","	-8.1274
ガ	-8.12957
力	-8.13955
ショップ	-8.14243
いましたが	-8.14473
15	-8.14478
け	-8.14595
非常に	-8.14639
.	-8.14915
なのに	-8.15007
大満足です	-8.15051
結構	-8.15055
たい	-8.15705
私	-8.15709
買った	-8.15838
ウ	-8.1599
組み立て	-8.16209
毎日	-8.16678
モ	-8.16692
ズ	-8.16723
買い	-8.17186
さん	-8.17308
!!	-8.17325
靴	-8.17444
やすい	-8.17956
連絡	-8.18035
ますが	-8.18143
箱	-8.18155
バ	-8.185
付け	-8.18563
見て	-8.19114
ろ	-8.19155
たので	-8.19346
洗濯	-8.19455
日に	-8.19594
ビ	-8.19746
☆	-8.19971
効果	-8.19982
/	-8.20319
形	-8.20344
しかも	-8.20346
商品の	-8.20408
かった	-8.20428
通り	-8.20582
評価	-8.20653
!!\	-8.20654
ぶ	-8.20865
内	-8.21349
なのか	-8.21689
間	-8.21944
テ	-8.22114
結局	-8.22277
きました	-8.2244
方が	-8.22759
代	-8.22799
薄い	-8.22881
以上	-8.22885
私には	-8.22914
んですが	-8.23053
これから	-8.23149
色は	-8.23303
型	-8.23403
プ	-8.23527
9	-8.238
毛	-8.2383
食べて	-8.23832
?"	-8.24466
性	-8.2447
自分で	-8.24621
大きさ	-8.24632
履いて	-8.25052
取り	-8.25118
車	-8.252
付き	-8.25288
ないと	-8.25323
デ	-8.25396
とは	-8.25425
リー	-8.25435
しても	-8.25616
傷	-8.25646
早速	-8.2572
12	-8.25767
ど	-8.2592
気持ち	-8.26111
週間	-8.26278
柄	-8.26536
こんな	-8.26585
買いました	-8.2689
みて	-8.27177
入り	-8.27374
二	-8.27498
のような	-8.27956
用に購入しました	-8.28201
取り付け	-8.28203
地	-8.28223
問題	-8.28467
程	-8.28651
くて	-8.28852
梱包	-8.28923
店	-8.29295
送料	-8.29648
不	-8.29951
助かりました	-8.30061
赤	-8.30199
・・	-8.30347
ずっと	-8.30497
)"	-8.30656
位	-8.3071
気に入って	-8.3109
デザインは	-8.31441
..."	-8.31616
一度	-8.31674
オ	-8.31722
♪"	-8.31785
にしました	-8.32124
あった	-8.32155
音	-8.3237
なる	-8.32638
普通の	-8.32909
口	-8.32934
星	-8.33082
便利	-8.33084
ニ	-8.33144
画像	-8.33195
臭い	-8.33453
台	-8.34243
そのまま	-8.34496
ダ	-8.3455
素材	-8.3465
:	-8.34813
品質	-8.34899
なって	-8.35092
30	-8.35134
一番	-8.35147
みると	-8.35269
ボ	-8.3527
商品が	-8.35303
到着	-8.35447
しません	-8.3545
a	-8.35464
なかったので	-8.35559
100	-8.35731
になります	-8.35915
満足しています	-8.35999
生地	-8.36067
大きく	-8.3611
カラー	-8.36134
安く	-8.36253
れば	-8.36382
ット	-8.36515
グ	-8.36543
すぎて	-8.37009
それ	-8.37372
紙	-8.37442
でしょう	-8.37731
しまい	-8.38059
ないです	-8.38115
ではなく	-8.38158
ブラック	-8.38491
使える	-8.38644
と思う	-8.38704
切れ	-8.39006
受注番号	-8.39061
ケ	-8.39074
ちゃんと	-8.39212
しまいました	-8.39458
指	-8.39624
E	-8.39848
グレー	-8.39942
ぐらい	-8.40318
メール	-8.40448
;	-8.40465
行	-8.40523
安くて	-8.40624
すぎ	-8.40675
よりも	-8.40749
喜んで	-8.40807
買う	-8.40932
持ち	-8.41092
食	-8.41251
生地が	-8.41331
使用して	-8.41513
パン	-8.41835
落ち	-8.4212
ネ	-8.42407
e	-8.42438
花	-8.42533
履き	-8.42787
にして	-8.42923
B	-8.42939
とにかく	-8.43222
になり	-8.43223
通	-8.43254
そ	-8.43306
ぐ	-8.43311
収納	-8.43363
i	-8.43749
好み	-8.43801
充電	-8.44131
正直	-8.44167
まず	-8.442
にくい	-8.44222
♪\	-8.44286
的に	-8.4436
実	-8.44487
送料無料	-8.4457
C	-8.44621
内容	-8.44707
できない	-8.44853
状態	-8.44858
を見て	-8.45088
商品を	-8.45236
いない	-8.45329
ベージュ	-8.45542
くる	-8.45542
なり	-8.45704
スト	-8.45732
本体	-8.46088
24	-8.46125
これで	-8.46463
ゴム	-8.46593
!!"	-8.46597
最悪	-8.4685
セ	-8.46856
電話	-8.46946
気に	-8.4708
長	-8.47275
仕方ない	-8.47297
着用	-8.47366
前回	-8.4764
合	-8.47809
れて	-8.47905
サイズは	-8.47988
お店	-8.48066
ダメ	-8.4814
つき	-8.48157
楽	-8.48215
母	-8.48289
服	-8.48348
思い	-8.48427
可愛いです	-8.48509
げ	-8.48755
されて	-8.48869
ブルー	-8.48886
ものが	-8.49056
汚れ	-8.49065
雑	-8.49753
製品	-8.49796
違い	-8.50062
していて	-8.50218
んだ	-8.50469
簡単に	-8.50533
ながら	-8.50542
一つ	-8.50624
かったです	-8.50641
ときに	-8.50752
。。。	-8.51213
種類	-8.51273
必要	-8.51293
好き	-8.51393
半	-8.51419
ありません	-8.51498
たり	-8.51592
説明書	-8.5163
考え	-8.51658
ポ	-8.51768
たくさん	-8.51849
11	-8.51925
ポイント	-8.52021
普通	-8.52116
為	-8.52199
子供	-8.5266
問い合わせ	-8.52719
感じです	-8.5273
大丈夫	-8.52892
飲み	-8.53119
着て	-8.53143
つけ	-8.53251
D	-8.5336
ではない	-8.53458
風	-8.53474
しまった	-8.53477
きて	-8.53525
ひ	-8.53995
心配	-8.54021
直	-8.5431
香り	-8.5434
らない	-8.54669
のもの	-8.547
不良品	-8.54759
れる	-8.5477
注文して	-8.55098
まり	-8.55392
用の	-8.55487
臭	-8.55551
23	-8.55704
があります	-8.55919
かわいいです	-8.56115
そして	-8.56131
!!","	-8.56322
O	-8.56672
ている	-8.56714
ようで	-8.56761
ベ	-8.56909
イン	-8.56936
同	-8.57229
肉	-8.57285
バッグ	-8.57435
ック	-8.5757
でしょうか	-8.57596
s	-8.57598
ゴ	-8.57615
べ	-8.57752
肌	-8.57756
つけて	-8.58106
なんて	-8.58114
してます	-8.58266
身	-8.58329
やすく	-8.58554
使っています	-8.58571
ポケット	-8.58601
自分の	-8.58616
予定	-8.58625
猫	-8.58756
のかな	-8.58865
髪	-8.58906
しまう	-8.59347
おり	-8.59416
とも	-8.59515
のでしょうか	-8.59696
仕事	-8.59802
使いやすい	-8.59816
注文した	-8.59862
やっと	-8.59918
ハ	-8.59998
長く	-8.60006
P	-8.60079
デザインも	-8.60081
を購入しましたが	-8.60261
式	-8.60464
冬	-8.60473
としては	-8.6054
十分	-8.60802
不安	-8.60928
助かります	-8.61027
とき	-8.61137
イメージ	-8.61287
かと	-8.6135
別	-8.61413
夏	-8.61426
いたら	-8.61513
部	-8.61595
13	-8.616
三	-8.61652
ター	-8.6171
高	-8.62088
♪	-8.62132
じゃない	-8.6225
ふ	-8.62278
ベルト	-8.62319
みたいです	-8.62561
...。	-8.62624
悪い	-8.62706
いますが	-8.62841
ぼ	-8.62897
なぁ	-8.62975
てしまいました	-8.63123
ピ	-8.63297
♪","	-8.63437
ものを	-8.63451
こんなに	-8.63615
商品です	-8.63893
かけ	-8.63967
替え	-8.64027
がっかり	-8.64218
入	-8.6442
キロ	-8.64481
なかったです	-8.6482
値段相応	-8.64827
きた	-8.64883
肩	-8.64904
注文しました	-8.65132
結果	-8.65203
身長	-8.6542
14	-8.65626
裏	-8.657
のある	-8.65715
感が	-8.65906
ぎ	-8.65938
無い	-8.65943
ブラウン	-8.66072
持って	-8.66166
ホワイト	-8.66183
バー	-8.66243
時は	-8.66297
きちんと	-8.66335
欲しい	-8.66399
こちらで	-8.66402
確かに	-8.66526
ピッタリ	-8.66693
再	-8.6704
説明	-8.67113
最	-8.67206
嬉しいです	-8.67226
ほとんど	-8.67313
布団	-8.67392
金	-8.67545
された	-8.67581
ワ	-8.67685
みたら	-8.67747
もあり	-8.67779
色々	-8.67792
無	-8.67882
書	-8.67903
中に	-8.68228
他	-8.68289
入る	-8.68541
注意	-8.68594
若干	-8.68731
ウエスト	-8.69027
家族	-8.69085
布	-8.69175
買い物	-8.69197
があって	-8.69202
ッと	-8.69425
kg	-8.69498
書いて	-8.69508
しまって	-8.69607
かもしれません	-8.69641
16	-8.69664
使えない	-8.69759
息子	-8.69811
ことが	-8.69937
できました	-8.70116
への	-8.70193
ています	-8.70276
だけど	-8.70378
】\	-8.70491
っぽい	-8.70509
頭	-8.70606
ノ	-8.70718
カード	-8.70782
&	-8.70911
したい	-8.70912
うーん	-8.70923
のため	-8.71162
G	-8.71293
軽い	-8.71348
板	-8.71499
重	-8.7152
早い	-8.71532
新	-8.71868
しまいます	-8.71965
がありました	-8.72077
子供の	-8.72153
カー	-8.72251
方は	-8.72266
。(	-8.72411
軽くて	-8.72634
・・・"	-8.72704
首	-8.72743
石	-8.72763
しい	-8.72859
グリーン	-8.72888
在庫	-8.72921
長い	-8.72963
顔	-8.73101
元	-8.73155
穴	-8.73217
包装	-8.73239
夜	-8.73307
良いと思います	-8.73331
m	-8.73476
別の	-8.73514
気分	-8.73561
できません	-8.73577
何か	-8.73966
この商品	-8.74039
ボタン	-8.74184
残念ながら	-8.74343
小さめ	-8.74344
ありました	-8.7445
手に	-8.74584
みたい	-8.74674
ライト	-8.74707
まって	-8.74737
朝	-8.748
びっくり	-8.74948
間に	-8.74961
気に入っています	-8.74996
I	-8.7506
25	-8.75166
部分	-8.75281
お値段	-8.75347
飲んで	-8.75379
購入する	-8.75414
ネット	-8.75507
上げ	-8.75558
と言う	-8.756
厚み	-8.75617
安っぽい	-8.75675
していた	-8.75732
色合い	-8.75805
t	-8.75905
試	-8.75991
中の	-8.76244
ばかり	-8.76251
まったく	-8.76252
便利です	-8.76296
購入してみました	-8.76358
すぎる	-8.76426
使いやすいです	-8.76455
大きめ	-8.76527
出来	-8.76642
見た目	-8.76676
寝	-8.76694
あります	-8.76695
重い	-8.76738
みたいな	-8.76878
w	-8.76902
▁́	-8.76951
おいしい	-8.77085
かなぁ	-8.77103
シャ	-8.7718
付	-8.77244
美味しく	-8.77305
タオル	-8.77376
化	-8.77414
割	-8.77415
効果は	-8.77428
が悪い	-8.77472
角	-8.77561
らず	-8.77627
安いので	-8.77725
表示	-8.7788
ヒ	-8.7788
~	-8.77888
普通に	-8.77899
ほ	-8.77929
小さく	-8.77966
ロー	-8.77988
期待して	-8.78006
機能	-8.78092
サイズも	-8.781
バック	-8.78265
、1	-8.7834
安心して	-8.78403
残念な	-8.78457
販売	-8.78645
切り	-8.7868
洗い	-8.78681
ネットで	-8.78802
失敗	-8.78902
わからない	-8.7893
出来る	-8.78989
入って	-8.79021
ないし	-8.7903
感じで	-8.79065
作	-8.79071
ギ	-8.79091
いたのですが	-8.79117
粉	-8.79152
できます	-8.7919
弱	-8.79407
なければ	-8.79425
サイズで	-8.79538
何度も	-8.79677
気がします	-8.79902
欲しかった	-8.79927
だろう	-8.79989
いいと思います	-8.80069
味は	-8.80092
きます	-8.80107
部屋	-8.80147
紐	-8.80248
がない	-8.80256
っている	-8.80546
はありません	-8.80597
過ぎ	-8.80649
メーカー	-8.80693
面倒	-8.80724
最近	-8.80728
せて	-8.80817
マット	-8.80884
端	-8.80901
即	-8.80905
家	-8.8098
粒	-8.81039
g	-8.81089
パー	-8.81236
けれど	-8.81243
なくなりました	-8.81345
安かったので	-8.81369
物を	-8.81429
購入したのですが	-8.81491
があるので	-8.81499
短い	-8.81572
装着	-8.81779
パンツ	-8.81881
ぴったり	-8.82137
問題なく	-8.82152
使用する	-8.82271
の部分が	-8.82278
希望	-8.82278
ソ	-8.82306
受け	-8.82331
すれば	-8.82332
可愛くて	-8.82479
られる	-8.82541
のみ	-8.8256
商品も	-8.8269
調整	-8.82871
解	-8.82926
場	-8.83011
ペ	-8.83069
袖	-8.83089
色の	-8.83205
凄く	-8.83233
デザインが	-8.8326
いません	-8.83318
自分	-8.83506
なりました	-8.83555
ール	-8.83696
娘	-8.83698
程度	-8.83994
思っていたより	-8.84184
いく	-8.84192
だけに	-8.84211
50	-8.84263
ること	-8.84271
好きな	-8.8438
引き	-8.84391
したところ	-8.84411
者	-8.84453
かと思います	-8.84555
光	-8.84562
部分の	-8.84659
周り	-8.8475
届き	-8.84757
リング	-8.84971
のお	-8.85075
_	-8.85116
底	-8.85127
匂い	-8.85511
ても	-8.85525
込み	-8.85535
じゃ	-8.85668
なん	-8.85806
子供が	-8.86118
取	-8.8621
がなく	-8.8633
書き	-8.86602
られて	-8.86615
ラッピング	-8.86716
生地は	-8.86831
され	-8.86928
発	-8.86957
みます	-8.87
子ども	-8.87046
ということで	-8.8705
味が	-8.87277
意味	-8.87316
感じました	-8.87317
と思っています	-8.87586
掛け	-8.87635
しばらく	-8.87717
耐久性	-8.87718
合う	-8.87746
無し	-8.87848
ひとつ	-8.87908
お試し	-8.87916
(^	-8.87932
できて	-8.87942
合わない	-8.87951
大満足	-8.88101
シール	-8.88114
主人	-8.88183
まぁ	-8.88388
を入れて	-8.88407
のように	-8.88438
の商品	-8.88736
歳	-8.88762
一緒に	-8.8879
ありませんでした	-8.88813
側	-8.88837
キー	-8.88853
されている	-8.88885
空	-8.88945
系	-8.88947
様	-8.8902
値段が	-8.89154
ありがとうございます	-8.8917
そうな	-8.89402
購入し	-8.89416
をして	-8.89484
線	-8.89561
微妙	-8.89628
茶	-8.89723
いないので	-8.89735
になった	-8.89753
外れ	-8.89794
合わせ	-8.89817
気が	-8.89963
品物	-8.90019
記載	-8.9026
で購入しました	-8.90292
送って	-8.90554
送	-8.90624
ブラ	-8.90646
いつ	-8.90653
丸	-8.90663
段	-8.90716
気になる	-8.90732
を使って	-8.90744
物が	-8.9083
楽しみです	-8.90961
ついて	-8.91036
父	-8.9107
なんか	-8.91088
と同じ	-8.91097
この値段	-8.91151
るのが	-8.91179
長さ	-8.91199
心	-8.91286
の方	-8.91409
追記	-8.91492
指定	-8.91505
付けて	-8.91558
見た目は	-8.91619
R	-8.91648
『	-8.91798
悪く	-8.91831
油	-8.91842
』	-8.91924
みましたが	-8.91963
次	-8.91969
話	-8.91983
ラン	-8.91987
150	-8.92042
着る	-8.92088
取れ	-8.9234
りました	-8.92463
多少	-8.92512
木	-8.92559
ざ	-8.92561
500	-8.9262
オレンジ	-8.92658
めて	-8.92986
皮	-8.93063
こう	-8.93065
商品でした	-8.93172
したいと思います	-8.93182
最高	-8.93195
時の	-8.93205
される	-8.93354
メール便	-8.93399
匂いが	-8.93463
こちらは	-8.93485
細	-8.93513
H	-8.93523
楽しみ	-8.9363
はとても	-8.93646
私が	-8.93649
気に入ってます	-8.93651
色で	-8.93746
旅行	-8.93764
なのですが	-8.93836
いまいち	-8.93838
不満	-8.93853
器	-8.93856
使った	-8.93878
止め	-8.93979
座	-8.94005
そこ	-8.94062
サイズを	-8.94077
いろいろ	-8.94078
80	-8.94142
状態で	-8.94271
お得	-8.94457
で購入	-8.94465
場所	-8.94477
お願い	-8.94573
これを	-8.94586
クリーム	-8.94618
実際に	-8.94838
大きな	-8.94919
無く	-8.94923
香	-8.95009
幅	-8.9504
足の	-8.95168
速	-8.95232
カット	-8.95354
見た	-8.95437
音が	-8.95447
革	-8.95522
レビューを	-8.95545
塩	-8.95549
やすいです	-8.95753
美味しいです	-8.95755
つく	-8.95793
要	-8.95818
急	-8.95836
と言って	-8.95849
変え	-8.95868
ちゃ	-8.95887
多	-8.95898
会	-8.96113
つか	-8.96337
出て	-8.96393
固定	-8.96407
金額	-8.96439
が少し	-8.96619
電池	-8.96636
製	-8.96646
楽天	-8.9665
用に購入	-8.9677
単	-8.96789
質感	-8.96829
全て	-8.96923
安心	-8.973
電	-8.97344
写真と	-8.97434
素	-8.97546
汗	-8.9756
しっかりしていて	-8.9756
約	-8.97702
頃	-8.97712
全部	-8.97805
なります	-8.9784
×	-8.97989
後に	-8.98013
ヤ	-8.98068
ことを	-8.98076
青	-8.98085
引っ	-8.98174
印象	-8.98543
腰	-8.98547
を探していました	-8.98715
ものは	-8.98849
綺麗に	-8.9885
全	-8.98892
コン	-8.98896
来	-8.98987
なった	-8.99027
値段も	-8.99055
はず	-8.99161
機	-8.99248
がとても	-8.99248
が多い	-8.9932
見え	-8.99347
ませんが	-8.99679
大人	-8.99775
無理	-8.99874
糸	-8.99928
字	-8.99946
差	-9.00006
26	-9.00174
悪	-9.00192
沢山	-9.00243
シート	-9.00268
納得	-9.00295
試して	-9.00408
変更	-9.00439
倍	-9.00448
ート	-9.00567
とりあえず	-9.00644
名前	-9.00669
と一緒に	-9.00687
苦	-9.00692
とのこと	-9.00739
ところが	-9.0078
シャツ	-9.00827
ホ	-9.0092
熱	-9.00939
タン	-9.00985
届く	-9.01023
抜け	-9.0109
・・・。	-9.01094
初	-9.01137
るし	-9.01258
ずに	-9.01293
すごい	-9.01466
結婚式	-9.01752
したので	-9.01786
ください	-9.01912
アップ	-9.0207
遅い	-9.02209
足が	-9.02305
伸び	-9.02449
有り	-9.02661
おまけ	-9.02703
お店で	-9.02717
薄く	-9.02988
高く	-9.03252
に入れて	-9.03266
N	-9.03337
女性	-9.03411
高さ	-9.03432
お買い得	-9.03734
18	-9.03831
うちに	-9.03903
有	-9.0396
今後	-9.04072
ありましたが	-9.04085
あって	-9.04122
くれる	-9.04244
しっかりした	-9.04291
横	-9.04293
知	-9.04353
みました	-9.044
ということ	-9.04425
半分	-9.04454
かかる	-9.04523
せる	-9.04566
40	-9.04568
せず	-9.04598
ビックリ	-9.04616
買いましたが	-9.04648
22	-9.0469
W	-9.04909
も良く	-9.04961
シンプルで	-9.04962
濃い	-9.05028
使え	-9.05035
画面	-9.0505
☆"	-9.05067
ネイビー	-9.05106
すること	-9.05115
番	-9.05147
余裕	-9.05254
イマイチ	-9.05287
付いて	-9.05299
と思った	-9.05388
位置	-9.0539
ちゃん	-9.05441
○	-9.05459
さんの	-9.05795
もある	-9.05818
薄	-9.05825
ライ	-9.05826
いです	-9.05832
17	-9.05939
安	-9.05939
配達	-9.05956
ディ	-9.05978
ります	-9.06056
実際	-9.06067
したのですが	-9.06085
。。。"	-9.06149
するので	-9.06153
ボリューム	-9.06197
ではありません	-9.0622
そんなに	-9.06241
ったら	-9.06278
値	-9.06352
表	-9.06423
難しい	-9.06459
使います	-9.06522
ちょうど	-9.06531
的な	-9.06537
l	-9.06661
冷	-9.06759
いいですね	-9.06786
白い	-9.06945
味も	-9.07028
素敵な	-9.07178
d	-9.07206
だったら	-9.07244
がっかりです	-9.07393
学	-9.07493
臭いが	-9.07537
わかりません	-9.07741
かもしれませんが	-9.07742
気に入った	-9.07771
が入って	-9.07913
張り	-9.08077
があれば	-9.08162
もらえ	-9.08181
試しに	-9.08225
やや	-9.08242
乾燥	-9.08283
違いました	-9.08283
さらに	-9.08307
はない	-9.0834
食べる	-9.08354
K	-9.0839
目の	-9.08449
感じます	-9.08467
そうで	-9.08494
届くの	-9.08598
開けて	-9.08598
難	-9.08673
ほぼ	-9.08725
ひどい	-9.08782
大きさも	-9.08874
していました	-9.08894
立	-9.08977
犬	-9.09
おすすめ	-9.09088
見える	-9.09237
産	-9.09282
の中で	-9.09504
が悪く	-9.0954
サイズの	-9.09968
19	-9.10013
温	-9.1008
他の方のレビュー	-9.10081
について	-9.10088
オススメ	-9.10133
レース	-9.10186
スマホ	-9.10222
自体	-9.10278
心地	-9.10364
]	-9.10375
大きくて	-9.10411
のために	-9.10475
今日	-9.10496
−	-9.10548
☆\	-9.10552
があった	-9.10586
コー	-9.10653
返	-9.10658
美味しかったです	-9.10673
ゴールド	-9.10744
のほうが	-9.10746
生地も	-9.1075
方には	-9.10827
ガッカリ	-9.10894
もちろん	-9.10992
たいです	-9.10999
mm	-9.1114
を探して	-9.11286
入れて	-9.1152
c	-9.11641
チャ	-9.11723
全体的に	-9.11799
掃除	-9.11838
文字	-9.12052
うまく	-9.122
腕	-9.12211
時期	-9.12278
どんな	-9.12286
せい	-9.12453
まあ	-9.12505
タイプの	-9.12682
U	-9.12691
出来ない	-9.12741
出して	-9.12927
豆	-9.12949
ちょうどいい	-9.13017
出来て	-9.13078
読んで	-9.13083
オイル	-9.13207
荷物	-9.13299
使えません	-9.13319
トイレ	-9.13338
もよく	-9.13394
させて	-9.13396
というか	-9.13398
計	-9.13477
60	-9.13582
土	-9.1363
友人	-9.13757
・・・・	-9.13857
残り	-9.13894
☆","	-9.13961
財布	-9.14053
まる	-9.14147
物は	-9.14234
穴が	-9.14284
設置	-9.14523
当	-9.1453
ゆ	-9.14665
売って	-9.14715
っぱ	-9.14739
まま	-9.14782
強	-9.14787
嫌	-9.14844
手間	-9.14897
棚	-9.14952
なお	-9.14954
[	-9.14968
的には	-9.1507
比べ	-9.15115
目に	-9.15133
綺麗な	-9.15225
感じでした	-9.15233
靴下	-9.15263
いただきました	-9.15276
時間が	-9.15431
減	-9.15442
28	-9.15507
待ち	-9.1553
自体は	-9.15608
使用しています	-9.15617
合い	-9.15634
効果が	-9.15667
しまったので	-9.15673
小さくて	-9.15735
と思いましたが	-9.15752
良かったのですが	-9.15828
箇所	-9.1587
u	-9.16035
しっとり	-9.16255
でき	-9.16256
あたり	-9.16298
の物	-9.16384
たち	-9.1639
ほうが	-9.16501
後ろ	-9.16502
ティ	-9.16598
少々	-9.16618
商品自体は	-9.16685
最悪です	-9.16752
わり	-9.16772
買わない	-9.16782
脚	-9.16925
焼き	-9.16979
表面	-9.16991
ろう	-9.16997
最低	-9.17044
かけて	-9.17094
ペン	-9.17107
どこ	-9.17136
携帯	-9.1724
おしゃれ	-9.17315
使ってます	-9.17428
圧	-9.17494
体重	-9.17639
クッション	-9.17669
作業	-9.1771
していましたが	-9.17774
丁度	-9.17872
茶色	-9.1797
しっかりして	-9.18103
絶対	-9.18158
その後	-9.1818
真	-9.18299
会社	-9.18433
可愛く	-9.18496
丈	-9.18522
が出	-9.18524
テープ	-9.18654
いい感じです	-9.18681
スカート	-9.18719
肌に	-9.18719
脱	-9.18745
27	-9.18976
いい感じ	-9.18986
が出て	-9.19002
あるので	-9.1909
早	-9.19153
ゲ	-9.19191
使っている	-9.19265
履く	-9.19279
いいのですが	-9.19291
きつい	-9.19315
にくく	-9.19378
現在	-9.19415
探して	-9.19428
えて	-9.19528
ブーツ	-9.19583
してから	-9.19618
ネジ	-9.19676
続けて	-9.19689
キャ	-9.19773
パック	-9.19787
香りが	-9.19812
との事	-9.19839
09	-9.1986
使えます	-9.19883
届かない	-9.19902
かない	-9.19944
正	-9.2005
1000	-9.20055
へのプレゼント	-9.2015
疲れ	-9.20205
痛い	-9.20269
目が	-9.20313
うちの	-9.20344
h	-9.20384
を入れる	-9.20519
くなって	-9.20566
前の	-9.20603
プラスチック	-9.2061
良かったので	-9.20703
娘の	-9.20711
たいと思います	-9.20715
迅速	-9.20725
ミス	-9.20762
リン	-9.20768
00	-9.20779
向き	-9.2086
その他	-9.20879
今は	-9.20933
部分に	-9.20937
リボン	-9.20953
コーヒー	-9.2098
使い方	-9.21054
押し	-9.21104
、「	-9.21112
うち	-9.21158
読み	-9.2122
出し	-9.21259
痛	-9.21405
違って	-9.21405
おります	-9.21423
*	-9.21483
がついて	-9.21595
いただけ	-9.21596
動	-9.21618
調	-9.21628
固	-9.21642
体型	-9.21762
明るい	-9.21802
割れ	-9.21819
上に	-9.21883
きれいに	-9.21969
お腹	-9.22069
が一番	-9.22087
これなら	-9.22172
か月	-9.22351
食べた	-9.2238
おすすめです	-9.22402
耳	-9.22459
結	-9.22483
140	-9.22489
ゴミ	-9.22514
ならない	-9.22531
号	-9.22641
ロン	-9.22643
方法	-9.22672
レベル	-9.22684
運	-9.22702
思	-9.22734
歯	-9.22736
の購入	-9.22804
ときは	-9.22805
いませんが	-9.22847
は無い	-9.22853
多い	-9.22868
テレビ	-9.22871
してる	-9.22883
るのに	-9.22932
カップ	-9.22961
0	-9.23071
分かり	-9.23084
安っぽく	-9.23103
安かった	-9.23111
安いし	-9.23349
開封	-9.23494
過ぎて	-9.23572
裾	-9.23659
チェック	-9.23661
巻	-9.23673
部分は	-9.23717
が届きました	-9.23764
ペラペラ	-9.23797
すっきり	-9.23846
が必要	-9.2387
新しい	-9.23873
際	-9.23926
近く	-9.2401
名	-9.24148
待って	-9.24185
X	-9.24218
くれて	-9.24218
購入です	-9.24299
違います	-9.24328
ショップで	-9.2434
引	-9.24369
一枚	-9.24384
差し	-9.24393
人は	-9.24433
屋	-9.24446
ワン	-9.24453
葉	-9.24537
黄色	-9.24632
を買いました	-9.24679
定	-9.24706
旦那	-9.24737
ちなみに	-9.2494
ファスナー	-9.24977
早くて	-9.24985
そんな	-9.24992
得	-9.24994
小さな	-9.2514
テーブル	-9.25162
上がり	-9.25203
な感じ	-9.25213
フード	-9.25237
お安く	-9.25247
印	-9.25347
料	-9.25388
おいしく	-9.25432
せっかく	-9.25433
21	-9.25497
p	-9.2556
ライン	-9.25573
考えて	-9.25606
和	-9.25648
ものの	-9.25703
が付いて	-9.25773
検品	-9.25793
仕上がり	-9.25831
人には	-9.25834
最初は	-9.25906
透け	-9.25969
切	-9.26126
色違い	-9.26188
間違い	-9.26218
細い	-9.26241
くらいの	-9.26253
^	-9.26262
あれば	-9.26291
たっぷり	-9.26352
動き	-9.2638
この商品は	-9.2639
何も	-9.26393
入荷	-9.2645
+	-9.26462
わけ	-9.26533
写真の	-9.26583
似	-9.26749
再度	-9.26944
爪	-9.26982
このお値段	-9.27006
ヨ	-9.27007
ップ	-9.27029
置き	-9.27052
かもしれない	-9.27278
の問題	-9.27312
違和感	-9.27348
見た目も	-9.27358
さが	-9.27469
床	-9.27487
やって	-9.2755
ピン	-9.27607
問題ない	-9.2761
ーン	-9.27641
全体	-9.27655
るのは	-9.27702
ことは	-9.27794
みた	-9.2781
てしまいます	-9.27948
安さ	-9.27977
柔らかい	-9.27981
初めての	-9.28015
しく	-9.28071
バランス	-9.28102
したいです	-9.28127
以下	-9.28233
お勧め	-9.283
流	-9.28313
頼んだ	-9.28336
と言われ	-9.28362
シワ	-9.28367
ガラス	-9.28382
。。。","	-9.28386
折り	-9.28401
確	-9.2842
あげ	-9.28468
??	-9.286
どの	-9.28635
飛び	-9.28717
てしまう	-9.28755
軽	-9.28782
っています	-9.288
セール	-9.2884
両	-9.28864
頼	-9.28894
こういう	-9.28913
のかもしれませんが	-9.28967
軽く	-9.2903
ッシュ	-9.29178
合って	-9.2923
いっぱい	-9.29272
対応が	-9.29276
大きすぎ	-9.29281
嬉しい	-9.29342
丁寧に	-9.29343
均	-9.29425
シュ	-9.29499
かったので	-9.2951
様に	-9.29777
今度は	-9.29863
に購入しました	-9.29865
翌日	-9.29923
迅速な対応	-9.3004
ラー	-9.30167
たのですが	-9.3029
来た	-9.303
雨	-9.3033
匹	-9.3034
配	-9.30354
回目	-9.30374
なんだか	-9.3041
剤	-9.3047
ほしい	-9.30471
コンパクト	-9.30499
込んで	-9.30517
大好きな	-9.30546
ザ	-9.3055
店舗	-9.30847
オー	-9.30908
......	-9.31044
..	-9.31053
甘い	-9.31061
ぬ	-9.31084
しまうので	-9.31203
ですよ	-9.3131
円で	-9.31313
お花	-9.31331
開	-9.31397
時計	-9.31415
ケーキ	-9.3144
ヘ	-9.31446
の部分	-9.31537
お気に入り	-9.31551
薬	-9.31558
きれいな	-9.31579
F	-9.31579
オススメです	-9.31596
綿	-9.31646
が良く	-9.31696
と思いますが	-9.31703
思います	-9.31763
サー	-9.31808
方の	-9.3182
調節	-9.31847
してしまいました	-9.31855
蓋	-9.31859
レビューを見て	-9.31914
慣れ	-9.31928
せいか	-9.31969
でしたので	-9.31999
干し	-9.32027
ていました	-9.32103
後の	-9.32241
場合	-9.32253
フィット	-9.32373
対応も	-9.32449
際に	-9.32465
こちらを	-9.325
枕	-9.32542
90	-9.32654
がよく	-9.32785
買ってみました	-9.32786
あったので	-9.32812
ゆったり	-9.32839
曲	-9.32849
っぽく	-9.32983
OK	-9.32995
遠	-9.32996
私も	-9.33138
れた	-9.33153
この価格	-9.33164
ピー	-9.3326
けて	-9.3332
春	-9.33359
ったり	-9.33376
スッキリ	-9.33387
いたり	-9.33501
緑	-9.33555
毛玉	-9.33575
ビニール	-9.33629
表記	-9.33672
実物	-9.33692
ぽ	-9.33716
追加	-9.3374
くれ	-9.3378
つける	-9.3382
シャンプー	-9.33829
思った	-9.33858
それでも	-9.33867
たって	-9.33869
として購入しました	-9.3403
毎回	-9.34043
工	-9.34059
張	-9.34131
ならず	-9.34176
頂きました	-9.34185
→	-9.34298
???	-9.34412
プレゼントに	-9.34449
を見	-9.34451
だったのですが	-9.34471
の色	-9.34493
綺麗	-9.34528
シー	-9.34584
記	-9.34616
部品	-9.34691
ベッド	-9.34697
なんとか	-9.34757
らしい	-9.34805
成	-9.34826
れない	-9.3489
っち	-9.34899
反応	-9.34991
来て	-9.3505
らしく	-9.35099
一回	-9.35134
黒い	-9.35148
感想	-9.3518
使えて	-9.35192
られない	-9.35368
着心地	-9.35374
低	-9.35395
違った	-9.35421
マイナス	-9.35531
訳	-9.35573
具	-9.35591
注文してから	-9.35639
下の	-9.35644
売り切れ	-9.3573
硬い	-9.35821
ずれ	-9.35825
雰囲気	-9.35838
壊れて	-9.35854
レッド	-9.35892
これが	-9.35924
辛	-9.35979
リピートです	-9.36047
この値段で	-9.36115
消	-9.36202
レンズ	-9.36223
してみました	-9.36227
平	-9.36267
当たり	-9.3628
ために	-9.36346
消え	-9.36423
使用した	-9.36455
予定です	-9.36537
重さ	-9.3658
透明	-9.36581
は全く	-9.36653
明	-9.36666
コスパ	-9.36708
素敵	-9.36715
がっかりしました	-9.36743
連	-9.36755
なの	-9.36822
深	-9.36973
飲む	-9.36981
正解でした	-9.36997
自分用に	-9.37005
一週間	-9.37134
扱い	-9.37155
縫い	-9.37187
は少し	-9.372
予約	-9.37285
もらい	-9.37372
丈が	-9.37442
の大きさ	-9.37493
少ない	-9.37546
もない	-9.37582
二度と	-9.37684
対策	-9.37693
合わなかった	-9.37722
ほしかった	-9.37741
類	-9.37835
料理	-9.37858
割れて	-9.37864
お尻	-9.37901
交換して	-9.37988
折れ	-9.37988
前から	-9.37999
薄くて	-9.38049
効	-9.38164
わかりませんが	-9.38179
キャンセル	-9.38198
簡単	-9.38227
120	-9.38259
すべて	-9.38349
後悔	-9.38428
普段は	-9.38452
アン	-9.38461
を選びました	-9.38486
自	-9.38488
注文しましたが	-9.38494
驚きました	-9.38601
良いのですが	-9.38622
と思い購入しました	-9.38648
思いました	-9.38673
出す	-9.38734
緩	-9.3894
ものでした	-9.38971
モノ	-9.38991
プラ	-9.39039
70	-9.39102
変	-9.39146
形が	-9.3932
片	-9.39327
ナー	-9.39339
試着	-9.39367
玄関	-9.3939
落ちて	-9.39463
国	-9.39591
置いて	-9.3965
腹	-9.3967
てしまい	-9.39692
がありません	-9.39751
かわいくて	-9.39753
言う	-9.39765
傷が	-9.39855
漏れ	-9.39875
あまりにも	-9.39922
最高です	-9.39951
左右	-9.40019
待	-9.40034
の方は	-9.40046
が多く	-9.40063
通常	-9.40064
店で	-9.40079
自転車	-9.40122
米	-9.40155
加工	-9.40298
づらい	-9.40304
ショック	-9.40316
履いた	-9.40411
を買って	-9.40433
こちらの商品	-9.40447
^^;	-9.40475
出来ました	-9.40486
糸が	-9.40487
ストラップ	-9.40513
行き	-9.40543
29	-9.40556
メールで	-9.40615
ザー	-9.40627
お世話	-9.40631
二つ	-9.40651
k	-9.40652
ちょ	-9.40678
ング	-9.40736
上の	-9.40877
びっくりしました	-9.40893
ことに	-9.409
背	-9.40914
キッチン	-9.40917
ですし	-9.40961
買え	-9.41038
イス	-9.41059
高級感	-9.41062
ハズレ	-9.41064
剥	-9.41081
明るく	-9.41191
感じられ	-9.41249
になってしまいました	-9.41364
しないと	-9.4137
無料	-9.41442
我が家の	-9.415
感謝	-9.41522
かかと	-9.41575
を購入して	-9.41657
無駄	-9.41663
ないように	-9.41744
達	-9.41988
だめ	-9.41989
入らない	-9.41995
液	-9.42006
やり	-9.42063
りません	-9.42066
お茶	-9.42123
作って	-9.42157
にしましたが	-9.42255
みたいで	-9.42274
柔らかく	-9.42338
本日	-9.42454
新品	-9.42475
るように	-9.42546
の為	-9.42605
使い勝手が	-9.42739
注文番号	-9.42755
とても気に入りました	-9.42883
クロ	-9.42905
日本	-9.42967
が無い	-9.43002
購入したので	-9.4304
実感	-9.43041
断	-9.43056
られた	-9.43076
ちょうど良い	-9.43165
現	-9.43178
近	-9.43204
こちら	-9.43215
シルバー	-9.43238
って感じ	-9.43241
迷いましたが	-9.43318
玉	-9.43323
洗って	-9.43372
何度か	-9.43441
られ	-9.43521
期	-9.43597
返信	-9.43604
決めました	-9.43653
ステ	-9.43705
などの	-9.43731
立ち	-9.43827
中身	-9.43859
メールが	-9.43869
送り	-9.43884
膝	-9.43886
具合	-9.43942
気になって	-9.44016
`)	-9.4411
はかなり	-9.44149
ドレス	-9.4415
できるので	-9.44153
いただき	-9.44171
何より	-9.44175
なくても	-9.44187
肌触り	-9.44198
オシャレ	-9.44207
チェーン	-9.4421
感じが	-9.44242
になっている	-9.44249
厚	-9.44262
LL	-9.44264
足り	-9.44279
ここ	-9.44288
がいい	-9.4429
超	-9.44312
ほつれ	-9.44388
妻	-9.44451
なくなり	-9.4446
というより	-9.44539
鼻	-9.44608
火	-9.44616
の中	-9.44631
130	-9.44699
防	-9.447
泣	-9.44701
親	-9.44712
色味	-9.44732
商品に	-9.44732
今年	-9.44759
しゃ	-9.44781
探し	-9.44789
いると	-9.44826
日で	-9.44832
捨て	-9.44887
合いませんでした	-9.44996
短	-9.45119
日の	-9.45141
入っていて	-9.45178
皆さん	-9.45192
お気に入りです	-9.45293
汚れが	-9.45372
とても良い	-9.45381
格	-9.45388
保	-9.45397
注文から	-9.45433
季節	-9.45624
変化	-9.45693
ともに	-9.45772
いませんでした	-9.4578
生地の	-9.45806
壊れ	-9.45905
れません	-9.46047
コレ	-9.46075
幅が	-9.46134
はあまり	-9.46134
が違う	-9.46169
始め	-9.46236
素敵です	-9.46267
楽しみにして	-9.46372
材	-9.46481
絵	-9.46513
ものと	-9.46518
言い	-9.46559
しょうがない	-9.46579
残	-9.46619
持	-9.46719
ュ	-9.46819
羽	-9.46837
...。"	-9.46839
iPhone	-9.46858
短く	-9.46864
などは	-9.46881
バラ	-9.47033
ヒール	-9.47048
V	-9.4708
かかって	-9.47152
そうなので	-9.47166
セットで	-9.4721
なくなって	-9.47229
破れ	-9.47233
見えて	-9.47277
見えます	-9.47308
壊れました	-9.47361
改善	-9.4738
太	-9.47412
暖かい	-9.47449
しているので	-9.47478
したり	-9.47666
たくない	-9.47672
安いから	-9.47712
つです	-9.47747
シリーズ	-9.47858
母に	-9.47894
脂	-9.47914
カビ	-9.48013
暖かく	-9.48014
なかったのですが	-9.4802
色々な	-9.4805
があったので	-9.48088
なんで	-9.48125
できた	-9.48182
ハイ	-9.48224
右	-9.48316
立て	-9.48331
組立	-9.48348
細かい	-9.4839
の中に	-9.4842
と書いて	-9.48493
いても	-9.48503
予想	-9.48508
使わない	-9.4854
取れて	-9.48597
思っていた	-9.48651
それに	-9.48727
はじめて	-9.48747
が良い	-9.48809
子供に	-9.4888
っこ	-9.48939
キレイ	-9.48987
ワイン	-9.49031
実家	-9.49099
空気	-9.49228
対応は	-9.49301
損	-9.49334
返事	-9.49388
言って	-9.49394
止	-9.49504
左	-9.49553
歩き	-9.49642
キズ	-9.4968
いろんな	-9.49706
文	-9.4981
まあまあ	-9.49814
は初めて	-9.49834
に近い	-9.49923
いくら	-9.49933
干	-9.49989
ける	-9.50031
送料が	-9.50101
見る	-9.50147
みんな	-9.50183
野菜	-9.50207
目立つ	-9.50246
◎	-9.50248
価格も	-9.50305
くらいです	-9.50451
贈	-9.50451
すぎず	-9.50486
検討	-9.50547
問題なし	-9.50554
のメール	-9.50577
四	-9.50602
室	-9.50625
鍋	-9.50674
見えない	-9.50702
リピです	-9.50708
お風呂	-9.50712
とても残念です	-9.50719
翌日に	-9.50754
申し	-9.50788
縫製	-9.50794
y	-9.50815
おもちゃ	-9.50845
しようと	-9.50845
続け	-9.50855
触	-9.50878
大きかった	-9.50906
インナー	-9.50939
ファン	-9.5094
ウェ	-9.50949
ありますが	-9.50969
に行く	-9.50997
わかり	-9.51017
甲	-9.51023
純正	-9.51066
我が家	-9.51071
今回の	-9.51091
によって	-9.51099
売	-9.5114
強い	-9.51141
ナチュラル	-9.51147
探	-9.51168
縮	-9.51225
フル	-9.51238
落ち着いた	-9.51252
とおもいます	-9.51356
クラ	-9.51366
アイ	-9.51377
トップ	-9.51425
歳の	-9.51478
シンプル	-9.51659
好	-9.5168
備	-9.51689
使い心地	-9.51704
安定	-9.51765
可能	-9.51865
日目	-9.51871
邪魔	-9.51891
社	-9.51901
るか	-9.5191
転	-9.51985
感は	-9.52018
これからも	-9.52058
ッチ	-9.52183
があると	-9.5221
悩んで	-9.5222
んだけど	-9.52306
期間	-9.52321
加	-9.52335
乳	-9.52338
v	-9.52379
こんなもの	-9.52396
椅子	-9.5247
もいい	-9.52496
どうしても	-9.52497
ダイエット	-9.52502
薄手	-9.52503
という感じ	-9.52622
ないのですが	-9.52628
ピアス	-9.52631
観	-9.52675
よいです	-9.52786
なもの	-9.52848
ジャ	-9.52849
からの	-9.52977
甘	-9.53118
想像	-9.53167
山	-9.53188
履け	-9.53282
よかったので	-9.53321
満足してます	-9.53446
お値段も	-9.53466
ω	-9.53517
分からない	-9.53524
女	-9.53538
状	-9.53547
スター	-9.53551
をした	-9.53635
個人的には	-9.53641
嬉しかったです	-9.5365
開け	-9.53733
今のところ	-9.53753
ようと	-9.53755
こちらに	-9.53783
このまま	-9.53794
人に	-9.53799
贈り物	-9.538
75	-9.53839
の長さ	-9.53843
好きです	-9.53902
確認して	-9.53949
キラキラ	-9.5395
%	-9.53958
がないので	-9.53968
下に	-9.54069
ロック	-9.54144
次は	-9.54185
サイド	-9.54281
夫	-9.54297
はないです	-9.54352
胸	-9.54442
不足	-9.54532
色でした	-9.54613
もありません	-9.54627
なくなる	-9.54676
問題ありません	-9.54679
接続	-9.54729
(>_<)	-9.54735
を履いて	-9.54809
どれも	-9.54843
゚	-9.5492
輪	-9.54926
少	-9.55058
散	-9.55071
安物	-9.55154
バッテリー	-9.55171
LED	-9.55214
寒い	-9.55221
種	-9.55263
事が	-9.55354
あれ	-9.55362
ワンサイズ	-9.55418
できず	-9.55419
塗装	-9.55427
イイ	-9.55446
喜んでくれました	-9.55468
防止	-9.55468
と思っていましたが	-9.55547
ずつ	-9.55602
金具	-9.55647
楽しめ	-9.5572
旨	-9.55738
文句	-9.55828
聞	-9.55861
・・・。"	-9.55875
レビューに	-9.55919
買わ	-9.55941
サン	-9.55959
買い替え	-9.55976
帯	-9.56013
の連絡	-9.56026
しようか	-9.56048
にならない	-9.56056
いいかな	-9.56067
切って	-9.56169
回り	-9.56207
メーカーの	-9.56219
にある	-9.56224
点灯	-9.56232
タグ	-9.56318
引き出し	-9.56334
低い	-9.56377
下げ	-9.56395
畳	-9.56588
合わず	-9.566
中で	-9.5662
書かれて	-9.56687
たくて	-9.56688
と感じました	-9.56793
根	-9.56802
ボロボロ	-9.56822
おいて	-9.56855
届きません	-9.5687
買ったのですが	-9.56977
ですか	-9.56978
主	-9.57041
価格が	-9.57061
である	-9.57134
いいので	-9.57208
かかりました	-9.57222
履き心地	-9.57228
さっそく	-9.57238
b	-9.57247
ではないので	-9.57367
的	-9.57384
が欲しくて	-9.57484
んです	-9.57486
部屋に	-9.57592
送りました	-9.57605
キツ	-9.57651
古	-9.5775
壊れた	-9.57773
”	-9.57774
ミニ	-9.5783
丈夫	-9.57865
おく	-9.57907
を持って	-9.57912
更に	-9.57912
このお値段で	-9.57918
直し	-9.5797
ボール	-9.58005
とした	-9.58022
ご飯	-9.58024
コート	-9.58112
先に	-9.58127
コード	-9.58165
だが	-9.58181
られません	-9.58232
完全に	-9.58232
って感じです	-9.58379
レビューで	-9.58387
がかなり	-9.58427
不可	-9.58509
Y	-9.58527
長時間	-9.58528
早かったです	-9.58541
ストレッチ	-9.58585
だいぶ	-9.58607
まとめ買い	-9.58665
だと思いました	-9.58671
直接	-9.587
パッケージ	-9.58711
におい	-9.58854
直ぐに	-9.58869
写真より	-9.5887
ケーブル	-9.58887
吸	-9.58938
ショ	-9.58982
しながら	-9.58982
日本製	-9.59012
かっこいい	-9.59019
専用	-9.59047
シミ	-9.59107
ほかの	-9.5912
買って良かったです	-9.5914
発送が	-9.59168
良いので	-9.59169
スーパー	-9.59223
レー	-9.59226
電源	-9.59231
痛く	-9.59244
設定	-9.59258
どおり	-9.59277
と思ったら	-9.59347
丁寧で	-9.59406
にくいです	-9.59465
ありがたいです	-9.59497
はちょっと	-9.59518
迷って	-9.59534
となって	-9.59543
してくれ	-9.59616
使っていた	-9.59754
綺麗で	-9.59831
買ってよかったです	-9.59836
屋さん	-9.59859
塗り	-9.59873
聞いて	-9.5997
破損	-9.59972
サイト	-9.60002
逆に	-9.60005
しますが	-9.60034
23.5	-9.60041
を買う	-9.60182
一部	-9.6023
感動	-9.60232
ロング	-9.60282
色違いで	-9.60289
冷凍	-9.60315
貼り	-9.60316
締め	-9.60334
息子に	-9.60436
柄が	-9.60463
よりは	-9.60472
ですので	-9.60486
秋	-9.60531
増	-9.6054
^)	-9.60575
を使用して	-9.60581
容量	-9.60593
ぁ	-9.60637
としても	-9.60681
細身	-9.60732
それと	-9.60738
国産	-9.608
かんじ	-9.60835
測	-9.6086
まらない	-9.60907
骨	-9.60921
傘	-9.60924
やめ	-9.60987
元気	-9.61061
ックス	-9.61065
リビング	-9.6115
ことも	-9.61173
背中	-9.61272
近所の	-9.6131
剥がれ	-9.61339
柔らか	-9.61369
抜群	-9.61386
もらった	-9.61403
ファ	-9.61432
できませんでした	-9.61438
渡	-9.61455
いなかった	-9.61461
ショックです	-9.61475
れました	-9.61509
ジェル	-9.61528
良さそう	-9.61589
しよう	-9.61598
くらいで	-9.61628
派手	-9.6176
方がいい	-9.61817
おらず	-9.6185
いって	-9.61926
届くまで	-9.61959
自然	-9.61964
といって	-9.61976
ソー	-9.62066
弱い	-9.6208
キュ	-9.62095
動か	-9.62116
ひと	-9.6212
ではなかった	-9.62169
マン	-9.6217
疑問	-9.62255
下さい	-9.62259
使おう	-9.6227
商品説明	-9.62299
とはいえ	-9.62307
お勧めです	-9.62334
入った	-9.62384
タイ	-9.62415
又	-9.62421
ければ	-9.62468
いけ	-9.6251
手触り	-9.62556
曜	-9.62595
の味	-9.62641
満	-9.62641
広	-9.62645
おいしいです	-9.62674
意外と	-9.62678
しっかりと	-9.62686
健康	-9.62758
されました	-9.62823
ぱ	-9.62959
魚	-9.62986
共に	-9.6299
チャック	-9.6299
残って	-9.62992
を購入した	-9.63003
海外	-9.63054
美味しかった	-9.63093
すぐに届きました	-9.63196
履	-9.63233
しませんでした	-9.6324
フェ	-9.63247
信じ	-9.63326
かける	-9.63328
処理	-9.63429
治	-9.63492
実物は	-9.63506
除	-9.63536
プレゼントしました	-9.63606
手元に	-9.63618
増え	-9.63622
色を	-9.6365
天	-9.63669
きっと	-9.63669
つけた	-9.63694
ではありませんでした	-9.63718
ふわふわ	-9.63733
粗	-9.6375
小さすぎ	-9.63768
","2	-9.63807
を入れ	-9.63813
貼って	-9.6382
最初	-9.63824
くれました	-9.63827
訳あり	-9.63901
かかり	-9.63931
素晴らしい	-9.63955
このショップ	-9.63996
してくれる	-9.64096
草	-9.64148
お安い	-9.64159
ゴムが	-9.64254
を探していて	-9.64329
力が	-9.64333
あんまり	-9.64347
を注文しました	-9.64413
シンプルな	-9.64465
200	-9.64513
とおり	-9.64582
明らかに	-9.64583
役	-9.64593
面倒なので	-9.64603
思ってたより	-9.64615
男	-9.64631
購入しています	-9.64698
喜んでもらえました	-9.64722
かどうか	-9.64732
たく	-9.64779
余	-9.64779
ダメでした	-9.64809
刺	-9.64834
この商品を	-9.64843
ティー	-9.64861
練習	-9.64895
縫	-9.64916
の上に	-9.64964
不良	-9.64985
虫	-9.65005
巻き	-9.65069
気になります	-9.65079
そちら	-9.65117
あとは	-9.65121
出荷	-9.65138
一日	-9.65138
昔	-9.65146
フィット感	-9.65232
思ってた	-9.65234
常	-9.65259
もったいない	-9.65261
狭い	-9.65307
見たら	-9.65338
きたので	-9.65359
注文し	-9.65367
アイロン	-9.65374
経って	-9.654
メン	-9.65442
痩せ	-9.65453
毛が	-9.65509
他店で	-9.65524
っちゃ	-9.65537
安く購入でき	-9.65565
幅広	-9.65624
近くの	-9.65723
放	-9.65741
御	-9.65759
装	-9.65761
気にならない	-9.65778
きれい	-9.65843
頼んで	-9.65866
評判	-9.65922
昼	-9.65926
以上の	-9.65943
変わり	-9.65964
友人の	-9.65984
していない	-9.65988
筋	-9.65993
並	-9.66021
アー	-9.66082
どちら	-9.66123
ほうがいい	-9.66156
しかない	-9.66186
履きやすい	-9.66217
売り	-9.66261
なくなった	-9.66276
カメラ	-9.6638
(*^^*)	-9.66405
くれた	-9.66465
乗	-9.66515
ギフト	-9.66554
パープル	-9.666
と思ったのですが	-9.66689
しっかりしている	-9.66711
だらけ	-9.66748
パーツ	-9.66783
ミリ	-9.66784
したのに	-9.66788
到着しました	-9.66841
見つけました	-9.66848
込む	-9.66862
模様	-9.6688
連絡が	-9.66893
からは	-9.66901
^^	-9.66913
価値	-9.66914
欲しいです	-9.66933
イメージと	-9.66981
遅く	-9.67065
はありますが	-9.67113
さに	-9.67114
PC	-9.67117
ケット	-9.67133
誕生日	-9.67165
ついた	-9.67177
初め	-9.6718
砂	-9.67292
を確認	-9.67327
重宝しています	-9.67347
何とか	-9.67383
クリア	-9.67462
形も	-9.67485
レン	-9.67495
これだけ	-9.67575
入っていました	-9.67649
ダー	-9.67655
快適	-9.67685
収	-9.6772
道	-9.6772
方も	-9.67725
","1	-9.67733
クオリティ	-9.67769
保存	-9.6777
留め	-9.6778
アレルギー	-9.67864
に合わせて	-9.67962
いいかも	-9.6799
特	-9.67994
たまたま	-9.67998
ページ	-9.68004
操作	-9.68098
赤ちゃん	-9.68151
ですよね	-9.68162
変な	-9.68194
ものです	-9.68207
置く	-9.68207
後は	-9.68214
うれしいです	-9.68236
頂け	-9.68277
させていただきます	-9.68351
ないと思います	-9.68371
充分	-9.68381
適	-9.68391
量が	-9.68433
お品	-9.68499
感じる	-9.68517
厚手	-9.68541
片方	-9.68541
チョ	-9.68556
梅	-9.68561
思って	-9.68585
同時に	-9.68628
着け	-9.68644
以前から	-9.68647
画	-9.68707
無かった	-9.68728
最初から	-9.68774
安心です	-9.6882
していますが	-9.68859
子供も	-9.68874
なのかな	-9.68893
ブラシ	-9.6891
小さかった	-9.68915
良くて	-9.68944
ワイ	-9.68994
とのことで	-9.68998
明るさ	-9.69008
便	-9.69037
被	-9.69076
シルエット	-9.69105
インク	-9.69178
モデルさん	-9.69215
XL	-9.69223
自分用	-9.69285
たた	-9.69291
肌が	-9.69296
ますね	-9.69306
ねじ	-9.69328
完成	-9.69351
なぜ	-9.69455
思う	-9.6949
変わらない	-9.695
の色が	-9.69572
リア	-9.69579
が少ない	-9.69628
づ	-9.69686
脇	-9.69711
発送も	-9.69735
番号	-9.69742
探していた	-9.69747
ぴったりでした	-9.69755
発送も早く	-9.69797
であれば	-9.69804
かず	-9.69827
他店	-9.69835
ハン	-9.69879
落	-9.69879
パソコン	-9.69937
経	-9.6994
もらって	-9.69943
きつく	-9.69946
いたところ	-9.69973
などで	-9.70003
閉	-9.70007
使えませんでした	-9.70019
始めて	-9.70033
万	-9.70063
重宝	-9.70081
良い買い物	-9.70084
気になりません	-9.70089
画像と	-9.70128
揃え	-9.70135
るのか	-9.70144
裏地	-9.70196
プレ	-9.70206
進	-9.70252
見ると	-9.70392
を購入し	-9.70412
れます	-9.70419
しま	-9.70419
知り	-9.70487
理由	-9.70497
縦	-9.70537
どれ	-9.70566
DVD	-9.70569
は初めてです	-9.70621
初心者	-9.70718
半年	-9.7078
サラサラ	-9.7079
はしません	-9.70794
クル	-9.70806
値段の割に	-9.70839
書いてある	-9.70875
飲	-9.7092
楽しみにしていた	-9.70939
紫	-9.70995
付属の	-9.71038
親切	-9.71073
仕	-9.71099
娘に	-9.71104
カン	-9.71145
機会	-9.71187
しようと思います	-9.71228
二人	-9.71246
数日	-9.71312
優しい	-9.71317
める	-9.71368
真ん中	-9.71393
える	-9.71435
まとめて	-9.71502
他に	-9.71504
お願いしました	-9.71509
誰	-9.71543
まし	-9.71571
判	-9.71592
それが	-9.7163
系の	-9.71651
ショックでした	-9.71674
出産	-9.71756
フォー	-9.71758
昨日	-9.71833
頂いて	-9.71846
いただいて	-9.71852
が楽しみです	-9.71877
家の	-9.71891
ずれて	-9.71899
かさ	-9.71904
してください	-9.71978
向け	-9.71996
思ったよりも	-9.7208
f	-9.72086
の時に	-9.72089
手で	-9.72115
買い物でした	-9.72118
仕様	-9.72159
使いにくい	-9.72166
落とし	-9.72186
フィ	-9.7224
色と	-9.72293
気になりました	-9.72303
やすくて	-9.72328
いけない	-9.72447
原	-9.72464
つい	-9.725
最適	-9.72538
決	-9.72554
やすかったです	-9.72577
側の	-9.72583
使いたい	-9.72584
込	-9.72647
詰め	-9.7274
の為に	-9.72914
友達	-9.72957
限り	-9.72986
分かりませんが	-9.7299
レビューが	-9.73048
同様	-9.73052
入っている	-9.73081
ないのに	-9.73097
思った以上に	-9.73148
良い商品	-9.73152
使えそうです	-9.73183
のかもしれません	-9.73203
スペース	-9.73226
向	-9.73234
感じがします	-9.73253
食べられ	-9.73282
大喜び	-9.73289
形は	-9.73358
必要な	-9.73392
取って	-9.73424
良いもの	-9.73501
くっ	-9.73525
マー	-9.73574
お店の	-9.73578
是非	-9.73595
細く	-9.73598
出来ません	-9.73629
行って	-9.73645
ると思います	-9.73661
ここで	-9.73675
サンプル	-9.73679
それなり	-9.73712
はまだ	-9.73738
フィルム	-9.73742
酷い	-9.73774
濡れ	-9.73793
香りも	-9.73826
の香り	-9.7386
しわ	-9.7391
娘が	-9.73928
男性	-9.73938
大好き	-9.73981
お金	-9.73982
縫製が	-9.74006
商品が届きました	-9.74055
使いやすく	-9.7413
しやすい	-9.74181
の上	-9.74267
をする	-9.74287
続	-9.7431
いるのですが	-9.74329
痛み	-9.74333
もらいました	-9.74356
多分	-9.74361
美	-9.74378
ボタンが	-9.74396
せめて	-9.74442
頼まれて	-9.74485
忘れ	-9.74517
については	-9.74599
開き	-9.74603
悪いです	-9.74609
保証	-9.74672
一人で	-9.7471
ような気がします	-9.74738
丁寧	-9.74805
削	-9.74812
選べ	-9.7483
補	-9.74839
少なく	-9.7485
喜んでいました	-9.74853
スプレー	-9.74867
になるので	-9.74895
かなと思います	-9.74911
方が良い	-9.74938
プロ	-9.7495
息子の	-9.74969
するのに	-9.74983
誕生日プレゼント	-9.75013
ヌ	-9.75031
が欲しい	-9.75061
値段は	-9.75105
対	-9.75105
厚さ	-9.75126
届いたので	-9.7514
使用感	-9.75141
感覚	-9.75163
お店に	-9.7524
やら	-9.7527
だな	-9.7528
シーズン	-9.75281
来年	-9.75287
られました	-9.75326
ドライ	-9.75329
イエロー	-9.75344
札	-9.75373
来ました	-9.75414
ちょっと残念	-9.75459
歩く	-9.75465
強度	-9.75487
くなり	-9.75505
心配でしたが	-9.75529
口に	-9.75733
薄め	-9.75826
焼	-9.75842
おりました	-9.7586
お米	-9.7587
今回も	-9.75878
極	-9.75903
選択	-9.75911
先日	-9.75944
ちょっとした	-9.75972
甘さ	-9.76104
頂き	-9.76131
飲め	-9.76192
だと思って	-9.76285
太い	-9.76299
ゼ	-9.76305
購入できて	-9.76363
よかったのですが	-9.76373
ルー	-9.76395
すでに	-9.76411
検索	-9.76457
もらえる	-9.76463
調子	-9.76475
きましたが	-9.76476
賞味期限	-9.76481
してました	-9.76538
多く	-9.76572
崩れ	-9.76588
つくり	-9.76595
ぺ	-9.76607
いただいた	-9.76716
寝て	-9.76738
飽き	-9.76753
押	-9.76799
サービス	-9.7682
本人	-9.76886
参	-9.76887
フリー	-9.76907
悪くない	-9.76907
飾り	-9.76936
買いません	-9.76981
冷え	-9.7699
未	-9.77015
チョコ	-9.77027
壁	-9.77033
作りが	-9.77039
イヤ	-9.77042
使えそう	-9.77099
持ち運び	-9.77103
時には	-9.77158
使わ	-9.7717
不明	-9.77186
もともと	-9.77187
カリ	-9.77205
ジュ	-9.77213
友人に	-9.77269
部屋の	-9.77272
160	-9.77378
心配です	-9.77378
するか	-9.77392
数回	-9.77401
為に	-9.77457
反	-9.77467
していただき	-9.77516
サイズを購入しました	-9.77527
メールを	-9.77582
来る	-9.77646
プリ	-9.77661
持ち手	-9.77674
絶対に	-9.77686
注文後	-9.7772
下着	-9.77796
期待していた	-9.77813
安いです	-9.77865
紹介	-9.77897
興味	-9.77906
上がって	-9.7791
愛用	-9.77911
お願いした	-9.7792
カーテン	-9.77963
ローズ	-9.77996
喜ばれました	-9.7804
納	-9.78094
海	-9.78096
ないか	-9.781
筆	-9.7811
(*	-9.78132
福袋	-9.78159
つもり	-9.7819
一切	-9.78217
くれます	-9.78284
さえ	-9.78295
仕方	-9.78409
部屋着	-9.78462
素材が	-9.78477
おいしかったです	-9.78508
安全	-9.78512
ーション	-9.78546
ガー	-9.78566
消費	-9.78587
手ごろ	-9.78642
という感じです	-9.7866
中国製	-9.78687
固い	-9.787
カラ	-9.78744
かれて	-9.78744
すと	-9.78765
丁寧な	-9.78788
なのでしょうか	-9.78809
様子	-9.78827
お値段が	-9.78876
チュ	-9.78904
事を	-9.78935
人が	-9.78951
管理	-9.78972
簡単で	-9.79018
誤	-9.79041
させ	-9.79079
気に入り	-9.79192
困って	-9.79209
滑り	-9.79248
人で	-9.79262
させていただきました	-9.79281
までは	-9.79346
イメージ通り	-9.79354
集	-9.79366
商品到着	-9.7938
ワンピース	-9.79389
部分も	-9.79467
大丈夫でした	-9.79497
08	-9.79696
かつ	-9.79698
泡	-9.79722
高かった	-9.79785
麺	-9.79801
辛い	-9.79802
;)	-9.79808
お祝い	-9.79814
パール	-9.79854
意	-9.79865
たけど	-9.79877
関係	-9.79908
!」	-9.79919
かなと	-9.79969
開いて	-9.80041
洋服	-9.80124
長持ち	-9.80156
比較	-9.80174
それぞれ	-9.802
容器	-9.80272
両方	-9.80279
この価格で	-9.80318
ぞ	-9.80366
重く	-9.80367
針	-9.80386
を考えて	-9.80468
を買った	-9.80546
染	-9.80549
ることができ	-9.80576
体に	-9.80612
こんなもん	-9.80619
フレ	-9.80635
やすさ	-9.80651
わない	-9.80672
同じような	-9.8069
ところに	-9.80839
くなった	-9.80871
場合は	-9.80893
煮	-9.80945
バッチリ	-9.81047
起き	-9.8105
暑い	-9.81085
さんに	-9.81094
着れ	-9.81112
母の日	-9.81132
業	-9.81209
必ず	-9.81239
のものを	-9.81256
自分が	-9.81334
が多いので	-9.81339
愛	-9.81369
金属	-9.81374
65	-9.81436
届いたのは	-9.81481
たまに	-9.81492
を買いましたが	-9.81507
理	-9.81525
繋	-9.81528
ほつれて	-9.81615
んですね	-9.81641
度目	-9.81658
関	-9.81662
などに	-9.81687
しっかりしています	-9.81697
ストレス	-9.817
メール便で	-9.81727
とても良いです	-9.81753
.0	-9.81757
ファー	-9.81898
このお店	-9.81906
失敗しました	-9.81907
精	-9.81926
混	-9.81935
購入後	-9.81996
酸	-9.82062
移動	-9.82089
`	-9.82131
買える	-9.82158
他の商品	-9.82178
値段なり	-9.82197
到着まで	-9.82259
言われ	-9.82268
わかる	-9.82269
血	-9.82271
おき	-9.82293
キャップ	-9.82346
つもりです	-9.82374
早かった	-9.8238
それほど	-9.82383
使うと	-9.82458
わたし	-9.8256
ピッタリでした	-9.82634
飛	-9.82642
ラック	-9.8268
るのも	-9.82695
付ける	-9.82718
欲し	-9.82811
ぴ	-9.82822
乗せ	-9.82828
で使用	-9.82877
パッド	-9.82942
!?	-9.82945
はありませんでした	-9.82949
こちらのお店	-9.82997
湿	-9.83044
一本	-9.83055
苦労	-9.83067
が悪いのか	-9.83088
マイ	-9.83095
悩み	-9.83212
に置いて	-9.83217
済み	-9.83219
こちらも	-9.83234
破れて	-9.83259
は無理	-9.83278
梱包も	-9.83385
法	-9.83423
安く買えて	-9.83429
末	-9.8345
居	-9.83554
負担	-9.83558
届けて	-9.83572
いま	-9.83596
ボトル	-9.83626
においが	-9.83634
強く	-9.83669
切れて	-9.8368
敷	-9.83705
入っていた	-9.83713
たのに	-9.83815
はずれ	-9.83822
モン	-9.83834
に戻	-9.83837
商品で	-9.8387
箱を	-9.83895
やすそう	-9.83914
45	-9.8395
キツイ	-9.83959
人気	-9.84059
以外	-9.8411
重ね	-9.84188
雪	-9.84227
寝る	-9.84304
このような	-9.84317
お願いします	-9.8432
を考えると	-9.84357
保護	-9.84359
とても良かったです	-9.84416
外出	-9.84448
歩いて	-9.84469
していたので	-9.84473
はいて	-9.84482
祝い	-9.84531
いれば	-9.84547
支	-9.84564
挟	-9.846
色です	-9.84671
脱げ	-9.847
▽	-9.84708
が無く	-9.84742
駄目	-9.84752
こちらのショップ	-9.84765
浮	-9.84789
様な	-9.84811
乗り	-9.84838
スープ	-9.84886
スーパーで	-9.849
がありますが	-9.84981
させて頂きました	-9.85012
包	-9.85017
食べました	-9.85028
32	-9.85042
んですけど	-9.85042
襟	-9.85047
自宅	-9.85102
ここまで	-9.85104
はなく	-9.85113
果	-9.85118
暗い	-9.85135
方に	-9.8515
実際は	-9.85175
滑	-9.85184
ショップに	-9.8528
写真を	-9.85284
のない	-9.85288
=	-9.85309
してほしい	-9.85316
しております	-9.85364
にしても	-9.85379
なしです	-9.85417
段ボール	-9.85452
カワイイ	-9.85474
用として	-9.85528
良くない	-9.85595
に関しては	-9.85631
ミシン	-9.85632
いたのに	-9.85682
思っていたよりも	-9.85697
隠	-9.85711
育	-9.85722
伝	-9.8574
酷	-9.85852
通勤	-9.85985
別に	-9.86057
もし	-9.86062
捨てました	-9.86068
終	-9.86234
豊富	-9.86281
だけに残念です	-9.86294
る事	-9.86332
はっきり	-9.86428
情報	-9.86453
さら	-9.86463
スムーズ	-9.86473
という事	-9.86477
折	-9.86478
まった	-9.86486
だと思う	-9.86564
天板	-9.86598
大きかったです	-9.866
修理	-9.86612
苗	-9.86627
っぽ	-9.86645
の際	-9.86677
に入って	-9.8669
バリ	-9.86721
スク	-9.86773
失敗でした	-9.86833
眠	-9.86849
窓	-9.86858
クリスマスプレゼント	-9.86874
はある	-9.86944
参考に	-9.8697
突	-9.86992
タイツ	-9.87007
***	-9.87015
友達に	-9.8705
長め	-9.87062
ゆる	-9.8713
かわい	-9.87184
目的	-9.87188
購入します	-9.87232
はじめ	-9.87277
ニー	-9.87431
お肉	-9.87481
カバーを	-9.8753
濃	-9.87537
していません	-9.87593
曲がって	-9.87594
求め	-9.87605
時点で	-9.87655
大きさは	-9.87679
にしては	-9.87724
割り	-9.87753
灯	-9.87811
)","	-9.8783
応	-9.87865
(^-^)	-9.87883
かん	-9.87886
次回	-9.87933
しっかりした作り	-9.8796
作品	-9.88016
ものより	-9.88027
ランプ	-9.88036
棒	-9.88041
しっかりとした	-9.88071
コンパクトで	-9.88121
能	-9.88132
31	-9.88146
ブランド	-9.8816
メッセージ	-9.88255
外に	-9.88276
ごと	-9.88332
とは思いますが	-9.88348
なのは	-9.88358
デザインで	-9.88359
防水	-9.88494
しており	-9.88557
ようですが	-9.88564
過	-9.88605
プリント	-9.88641
すら	-9.88642
走	-9.88645
運動	-9.88665
不安でしたが	-9.88679
節	-9.88706
バイ	-9.88722
扉	-9.88773
発注	-9.88775
∀	-9.88851
ダンボール	-9.88883
アイボリー	-9.88908
いろいろな	-9.88933
版	-9.88942
バン	-9.88967
選び	-9.88979
ちゃいました	-9.89019
古い	-9.89055
かわいく	-9.89084
状況	-9.8913
商品だと思います	-9.89223
気に入ったので	-9.89258
寒	-9.89315
スイッチ	-9.89324
酒	-9.89347
とてもいい	-9.89408
55	-9.89425
帽子	-9.89426
普段使い	-9.89458
失敗した	-9.89462
汚	-9.89463
を購入したのですが	-9.89475
センチの	-9.89519
よね	-9.89549
売っている	-9.896
ショップの対応	-9.89638
なさそうです	-9.89656
たところ	-9.89695
鏡	-9.89726
ほんとに	-9.89785
外れて	-9.89815
ふた	-9.89835
通りの	-9.89841
活躍	-9.89864
返品も	-9.89879
工夫	-9.8991
半額	-9.89911
涙	-9.90019
いい買い物	-9.90027
大きいサイズ	-9.90052
間違って	-9.90076
依頼	-9.90088
もあって	-9.90186
良さそうです	-9.902
大きいので	-9.90219
業者	-9.90257
ボックス	-9.90291
ベビー	-9.90405
綺麗です	-9.90411
に対して	-9.90447
隙間	-9.90494
仕方がない	-9.90496
乾	-9.90511
愛用して	-9.90541
おまけの	-9.9059
可愛かった	-9.90668
届かず	-9.90707
目で	-9.90709
嫌い	-9.90747
を送って	-9.90753
使用しました	-9.90755
ドル	-9.90761
36	-9.90922
職場	-9.91069
敷き	-9.91083
の高さ	-9.9115
印刷	-9.9118
オン	-9.91298
遊び	-9.91313
使いやすさ	-9.9132
48	-9.91327
みる	-9.91333
信頼	-9.91334
分け	-9.91344
斜め	-9.91345
値段で	-9.91347
した方が	-9.91425
期待外れ	-9.91433
コストパフォーマンス	-9.9145
奥	-9.91474
くなる	-9.91475
ストーン	-9.91499
のまま	-9.91524
ジャー	-9.91614
ができ	-9.91618
余計	-9.91631
接着剤	-9.91661
サイ	-9.91665
300	-9.91712
してしまい	-9.91736
太もも	-9.91774
ついていて	-9.91805
美容	-9.91833
大変でした	-9.91845
マットレス	-9.91898
かかった	-9.91949
上手く	-9.92025
分かりません	-9.92036
んだろう	-9.92066
","【	-9.92123
千円	-9.92128
ビー	-9.92129
がたくさん	-9.92168
届くのが	-9.92171
生地で	-9.9218
昨年	-9.92233
店頭で	-9.92285
買いたい	-9.92334
程度の	-9.9234
高いので	-9.92363
良し	-9.92368
汁	-9.92403
人の	-9.92409
いいのに	-9.92416
無いので	-9.92417
だったのに	-9.92418
足に	-9.9243
こちらの商品を	-9.9244
ですかね	-9.9244
完了	-9.92487
髪の毛	-9.92552
っきり	-9.92641
当日	-9.92644
だけの	-9.92647
手が	-9.92677
ものすごく	-9.92704
ませ	-9.92782
妹	-9.92799
準備	-9.92836
幼稚園	-9.92837
お湯	-9.929
ないかな	-9.93008
食感	-9.93039
現物	-9.93045
娘も	-9.93129
たかった	-9.93136
ガッカリです	-9.93149
溶け	-9.9318
置	-9.93194
家で	-9.93203
我慢	-9.9325
諦め	-9.93282
かなと思いました	-9.93285
なんですが	-9.93357
これまで	-9.93362
もうちょっと	-9.93362
しょ	-9.93385
何度	-9.93407
同梱	-9.93476
フラ	-9.93482
足首	-9.93522
行く	-9.93542
購入を	-9.93565
充	-9.93608
余り	-9.93642
伸縮性	-9.93685
休	-9.93687
もありますが	-9.93784
使いました	-9.93792
妊娠	-9.93805
守	-9.93828
ようなので	-9.93837
!!!\	-9.93874
ほう	-9.93875
いいもの	-9.93887
窮屈	-9.93904
貼	-9.93998
シューズ	-9.94005
家に	-9.94018
外側	-9.9402
送った	-9.94052
安定感	-9.94058
活用	-9.94081
効いて	-9.94127
24.5	-9.94143
るような	-9.9416
値段の割には	-9.94196
浮いて	-9.94199
が入っている	-9.94221
院	-9.94226
・・","	-9.94267
処	-9.94301
頑張って	-9.9432
上から	-9.94354
室内	-9.94357
こない	-9.94385
ビックリしました	-9.94425
通販	-9.94447
色落ち	-9.9448
ないけど	-9.94493
信	-9.94506
読	-9.94522
付属	-9.94549
110	-9.94593
明日	-9.94624
した感じ	-9.9469
箱に	-9.94697
・・\	-9.94701
お買い物	-9.94749
本物	-9.94764
さすがに	-9.94791
購入したのに	-9.94792
中身が	-9.94838
しょう	-9.94853
すべき	-9.94876
ほどの	-9.94878
想像以上に	-9.94898
ーーー	-9.94899
かって	-9.95005
スタ	-9.95008
詐欺	-9.95013
用に買いました	-9.9505
の方に	-9.9506
さすが	-9.95139
月に	-9.95144
机	-9.95161
はないと思います	-9.95171
不便	-9.95231
洗う	-9.95241
食い	-9.95243
浴	-9.9526
それを	-9.95276
ボード	-9.95287
間違えて	-9.95347
楽天で	-9.95379
画像の	-9.95384
解凍	-9.95393
当然	-9.95409
口が	-9.95426
ポン	-9.95426
それは	-9.95444
発色	-9.95491
あす楽	-9.95579
レイ	-9.95581
ような感じ	-9.95584
組	-9.95656
!!!!	-9.9566
写真通り	-9.95667
シリコン	-9.95695
っか	-9.95738
買います	-9.95748
洗	-9.95761
使用していた	-9.95782
歩	-9.95803
みようと思います	-9.95833
慣れて	-9.95853
もありましたが	-9.95859
ギリギリ	-9.95872
たった	-9.95985
詰	-9.95986
飼	-9.95987
すぎます	-9.96001
も無く	-9.96002
信用	-9.96005
雑な	-9.96039
くなりました	-9.96073
皆さんのレビュー	-9.96091
になりそうです	-9.96154
見つけて	-9.96178
帰	-9.96186
助	-9.96187
買おう	-9.96208
足りない	-9.96209
とこ	-9.9622
みえ	-9.96235
なぜか	-9.96314
缶	-9.96332
組み立ては	-9.96334
ある程度	-9.96385
>	-9.96391
時も	-9.96427
硬	-9.96439
こちらの商品は	-9.96458
剥がれて	-9.96513
ドア	-9.9657
-01	-9.96586
と思ってます	-9.96587
これからの季節	-9.96605
元々	-9.96617
口コミ	-9.96628
に惹かれて	-9.96636
送料無料で	-9.96646
黄	-9.96662
使い勝手	-9.96669
決定	-9.96702
(^^)	-9.96712
買ったのに	-9.96713
一目惚れ	-9.9672
に使用	-9.96722
42	-9.96741
れている	-9.96802
と違う	-9.96808
するのは	-9.96841
小物	-9.96891
そういう	-9.96897
いるのか	-9.96898
どちらも	-9.96912
と比べて	-9.96922
つま先	-9.97092
ばかりで	-9.97108
縫い目が	-9.97123
丁度良い	-9.97126
知って	-9.97134
これでは	-9.97141
なのが	-9.97176
頼みました	-9.9718
密	-9.97192
良いですね	-9.97221
保管	-9.97242
上下	-9.97328
戻	-9.97342
黒の	-9.9735
アル	-9.97422
?」	-9.97425
成分	-9.97431
シーツ	-9.97505
乾き	-9.97556
大きいです	-9.97562
ズレ	-9.97571
楽しく	-9.97685
入ります	-9.97694
後悔しています	-9.97717
っていて	-9.97769
光沢	-9.97779
すこし	-9.97794
が悪かった	-9.97821
バス	-9.97837
処分	-9.97879
したもの	-9.97889
東	-9.97893
きれいで	-9.97935
するのが	-9.97938
にも関わらず	-9.9797
好評	-9.98007
予備	-9.98017
性能	-9.98115
モデル	-9.98126
どうしよう	-9.98127
のが残念です	-9.98157
にくかった	-9.98204
がありましたが	-9.98221
買ってよかった	-9.98235
可愛いので	-9.98237
による	-9.98257
欲しかったです	-9.98263
の良さ	-9.98266
コメント	-9.98271
座り心地	-9.98273
楽です	-9.98274
されていた	-9.98285
と思うので	-9.98285
限定	-9.98287
原因	-9.9831
イル	-9.98329
薄いです	-9.98341
大切に	-9.98381
湯	-9.98384
の下に	-9.98391
たん	-9.98393
使用しましたが	-9.98422
高い買い物	-9.98435
とても満足しています	-9.98442
不安です	-9.98459
汚れて	-9.98493
勉強	-9.98509
木の	-9.98524
済	-9.98524
届いていません	-9.9857
;\	-9.98599
きません	-9.98641
使っていますが	-9.98679
ようになって	-9.98718
柄も	-9.98756
使い始めて	-9.9876
苦手な	-9.98794
といった	-9.988
子供用	-9.98832
声	-9.98899
たぶん	-9.9893
取り寄せ	-9.98938
この値段なら	-9.98962
の娘に	-9.98979
最悪でした	-9.98985
夏に	-9.98997
遅すぎ	-9.99015
かも知れません	-9.99019
球	-9.99085
最初に	-9.99088
にもかかわらず	-9.99097
家具	-9.99098
とてもいいです	-9.99124
ダウン	-9.99156
気になっていた	-9.99167
の私には	-9.99204
ノー	-9.99207
選びました	-9.99207
頂いた	-9.99242
週	-9.99306
x	-9.99308
あきらめ	-9.99388
終わり	-9.99429
まさか	-9.99438
迅速で	-9.99475
図	-9.99506
ぃ	-9.99509
使ってみて	-9.99542
しなくて	-9.99606
テン	-9.99613
写真では	-9.99701
可愛かったです	-9.99736
かた	-9.99787
誕生日に	-9.99808
ソフト	-9.99877
なー	-9.99886
身体	-9.99913
野	-9.99954
付く	-9.99973
食事	-9.99995
無事	-10.0003
言え	-10.0005
お弁当	-10.0009
タイヤ	-10.0013
なと思いました	-10.0016
ショップさん	-10.0019
もあるので	-10.002
までに	-10.0022
拭き	-10.0023
縫い目	-10.0028
カル	-10.003
がっかりでした	-10.003
になってしまい	-10.003
980	-10.0032
書いてあった	-10.0037
然	-10.0041
35	-10.0044
●	-10.0044
そこまで	-10.0048
飲みやすい	-10.0049
ようやく	-10.0053
店舗で	-10.0054
アレンジ	-10.0056
せない	-10.0058
混ぜて	-10.0059
感じは	-10.0061
エア	-10.0061
風味	-10.0065
かなー	-10.0066
ではないです	-10.0071
正解	-10.0074
ひどく	-10.0075
ほしいです	-10.0075
になっています	-10.0078
スーツ	-10.0079
塗って	-10.0083
一言	-10.0089
届くのが楽しみです	-10.009
はしない	-10.0091
38	-10.0091
降	-10.0093
白く	-10.0095
誕生日プレゼントに	-10.0095
洗剤	-10.0097
日後に	-10.0097
ツヤ	-10.0098
毎年	-10.0098
こちらで購入	-10.0099
高め	-10.01
ネックレス	-10.0102
牛	-10.0106
シェ	-10.0115
急いで	-10.0115
グル	-10.0118
一応	-10.0123
リュック	-10.0125
返品したい	-10.0132
存在感	-10.0132
デカ	-10.0136
優	-10.0137
オーダー	-10.0137
代わりに	-10.0139
化粧	-10.014
仕方なく	-10.0142
なったので	-10.0143
が出る	-10.0143
ところです	-10.0144
たまま	-10.0147
重量	-10.0147
小さいです	-10.0149
〜","	-10.015
晩	-10.0152
水が	-10.0153
タッチ	-10.0154
利用させて	-10.0155
^^"	-10.0158
ウォー	-10.0161
ようと思います	-10.0164
含め	-10.0166
パワー	-10.0171
写	-10.0173
キャスター	-10.0181
の感想	-10.0182
高すぎ	-10.0186
暑	-10.0187
が少なく	-10.0191
おいしかった	-10.0196
お店の方	-10.02
度と	-10.0207
けっこう	-10.0209
可愛いし	-10.021
パイ	-10.0214
腐	-10.0217
箱が	-10.0218
価	-10.0218
期待しています	-10.0221
髪が	-10.0222
個人的	-10.0232
去年	-10.0232
悩みましたが	-10.0241
るもの	-10.0251
払い	-10.0251
部分を	-10.0253
縁	-10.0255
ぷ	-10.0257
教	-10.0258
あけ	-10.0259
にぴったり	-10.0259
理解	-10.0266
使用している	-10.0268
冊	-10.0274
プレゼント用に	-10.0275
おかしい	-10.0277
開けた	-10.0279
おかげで	-10.0283
マシ	-10.0284
と違って	-10.0286
探していました	-10.0289
以前に	-10.0293
座って	-10.0293
っくり	-10.0295
厚く	-10.0303
生活	-10.0308
仕上げ	-10.0316
それで	-10.0317
マジックテープ	-10.0317
&#1	-10.0318
児	-10.0318
な感じです	-10.032
ヘッド	-10.0328
贈りました	-10.0339
地味	-10.0341
鍵	-10.0341
肌触りが	-10.0345
ペット	-10.0346
なるので	-10.0346
してしまった	-10.0346
サイズを購入	-10.0347
いざ	-10.0347
買ったので	-10.0354
華やか	-10.0356
某	-10.0357
値段のわりに	-10.0362
跡	-10.0365
トロ	-10.0369
チーズ	-10.0369
お店の対応は	-10.0369
お洒落	-10.0369
高いです	-10.0371
をつけて	-10.0371
手帳	-10.0374
科	-10.0376
小さいので	-10.0381
のでしょうが	-10.0381
お手頃	-10.0385
ちゃう	-10.0395
クリスマス	-10.0401
落ちる	-10.0402
ために購入しました	-10.0402
もち	-10.0404
閉め	-10.0409
ネジが	-10.0409
こちらを購入しました	-10.0413
によっては	-10.0414
取る	-10.042
安っぽいです	-10.0422
念	-10.0422
問題ないです	-10.0428
100%	-10.0432
楽しい	-10.0435
r	-10.0438
いいな	-10.0439
お得です	-10.0444
量も	-10.045
商品が届いて	-10.0453
購入して良かったです	-10.0456
ょ	-10.0456
わりに	-10.046
ものなので	-10.0463
もらう	-10.0464
る感じ	-10.0464
49	-10.0466
わかって	-10.0467
ゆとり	-10.0468
パット	-10.0469
嫌な	-10.047
肌触りも	-10.0479
広い	-10.0481
みたいに	-10.0484
ですから	-10.0488
付いている	-10.0488
が好きな	-10.0493
率	-10.0497
かと思って	-10.0497
スポンジ	-10.0498
分の	-10.0503
姉	-10.0507
ゃ	-10.0511
残念ですが	-10.0515
思い切って	-10.0515
持つ	-10.0517
に見えます	-10.0522
たびに	-10.0528
飲んでいます	-10.0529
大きめの	-10.0529
ぜひ	-10.0531
あると	-10.0535
限	-10.0536
そこそこ	-10.0537
アウトレット	-10.0539
相当	-10.0539
レビューを参考に	-10.0539
入れる	-10.0544
スムーズに	-10.0545
ピンクの	-10.0552
本当は	-10.0564
お友達	-10.0565
形状	-10.0566
学校	-10.0566
63	-10.0569
ひも	-10.0575
!!!	-10.0578
接	-10.0579
田	-10.0579
持っている	-10.0585
ばら	-10.0589
痛くなり	-10.059
も同じ	-10.0594
を見ると	-10.0596
石鹸	-10.0596
出る	-10.06
に入れる	-10.0602
などを	-10.0608
フレーム	-10.0609
用途	-10.061
になると	-10.0614
束	-10.0614
と比べると	-10.0617
製造	-10.0618
くさい	-10.062
ように思います	-10.0621
チェ	-10.0625
さま	-10.0626
辺	-10.063
目立ち	-10.0639
みたところ	-10.0642
起	-10.0643
さっぱり	-10.0643
-04	-10.0645
痛いです	-10.0647
ひっ	-10.0654
送られて	-10.0654
周	-10.0655
クセ	-10.0659
商品自体	-10.0659
カ月	-10.066
刺激	-10.0662
〜"	-10.0662
勝手に	-10.0663
造り	-10.0665
なさそう	-10.0668
オマケ	-10.0669
ケア	-10.0671
掲載	-10.0675
自分には	-10.0675
とても気に入って	-10.0683
やつ	-10.0685
いらない	-10.0686
暖	-10.0687
見た目が	-10.0688
あまりに	-10.0689
苦手	-10.0692
ゆう	-10.0694
化粧水	-10.0696
回目の	-10.0696
面白い	-10.07
お値段以上	-10.0702
あわせ	-10.0705
っぱなし	-10.0714
情	-10.0715
-02	-10.0716
やすかった	-10.0717
を作る	-10.0718
のに残念です	-10.0723
必需品	-10.0726
客	-10.0727
出来た	-10.0734
続き	-10.0736
言えば	-10.074
をつけ	-10.0742
まわり	-10.0744
期待はずれ	-10.0746
買えばよかった	-10.0747
フック	-10.0748
ないといけない	-10.0751
少しでも	-10.0752
次回は	-10.0767
となりました	-10.0771
角度	-10.0771
大変満足しています	-10.0771
艶	-10.0773
色んな	-10.0775
到着して	-10.0775
っていました	-10.0785
近所	-10.0789
最初の	-10.0797
手を	-10.0798
届いた商品は	-10.0799
変わって	-10.0802
疑	-10.0802
それも	-10.0804
されていて	-10.0805
ロール	-10.0806
たかったので	-10.0812
封	-10.0813
取付	-10.0815
整理	-10.0821
急ぎ	-10.0821
不思議	-10.0824
香りは	-10.0825
はめ	-10.083
破	-10.083
今までは	-10.0834
価格で	-10.0835
定番	-10.0835
ずらい	-10.0837
画像より	-10.0837
盛り	-10.084
普段使いに	-10.0841
お店の対応も	-10.0842
敷いて	-10.0843
視	-10.0844
他にも	-10.0845
母の	-10.0846
&#8252;	-10.0849
ヘア	-10.0865
良かったと思います	-10.0865
不具合	-10.0871
送料込みで	-10.0876
ので星	-10.0877
られます	-10.0877
に比べて	-10.0877
05	-10.0878
やすいので	-10.0878
どんどん	-10.0879
折れて	-10.088
スタイル	-10.0884
孫	-10.0899
冷蔵庫	-10.0901
が弱い	-10.0905
両親	-10.0907
が欲しかったので	-10.0912
麦	-10.0913
定価	-10.0916
を見つけ	-10.0919
いいのか	-10.0922
コンタクト	-10.0923
電話で	-10.0928
市販の	-10.0932
カバーが	-10.0934
荒れ	-10.0935
33	-10.0939
糖	-10.0942
いや	-10.095
電気	-10.0954
凄い	-10.0955
員	-10.0958
丁度いい	-10.0962
みなさん	-10.0968
68	-10.0969
雨の日	-10.097
ニオイ	-10.0971
ダボ	-10.0973
発送して	-10.0975
送られてきた	-10.0976
洗った	-10.0979
合わせて	-10.098
入学	-10.0981
07	-10.0985
-03	-10.0988
マスク	-10.0992
してほしいです	-10.0993
以前は	-10.0995
と思っていた	-10.0995
53	-10.0996
スタッフ	-10.0997
言葉	-10.1
れず	-10.1001
83	-10.1002
鉢	-10.1003
上品な	-10.101
柔らかくて	-10.1011
が好きなので	-10.1011
手持ちの	-10.1019
なりません	-10.102
温度	-10.102
もあります	-10.1029
ムラ	-10.103
内側	-10.1031
注文したのですが	-10.1031
注文したのに	-10.1033
キン	-10.1034
義	-10.1034
当て	-10.1034
なっている	-10.1035
兼	-10.1037
つかって	-10.1037
あっという間に	-10.1037
37	-10.1038
相	-10.1039
杯	-10.1049
とのことでした	-10.1052
-1	-10.1052
ここの	-10.1056
ネイル	-10.1058
ソファー	-10.1061
?)	-10.1062
決め	-10.1064
まれて	-10.1067
広げ	-10.1068
見つけた	-10.1075
寝心地	-10.1082
なれば	-10.1082
ハンガー	-10.1083
遊んで	-10.1091
費	-10.1095
毎	-10.1096
振り	-10.1099
痛くて	-10.1102
プラス	-10.1104
フォ	-10.1105
調べ	-10.1106
フタ	-10.1108
が多かった	-10.1111
ホルダー	-10.1112
まして	-10.1113
ジャケット	-10.1114
キング	-10.112
伝え	-10.1122
ぶり	-10.1125
なってしまいました	-10.1128
レス	-10.1128
既に	-10.113
して頂き	-10.1134
めっちゃ	-10.1134
トラ	-10.1136
事は	-10.1137
植え	-10.1141
刺繍	-10.1143
在	-10.1149
喜んでいます	-10.1149
抜き	-10.115
注	-10.1153
通りに	-10.116
2〜3	-10.1162
と言われました	-10.1163
金具が	-10.1165
買って良かった	-10.117
が必要です	-10.1173
接着	-10.1176
愛用しています	-10.1179
皮膚	-10.118
万円	-10.1181
機種	-10.1182
病	-10.1185
ニット	-10.1187
使用後	-10.1191
サンダル	-10.1193
拭	-10.1195
小さかったです	-10.1197
破け	-10.1198
来ない	-10.12
かと思いましたが	-10.1203
もついて	-10.1204
途中で	-10.1205
相手	-10.1208
滑り止め	-10.1216
利	-10.1223
小ぶり	-10.123
組み合わせ	-10.123
記載されて	-10.123
断然	-10.1239
逆	-10.1241
締め付け	-10.1242
カバン	-10.1244
病院	-10.1246
インテリア	-10.1249
十分です	-10.125
使いましたが	-10.1251
せずに	-10.1253
ッド	-10.1255
-08	-10.1259
作った	-10.1269
お菓子	-10.1269
クリ	-10.1273
ボディ	-10.1275
↓	-10.1277
バイク	-10.128
ダイヤ	-10.1282
買い物ができました	-10.1282
必須	-10.129
今から	-10.1291
もう一	-10.1294
買えた	-10.1296
のではないか	-10.1297
紺	-10.1297
が良かったので	-10.1301
発送は	-10.1301
なんとも	-10.1305
製の	-10.1308
新居	-10.131
作れ	-10.1312
お店の対応	-10.1316
な感じで	-10.1318
おやつ	-10.1319
編	-10.1321
愛犬	-10.1321
ならば	-10.1322
購入を決めました	-10.1335
とても喜んで	-10.1336
※	-10.1337
休み	-10.134
言うこと	-10.1342
鮮やか	-10.1346
ただの	-10.1355
出来ます	-10.1356
になっていて	-10.1358
われ	-10.1362
スポーツ	-10.1365
はみ出	-10.137
けば	-10.1377
驚き	-10.1385
減ら	-10.1386
すみません	-10.1387
の様な	-10.139
伸びる	-10.1397
可	-10.1398
連絡も	-10.14
バンド	-10.1401
ウン	-10.1407
のが楽しみです	-10.1408
こちらから	-10.1409
楽に	-10.1413
驚	-10.142
つかない	-10.1424
カーキ	-10.1427
とは思えない	-10.1428
買い換え	-10.1431
まるで	-10.1436
の違い	-10.1445
不快	-10.145
のために購入しました	-10.1451
大き目	-10.1451
2.	-10.1452
39	-10.1452
この店	-10.1457
ブル	-10.1463
を期待して	-10.1463
見かけ	-10.1469
連絡を	-10.1476
チクチク	-10.1479
載せ	-10.1485
至	-10.1489
99	-10.1494
ゅ	-10.1494
もう一つ	-10.1495
ネック	-10.1502
ありえない	-10.1506
記入	-10.1509
材質	-10.1512
越	-10.1513
つきます	-10.1526
磨	-10.1527
付いた	-10.1528
トリートメント	-10.153
ベスト	-10.1531
扱	-10.1531
あっても	-10.1533
カレー	-10.1534
パンプス	-10.1534
レギンス	-10.1536
いくつか	-10.1537
ができて	-10.1541
大事に	-10.1542
食器	-10.1542
購入したいと思います	-10.1547
ショート	-10.1549
範囲	-10.1556
感激	-10.1557
おけば	-10.1557
-06	-10.1561
着物	-10.1563
リピします	-10.1565
できれば	-10.1566
基本	-10.1568
柄は	-10.1568
仕事で	-10.1569
してもらいました	-10.157
程度で	-10.157
スリム	-10.1573
スニーカー	-10.1576
ところで	-10.1577
印鑑	-10.158
ブリ	-10.1581
発生	-10.1583
換	-10.1585
お客様	-10.1587
丈も	-10.16
過ぎる	-10.1601
きれ	-10.1605
ないですね	-10.1616
キレイに	-10.1617
死	-10.1626
上で	-10.1631
以外は	-10.1634
次第	-10.1644
動作	-10.1648
思った通り	-10.1652
お得な	-10.1652
使いづらい	-10.1654
ほんと	-10.1662
トン	-10.1664
ファスナーが	-10.1666
会社の	-10.1666
まない	-10.1668
五	-10.167
異	-10.1671
><	-10.1674
^^\	-10.1674
参考	-10.1679
お気に入りの	-10.1686
対策に	-10.1689
取っ手	-10.1698
横に	-10.1709
アンダー	-10.1711
気にいって	-10.1712
ポーチ	-10.1714
水分	-10.1715
ズボン	-10.1727
語	-10.173
少し大きめ	-10.1732
制	-10.1734
大好きです	-10.1734
満足しております	-10.1736
ミルク	-10.1741
??\	-10.1741
選ぶ	-10.1742
シック	-10.1743
いるのに	-10.1744
一ヶ月	-10.1744
老	-10.1749
として購入	-10.175
CD	-10.1753
使いたいと思います	-10.1758
積	-10.1759
銀	-10.1761
ジュース	-10.1761
るだけで	-10.1762
とても気に入っています	-10.1766
目立ちます	-10.1766
卵	-10.1766
なあ	-10.1772
録	-10.1778
本当	-10.1779
いつもは	-10.1783
おまけに	-10.1784
はわかりませんが	-10.1785
つきました	-10.1786
わけではない	-10.1788
クーポン	-10.179
のほう	-10.179
怖い	-10.1792
には不向き	-10.1793
ッタ	-10.1794
ことはない	-10.1795
魅力	-10.1798
するのも	-10.1798
うちの子	-10.1799
-07	-10.1802
選べる	-10.1803
聞き	-10.1804
遅れ	-10.1807
内祝い	-10.181
を参考に	-10.1812
納期	-10.1815
わざわざ	-10.1815
撮	-10.1817
すぐ届きました	-10.1822
飾	-10.1826
着けて	-10.1831
困	-10.1831
なんだ	-10.184
友達の	-10.184
浅	-10.1841
TV	-10.1842
メイン	-10.1846
取り付けて	-10.1847
一年	-10.1848
ツルツル	-10.1849
用品	-10.1851
文句なし	-10.1853
遊	-10.1859
06	-10.1861
64	-10.1862
勝	-10.1864
かと思い	-10.1871
整	-10.1874
開閉	-10.1878
-05	-10.1882
倒れ	-10.1883
オフ	-10.1886
しなければ	-10.189
快	-10.1896
抜	-10.1897
USB	-10.1897
も付いて	-10.1897
のせいか	-10.19
認識	-10.19
ワイヤー	-10.1918
レンジ	-10.1918
なんとなく	-10.192
とは言え	-10.1926
水着	-10.193
メイク	-10.1939
43	-10.194
良	-10.1941
甘く	-10.1942
弾	-10.1942
今年は	-10.1942
するために	-10.1945
泊	-10.1945
ml	-10.1946
買えて	-10.1948
追	-10.1964
留	-10.1965
使っていません	-10.1967
座面	-10.1972
きれいです	-10.1977
非	-10.1978
使わせて	-10.1978
期待を込めて	-10.1979
腰痛	-10.1981
自分に	-10.1981
ラメ	-10.1993
購入したもの	-10.1997
癖	-10.1999
これも	-10.1999
貰	-10.2004
つぶれ	-10.2004
大活躍	-10.2004
頑丈	-10.2006
隙間が	-10.2006
使い勝手は	-10.2009
覚	-10.2013
戸	-10.2016
をかけて	-10.2017
ガーゼ	-10.2017
ヴ	-10.202
感触	-10.2021
素材も	-10.2022
フローリング	-10.2023
購入したいです	-10.2023
換え	-10.2025
お金を	-10.2025
夏は	-10.2028
家族に	-10.203
こちらを購入	-10.2036
安くても	-10.2037
返品交換	-10.2038
もう一度	-10.2038
何回か	-10.204
使い始め	-10.2041
して欲しい	-10.2044
フォン	-10.2054
取れる	-10.2059
暖かいです	-10.206
主人の	-10.2061
胸が	-10.2064
手軽に	-10.2071
期待した	-10.2071
マグネット	-10.2072
クリップ	-10.2073
太って	-10.2074
それなりに	-10.2078
上部	-10.208
が気になります	-10.2082
席	-10.2083
入れられ	-10.2085
記念	-10.2086
今まで使っていた	-10.2088
伸びて	-10.2093
57	-10.2094
難い	-10.2095
向いて	-10.2101
52	-10.2109
映	-10.2117
歳の娘	-10.2123
通常の	-10.213
ガード	-10.213
段階	-10.213
習	-10.2131
好評でした	-10.2137
同じ商品	-10.2143
ソール	-10.2151
リーズナブル	-10.2154
レザー	-10.2155
中古	-10.2155
実際の	-10.2155
^_^	-10.2161
していたのですが	-10.2166
ブカブカ	-10.217
58	-10.2171
なくなったら	-10.2181
していただきました	-10.2183
箸	-10.2184
肝心の	-10.2188
かわいいので	-10.2191
彼	-10.2191
を作って	-10.2191
保育園	-10.2197
少量	-10.2201
辺り	-10.2208
家庭	-10.221
乗って	-10.2217
だけでなく	-10.222
する事	-10.2223
かわいいし	-10.2232
厳しい	-10.2233
なんと	-10.2233
欠け	-10.2237
到着した	-10.224
いう	-10.2247
が強い	-10.2247
韓国	-10.2252
丈は	-10.2253
貼る	-10.2258
ラインが	-10.226
件	-10.2263
順	-10.2266
リピはないです	-10.2267
あん	-10.2279
感じた	-10.228
!!!"	-10.2283
ホームセンターで	-10.229
ドライバー	-10.2291
回答	-10.2291
凹	-10.2292
父の日	-10.2293
見えません	-10.2297
させて頂きます	-10.2301
本来	-10.2301
炊	-10.2303
しようと思って	-10.2303
いただきたい	-10.2308
ハード	-10.2309
ついている	-10.231
また機会があれば	-10.231
商品が届き	-10.2313
まだまだ	-10.2315
自動	-10.2317
判断	-10.2326
<	-10.2328
以内	-10.2329
ィ	-10.2329
聴	-10.2333
予想以上に	-10.2334
吸収	-10.2336
・・・・・	-10.2339
ソックス	-10.2348
非常に残念です	-10.2351
もっと早く	-10.2354
洗濯機	-10.2354
届いたら	-10.2357
飲んだ	-10.2359
日焼け	-10.2359
ちょうどよく	-10.2361
に見える	-10.2361
78	-10.2364
つぶ	-10.2377
になったので	-10.2378
他の方も	-10.2379
どこに	-10.2381
感じがしました	-10.2381
安いのに	-10.2381
の味が	-10.2383
広く	-10.2388
使い物になりません	-10.239
73	-10.2392
サイズ感	-10.2393
はけ	-10.2393
しにくい	-10.2405
書かれている	-10.2405
スタンド	-10.2407
になったら	-10.2412
欄	-10.2412
吸い	-10.2413
使用していますが	-10.2417
値段も安く	-10.2417
効果がある	-10.2418
あげて	-10.2419
シン	-10.242
共	-10.2421
二度と買いません	-10.2421
教えて	-10.2424
取り外し	-10.2425
サポート	-10.2428
静か	-10.2428
到着後	-10.2429
とても可愛いです	-10.2431
67	-10.2433
胸の	-10.2436
挑戦	-10.2436
食べれ	-10.2439
みたいと思います	-10.244
瓶	-10.245
癒され	-10.2457
公	-10.2458
プリン	-10.2461
を探していたので	-10.2462
送る	-10.2462
ステンレス	-10.2467
良い感じです	-10.247
眼	-10.2471
ことができ	-10.2478
バスト	-10.2479
とても可愛い	-10.2483
画像通り	-10.2485
当たる	-10.2486
ガッカリしました	-10.2488
2000	-10.2491
次の日に	-10.2491
エン	-10.2492
手作り	-10.2498
食いつき	-10.25
恐	-10.2501
があったら	-10.2503
枯れ	-10.2505
無地	-10.2506
甘み	-10.2508
くれません	-10.2513
まだ届きません	-10.2515
後日	-10.2516
付けた	-10.2518
離れ	-10.2519
ベット	-10.252
出し入れ	-10.2522
めちゃくちゃ	-10.2525
入りました	-10.253
使えるので	-10.2531
プレート	-10.2538
怒	-10.2538
勘違い	-10.2542
放置	-10.2543
(;	-10.2544
復	-10.2547
できそうです	-10.2547
ビーズ	-10.2557
初めて購入しました	-10.2563
ホームセンター	-10.2564
大丈夫です	-10.2568
ヒップ	-10.257
切る	-10.2571
無事に	-10.258
を選択	-10.2582
お得感	-10.2582
ついでに	-10.2584
害	-10.2585
射	-10.2586
ふかふか	-10.259
房	-10.2595
簡単でした	-10.2598
商品ページ	-10.2602
デニム	-10.2606
各	-10.2607
(^_^;)	-10.2609
あると思います	-10.261
例	-10.2611
が好きで	-10.2614
安価	-10.2614
履き心地は	-10.2615
だけあって	-10.2618
こちらのお店で	-10.2623
ォ	-10.2623
(*^	-10.2629
厚め	-10.2629
移	-10.2632
er	-10.2633
、、、","	-10.2634
時間がかかり	-10.2644
#	-10.2646
いただけました	-10.2648
と思うのですが	-10.265
経過	-10.2652
結婚	-10.2654
んでしょうか	-10.2654
感じません	-10.2656
匂いも	-10.2657
含	-10.2658
アウト	-10.2659
かわ	-10.266
んじゃない	-10.2661
水槽	-10.2663
バラバラ	-10.2664
62	-10.2664
授乳	-10.2666
られませんでした	-10.2667
靴は	-10.267
始末	-10.2673
気をつけて	-10.2675
蓋が	-10.268
他社	-10.2682
子供たち	-10.2684
デスク	-10.2686
トラブル	-10.2689
したくて	-10.2689
47	-10.2694
ニング	-10.2696
前後	-10.2701
生地が薄い	-10.2704
ハンドル	-10.2706
小学生	-10.2706
寒く	-10.2707
をお勧めします	-10.2707
書いた	-10.271
んー	-10.2713
っていう	-10.2714
薄さ	-10.2716
使用感は	-10.2716
自分は	-10.2718
発売	-10.272
厚い	-10.2727
迷った	-10.273
まぁまぁ	-10.2738
校	-10.274
何とも	-10.2743
日間	-10.2744
69	-10.2744
見せ	-10.2748
た瞬間	-10.2748
住	-10.2749
知人	-10.2749
調べて	-10.2752
とても満足です	-10.2755
ないのが	-10.2755
扱って	-10.2755
素材で	-10.276
丁寧な対応	-10.2763
キャメル	-10.2765
赤い	-10.2767
かしら	-10.2768
寸	-10.277
特別	-10.2775
だと思い	-10.2776
遅かった	-10.2781
品物は	-10.2783
載って	-10.2783
気を付け	-10.2789
染め	-10.2791
数年	-10.2793
負	-10.2803
固め	-10.2804
潤	-10.2806
重たい	-10.2807
コツ	-10.2809
天然	-10.2811
したほうが	-10.2812
ティッシュ	-10.2812
正規品	-10.2813
今度	-10.2815
返金	-10.2821
当方	-10.2823
トル	-10.2828
うえ	-10.283
72	-10.2832
張って	-10.2834
言えません	-10.2844
買	-10.2844
秒	-10.2844
題	-10.2846
焼け	-10.2847
追加で	-10.2847
他社の	-10.2852
検討中です	-10.2853
なきゃ	-10.2854
☆2	-10.2854
と一緒に購入しました	-10.2854
格好	-10.2855
皆	-10.2856
純正品	-10.2863
園	-10.2868
芋	-10.2869
J	-10.2871
微妙に	-10.2873
皿	-10.2877
始めた	-10.288
ことにしました	-10.2882
着れない	-10.2883
変わった	-10.2885
自宅用	-10.2886
用意	-10.2886
いれ	-10.2887
それから	-10.2887
いいかもしれません	-10.2888
あげました	-10.289
活躍しそうです	-10.2892
想像していた	-10.2894
その点	-10.2895
読む	-10.2895
レイン	-10.2899
リピートします	-10.2902
材料	-10.2903
サラ	-10.2907
ニア	-10.2907
何回も	-10.2908
リモコン	-10.2912
消耗品	-10.2914
HP	-10.2921
安価で	-10.2922
家族で	-10.2932
電球	-10.2933
安かろう悪かろう	-10.2935
渋	-10.2937
させる	-10.2937
チャー	-10.2942
言	-10.2948
女の子	-10.2948
改良	-10.2952
耐	-10.2957
でしょうね	-10.2957
気軽に	-10.2958
変わらず	-10.2959
つつ	-10.2972
Д	-10.2975
夏場	-10.2976
豪華	-10.2978
迷い	-10.2983
今後も	-10.2988
といった感じ	-10.2993
中敷き	-10.2996
高くても	-10.2996
チープ	-10.2998
回転	-10.3002
届いた時	-10.3003
というのが	-10.3004
購入でき	-10.3009
が強く	-10.3011
の香りが	-10.3014
イベント	-10.3019
ダブル	-10.3021
活	-10.3022
できないので	-10.3022
絶	-10.3028
保湿	-10.3029
直して	-10.3033
産後	-10.3033
ポスト	-10.3037
引っ越し	-10.304
常に	-10.3045
取れました	-10.3046
というのは	-10.3047
いなかったので	-10.305
800	-10.3051
ないもの	-10.3057
重宝しそうです	-10.3057
裏側	-10.3059
倒	-10.3061
とてもよかったです	-10.3063
気がしました	-10.3065
当たって	-10.3069
丈夫そう	-10.3075
そのもの	-10.3076
使うこと	-10.3077
災	-10.3079
掛	-10.308
喜ばれ	-10.3084
戦	-10.3086
貧	-10.3091
コットン	-10.3091
アイテム	-10.3093
タイト	-10.3102
洗顔	-10.3113
場所を	-10.3116
十	-10.3118
と思っていたのですが	-10.3123
硬くて	-10.3123
新鮮	-10.3125
大失敗	-10.3125
祝	-10.3132
いえ	-10.3132
医	-10.3133
梱包も丁寧	-10.3134
内側の	-10.3136
午前中	-10.3142
チン	-10.3144
物足りない	-10.3145
漬け	-10.3151
解消	-10.3152
閉じ	-10.3156
真っ白	-10.3157
同時購入	-10.3161
中身は	-10.3164
スプーン	-10.3166
ちょうど良かったです	-10.3166
夕方	-10.3169
メッシュ	-10.3171
気味	-10.3172
下がって	-10.3174
プレゼント用	-10.3174
お薦め	-10.3177
かせ	-10.3181
濃く	-10.3186
よくて	-10.3189
気がする	-10.319
と書かれて	-10.3191
お安いので	-10.3197
キレイな	-10.3208
難しいです	-10.3213
炭酸	-10.3214
打	-10.3215
発送まで	-10.3219
のが残念	-10.3219
易	-10.322
値段が安いので	-10.322
組み立てて	-10.3222
税	-10.3224
☆4	-10.3225
つもりで	-10.323
ボンド	-10.3231
あげる	-10.3237
98	-10.3238
鳴	-10.324
投	-10.3244
切り替え	-10.3245
書く	-10.3246
小分け	-10.3253
取り出し	-10.3256
可愛いけど	-10.3262
安心しました	-10.3265
時間がかかる	-10.3265
してしまう	-10.3268
親指	-10.3271
落ち着いて	-10.3274
願	-10.3276
割には	-10.3278
こちらの方が	-10.3286
ベタベタ	-10.3289
もう買いません	-10.329
状態でした	-10.3293
よろしくお願いします	-10.3295
95	-10.3296
編み	-10.3296
ころ	-10.3297
荒	-10.3297
どうか	-10.33
きり	-10.3301
示	-10.3302
煙	-10.3305
太く	-10.3308
ハート	-10.3314
枠	-10.3314
こちらが	-10.3315
太め	-10.3315
よさそう	-10.3316
完璧	-10.332
安いから仕方ない	-10.3333
^)/	-10.3335
うれしい	-10.3335
他のレビュー	-10.3335
軽さ	-10.3336
楽しんで	-10.3339
出来ず	-10.3342
食べています	-10.3354
繊維	-10.3355
芯	-10.3357
鉄	-10.3361
期限	-10.3362
34	-10.3362
(^^)"	-10.3368
状態です	-10.3369
構造	-10.3369
ふんわり	-10.3374
送料込み	-10.3379
お揃い	-10.338
フィルター	-10.3389
以外の	-10.3389
ゎ	-10.3389
許容範囲	-10.3396
全然違う	-10.3398
されていました	-10.3405
軽いので	-10.3411
験	-10.3414
粗悪品	-10.3417
溶	-10.3419
格安	-10.3421
ポリ	-10.3421
望	-10.3428
受け取り	-10.3431
カジュアル	-10.3432
素人	-10.3436
途中	-10.3438
混ぜ	-10.3439
グラ	-10.3439
入金	-10.344
ステキ	-10.3442
べき	-10.3443
を選んだ	-10.3445
重視	-10.3449
ドット	-10.3453
サプリ	-10.3455
するため	-10.3457
傾	-10.3459
中国	-10.3461
庭	-10.3462
込め	-10.3466
と合わせて	-10.3471
たかったのですが	-10.3473
気に入っている	-10.3474
03	-10.3474
穿	-10.3479
捨てる	-10.3481
着れません	-10.3486
開ける	-10.3488
いけません	-10.3489
美味しくて	-10.3491
細かく	-10.3495
デコ	-10.3496
薄すぎ	-10.35
ハンド	-10.3501
マッサージ	-10.3502
吹き	-10.3503
使ってみましたが	-10.3508
鳥	-10.3511
跡が	-10.3514
お値打ち	-10.3515
してくれて	-10.3516
問題ありませんでした	-10.3517
我が家では	-10.3523
と記載	-10.3527
毛布	-10.3527
を使っていましたが	-10.3528
迷	-10.3529
擦	-10.353
んでしょう	-10.353
温かい	-10.3533
薄いので	-10.3542
いただける	-10.3546
大きすぎて	-10.3548
クロス	-10.3549
フルーツ	-10.355
登	-10.3552
接触	-10.3552
うす	-10.3553
しっくり	-10.3555
いれて	-10.3555
失	-10.3556
きつくて	-10.3556
汚い	-10.3556
プール	-10.3561
;)\	-10.3561
がついている	-10.357
レシピ	-10.3571
偽	-10.3571
職	-10.3575
その分	-10.3578
プル	-10.3579
ベランダ	-10.3581
使用します	-10.3586
消臭	-10.3589
評	-10.3589
思わず	-10.3595
購入したい	-10.36
になっていました	-10.3603
背もたれ	-10.3605
(*^_^*)	-10.3606
気持ちいいです	-10.3606
想像通り	-10.3611
せば	-10.3618
安いけど	-10.3619
返答	-10.3621
良かったかな	-10.3628
覚悟	-10.363
第	-10.3631
回目の購入です	-10.3639
作りもしっかりして	-10.3648
不要	-10.365
調理	-10.3657
使うのが楽しみです	-10.3661
安物買いの銭失い	-10.3667
出産祝いに	-10.3669
でしょ	-10.3678
入りません	-10.3678
股	-10.368
リップ	-10.3684
になりません	-10.3687
のではないでしょうか	-10.3689
ようでした	-10.3689
恥ずかしい	-10.3693
側面	-10.3696
フライパン	-10.3697
気持ちよく	-10.3706
46	-10.3706
インチ	-10.3712
われて	-10.3712
分かる	-10.3714
3000	-10.3716
径	-10.3716
ノン	-10.3716
離	-10.3719
二重	-10.3722
使いやすそうです	-10.3723
給	-10.3726
料金	-10.3727
危険	-10.373
決して	-10.373
助かっています	-10.373
こっち	-10.3731
規	-10.3732
バター	-10.3734
責任	-10.3735
少しずつ	-10.3739
適当	-10.374
ホコリ	-10.3741
育て	-10.3744
購入させていただきました	-10.3747
手頃な	-10.3749
洗濯したら	-10.3749
と思い購入	-10.3751
縫製も	-10.3752
といいな	-10.3756
買い直し	-10.3758
以降	-10.3767
クッキー	-10.3767
お味	-10.3767
読め	-10.377
年末	-10.3774
大量	-10.3775
安くなって	-10.3778
いいですよ	-10.3778
ショーツ	-10.378
利用しました	-10.3782
滅	-10.3786
丈夫で	-10.3786
宅配	-10.379
大量に	-10.3799
ショルダー	-10.38
気になった	-10.38
発送メール	-10.38
硬さ	-10.3803
履き心地も	-10.3806
美味	-10.3806
内側に	-10.381
才	-10.3811
複数	-10.3814
易い	-10.3816
入園	-10.3819
機能性	-10.3819
まさに	-10.3821
イマイチでした	-10.3823
作る	-10.3828
あったのですが	-10.383
つにしました	-10.3834
十分な	-10.3834
こちらのショップで	-10.3837
トリ	-10.3837
経ち	-10.3838
アリ	-10.384
04	-10.3842
新しく	-10.3842
気をつけ	-10.3848
取れない	-10.3848
考えれば	-10.3848
かぶれ	-10.3851
食べたい	-10.3854
次回も	-10.3856
貼り付け	-10.3859
沈	-10.3862
ホントに	-10.3862
まれ	-10.3868
履けません	-10.3869
履くと	-10.3871
羽織	-10.3872
じゃなかった	-10.3873
薄かった	-10.3875
影響	-10.3875
ラッキー	-10.388
着せ	-10.388
つけられ	-10.3886
使ってみました	-10.3886
日にち	-10.3887
小さいサイズ	-10.3888
役に立	-10.3892
▁^	-10.3893
狭く	-10.3894
高級	-10.3894
して欲しいです	-10.3896
ごめんなさい	-10.3897
22.5	-10.3899
描	-10.3905
許	-10.3907
硬く	-10.3912
横幅	-10.3916
いきます	-10.3916
週間以上	-10.3917
ことができました	-10.3917
頑	-10.3921
いるうちに	-10.3922
珠	-10.3923
期待していただけに	-10.3923
お出かけ	-10.3923
蒸	-10.3931
務	-10.3932
を発見	-10.3939
通販で	-10.3941
故障	-10.3941
植	-10.3941
あるのですが	-10.3943
間違え	-10.3945
むしろ	-10.3952
アロマ	-10.3956
有る	-10.3959
出来上がり	-10.3959
こんなこと	-10.396
買ったけど	-10.3963
ぅ	-10.3966
おしゃれな	-10.3969
楽しみにしています	-10.3969
長さも	-10.3972
配線	-10.3972
66	-10.3972
やわらかく	-10.3975
払	-10.3977
いい香り	-10.3977
〓	-10.3978
意見	-10.3982
親戚	-10.3982
パジャマ	-10.3984
酸味	-10.3985
ふくらはぎ	-10.3992
と思われます	-10.3996
姿	-10.3998
同じもの	-10.3999
年齢	-10.4001
もう二度と	-10.4002
リピーターです	-10.4002
ニャ	-10.4004
商品届きました	-10.4005
試しましたが	-10.4007
手袋	-10.4008
美味しかったので	-10.401
悲しい	-10.4011
くっついて	-10.4015
170	-10.4018
欲	-10.402
実物を見て	-10.4022
ばっちり	-10.4022
ましょう	-10.4023
埃	-10.4023
の使用で	-10.4026
肩幅	-10.4031
600	-10.4032
使用してます	-10.4033
答	-10.4036
アルミ	-10.4036
使い続け	-10.4037
パサパサ	-10.4042
さほど	-10.4042
着られ	-10.4043
ベース	-10.4045
甲高	-10.4052
抜けて	-10.4053
独特の	-10.4055
商品には	-10.4055
ジャスト	-10.4058
タイトル	-10.4073
トップス	-10.4081
施	-10.4083
かわいいけど	-10.4085
着れる	-10.409
するべき	-10.4097
このサイズ	-10.4099
外す	-10.4101
だったのか	-10.4107
使い捨て	-10.411
落ち着いた色	-10.4112
潰れて	-10.4112
ロゴ	-10.4119
ワンコ	-10.4121
騙された	-10.4121
巾	-10.4121
!!!","	-10.4124
簡易	-10.4125
ジャストサイズ	-10.4129
神	-10.4132
バレ	-10.4132
ホール	-10.4134
頼まれ	-10.4135
以外に	-10.414
購入してよかったです	-10.4141
ダン	-10.4142
値段的に	-10.4143
or	-10.4143
と思ったけど	-10.4144
掃除機	-10.4145
伸ばし	-10.4147
59	-10.415
Z	-10.4154
そのうち	-10.4159
ホット	-10.4161
&#9825;	-10.4168
年生	-10.4169
に比べると	-10.4176
使い勝手も	-10.4177
ラク	-10.4178
行け	-10.4183
ダイ	-10.4184
ミラー	-10.4184
不安定	-10.4185
初期不良	-10.4186
百	-10.4188
ることが出来	-10.419
変色	-10.4195
食品	-10.4196
大容量	-10.4196
壁に	-10.4198
品切れ	-10.42
ちょうどいいです	-10.42
クレーム	-10.4202
ちょうど良く	-10.4203
とありますが	-10.4207
充電でき	-10.421
買わなかった	-10.4212
酢	-10.4212
可愛さ	-10.4215
落として	-10.4221
久しぶりに	-10.4222
支え	-10.4222
400	-10.423
筒	-10.423
を選んで	-10.4231
うるさい	-10.4232
中々	-10.4233
ちゃんとした	-10.4233
義母	-10.4237
76	-10.4239
簡単な	-10.424
こともあり	-10.4246
ちょうどよかったです	-10.4247
主人に	-10.4248
自宅で	-10.4251
パウダー	-10.4253
当たり前	-10.4256
隠れ	-10.4256
88	-10.4256
水色	-10.4258
菌	-10.4259
開封して	-10.426
美味しさ	-10.4264
もう買わない	-10.427
レット	-10.4271
それだけ	-10.4274
されていない	-10.4276
値段以上	-10.4277
もらえた	-10.4279
(?)	-10.428
加減	-10.4282
痒	-10.4286
絞	-10.4287
なくなります	-10.429
ソファ	-10.4291
流れ	-10.4293
安価な	-10.4295
ガス	-10.4295
快適です	-10.4304
日本語	-10.4305
加え	-10.4306
とは違い	-10.4309
ディー	-10.4309
可愛らしい	-10.431
ビュー	-10.4317
ラグ	-10.4319
基	-10.432
継続	-10.432
歴	-10.4322
違う色	-10.4324
夫婦	-10.4324
なってきたので	-10.4327
無難	-10.433
男の子	-10.4335
ようになりました	-10.4341
完	-10.4343
思っていた以上に	-10.4343
上がる	-10.4344
とてもかわいいです	-10.4348
劣化	-10.435
と思っていたので	-10.4351
一人	-10.4351
履いている	-10.4359
照	-10.4362
1.	-10.4367
触れ	-10.4367
歩け	-10.4369
塗	-10.4369
更	-10.437
微妙な	-10.4371
連絡して	-10.4372
証	-10.4372
未だに	-10.4372
動く	-10.4379
されています	-10.4381
づけ	-10.4381
納品	-10.4386
買ってしまいました	-10.4388
お酒	-10.439
ジェ	-10.439
ジン	-10.4393
充電器	-10.4395
私的には	-10.4396
を探してました	-10.4396
に対応して	-10.4398
ゴワゴワ	-10.4398
こちらで購入しました	-10.4399
入らず	-10.4399
商品が届く	-10.4401
このシリーズ	-10.4403
グラム	-10.4405
ぴったりです	-10.4405
うどん	-10.4407
次の日	-10.4407
見栄え	-10.4417
予	-10.4418
キャッチ	-10.4419
致しました	-10.4419
美味しそう	-10.4419
分かって	-10.4421
両面テープ	-10.4423
ペーパー	-10.4429
延	-10.4433
履きやすく	-10.4436
合わせる	-10.4437
寸法	-10.4438
一個	-10.4438
イライラ	-10.4439
使ってみた	-10.4439
よさそうです	-10.4443
きつかった	-10.4451
みたのですが	-10.4467
級	-10.4473
大変満足です	-10.4474
出会え	-10.4477
深い	-10.4478
ョ	-10.4478
殆ど	-10.4481
して下さい	-10.4483
買えば良かった	-10.4485
刃	-10.4487
一気に	-10.4487
咲	-10.4489
二枚	-10.4489
欠	-10.449
一緒	-10.4492
ポット	-10.4492
^*)	-10.4501
中途半端	-10.4506
ゼロ	-10.4506
泡立ち	-10.4509
履ける	-10.4513
られず	-10.4514
買い物が出来ました	-10.4516
週間ほど	-10.4519
プチ	-10.452
お肌	-10.4521
履けない	-10.4522
鞄	-10.4522
電動	-10.4524
少し大きい	-10.4527
高級感があり	-10.4528
デザインは可愛い	-10.4532
変わる	-10.4532
歌	-10.4533
どうかな	-10.4539
アクセント	-10.4539
短め	-10.4541
陰	-10.4541
おススメ	-10.4546
ちゃち	-10.4546
置け	-10.4551
ボン	-10.4555
焦げ	-10.4557
01	-10.4558
浮き	-10.4562
ダークブラウン	-10.4566
クール	-10.4566
長年	-10.4567
踵	-10.4568
無視	-10.4577
93	-10.4581
見本	-10.4582
目立たない	-10.4584
よくわかりません	-10.4585
兄	-10.4592
送料込	-10.4593
術	-10.4594
西	-10.4596
ウィッグ	-10.4596
ペア	-10.4596
時々	-10.4598
まくり	-10.4602
敏感肌	-10.4602
甘くて	-10.4607
苦労しました	-10.4608
んじゃないか	-10.4614
っとした	-10.4616
コスト	-10.4619
有名	-10.4621
嫁	-10.4621
擦れ	-10.4621
開けたら	-10.4626
貼れ	-10.4628
−1	-10.463
割高	-10.4631
私の場合	-10.4632
直す	-10.4636
期待してた	-10.4638
問	-10.464
にすればよかった	-10.4646
組み	-10.4659
額	-10.466
不良品でした	-10.4662
いかない	-10.4669
ママ	-10.4674
衣	-10.4676
網	-10.468
理想	-10.4681
いまいちでした	-10.4682
今日届きました	-10.4682
ユ	-10.4684
感想は	-10.4685
ジョ	-10.4688
のが残念でした	-10.4688
起こ	-10.4691
が気になり	-10.4695
立って	-10.4696
選んだ	-10.4708
97	-10.471
太さ	-10.4723
84	-10.4725
買った方が	-10.4727
それ以外は	-10.4728
検	-10.4731
すぎた	-10.4734
やめました	-10.4735
つけました	-10.4735
胸元	-10.4738
良い感じ	-10.4738
利用しています	-10.474
考慮	-10.4742
生まれ	-10.4744
度目の購入です	-10.4745
可能性	-10.4746
売ってる	-10.4748
どころか	-10.4749
経験	-10.4757
入ってる	-10.476
開く	-10.4765
洗浄	-10.4766
ありがたい	-10.477
試した	-10.4771
られている	-10.4771
簡単です	-10.4774
した後	-10.4775
重ねて	-10.4778
取り付ける	-10.4781
出産祝い	-10.4784
散歩	-10.4784
エコ	-10.4785
与え	-10.4787
難しく	-10.4792
ガタガタ	-10.4795
盛	-10.4796
パイプ	-10.4797
使っていて	-10.48
繰り返し	-10.4802
77	-10.4808
改めて	-10.4809
仕切り	-10.4809
^)"	-10.4813
ボーダー	-10.4817
を入れた	-10.4818
かかります	-10.4825
なくなってしまいました	-10.4825
個人	-10.4826
靴底	-10.4827
ようなもの	-10.4829
安っぽさ	-10.483
そば	-10.4839
購入できました	-10.4841
炎	-10.4845
わからず	-10.4847
隠れる	-10.4848
算	-10.4851
釣	-10.4852
遅れる	-10.4854
ヒビ	-10.4855
運転	-10.4856
考	-10.486
おしり	-10.4867
取り付けました	-10.487
退	-10.4871
取り扱い	-10.4872
おそらく	-10.4873
始	-10.4873
ビス	-10.4876
に入れた	-10.4878
ティング	-10.488
年前	-10.488
頂	-10.4881
手首	-10.4881
乱	-10.4882
画像では	-10.4884
庫	-10.4886
メガネ	-10.4888
期待していましたが	-10.4889
減り	-10.4889
新築	-10.4893
想像より	-10.4896
されてる	-10.4897
年以上	-10.4898
GOOD	-10.4904
迅速に対応	-10.4908
都合	-10.4908
マッチ	-10.4921
ミックス	-10.4923
アダプタ	-10.4925
固くて	-10.4925
軽量	-10.4927
素敵でした	-10.4931
,000	-10.4936
さらさら	-10.4937
ミント	-10.4941
抑え	-10.4942
渡す	-10.4943
醤油	-10.4949
使いやすくて	-10.4952
分けて	-10.4957
出てくる	-10.4957
オール	-10.4957
曲げ	-10.4958
遣	-10.496
焼いて	-10.496
使えました	-10.4964
困る	-10.4966
諦めました	-10.4966
も多く	-10.4966
生地が薄く	-10.4972
センス	-10.4973
気持ちいい	-10.4978
どこか	-10.4979
揚げ	-10.4986
締	-10.4988
ユニ	-10.4994
アイス	-10.4994
'	-10.4997
忘れて	-10.4998
ごろ	-10.5001
遅くなり	-10.5012
(^^)\	-10.5018
まらず	-10.5027
ショッピング	-10.5034
安っぽい感じ	-10.5035
使い道	-10.5037
同じものを	-10.5037
とは違う	-10.5039
見つけ	-10.5042
午	-10.5043
機会があれば	-10.5044
あくまで	-10.505
困りました	-10.5052
くせ	-10.5052
込んだ	-10.5063
ればいい	-10.5063
本日届きました	-10.5064
荷	-10.5066
わかります	-10.5067
02	-10.5067
営業	-10.5069
乾か	-10.5069
もいいし	-10.5069
ピンクを購入しました	-10.5074
ちょうどよい	-10.5077
省	-10.508
座る	-10.5081
が多くて	-10.5086
壊れる	-10.5088
なんでしょうか	-10.5091
景	-10.5094
抹茶	-10.5096
封筒	-10.5096
掛かり	-10.5097
値段が安い	-10.5097
書け	-10.51
この値段でこの	-10.5106
浅い	-10.5107
説	-10.5108
買うこと	-10.5112
島	-10.5114
なにより	-10.5116
寄り	-10.5119
子供達	-10.5122
あちこち	-10.5125
豚	-10.5127
安っぽく見え	-10.5127
美味しくない	-10.5128
想	-10.5129
ハマ	-10.5137
円くらい	-10.5138
期待通り	-10.5139
カッコ	-10.514
載	-10.5143
づらく	-10.5144
ダーク	-10.5145
ラベンダー	-10.5149
気になりませんでした	-10.515
弟	-10.5154
スーパーセール	-10.5154
無かったので	-10.5156
広がり	-10.5159
細め	-10.5159
るのが楽しみです	-10.5165
まずい	-10.5172
使いやすそう	-10.5174
造	-10.5176
残る	-10.5176
今回初めて	-10.5177
穴が開いて	-10.5182
詰め替え	-10.5187
ダンス	-10.5188
はっきり言って	-10.5189
ベル	-10.519
ゆるい	-10.519
届け	-10.5191
期待はずれでした	-10.5191
近い	-10.5193
選んで	-10.5199
北海道	-10.5201
はがれ	-10.5202
動いて	-10.5204
ぜんぜん	-10.5207
覚え	-10.5208
直後	-10.5213
頻繁に	-10.5214
小銭入れ	-10.5215
カフェ	-10.5217
チャレンジ	-10.5217
ふき	-10.5217
ちょっと残念でした	-10.5218
囲	-10.522
蛍光	-10.5225
レモン	-10.5229
いきなり	-10.523
86	-10.5231
きつめ	-10.5232
グラス	-10.5232
考えると	-10.5233
シルク	-10.5236
ぜ	-10.5238
一品	-10.5241
波	-10.5242
瞬間	-10.5244
総	-10.525
ワンピ	-10.5257
明記	-10.5257
程よい	-10.5258
ランク	-10.5262
二度	-10.5263
違うもの	-10.5264
私には合いませんでした	-10.5267
請求	-10.527
ジャン	-10.5272
無理でした	-10.5273
を想像して	-10.5276
と書いてあったので	-10.5278
いる方	-10.5281
噛	-10.5285
気泡	-10.5287
洗える	-10.5296
ギャ	-10.5306
華奢	-10.5311
歳の息子	-10.5312
ネコ	-10.5312
はずなのに	-10.5312
収まり	-10.5316
いるもの	-10.5316
方向	-10.5319
テンション	-10.5324
またリピします	-10.5325
相談	-10.5328
この時期	-10.5329
つかえ	-10.5339
意外に	-10.5342
手続き	-10.5346
名入れ	-10.5352
出てきて	-10.5353
期待していたのですが	-10.5354
の為に購入しました	-10.5361
世	-10.5362
良い物	-10.5367
堅	-10.5367
貰え	-10.5369
よかったかな	-10.538
お土産	-10.539
ゾ	-10.5397
ラーメン	-10.5399
購入者	-10.54
カニ	-10.54
固く	-10.5403
花柄	-10.5405
態	-10.5406
★2	-10.5415
申し訳ない	-10.5415
にたどり着きました	-10.5416
使ったら	-10.5419
歪んで	-10.5421
取れません	-10.5423
暗	-10.5425
握	-10.5426
木目	-10.5429
マーク	-10.5432
プチプチ	-10.5434
粘着	-10.5435
安いもの	-10.544
階	-10.5442
165	-10.5445
当初	-10.5454
入りませんでした	-10.5454
見た感じ	-10.5457
商品が届いた	-10.546
舞	-10.5461
かわいかったです	-10.5469
1.5	-10.547
認	-10.5473
替	-10.5474
カーペット	-10.5486
ボルト	-10.5488
欠けて	-10.5498
アクセサリー	-10.5498
静電気	-10.5498
違	-10.5499
重み	-10.5502
ルーム	-10.5506
リピートしました	-10.5506
諦めて	-10.5509
円以上	-10.5513
ついていました	-10.5513
いなくて	-10.5515
中学生	-10.5516
姿勢	-10.5518
人間	-10.552
だったため	-10.5521
使おうと思います	-10.5524
ペットボトル	-10.5526
事前に	-10.5526
とても便利です	-10.5528
染み	-10.553
撮影	-10.5537
久	-10.5543
発見	-10.5543
こぼれ	-10.5543
ウチ	-10.555
ON	-10.5552
るようになりました	-10.5556
コーティング	-10.5556
どういう	-10.5558
ることなく	-10.556
頻	-10.556
相性	-10.5564
広告	-10.5569
あがり	-10.5572
震	-10.5574
最後まで	-10.5578
優れ	-10.5581
着丈	-10.5582
爽やか	-10.5582
パネル	-10.559
予防	-10.5591
何だか	-10.5594
ゴミ箱	-10.5595
だけに残念	-10.5596
普段着	-10.5602
ごみ	-10.5604
受	-10.5611
追加購入	-10.5618
&#8252;&#65038;	-10.5621
未使用	-10.5622
ヨーグルト	-10.5632
軟	-10.5637
決めて	-10.5638
英語	-10.5641
カタログ	-10.5646
悲	-10.5649
合皮	-10.5652
送付	-10.5653
砂糖	-10.5654
ありがとう	-10.5658
入ってました	-10.5659
ウィ	-10.5659
ホールド	-10.5662
マチ	-10.5669
だんだん	-10.5676
づつ	-10.5678
純	-10.568
ストレート	-10.5681
切れる	-10.5682
まわ	-10.5689
るべき	-10.569
喜	-10.5693
盆	-10.5695
暖かさ	-10.5703
ma	-10.5714
乾く	-10.5719
そもそも	-10.572
レビューが良かったので	-10.5726
ニキビ	-10.573
で買うより	-10.5731
裂け	-10.5731
打ち	-10.5737
こそ	-10.5739
風呂	-10.5741
店頭	-10.5742
長すぎ	-10.5748
菜	-10.5749
たべ	-10.5751
すっごく	-10.5757
馴染んで	-10.5761
組み立ても簡単	-10.5766
になれ	-10.5772
今では	-10.5776
敏	-10.578
体調	-10.5782
未だ	-10.5785
暗く	-10.5791
割引	-10.5792
呼	-10.5792
甘すぎ	-10.5804
いままで	-10.5805
本目	-10.5805
留め具	-10.5806
濃厚	-10.5813
帰って	-10.5815
`*)	-10.5818
中央	-10.582
やわらかい	-10.5821
抱	-10.5822
ぶかぶか	-10.5823
頂きたい	-10.5823
してみよう	-10.5827
ことはありません	-10.5831
照明	-10.5833
塗った	-10.5836
自然な	-10.5843
不親切	-10.5845
お皿	-10.5845
こども	-10.5848
変形	-10.585
輝き	-10.585
療	-10.5854
欠品	-10.5857
°	-10.5859
論	-10.5861
識	-10.5862
幸	-10.5862
お礼	-10.5865
バカ	-10.5868
京	-10.5868
ホック	-10.5871
お手頃価格	-10.5872
しようと思い	-10.5872
栄養	-10.5873
いないのに	-10.5875
ねぇ	-10.5882
便秘	-10.5883
重宝してます	-10.5883
確認メール	-10.589
センター	-10.5893
ブレスレット	-10.5895
トマト	-10.5901
切れ味	-10.5918
抱っこ	-10.5919
あったかい	-10.5923
添付	-10.5927
いいなぁ	-10.5928
なりませんでした	-10.5932
スマート	-10.5932
のようなものが	-10.5934
膨	-10.5935
ユー	-10.5941
供	-10.5946
士	-10.5947
出番	-10.5949
低反発	-10.595
ようになり	-10.5952
思ったほど	-10.5957
吐	-10.5957
できなかった	-10.5971
切った	-10.5972
リピしました	-10.5986
&#128	-10.5989
ゆっくり	-10.5992
発売日	-10.5996
グリ	-10.6
味付け	-10.6003
かわいかった	-10.6007
チャーム	-10.6008
ストッキング	-10.6014
いきません	-10.6014
レール	-10.6015
になりそう	-10.6017
買おうか	-10.6024
と思っていたら	-10.6025
想定	-10.6025
時間がかかりました	-10.6034
無くて	-10.6034
研	-10.6037
完全	-10.6041
過去	-10.6044
5000	-10.6044
あげた	-10.6054
使い続けて	-10.6055
目立た	-10.6055
中心	-10.6061
★4	-10.6066
お手入れ	-10.6067
ウム	-10.6068
症	-10.607
ジッパー	-10.6071
縫い付け	-10.6074
手配	-10.6076
その時	-10.6078
値段もお手頃	-10.6081
が欲しかったのですが	-10.6081
似たような	-10.6088
ポンプ	-10.6091
刻	-10.6094
粘着力	-10.6099
確実に	-10.6108
都	-10.6116
¥	-10.6117
のが大変	-10.6117
さを感じ	-10.6118
158	-10.6124
何故か	-10.6133
勉強になりました	-10.6137
売れ	-10.6137
送られてきました	-10.6137
壊	-10.6138
出来ませんでした	-10.6138
毛穴	-10.6141
餅	-10.6142
川	-10.6144
お返し	-10.615
シングル	-10.615
ガン	-10.6152
何故	-10.6152
ニュー	-10.6161
洗え	-10.6162
抵抗	-10.6164
(^_^)	-10.6165
低価格	-10.617
シンプルなデザイン	-10.617
歪	-10.6174
購入してしまいました	-10.6174
使用していません	-10.6178
下半身	-10.6179
リピしたいです	-10.6182
比較的	-10.6183
お正月	-10.6184
&#9	-10.6186
対応も早く	-10.6187
過ぎず	-10.6188
環境	-10.6191
歩きやすい	-10.6195
先端	-10.6197
スタンプ	-10.6198
フィットして	-10.6207
巻いて	-10.6208
収納力	-10.6208
与えて	-10.6211
マンション	-10.6218
いい加減	-10.622
されない	-10.6221
本革	-10.6222
効果なし	-10.6224
最安値	-10.6226
変わりません	-10.6229
脱ぎ	-10.623
一般	-10.6231
真っ黒	-10.6235
また利用したいです	-10.6241
に惹かれ	-10.6242
電波	-10.6249
高価な	-10.6256
また購入したいです	-10.6259
また利用したいと思います	-10.626
錆び	-10.6269
下がり	-10.6269
値段が高い	-10.627
嬉しく	-10.6273
直しました	-10.6281
見えました	-10.6281
出会い	-10.6283
改善され	-10.6285
清潔	-10.6285
みないと	-10.6286
おりません	-10.6289
手入れ	-10.629
このお値段なら	-10.6295
滴	-10.6297
熟	-10.6297
値段も手頃	-10.6302
伸	-10.6304
断念	-10.6306
レンタル	-10.6308
トレー	-10.6309
届いたものは	-10.6314
長財布	-10.6324
不愉快	-10.633
謝罪	-10.6332
芽	-10.6333
ブラックを購入しました	-10.6333
スライド	-10.6335
標準	-10.634
グラグラ	-10.6348
聞いた	-10.6351
卓	-10.6355
母親	-10.6356
にすれば良かった	-10.6359
安いので仕方ない	-10.6375
透ける	-10.6375
着ている	-10.6382
統	-10.6393
ふつう	-10.6395
作られて	-10.6397
有難うございました	-10.6398
方がいいと思います	-10.6398
安心感	-10.6406
ベタ	-10.6407
立派な	-10.6407
満足度	-10.6408
バスタオル	-10.6408
あたたか	-10.6409
オリジナル	-10.6416
自由	-10.6416
お得だと思います	-10.642
折りたたみ	-10.642
私には合わなかった	-10.6422
カロリー	-10.6423
コンセント	-10.6425
ストック	-10.6433
グリップ	-10.6435
キツく	-10.6439
選ば	-10.644
突然	-10.6441
引越し	-10.6444
ラベル	-10.6444
湿気	-10.6453
д	-10.6459
考えています	-10.6463
インソール	-10.6464
ることができました	-10.6465
スーツケース	-10.6467
くすんだ	-10.6474
距離	-10.6479
甘味	-10.6481
と言っていました	-10.6485
払って	-10.6485
クリーニング	-10.6486
小学校	-10.6494
その上	-10.6498
ゴルフ	-10.6501
ナッツ	-10.6502
若い	-10.6506
キッ	-10.6508
96	-10.6511
モカ	-10.6511
浸	-10.6517
そろそろ	-10.6517
化粧品	-10.6532
尚	-10.6537
後悔しました	-10.6539
マグ	-10.654
フワフワ	-10.654
激	-10.6543
お届け	-10.6547
寄	-10.655
コンビニ	-10.655
商品名	-10.6552
ものを探していました	-10.6555
工具	-10.6556
隅	-10.656
見つかり	-10.6562
妙	-10.6575
嘘	-10.6576
千	-10.6576
ズレて	-10.658
モニター	-10.6581
揃って	-10.6587
買い足し	-10.6587
噛み	-10.6587
値段の割りに	-10.6596
盤	-10.6596
カラコン	-10.6599
祖母	-10.6604
“	-10.6619
ネーム	-10.6625
痒く	-10.6628
79	-10.6629
商	-10.6631
パーティー	-10.6633
初回	-10.6634
浄	-10.6634
ハンカチ	-10.6635
障	-10.6637
また購入したいと思います	-10.6639
勧められ	-10.6644
一回り	-10.6646
悩んだ	-10.6653
ホース	-10.6653
質問	-10.6654
みなさんのレビュー	-10.6656
振	-10.6657
遅れて	-10.6658
衣装	-10.6659
ポール	-10.6663
システム	-10.6666
しかありません	-10.6666
写真のように	-10.6674
ちゃいます	-10.6678
控えめ	-10.6678
終わって	-10.6679
欲しくなり	-10.668
この手の	-10.6682
彼女	-10.6685
踏	-10.6688
片付け	-10.6692
伝票	-10.6696
スリッパ	-10.6697
短すぎ	-10.6697
オムツ	-10.6699
つまみ	-10.6702
来客	-10.6704
聞こえ	-10.671
挙	-10.6712
保温	-10.6712
飾って	-10.6712
否	-10.672
日に注文して	-10.6722
にはなりません	-10.6723
チェア	-10.6725
日常	-10.6726
持続	-10.6738
我慢して	-10.6745
ほうが良い	-10.6747
賞	-10.6759
高評価	-10.6768
紅茶	-10.678
表紙	-10.6784
ビジネス	-10.6786
塗る	-10.6786
早い対応	-10.6786
目立って	-10.6786
z	-10.6788
まずまず	-10.6789
以前使っていた	-10.6798
股上	-10.6802
全く違う	-10.6805
くださり	-10.6809
ドラッグストア	-10.6812
ついていた	-10.6814
と言った	-10.6816
日で届きました	-10.6817
劣	-10.6818
清	-10.6825
いかにも	-10.6825
寝室	-10.683
と思える	-10.6833
そうな感じ	-10.6834
&#8	-10.6838
背面	-10.6838
悪すぎ	-10.6841
眠れ	-10.6843
待たされ	-10.6845
裏面	-10.6846
痛くなる	-10.6846
暗め	-10.6847
good	-10.6849
慌てて	-10.6851
ビニール袋	-10.6851
ヤマト	-10.6854
じゃなくて	-10.6854
押さえ	-10.6855
には向かない	-10.686
合わせやすい	-10.686
排	-10.6861
玄米	-10.6862
忙しい	-10.6863
たくて購入しました	-10.6864
中敷	-10.6864
ストール	-10.6865
命	-10.6869
ではないでしょうか	-10.6874
惜	-10.6875
展開	-10.6875
間違えた	-10.6877
探していたら	-10.6878
履かせ	-10.6883
UV	-10.6884
並べて	-10.6885
ナイロン	-10.6885
ナット	-10.6887
生産	-10.6893
思っていた通り	-10.6898
ビール	-10.6902
商品として	-10.6903
入っていませんでした	-10.6908
作りが雑	-10.6909
決め手	-10.6909
ヶ所	-10.691
いらっしゃ	-10.6912
麻	-10.692
困ります	-10.6927
it	-10.6935
雑誌	-10.6936
クション	-10.6941
無添加	-10.6945
個人差	-10.6945
先生	-10.6946
衝撃	-10.6952
句	-10.6953
利用したいと思います	-10.6954
集め	-10.6957
液晶	-10.6957
ro	-10.6959
きっちり	-10.696
洋	-10.6966
実用的	-10.6971
ちがい	-10.6973
カッコいい	-10.6979
安く購入出来	-10.6999
チャン	-10.7002
早めに	-10.7004
とは思えません	-10.7004
開け閉め	-10.7004
大型	-10.7006
妥当	-10.7008
反省	-10.7009
成長	-10.7009
控え	-10.7009
分厚い	-10.7009
っけ	-10.701
レビューを書いて	-10.7017
冬場	-10.7017
87	-10.7024
つかず	-10.7026
どうにか	-10.7034
Q	-10.7035
どうやって	-10.7042
ちゃった	-10.7043
頭皮	-10.7044
ことにします	-10.7048
食べさせ	-10.705
ポチ	-10.7055
包丁	-10.7056
も欲しくなりました	-10.706
構	-10.706
魅力的	-10.7063
避け	-10.7066
応え	-10.7066
円ショップ	-10.7069
押す	-10.7069
先方	-10.7071
暑く	-10.7083
馬	-10.7088
ノート	-10.7097
布地	-10.7097
週末	-10.7098
硬め	-10.7098
〜〜〜	-10.7101
足元	-10.7101
しっかりしてる	-10.7107
低く	-10.7108
蒸れ	-10.7109
てしまいそう	-10.7111
そんなこと	-10.7114
カール	-10.7127
配送業者	-10.713
若	-10.7131
ハム	-10.7132
しょっぱ	-10.7133
承知	-10.7135
お勧めできません	-10.7137
ハッキリ	-10.7148
....	-10.7149
買ってしまった	-10.7149
手数料	-10.7151
―	-10.7169
初日	-10.7172
と思いきや	-10.7173
という印象	-10.7175
スティック	-10.7175
良品	-10.7175
映え	-10.7192
住所	-10.7192
指定日	-10.7195
素早い対応	-10.7196
ヘビロテ	-10.72
浴衣	-10.72
グッズ	-10.7208
詳しく	-10.7208
出ている	-10.7211
IN	-10.7211
経ちますが	-10.7213
購入しようと思います	-10.7215
経つ	-10.7218
丸見え	-10.7224
お蔵入り	-10.7227
チョコレート	-10.723
と思うくらい	-10.7232
入れたら	-10.7233
申し分ない	-10.7234
自己	-10.7235
以来	-10.7236
想像していたより	-10.7239
買うべき	-10.7241
間違いない	-10.7247
木製	-10.7248
迷わず	-10.7249
投稿	-10.7252
パスタ	-10.7257
郵便	-10.7268
戻って	-10.727
センサー	-10.7271
まだ届いてない	-10.7273
温め	-10.7277
福	-10.7281
可愛	-10.7281
併用	-10.7281
はがれて	-10.7281
作動	-10.7281
勧め	-10.7283
と思われる	-10.7286
小銭	-10.7287
んですかね	-10.7287
不自然	-10.7288
多数	-10.7289
詳細	-10.7299
日曜	-10.73
すっぽり	-10.7302
使ってみると	-10.7306
リピ買い	-10.7312
チョット	-10.7314
餌	-10.7315
北	-10.732
ゆるく	-10.7328
異なる	-10.733
使いたかった	-10.7337
使わず	-10.7338
裏起毛	-10.7343
されており	-10.7346
通学	-10.7352
取説	-10.7364
使えば	-10.7366
取引	-10.7367
カゴ	-10.7367
何の連絡も	-10.7372
ダイニング	-10.7377
じゃなく	-10.7379
特典	-10.7385
ひんやり	-10.7387
キャン	-10.7388
凹み	-10.7391
出張	-10.7392
馴染み	-10.7393
以前購入した	-10.7394
珍しい	-10.7399
アルバム	-10.7401
一人暮らし	-10.7404
こちらにしました	-10.7409
タイミング	-10.7409
配慮	-10.7421
違いすぎ	-10.7422
輸入	-10.7422
楽しみに待って	-10.7424
淡い	-10.743
凸	-10.7431
作成	-10.7432
ピチピチ	-10.7435
売られて	-10.7441
条件	-10.7442
予想通り	-10.7444
カッター	-10.7446
合った	-10.7446
一瞬	-10.7446
良い商品だと思います	-10.7448
してくれました	-10.745
見られ	-10.7451
かえって	-10.7454
怖	-10.7464
廃棄	-10.7465
取り替え	-10.7467
効き目	-10.7467
ほこり	-10.7468
受付	-10.7477
牛乳	-10.7478
迷惑	-10.748
良好	-10.7489
従	-10.749
迫	-10.749
無くなり	-10.7491
濃い色	-10.7494
注意書き	-10.7498
枝	-10.7499
選	-10.7503
リクエスト	-10.7507
問題なかった	-10.7508
終わった	-10.7508
微	-10.751
凝	-10.751
ソース	-10.7518
綺麗な色	-10.753
|	-10.7539
液体	-10.754
結婚式用に	-10.754
何年も	-10.7545
入っていない	-10.7548
壊れてしまいました	-10.7549
味わい	-10.7553
挿	-10.7555
気にせず	-10.7556
激安	-10.7562
まとめ	-10.7568
梱包されて	-10.7579
宅	-10.7581
言わ	-10.7581
涼しく	-10.7581
拭いて	-10.7588
ゲーム	-10.7592
良さ	-10.7595
鮮	-10.7596
サラダ	-10.7597
覆	-10.7598
エアコン	-10.7609
症状	-10.7612
彫	-10.7618
露	-10.7623
カッコイイ	-10.7627
購入しようか	-10.7634
ハサミ	-10.7638
上手に	-10.7638
弁	-10.764
易く	-10.7641
フリル	-10.7652
無理やり	-10.7653
ひざ	-10.7658
敷布団	-10.7659
潰れ	-10.7663
映像	-10.7663
フラワー	-10.7663
いきたいと思います	-10.7668
ワンサイズ上	-10.7678
落ち着き	-10.7685
剥がし	-10.7687
ic	-10.7689
大き過ぎ	-10.7694
意味がない	-10.7696
たりする	-10.7697
フロント	-10.7698
の付け根	-10.7698
レビューを書く	-10.7703
天井	-10.7704
悔	-10.7706
1〜2	-10.7712
ホント	-10.7712
使えなかった	-10.7714
袖口	-10.7714
終了	-10.7715
お買い得だと思います	-10.7715
訂正	-10.772
柱	-10.7726
知り合い	-10.7733
旧	-10.7735
ぉ	-10.7735
織	-10.7746
異常	-10.7753
使い物に	-10.7753
懐かし	-10.7756
わかりやすく	-10.7756
域	-10.7758
案	-10.7758
んですよね	-10.7765
余裕があり	-10.7769
県	-10.777
曇	-10.777
ゥ	-10.7784
根元	-10.7795
働	-10.7796
生地もしっかりして	-10.7803
石油	-10.7803
互	-10.7804
つるつる	-10.7804
定期	-10.7813
買ってみた	-10.7818
生地もしっかりしていて	-10.7818
一緒に購入した	-10.782
満点	-10.7822
めんどくさい	-10.7822
タバコ	-10.7831
書き込み	-10.7832
が悪かったのか	-10.7833
路	-10.7836
欲しくて	-10.7842
夏用	-10.7843
問い合わせたところ	-10.7844
喜んでくれる	-10.7847
覚悟して	-10.7848
技	-10.7848
穴があいて	-10.7848
できそう	-10.785
拝	-10.7854
あっさり	-10.7863
&#10071;	-10.7866
@	-10.7868
餃子	-10.7868
持った	-10.788
ネジ穴	-10.7881
適度な	-10.7883
を変えて	-10.7885
局	-10.7885
■	-10.7885
独	-10.7886
修正	-10.7887
させていただいて	-10.7889
頂ける	-10.789
ゆるゆる	-10.789
致します	-10.7892
ごはん	-10.7893
やり方	-10.7894
んですけどね	-10.7905
祭	-10.7909
メッキ	-10.7915
刻印	-10.7916
決済	-10.792
タブレット	-10.7921
やさしい	-10.7921
温かく	-10.7922
飲みやすく	-10.7925
補強	-10.7927
コネクタ	-10.7933
入らなかった	-10.7935
毎朝	-10.7936
いただく	-10.7942
腫	-10.7942
購入いたしました	-10.7942
似て	-10.7943
伸びない	-10.7943
お歳暮	-10.7957
内部	-10.7968
OFF	-10.7968
強力	-10.7974
データ	-10.7984
あえて	-10.7987
対象	-10.7998
たいへん	-10.8001
コップ	-10.8002
肘	-10.8003
海苔	-10.8004
寄せ	-10.8008
開けた瞬間	-10.8008
道具	-10.8009
エビ	-10.8013
開いた	-10.8014
ランドセル	-10.8018
ジーンズ	-10.8021
白髪	-10.8022
菓子	-10.8024
交	-10.8036
しまえば	-10.8039
スカスカ	-10.8039
肩こり	-10.8039
商品到着後	-10.8039
故	-10.8042
よく見ると	-10.8043
磁石	-10.8043
随分	-10.8049
le	-10.8052
を求めて	-10.8057
オリーブ	-10.806
骨盤	-10.8061
させてもらいました	-10.8062
チップ	-10.8062
後悔してます	-10.8074
出来れば	-10.8075
返送	-10.8076
ヵ月	-10.8076
案内	-10.8083
不可能	-10.8085
値段相当	-10.8092
量販店	-10.8093
我	-10.8094
指紋	-10.8096
困っていました	-10.8097
カード入れ	-10.8103
買っちゃ	-10.8109
勢い	-10.8114
惑	-10.8116
傷だらけ	-10.8122
逃	-10.8125
晴	-10.8125
ブレス	-10.8126
列	-10.8137
ほんのり	-10.8141
分かれ	-10.8141
アトピー	-10.8146
概	-10.8146
もしくは	-10.8148
クッション性	-10.815
安全性	-10.815
クローゼット	-10.8168
エラー	-10.817
コロコロ	-10.817
機能的	-10.8171
隣	-10.8173
煎	-10.8174
乾燥肌	-10.8182
はやく	-10.8183
企	-10.8185
祈	-10.8186
月末	-10.8196
iphone	-10.8198
900	-10.8202
うまい	-10.8208
苦しい	-10.8209
提	-10.8209
おもしろ	-10.8216
溜	-10.8228
燃	-10.8243
リアル	-10.8244
流行	-10.8246
楽チン	-10.8247
シャワー	-10.8255
わからなかった	-10.8259
喜び	-10.8259
ようになった	-10.8268
まだ使用していませんが	-10.8274
運ぶ	-10.8277
専門	-10.8282
師	-10.8282
することにしました	-10.8284
を開けると	-10.8288
趣味	-10.829
の悪さ	-10.8301
イヤホン	-10.8301
平気	-10.8305
重ね着	-10.8305
走行	-10.8316
問題はありません	-10.8326
オーガニック	-10.8337
指輪	-10.8339
炊き	-10.8341
異なり	-10.8342
ハーブ	-10.8353
音楽	-10.836
希望通り	-10.8362
歯磨き	-10.8362
気づき	-10.8384
借	-10.8386
んでしょうね	-10.8387
開けてみると	-10.8391
バレンタイン	-10.8393
良心的	-10.8402
私にとっては	-10.8411
すっかり	-10.8415
つもりでしたが	-10.8416
ブレンド	-10.8417
芸	-10.8417
ストッパー	-10.842
助かってます	-10.8427
有りません	-10.8429
いちいち	-10.8435
危ない	-10.8437
バージョン	-10.8442
即決	-10.8442
願い	-10.8443
つけ心地	-10.8444
宅配便	-10.8449
アメリカ	-10.8451
re	-10.8457
埋	-10.8457
蜜	-10.8463
につられて	-10.8468
皆様	-10.8468
が大好きで	-10.8474
届いたとき	-10.848
映画	-10.8483
触り心地	-10.8484
摂	-10.8488
負け	-10.849
わかりやすい	-10.849
止まり	-10.8503
演	-10.8504
持っていますが	-10.8505
良い買い物ができました	-10.851
引っ掛け	-10.8513
繊	-10.8513
ほしく	-10.8515
上がった	-10.8518
無くなったら	-10.8523
正確	-10.8527
に関して	-10.8528
しかたない	-10.8529
をおすすめします	-10.8529
のが難点	-10.8538
と思わ	-10.8539
ッキング	-10.8539
読んだ	-10.8546
辛口	-10.8546
に向けて	-10.855
包装紙	-10.8551
効き	-10.8551
揃	-10.8552
貴	-10.8554
眼鏡	-10.8561
溝	-10.8563
靴擦れ	-10.8565
息	-10.8578
こういった	-10.8585
長袖	-10.8585
一般的な	-10.8589
六	-10.8591
とは思って	-10.8605
補修	-10.8608
ふっくら	-10.861
階段	-10.8611
写真で見るより	-10.8617
ずり落ち	-10.8617
発表会	-10.8623
いまだに	-10.8624
揺れ	-10.8626
漂	-10.8641
イラスト	-10.8648
ゴロゴロ	-10.8648
知らない	-10.8661
わかりにくい	-10.8661
殺	-10.8664
幸せ	-10.8668
たくありません	-10.8669
司	-10.867
表現	-10.8671
狭	-10.8675
0.5	-10.8676
厳	-10.8681
振動	-10.8684
ありがたかったです	-10.8686
アルコール	-10.8692
粘	-10.8704
遮光	-10.8712
ようとしたら	-10.8719
パッキン	-10.8725
仕方ありません	-10.8728
短かった	-10.8734
蔵	-10.8736
長靴	-10.8739
七	-10.8743
やわらか	-10.8748
宅急便	-10.8752
八	-10.8752
唯一	-10.8753
バリエーション	-10.8756
超え	-10.8758
歯ブラシ	-10.8762
設計	-10.8769
ストライプ	-10.8775
踏み	-10.8775
垂れ	-10.8787
宣伝	-10.8788
ガンガン	-10.8794
妊婦	-10.8797
なってきた	-10.8798
冷たい	-10.8799
たくなる	-10.8803
就	-10.8839
友	-10.8887
尿	-10.8913
焦	-10.894
芝	-10.8949
炒	-10.8949
幼	-10.9007
飯	-10.9022
裁	-10.9039
派	-10.9041
吹	-10.9182
紅	-10.9183
去	-10.9202
暮	-10.9225
暴	-10.9246
摘	-10.9249
蟹	-10.9249
還	-10.9256
毒	-10.9303
資	-10.9329
肥	-10.9364
著	-10.9397
謳	-10.9407
駄	-10.9409
遅	-10.9443
氷	-10.9452
ァ	-10.9462
界	-10.9465
胃	-10.9517
華	-10.952
胴	-10.9527
輸	-10.9556
錠	-10.9593
蝶	-10.9614
仮	-10.9656
垢	-10.9687
辞	-10.9698
譲	-10.9708
市	-10.9718
桜	-10.9722
彩	-10.9729
松	-10.974
攻	-10.9754
層	-10.9764
睡	-10.9772
永	-10.9807
宮	-10.9814
帳	-10.9823
夢	-10.9828
儀	-10.9853
漢	-10.9857
竹	-10.986
肝	-10.9878
拡	-10.9971
喉	-10.9986
仲	-10.9989
怪	-10.9996
夕	-11
悩	-11.0032
徳	-11.0073
寿	-11.0102
沸	-11.0127
却	-11.02
及	-11.0208
誠	-11.0296
炭	-11.0319
旬	-11.0326
栗	-11.0338
泳	-11.0357
介	-11.0379
団	-11.0383
鶏	-11.0387
胡	-11.0409
栓	-11.0424
容	-11.0461
州	-11.0462
秀	-11.0466
九	-11.0492
迄	-11.0503
導	-11.0526
王	-11.0538
ェ	-11.0566
忙	-11.0574
薦	-11.0622
貨	-11.0637
涼	-11.0682
因	-11.0687
裸	-11.0703
館	-11.0711
茎	-11.0711
影	-11.0722
茹	-11.0722
診	-11.0785
項	-11.0804
∇	-11.0828
吊	-11.0851
奮	-11.0859
響	-11.0867
到	-11.0875
陽	-11.0898
⌒	-11.0903
卒	-11.0918
軸	-11.095
改	-11.0967
街	-11.097
誕	-11.1034
勤	-11.1036
衛	-11.1078
撥	-11.1082
奨	-11.1082
販	-11.1099
労	-11.1121
偏	-11.1126
糊	-11.1163
停	-11.1167
劇	-11.1167
致	-11.1174
勇	-11.1195
暦	-11.1196
使	-11.1206
魔	-11.1228
設	-11.1295
区	-11.1314
鉛	-11.1318
殻	-11.1335
狙	-11.1368
僚	-11.138
僕	-11.1413
株	-11.1446
採	-11.1484
禁	-11.1497
必	-11.1514
南	-11.1518
謎	-11.1535
存	-11.1555
護	-11.1576
云	-11.1577
泥	-11.1606
舌	-11.1606
推	-11.1644
奇	-11.1696
犯	-11.1751
救	-11.1752
潰	-11.1759
此	-11.1786
管	-11.1793
静	-11.1799
谷	-11.183
貝	-11.1881
絡	-11.19
臓	-11.1912
灰	-11.1934
呆	-11.1956
船	-11.1956
謝	-11.196
尾	-11.1969
姜	-11.1969
旅	-11.1989
珍	-11.2056
昆	-11.2057
既	-11.2113
陶	-11.2133
候	-11.216
輩	-11.216
修	-11.2178
馴	-11.2214
刈	-11.2227
淡	-11.2243
≦	-11.2264
緒	-11.2293
寂	-11.2304
≧	-11.2309
偶	-11.2318
危	-11.232
唇	-11.2336
珈	-11.2355
練	-11.2446
桃	-11.246
幾	-11.2465
朱	-11.2469
憶	-11.2497
堂	-11.2511
報	-11.2529
祖	-11.2539
辿	-11.2562
複	-11.2576
亡	-11.259
建	-11.2609
婦	-11.2726
丼	-11.276
姪	-11.2803
門	-11.2846
嬉	-11.2863
伊	-11.2904
届	-11.2931
獣	-11.2938
尻	-11.2942
柔	-11.2961
癒	-11.2982
農	-11.2986
宿	-11.3021
塊	-11.3064
典	-11.3084
郵	-11.3093
〇	-11.3104
隔	-11.3113
嗅	-11.3119
且	-11.3153
伴	-11.3153
濁	-11.3173
詳	-11.318
但	-11.3183
挽	-11.3183
渉	-11.3192
蚊	-11.3193
称	-11.3193
往	-11.3202
途	-11.3205
爆	-11.3213
担	-11.3217
蛇	-11.3242
焚	-11.3288
ヽ	-11.3288
準	-11.3302
泉	-11.3348
興	-11.3395
磁	-11.3422
錆	-11.3431
叩	-11.349
闘	-11.3505
象	-11.3509
舐	-11.3516
皺	-11.3536
慣	-11.354
貸	-11.3547
営	-11.3552
腸	-11.3562
展	-11.3613
抗	-11.3614
掴	-11.3619
酵	-11.3623
◆	-11.3628
◯	-11.3682
掻	-11.3687
養	-11.3692
唐	-11.3697
告	-11.3733
慢	-11.3734
吉	-11.3792
勢	-11.3795
棄	-11.3797
穀	-11.3824
倉	-11.3829
梱	-11.3869
芳	-11.3877
廃	-11.3914
沿	-11.3919
ぇ	-11.3926
柑	-11.3935
凍	-11.3981
究	-11.3994
察	-11.4005
任	-11.4005
求	-11.4075
談	-11.4086
眺	-11.4092
戴	-11.4119
賀	-11.4119
述	-11.414
遮	-11.415
旦	-11.4223
垂	-11.4229
藤	-11.4256
巡	-11.4284
輝	-11.4288
舎	-11.4379
砕	-11.4384
暇	-11.4429
如	-11.444
湾	-11.444
扇	-11.4446
肢	-11.4451
券	-11.4457
槽	-11.4508
境	-11.4519
⇒	-11.4639
賃	-11.4645
耗	-11.4662
剃	-11.4697
釘	-11.4743
頬	-11.4801
蜂	-11.4801
膜	-11.4813
跳	-11.4836
険	-11.4866
宛	-11.4871
籍	-11.4895
軍	-11.4937
償	-11.4966
仰	-11.4972
緊	-11.4996
比	-11.5
栽	-11.5002
只	-11.5008
培	-11.502
逸	-11.5122
継	-11.5145
臨	-11.5146
礼	-11.5226
仏	-11.5237
稼	-11.5304
誇	-11.531
併	-11.5325
←	-11.5328
領	-11.5347
史	-11.5347
双	-11.5353
踊	-11.5366
努	-11.5384
遜	-11.5384
操	-11.5389
竿	-11.539
△	-11.5477
騒	-11.5483
函	-11.5559
覧	-11.559
把	-11.5628
霧	-11.5647
尖	-11.5647
覗	-11.5673
魅	-11.5675
ゞ	-11.5679
森	-11.5705
縛	-11.5711
爽	-11.5734
宝	-11.5735
警	-11.582
掃	-11.5832
季	-11.5839
↑	-11.5885
駆	-11.5885
蕎	-11.5885
岡	-11.5898
阪	-11.5917
ぢ	-11.5918
飴	-11.5924
◇	-11.5937
君	-11.5944
恋	-11.595
刀	-11.5977
崩	-11.6014
銘	-11.6036
噴	-11.6069
呑	-11.6075
腎	-11.6088
栄	-11.6095
井	-11.6135
屑	-11.6142
憧	-11.6156
痕	-11.6175
拍	-11.6236
英	-11.6242
碗	-11.6243
糞	-11.6243
欧	-11.627
刊	-11.631
絹	-11.6317
腿	-11.6358
摩	-11.6364
猛	-11.6365
釈	-11.6399
鑑	-11.6405
橘	-11.6454
簡	-11.648
殊	-11.6488
透	-11.6515
姫	-11.6523
愕	-11.655
拾	-11.655
岩	-11.6551
免	-11.6558
将	-11.6565
漬	-11.6586
滲	-11.6593
q	-11.6593
富	-11.662
拒	-11.6627
貯	-11.6634
箋	-11.667
昇	-11.674
尽	-11.6747
□	-11.6782
添	-11.6792
牧	-11.6818
牡	-11.6819
礎	-11.6861
哀	-11.6868
揮	-11.6868
斑	-11.6875
授	-11.6889
創	-11.6904
氏	-11.6905
脆	-11.6999
駐	-11.7013
希	-11.7013
申	-11.7017
j	-11.7042
溢	-11.7064
昨	-11.707
搬	-11.7122
奏	-11.713
桐	-11.7137
援	-11.7138
М	-11.7167
廊	-11.7182
恥	-11.7212
民	-11.7219
麗	-11.7249
羊	-11.7264
蕾	-11.7271
褪	-11.7309
蘭	-11.7316
捜	-11.7354
蓄	-11.7399
撃	-11.7483
眩	-11.7498
郎	-11.7567
濡	-11.763
曰	-11.7636
敗	-11.7636
惨	-11.7644
斐	-11.7644
鯛	-11.7667
乏	-11.7698
拠	-11.7706
樹	-11.7729
幹	-11.7738
龍	-11.7738
協	-11.7745
雲	-11.7808
酔	-11.7824
煩	-11.7832
誘	-11.7848
剰	-11.7856
眉	-11.7872
預	-11.7879
宜	-11.7903
崎	-11.7967
椒	-11.7999
坂	-11.8015
堪	-11.8024
惚	-11.804
坊	-11.808
蠣	-11.8096
屈	-11.8137
婚	-11.8144
帽	-11.8174
尋	-11.8284
訪	-11.8284
狂	-11.8301
占	-11.8301
噂	-11.8301
剣	-11.8343
略	-11.8359
族	-11.8395
ヵ	-11.8438
柿	-11.8477
村	-11.8485
淵	-11.8519
朴	-11.8519
仔	-11.8527
葬	-11.8561
恰	-11.8578
鋭	-11.8578
彡	-11.8613
詮	-11.8621
林	-11.8621
駅	-11.8629
冒	-11.8638
里	-11.8681
招	-11.869
纏	-11.869
》	-11.8724
町	-11.8741
益	-11.8759
避	-11.8787
胆	-11.8793
齢	-11.8795
袴	-11.8811
践	-11.8811
頓	-11.8811
盗	-11.8837
矢	-11.8889
穫	-11.8916
《	-11.8916
患	-11.9013
弦	-11.9022
〃	-11.9049
凄	-11.9083
粋	-11.9085
繁	-11.9192
鮭	-11.9202
疲	-11.9226
掘	-11.9238
吟	-11.9256
威	-11.9275
褒	-11.932
塞	-11.9357
銭	-11.9364
査	-11.9375
佐	-11.9394
艸	-11.9394
模	-11.9409
請	-11.9459
鈍	-11.9468
貫	-11.9468
‐	-11.9477
翌	-11.9534
伺	-11.9552
Σ	-11.9562
湧	-11.958
淹	-11.9608
鬱	-11.9627
柴	-11.9637
津	-11.9666
軒	-11.9684
惹	-11.9721
岐	-11.9742
鈴	-11.9742
源	-11.9769
顧	-11.978
喪	-11.9799
徹	-11.9818
顎	-11.9828
匂	-11.9836
像	-11.9914
萎	-11.9915
由	-11.9933
豊	-11.9954
麹	-11.9955
鎖	-11.9984
漏	-12.0014
瞳	-12.0023
汎	-12.0043
衿	-12.0072
騰	-12.0082
健	-12.0142
餡	-12.0142
承	-12.018
剛	-12.0181
僅	-12.0181
副	-12.0191
憂	-12.0242
以	-12.0252
港	-12.0272
玩	-12.0282
勘	-12.034
絨	-12.0383
喫	-12.0404
霜	-12.0404
裂	-12.0411
城	-12.0414
熊	-12.0424
α	-12.0445
標	-12.0455
票	-12.0465
嵩	-12.0507
稽	-12.0507
懐	-12.0515
嵌	-12.0517
籠	-12.0517
志	-12.0558
徒	-12.0579
課	-12.0611
━	-12.0682
斜	-12.0697
鹿	-12.0705
嵐	-12.0726
秘	-12.0757
椎	-12.0758
袢	-12.0758
拘	-12.0768
般	-12.0803
墨	-12.0821
σ	-12.0886
膏	-12.0928
鍛	-12.0929
敬	-12.0961
怠	-12.0982
捕	-12.0982
看	-12.0982
融	-12.1004
舗	-12.1011
釜	-12.1047
ヾ	-12.107
了	-12.1134
遭	-12.1135
穏	-12.1135
兎	-12.119
則	-12.1234
浜	-12.1279
雛	-12.129
瞬	-12.1293
羨	-12.1302
巨	-12.1312
羅	-12.1324
抵	-12.1335
疹	-12.1413
揺	-12.1445
厄	-12.1471
懸	-12.1516
俺	-12.1516
沢	-12.156
’	-12.1562
忌	-12.1562
遥	-12.1585
紋	-12.1594
善	-12.1597
柚	-12.1608
─	-12.1609
策	-12.1619
ャ	-12.1646
柵	-12.1677
咳	-12.1689
陸	-12.1689
該	-12.17
講	-12.1712
慮	-12.1746
о	-12.1771
叶	-12.1794
瞼	-12.1829
訓	-12.1829
罪	-12.1841
詞	-12.1853
宇	-12.1936
敵	-12.1959
丁	-12.1978
築	-12.2018
瞭	-12.202
没	-12.2044
焙	-12.2092
抽	-12.2128
畑	-12.2129
群	-12.2238
江	-12.2238
藻	-12.225
塵	-12.2263
昧	-12.2312
競	-12.2349
稚	-12.235
奴	-12.235
募	-12.2399
蹴	-12.2399
恵	-12.2412
章	-12.2423
亜	-12.2462
博	-12.2474
曹	-12.2475
苺	-12.2512
筈	-12.255
甥	-12.2551
召	-12.2588
漆	-12.2626
宗	-12.2652
脳	-12.269
甚	-12.2703
醸	-12.2742
遺	-12.2807
杢	-12.282
賢	-12.2885
砲	-12.2898
渇	-12.2911
携	-12.2923
洞	-12.2924
檀	-12.2924
撒	-12.2937
滞	-12.2964
揉	-12.299
搾	-12.299
須	-12.299
議	-12.303
懲	-12.3084
敢	-12.3096
菊	-12.311
昭	-12.311
巣	-12.3124
賛	-12.3164
武	-12.3177
紗	-12.3272
刷	-12.3312
億	-12.3354
椀	-12.3437
促	-12.3437
紛	-12.345
譜	-12.3465
鬼	-12.3479
党	-12.3494
腱	-12.3506
廻	-12.352
妊	-12.3548
騙	-12.3645
忘	-12.3737
冠	-12.3746
侵	-12.3774
廉	-12.3775
ε	-12.379
挫	-12.3832
諸	-12.3833
赴	-12.389
迎	-12.3943
宙	-12.3948
妖	-12.3948
捲	-12.3962
寺	-12.3992
縞	-12.4021
竜	-12.4021
壇	-12.4065
墓	-12.411
幻	-12.4169
訴	-12.4183
烏	-12.4184
慌	-12.4243
争	-12.4289
佃	-12.4365
櫛	-12.4395
奪	-12.4395
銅	-12.4426
劫	-12.444
憤	-12.4441
♂	-12.4456
監	-12.4456
蓮	-12.4533
丹	-12.4533
殖	-12.4548
粕	-12.4595
燻	-12.4595
契	-12.461
豪	-12.4657
捻	-12.4657
酌	-12.4658
兵	-12.4689
環	-12.4704
骸	-12.472
帆	-12.4735
膳	-12.4768
誌	-12.4812
索	-12.4815
奈	-12.4815
橋	-12.4815
蘇	-12.4815
購	-12.483
嘔	-12.4831
憩	-12.4831
升	-12.4831
儲	-12.4863
ヶ	-12.489
忍	-12.4895
梨	-12.4943
紀	-12.4992
依	-12.5071
痺	-12.5072
旗	-12.5105
喘	-12.5105
鯉	-12.5171
∩	-12.5171
弊	-12.5203
圏	-12.5236
晶	-12.5247
喰	-12.5253
杖	-12.527
仁	-12.527
潔	-12.5319
曖	-12.532
茸	-12.532
伏	-12.5337
虚	-12.537
河	-12.5387
律	-12.542
楊	-12.5421
♀	-12.5421
袱	-12.5539
搭	-12.5556
桁	-12.5608
賭	-12.5625
幕	-12.5625
童	-12.5625
亀	-12.5694
雄	-12.5712
嗜	-12.5764
政	-12.5782
衝	-12.5834
審	-12.5869
虹	-12.5922
撤	-12.5958
箪	-12.5976
催	-12.5976
絆	-12.5976
仙	-12.6011
杏	-12.6012
括	-12.6029
励	-12.6048
繕	-12.6083
殿	-12.6083
趣	-12.6093
属	-12.6117
苔	-12.6174
勿	-12.6229
洒	-12.6358
陥	-12.6394
詫	-12.6432
需	-12.6545
池	-12.6613
係	-12.7599
専	-12.7636
繰	-12.7684
与	-12.8087
菓	-12.8135
掲	-12.816
枯	-12.861
錯	-12.8732
随	-12.8795
縄	-12.8921
揚	-12.9639
抑	-12.9853
条	-13.0306
財	-13.1596
烈	-13.1785
慎	-13.2042
披	-13.2144
殆	-13.2372
責	-13.2582
宣	-13.3373
玄	-13.3598
躍	-13.3715
邪	-13.3869
稿	-13.3989
隙	-13.4043
普	-13.4066
範	-13.4562
斗	-13.4732
韓	-13.5404
捨	-13.569
宴	-13.601
寧	-13.6407
愉	-13.656
趾	-13.6873
抹	-13.6886
沙	-13.7088
挑	-13.7645
是	-13.776
徴	-13.7934
贅	-13.8114
択	-13.8174
況	-13.8543
訂	-13.8606
暫	-13.9109
汰	-13.9601
那	-13.9814
較	-14.01
唯	-14.0455
沖	-14.055
漫	-14.0783
濯	-14.0783
醤	-14.1514
箇	-14.1941
悟	-14.2214
勧	-14.2488
功	-14.2966
痩	-14.3717
央	-14.4647
呂	-14.4777
飽	-14.4911
詐	-14.5381
裕	-14.6155
蛍	-14.6565
維	-14.6848
徐	-14.6995
康	-14.7292
械	-14.8745
己	-14.9282
討	-14.9283
紹	-14.9654
欺	-15.0244
窮	-15.5419
勉	-15.7276
酎	-15.7693
熨	-15.9559
控	-16.0009
綺	-16.1855
奢	-16.4003
鹸	-16.4833
膚	-16.4836
諦	-16.7821
迅	-16.9107
雰	-16.9115
距	-17.0538
璧	-17.2203
燥	-17.4197
椅	-17.4198
餃	-17.42
戚	-17.6701
粧	-17.6702
楕	-18.5018
襦	-18.5019
毯	-18.502
唖	-18.5021
挨	-18.5022
拶	-18.5023
叔	-18.5024
痢	-18.5025
薔	-18.5026
薇	-18.5027
琲	-18.5028
肪	-18.5029
躇	-18.503
躊	-18.5031
遽	-18.5032
噌	-18.5033
繍	-18.5033
娠	-18.5034
̄	-18.5035
妥	-18.5036
́	-18.5036
矯	-18.5036
