<unk>	0
<s>	0
</s>	0
、	-3.17716
。	-3.28452
n	-3.4417
の	-3.82083
。\	-3.89268
が	-3.93462
は	-4.39084
で	-4.43033
に	-4.4357
も	-4.57265
,	-4.63125
を	-4.75635
と	-4.80639
▁1,	-4.92554
\	-4.93088
▁2,	-5.00743
です	-5.01007
い	-5.36057
し	-5.57535
▁	-5.61431
▁2,,	-5.61918
な	-5.79971
▁1,,	-5.80347
て	-5.81236
ので	-5.83104
か	-5.85582
でした	-5.8741
!	-5.8869
から	-5.95668
1	-5.96533
2	-6.03277
して	-6.03811
(	-6.09519
なので	-6.13973
る	-6.22308
た	-6.24136
?	-6.26004
ました	-6.26665
とても	-6.26874
ます	-6.29628
や	-6.30502
お	-6.32917
購入	-6.34739
り	-6.3534
って	-6.37398
でも	-6.39655
ですが	-6.41442
...	-6.45037
く	-6.45399
)	-6.49697
には	-6.5262
3	-6.53863
ー	-6.56476
ら	-6.56928
この	-6.58306
。,	-6.61168
また	-6.63219
ない	-6.64906
つ	-6.66391
!\	-6.6733
ス	-6.72153
した	-6.75673
少し	-6.79398
する	-6.82013
日	-6.84615
!,	-6.85101
購入しました	-6.85691
さ	-6.86051
サイズ	-6.87442
かな	-6.88754
、\	-6.88941
と思います	-6.91105
き	-6.95522
ちょっと	-6.9587
・・・	-6.95907
ん	-6.97241
しました	-6.98874
のですが	-6.98922
4	-6.99011
なら	-6.99462
〜	-6.997
いて	-7.00116
ル	-7.0028
商品	-7.01094
けど	-7.01177
5	-7.02337
色	-7.05583
より	-7.08075
す	-7.08162
まだ	-7.08683
かなり	-7.09406
」	-7.10614
「	-7.11638
本	-7.12409
・	-7.13088
良い	-7.13417
着	-7.14243
リ	-7.14549
します	-7.15307
だけ	-7.15682
み	-7.16654
いい	-7.17276
物	-7.17945
にも	-7.1845
ただ	-7.19063
いた	-7.20164
用	-7.20431
良かったです	-7.24431
ね	-7.25473
残念です	-7.25568
中	-7.25682
ですね	-7.26282
め	-7.2731
ま	-7.27613
まで	-7.28135
品	-7.28251
では	-7.30641
う	-7.31764
あ	-7.31943
だ	-7.32123
ません	-7.32533
残念	-7.32554
分	-7.32653
もう	-7.32842
他の	-7.3324
一	-7.34199
なく	-7.35311
だったので	-7.35891
ク	-7.36021
います	-7.36946
cm	-7.37118
ほど	-7.37746
カ	-7.38338
ず	-7.38394
10	-7.39667
すぐに	-7.39926
あまり	-7.40098
こと	-7.40468
イ	-7.40649
という	-7.40856
手	-7.41108
だった	-7.41172
よ	-7.41362
った	-7.41585
円	-7.41726
大	-7.41884
よく	-7.42013
コ	-7.42313
発送	-7.42794
ト	-7.4321
え	-7.44422
ア	-7.45274
これ	-7.45944
使用	-7.46611
ン	-7.47061
わ	-7.47294
こ	-7.47309
何	-7.48307
】	-7.49726
いる	-7.49781
事	-7.50372
足	-7.5094
見	-7.51138
もう少し	-7.51742
その	-7.51965
なかった	-7.52559
個	-7.52732
ッ	-7.53081
水	-7.53405
M	-7.53444
くらい	-7.54074
満足です	-7.54135
本当に	-7.54366
いつも	-7.54678
ラ	-7.54825
L	-7.54919
感じ	-7.54993
安い	-7.5509
だと	-7.55189
しか	-7.55345
など	-7.5542
すごく	-7.55623
として	-7.55655
注文	-7.55992
デザイン	-7.56714
そう	-7.56882
っ	-7.57278
いました	-7.57499
のか	-7.57549
!!	-7.57646
ましたが	-7.57673
のに	-7.57729
用に	-7.58291
大変	-7.58456
目	-7.58896
時	-7.59088
人	-7.59383
【	-7.59438
...\	-7.59704
ないので	-7.59921
年	-7.59977
)\	-7.60132
そうです	-7.60652
出	-7.61642
ため	-7.62083
回	-7.62926
届きました	-7.63303
かも	-7.64909
ド	-7.65082
枚	-7.65381
を購入	-7.65421
あり	-7.65446
ご	-7.65544
6	-7.65562
数	-7.65658
購入しましたが	-7.6569
を購入しました	-7.65774
たら	-7.65837
チ	-7.65878
よかったです	-7.66184
可愛い	-7.67058
すぐ	-7.67766
♪	-7.67909
だと思います	-7.68602
S	-7.68879
ば	-7.69152
レビュー	-7.70251
とっても	-7.70497
がある	-7.7133
タ	-7.71893
黒	-7.72412
ると	-7.72697
マ	-7.72902
後	-7.73029
味	-7.73225
全く	-7.73227
使い	-7.73603
ロ	-7.73829
外	-7.74259
のは	-7.74559
...,	-7.7464
感	-7.74808
使って	-7.7482
対応	-7.74909
白	-7.74909
やはり	-7.75163
方	-7.75526
ところ	-7.7603
ある	-7.76098
もの	-7.7648
これは	-7.76626
良かった	-7.76814
でしたが	-7.76874
私は	-7.77182
時に	-7.77242
気	-7.77502
商品は	-7.7761
んで	-7.78011
ピンク	-7.78346
交換	-7.78781
点	-7.78862
届いて	-7.78994
どう	-7.79875
プレゼント	-7.79975
もっと	-7.80194
ブ	-7.80368
度	-7.80396
時間	-7.80548
袋	-7.80746
なかなか	-7.81571
レ	-7.82032
小さい	-7.82105
ように	-7.8214
したら	-7.82235
かわいい	-7.82617
れ	-7.82717
値段	-7.83146
☆	-7.83405
・・・,	-7.83416
使う	-7.8356
上	-7.83793
同じ	-7.8384
o	-7.8399
普段	-7.84423
ありがとうございました	-7.84495
キ	-7.84648
ようです	-7.8487
いいです	-7.85777
センチ	-7.85916
笑	-7.86223
できる	-7.86224
T	-7.86263
ませんでした	-7.86443
月	-7.86556
満足	-7.86623
ち	-7.87265
があり	-7.87625
-	-7.87765
いたので	-7.87958
セット	-7.88049
高い	-7.889
買って	-7.89046
前に	-7.89187
下	-7.89525
ような	-7.8957
になりました	-7.89882
今	-7.89886
フ	-7.89899
所	-7.90705
子	-7.90752
とか	-7.91062
と思いました	-7.92076
今回は	-7.92138
早く	-7.92162
写真	-7.92526
良いです	-7.93377
む	-7.93613
残念でした	-7.93797
になって	-7.93846
今回	-7.94007
すると	-7.94255
色が	-7.94374
ミ	-7.94919
返品	-7.95058
タイプ	-7.95166
なくて	-7.95265
前	-7.95453
ケース	-7.95714
購入した	-7.95911
量	-7.96099
入れ	-7.96347
しています	-7.96436
るので	-7.96445
利用	-7.96674
している	-7.96861
だし	-7.96908
シ	-7.97054
A	-7.97201
と思い	-7.9725
体	-7.97324
じ	-7.97509
購入して	-7.97706
価格	-7.98011
以前	-7.98567
作り	-7.98732
やっぱり	-7.98955
よかった	-7.99411
20	-7.99464
美味しい	-8.00855
等	-8.01157
今まで	-8.01362
連絡	-8.01653
気に入りました	-8.02158
の方が	-8.02457
-20	-8.02625
生	-8.02929
ツ	-8.03013
っと	-8.03073
しましたが	-8.03245
ム	-8.03363
リピート	-8.03375
け	-8.03403
サイズが	-8.03404
色も	-8.0363
私の	-8.03895
ジ	-8.0406
へ	-8.0428
あと	-8.04445
確認	-8.04672
初めて	-8.0468
メ	-8.05022
届いた	-8.05433
になる	-8.05548
違う	-8.05589
食べ	-8.05852
せ	-8.05948
大きい	-8.06237
サ	-8.0624
★	-8.06285
こちらの	-8.06894
び	-8.0725
しない	-8.0753
思ったより	-8.07754
全然	-8.08053
期待	-8.0834
靴	-8.08356
部分が	-8.08429
だけで	-8.08777
々	-8.08908
日に	-8.08974
先	-8.09378
・・・\	-8.09512
ウ	-8.09542
なし	-8.09861
しかし	-8.0999
7	-8.10111
形	-8.10141
ヶ月	-8.10158
エ	-8.10309
と思って	-8.10351
履いて	-8.10862
8	-8.10909
.	-8.11228
性	-8.11447
カバー	-8.11602
配送	-8.12077
特に	-8.12138
面	-8.12185
!!\	-8.12881
もなく	-8.13152
しっかり	-8.13228
よい	-8.14214
15	-8.1461
ニ	-8.14668
非常に	-8.1476
良く	-8.14765
毎日	-8.14815
リピ	-8.14819
なって	-8.15088
?,	-8.15106
ショップ	-8.15112
大満足です	-8.15321
なのに	-8.15389
。。。	-8.15466
力	-8.1585
結構	-8.16334
パ	-8.16379
箱	-8.16557
ぶ	-8.16593
組み立て	-8.16613
なる	-8.1682
いるので	-8.16833
通り	-8.16885
ビ	-8.17867
モ	-8.18239
質	-8.1825
/	-8.18483
効果	-8.18697
たので	-8.19094
見て	-8.19234
ズ	-8.19366
洗濯	-8.19523
さん	-8.19539
買った	-8.19563
ナ	-8.19988
付け	-8.20301
いましたが	-8.20407
かった	-8.20483
私には	-8.20566
のような	-8.21401
たい	-8.21472
んですが	-8.21621
ますが	-8.21691
だから	-8.21788
れて	-8.21986
プ	-8.22187
評価	-8.22224
これから	-8.22398
ガ	-8.22589
結局	-8.2265
付き	-8.23118
小	-8.23143
薄い	-8.23252
買い	-8.23364
しかも	-8.23592
取り付け	-8.23756
なのか	-8.23942
自分で	-8.24212
商品の	-8.24364
早速	-8.24577
12	-8.24987
みて	-8.25297
きました	-8.25347
週間	-8.25605
デ	-8.25608
代	-8.25727
傷	-8.25771
テ	-8.25932
用に購入しました	-8.2604
取り	-8.26076
よう	-8.26392
ろ	-8.2644
色は	-8.26562
車	-8.26576
買いました	-8.26712
入り	-8.26809
安く	-8.26826
赤	-8.27223
しても	-8.27283
バ	-8.27379
オ	-8.27398
こんな	-8.27752
・・	-8.27857
商品が	-8.28053
...。	-8.2835
梱包	-8.28481
安くて	-8.28713
げ	-8.28806
にしました	-8.28831
気持ち	-8.28963
まず	-8.29044
母	-8.29048
ダ	-8.29069
程	-8.29114
毛	-8.29231
とは	-8.29372
二	-8.29444
状態	-8.29761
:	-8.29879
グ	-8.29913
やすい	-8.30511
にくい	-8.30717
助かりました	-8.30935
;	-8.3132
位	-8.31388
一度	-8.31405
ど	-8.31418
不	-8.31594
送料	-8.31696
9	-8.31721
気に入って	-8.31769
問題	-8.318
品質	-8.31898
台	-8.31944
音	-8.31972
なかったので	-8.3213
ずっと	-8.32142
普通の	-8.32149
あった	-8.32181
ないと	-8.32276
くて	-8.32355
100	-8.3265
型	-8.32847
画像	-8.33013
デザインは	-8.33582
便利	-8.33658
それ	-8.33665
星	-8.33665
30	-8.33822
そのまま	-8.33832
a	-8.33844
でしょう	-8.34203
みると	-8.34485
臭い	-8.34645
大きく	-8.34648
れば	-8.347
ありました	-8.35043
すぎ	-8.35125
持ち	-8.35393
内	-8.35686
満足しています	-8.3577
生地	-8.35927
店	-8.35969
セ	-8.36059
ないです	-8.36813
ちゃんと	-8.36845
そ	-8.371
到着	-8.37119
ケ	-8.37151
リー	-8.37226
カラー	-8.37317
紙	-8.37382
方が	-8.37558
生地が	-8.37988
i	-8.38055
一番	-8.38087
ブラック	-8.38273
口	-8.38437
になります	-8.38444
ではなく	-8.38456
受注番号	-8.38733
花	-8.38786
と思う	-8.3885
合	-8.39214
大きさ	-8.39281
すぎて	-8.39345
自分	-8.39405
食	-8.39458
ものが	-8.39641
買う	-8.39897
使える	-8.40004
使用して	-8.40377
内容	-8.40422
E	-8.40447
不良品	-8.40956
行	-8.40991
よりも	-8.41013
なり	-8.41078
ぐらい	-8.41209
なりました	-8.41254
実	-8.41422
メール	-8.41424
されて	-8.41478
ボ	-8.41485
以上	-8.41985
しまい	-8.41998
♪\	-8.42811
できない	-8.42816
履き	-8.4312
好み	-8.4319
e	-8.43418
とにかく	-8.4344
ありません	-8.43477
を見て	-8.43677
収納	-8.43697
正直	-8.44093
注文して	-8.44213
喜んで	-8.44242
にして	-8.4444
柄	-8.44499
食べて	-8.445
充電	-8.44863
B	-8.45013
イン	-8.45025
スト	-8.45068
通	-8.45246
サイズは	-8.45269
ベージュ	-8.45638
前回	-8.45691
送料無料	-8.45862
地	-8.46284
切れ	-8.46532
種類	-8.46587
くる	-8.46651
グレー	-8.46661
私	-8.4673
C	-8.46762
ゴム	-8.46781
になり	-8.46802
お店	-8.46913
しまいました	-8.47437
電話	-8.47491
可愛いです	-8.4759
雑	-8.47635
べ	-8.47777
簡単に	-8.47804
届く	-8.4788
間	-8.47923
最悪	-8.47958
本体	-8.47992
しません	-8.48219
作	-8.48239
ダメ	-8.48591
汚れ	-8.48878
24	-8.48961
ポ	-8.48995
ときに	-8.49131
指	-8.49364
ブルー	-8.4946
長	-8.49846
これで	-8.49906
服	-8.50183
ながら	-8.50233
んだ	-8.50313
製品	-8.50373
・・・。	-8.50683
落ち	-8.50727
子供	-8.50757
楽	-8.50905
ット	-8.51012
好き	-8.51193
一つ	-8.5152
れる	-8.5162
23	-8.51819
素材	-8.51855
たくさん	-8.52214
風	-8.52397
おり	-8.52432
必要	-8.52553
大丈夫	-8.52601
11	-8.52618
たり	-8.52658
かったです	-8.52684
考え	-8.52715
13	-8.52931
ようで	-8.52966
していて	-8.53208
問い合わせ	-8.53389
ポケット	-8.53526
感じです	-8.53688
着て	-8.53723
された	-8.5386
為	-8.54102
D	-8.54275
普通	-8.54311
ポイント	-8.54326
ハ	-8.54387
きて	-8.54402
身	-8.54533
心配	-8.54535
ている	-8.54665
商品を	-8.54925
つき	-8.54942
!!,	-8.55016
つけ	-8.55211
ひ	-8.55306
のもの	-8.55489
s	-8.55579
長く	-8.5574
そして	-8.56052
香り	-8.56214
思い	-8.56228
ではない	-8.56468
ぐ	-8.56469
直	-8.56538
デザインも	-8.57066
注文した	-8.57166
まり	-8.57348
ター	-8.57504
的に	-8.57505
ゴ	-8.57528
かわいいです	-8.57673
仕方ない	-8.57783
のかな	-8.58155
ふ	-8.58311
のでしょうか	-8.58411
やすく	-8.58444
猫	-8.58514
肉	-8.58894
O	-8.58913
ています	-8.59014
式	-8.59063
とき	-8.59135
P	-8.59195
なんて	-8.59272
書	-8.59334
ネ	-8.59403
らない	-8.59431
してます	-8.59499
仕事	-8.59566
自分の	-8.59636
ック	-8.59764
部	-8.59799
がありました	-8.59877
無い	-8.5999
つけて	-8.59999
ホワイト	-8.60046
イメージ	-8.60245
入って	-8.60275
いない	-8.60283
ぼ	-8.60484
不安	-8.60523
用の	-8.60557
しまう	-8.6068
ベルト	-8.60687
としては	-8.60831
ものを	-8.60861
使いやすい	-8.60882
冬	-8.60928
パン	-8.60992
使っています	-8.60996
かと	-8.61026
られて	-8.61106
カード	-8.61109
しまった	-8.61374
いたら	-8.61379
者	-8.61629
こんなに	-8.61746
とも	-8.61841
十分	-8.619
バッグ	-8.62312
のある	-8.62436
みたいです	-8.62554
夏	-8.6271
助かります	-8.62855
ピ	-8.62985
ブラウン	-8.62988
やっと	-8.63007
感が	-8.63128
キロ	-8.63229
ぎ	-8.63358
三	-8.6343
ほとんど	-8.63531
臭	-8.63601
じゃない	-8.6361
注文しました	-8.63615
同	-8.63922
を購入しましたが	-8.63953
着用	-8.6402
飲み	-8.64068
値段相応	-8.64145
半	-8.64263
予定	-8.64474
入	-8.64517
きちんと	-8.64524
商品です	-8.64704
がっかり	-8.64742
匂い	-8.64838
高	-8.64944
ノ	-8.65027
布団	-8.65129
身長	-8.65135
欲しい	-8.65311
16	-8.65347
でしょうか	-8.65431
ッと	-8.65682
ピッタリ	-8.65994
新	-8.66039
確かに	-8.66052
気に	-8.66131
もあり	-8.66468
悪い	-8.66548
なぁ	-8.66684
時は	-8.67247
♪,	-8.67267
布	-8.67374
持って	-8.67548
再	-8.67558
結果	-8.676
使えない	-8.67938
いますが	-8.68004
こちらで	-8.68068
光	-8.68132
嬉しいです	-8.68238
夜	-8.68346
があって	-8.68435
説明	-8.68696
中に	-8.68742
みたら	-8.68801
のお	-8.68837
なかったです	-8.68844
軽い	-8.68846
違い	-8.68875
石	-8.69087
他	-8.69125
無	-8.69139
若干	-8.69214
だけど	-8.69224
てしまいました	-8.69267
軽くて	-8.69319
への	-8.69472
と言う	-8.69586
中の	-8.69611
製	-8.69641
希望	-8.69644
ウエスト	-8.69825
裏	-8.69899
重	-8.69981
ワ	-8.70015
kg	-8.7016
きた	-8.70169
合わせ	-8.70223
のため	-8.70337
早い	-8.70374
うーん	-8.70484
G	-8.70554
できました	-8.70612
子供の	-8.70696
穴	-8.70711
別の	-8.70919
板	-8.71095
金	-8.7125
主人	-8.713
顔	-8.71321
おいしい	-8.7156
便利です	-8.71575
かもしれません	-8.71659
っぽい	-8.71731
お値段	-8.72044
気に入っています	-8.72069
びっくり	-8.7215
ネット	-8.72195
この商品	-8.72222
小さめ	-8.72289
首	-8.72425
グリーン	-8.72548
シャ	-8.72635
バー	-8.72673
安っぽい	-8.73098
見た目	-8.73331
使いやすいです	-8.73457
ライト	-8.73468
ネットで	-8.73548
大きめ	-8.73745
しまって	-8.73778
入る	-8.73792
色合い	-8.73827
朝	-8.73894
ばかり	-8.73914
ませんが	-8.73963
w	-8.74203
みたい	-8.74284
寝	-8.74534
部分	-8.74653
~	-8.74698
まったく	-8.74731
頭	-8.7492
ボタン	-8.74948
長い	-8.74975
包装	-8.74982
きます	-8.75049
m	-8.75051
機能	-8.75156
っている	-8.75156
ペ	-8.75307
説明書	-8.75462
残念ながら	-8.75474
別	-8.75485
タオル	-8.75534
しい	-8.75536
効果は	-8.7585
経	-8.75887
が悪い	-8.75961
があります	-8.76053
g	-8.76107
みたいな	-8.7611
重い	-8.76207
何か	-8.7621
らず	-8.76222
小さく	-8.76259
なん	-8.76338
厚み	-8.76428
出来	-8.76445
粉	-8.76503
サイズも	-8.76577
▁́	-8.76623
書いて	-8.76684
肩	-8.76743
いいと思います	-8.76763
購入してみました	-8.76875
すぎる	-8.77087
手に	-8.77096
上げ	-8.77381
出来る	-8.77419
方は	-8.77489
バック	-8.77705
割	-8.77725
感じで	-8.77864
安いので	-8.77926
調整	-8.77952
カー	-8.7798
25	-8.78016
表示	-8.78029
ヒ	-8.78092
買い物	-8.78134
販売	-8.78187
気がします	-8.78306
間に	-8.78409
したい	-8.78463
化	-8.78528
短い	-8.786
ことが	-8.78743
抜け	-8.79038
ロー	-8.79059
切り	-8.79096
ベ	-8.79142
期待して	-8.79142
味は	-8.79212
していた	-8.79229
角	-8.79274
ないし	-8.79328
安心して	-8.79344
購入する	-8.79359
I	-8.79364
あります	-8.7942
いたのですが	-8.79492
部屋	-8.79732
ても	-8.79811
最	-8.79926
購入したのですが	-8.8012
家族	-8.80191
の部分が	-8.80238
肌	-8.803
欲しかった	-8.8035
有	-8.80431
50	-8.80518
良いと思います	-8.80625
美味しく	-8.80633
ギ	-8.80779
パンツ	-8.80785
メーカー	-8.80956
可愛くて	-8.81209
失敗	-8.81321
させて	-8.81349
&	-8.81351
だろう	-8.81392
試	-8.814
思っていたより	-8.81405
マット	-8.8149
安心	-8.81572
指定	-8.81607
かと思います	-8.81653
があるので	-8.81702
けれど	-8.81726
られる	-8.81774
t	-8.81822
凄く	-8.81984
_	-8.8201
場	-8.82015
粒	-8.82089
解	-8.82186
すれば	-8.82192
14	-8.82229
され	-8.82264
使用する	-8.8227
装着	-8.82329
難しい	-8.8239
デザインが	-8.82674
サイズで	-8.82742
周り	-8.82879
最近	-8.82882
過ぎ	-8.82885
家	-8.82922
ラッピング	-8.82955
髪	-8.82967
発	-8.83292
普通に	-8.83297
のみ	-8.83451
無く	-8.83487
はありません	-8.83515
安かったので	-8.83522
当	-8.83612
できます	-8.83804
されている	-8.84039
したところ	-8.84053
合う	-8.84054
^^	-8.84493
物を	-8.84731
無し	-8.84839
るのが	-8.84845
届き	-8.84859
問題なく	-8.84904
替え	-8.84906
書き	-8.84928
伸び	-8.84943
ぴったり	-8.84981
味が	-8.85003
耐久性	-8.85003
好きな	-8.85043
ソ	-8.85084
袖	-8.85147
なければ	-8.85221
娘	-8.8523
合わない	-8.85527
のように	-8.85528
色の	-8.85606
注意	-8.85699
と思っています	-8.8586
子供が	-8.86001
込み	-8.86032
できません	-8.86203
シール	-8.86235
段	-8.86297
お試し	-8.86383
付	-8.86418
茶	-8.86807
リング	-8.86833
の商品	-8.86951
掛け	-8.87053
いく	-8.87074
じゃ	-8.87214
大満足	-8.87371
歳	-8.87539
ということで	-8.87549
商品も	-8.87622
程度	-8.8769
感じました	-8.8775
子ども	-8.8776
しばらく	-8.87873
色々	-8.87884
側	-8.87926
ありませんでした	-8.87979
気が	-8.88118
がなく	-8.88167
次	-8.88196
ひとつ	-8.88283
使用しています	-8.88311
在庫	-8.88374
はとても	-8.88413
ありがとうございます	-8.88443
生地は	-8.88476
そうな	-8.8856
細	-8.88602
洗い	-8.8869
外れ	-8.88713
キー	-8.88799
まぁ	-8.88894
楽しみです	-8.8894
と同じ	-8.89028
せて	-8.89068
ール	-8.89091
見た目は	-8.89178
ライン	-8.89231
何度も	-8.89257
元	-8.8926
ほ	-8.89279
(^	-8.89317
ホ	-8.89354
部分の	-8.89551
丸	-8.89563
だけに	-8.89693
品物	-8.89819
旅行	-8.89896
温	-8.89971
まって	-8.89979
いません	-8.90001
色で	-8.90027
動	-8.90045
を使って	-8.90102
がない	-8.90142
物が	-8.90179
底	-8.9026
になった	-8.90268
値段が	-8.90298
ブラ	-8.90345
引き	-8.90537
を入れて	-8.9078
ラン	-8.90906
パー	-8.91052
付けて	-8.91127
気になる	-8.91148
送	-8.91286
いまいち	-8.91311
なのですが	-8.91354
かなぁ	-8.91357
私が	-8.91362
音が	-8.91518
最高	-8.91542
多少	-8.91625
500	-8.91669
油	-8.918
着る	-8.91823
をして	-8.91824
見た	-8.91838
なんか	-8.91887
送って	-8.91897
速	-8.91898
いろいろ	-8.91946
系	-8.91985
微妙	-8.9212
??	-8.92155
−	-8.92287
使った	-8.9232
なった	-8.92341
父	-8.92431
意味	-8.92447
用に購入	-8.92498
大きな	-8.92502
つく	-8.92568
したいと思います	-8.92657
お得	-8.92671
クリーム	-8.92821
綺麗に	-8.92903
飲んで	-8.92982
』	-8.92999
様	-8.9307
紐	-8.93076
『	-8.9309
そこ	-8.93134
皮	-8.93146
状態で	-8.93168
かけ	-8.93215
記載	-8.93255
即	-8.93299
×	-8.93322
頃	-8.93362
的な	-8.93449
革	-8.93471
匂いが	-8.93472
線	-8.93497
H	-8.93507
なくなりました	-8.93546
見え	-8.9361
美味しいです	-8.93635
息子	-8.93678
止め	-8.93755
商品でした	-8.93765
サイズを	-8.93779
長さ	-8.93846
単	-8.93872
なります	-8.93884
購入し	-8.93914
素	-8.93948
ること	-8.93981
しまいます	-8.9402
固定	-8.94109
追記	-8.94145
ついて	-8.94238
木	-8.94269
実際に	-8.94367
気に入ってます	-8.94374
心	-8.94376
りました	-8.94406
返	-8.94425
全部	-8.94666
これを	-8.94822
青	-8.94848
いつ	-8.94852
こちらは	-8.94934
塩	-8.94942
残念な	-8.95017
強	-8.95026
時の	-8.95117
綺麗な	-8.95162
を探していました	-8.9517
カット	-8.95225
変え	-8.95248
オレンジ	-8.95323
つか	-8.95365
急	-8.95383
の方	-8.95433
場所	-8.9555
できて	-8.95556
が多い	-8.9566
幅	-8.95739
と言って	-8.95905
るし	-8.95935
こう	-8.96062
が少し	-8.96096
ヤ	-8.9616
座	-8.9616
お願い	-8.96171
面倒	-8.96173
計	-8.96423
器	-8.96472
沢山	-8.96731
しっかりしていて	-8.96764
字	-8.96771
無理	-8.96776
80	-8.96874
約	-8.96915
R	-8.96969
全て	-8.97027
差	-8.97122
不満	-8.97143
いないので	-8.97235
ことを	-8.97297
こちら	-8.97304
楽しみ	-8.97308
ものは	-8.97312
はず	-8.97347
メール便	-8.97486
金額	-8.97737
もらえ	-8.97756
汗	-8.9778
写真と	-8.97849
大人	-8.97896
腰	-8.97907
22	-8.9799
えて	-8.98046
端	-8.98116
取れ	-8.98182
初	-8.98215
熱	-8.98259
とのこと	-8.98326
コン	-8.98467
印象	-8.98927
楽天	-8.99046
空	-8.99065
質感	-8.99255
脱	-8.99302
倍	-8.99377
出て	-8.99471
結婚式	-8.99475
来	-8.99478
足の	-8.99505
わからない	-8.99516
気分	-8.99566
お買い得	-8.99676
シート	-8.99693
タン	-8.99792
がとても	-8.99992
レビューを	-9.00013
高さ	-9.00059
クッション	-9.00061
すごい	-9.00121
も良く	-9.00146
納得	-9.00166
シャツ	-9.00205
変更	-9.00367
電	-9.00372
臭いが	-9.00388
みましたが	-9.00536
横	-9.00587
弱	-9.00698
おまけ	-9.00719
ちゃ	-9.00803
遅い	-9.00869
N	-9.00916
電池	-9.01265
香	-9.01389
薄く	-9.01421
ください	-9.0143
高く	-9.01434
ディ	-9.01487
名前	-9.01538
もある	-9.01666
全	-9.01748
ります	-9.01771
みます	-9.01928
あげ	-9.01969
ところが	-9.01993
・・・・	-9.02045
実際	-9.0206
ライ	-9.02155
と一緒に	-9.02234
W	-9.02297
足が	-9.02311
ちょうど	-9.02422
かもしれませんが	-9.0254
お店で	-9.02565
ング	-9.02602
取	-9.02752
シンプルで	-9.02774
めて	-9.02921
安	-9.03106
冷	-9.03129
使え	-9.03194
ずに	-9.03284
しっかりした	-9.03314
したのですが	-9.0343
とりあえず	-9.03611
かかる	-9.03634
ート	-9.03634
配達	-9.03714
糸	-9.03767
買わない	-9.03794
ビックリ	-9.03802
やや	-9.03878
あって	-9.03889
l	-9.03897
今後	-9.03939
余裕	-9.03976
女性	-9.03985
しく	-9.04039
画面	-9.04098
悪	-9.04102
イマイチ	-9.04158
味も	-9.04187
っぱ	-9.04303
で購入	-9.04384
気に入った	-9.04564
半分	-9.04595
変	-9.04623
○	-9.04634
アップ	-9.04672
17	-9.04673
さんの	-9.04731
引っ	-9.04777
機	-9.0488
がっかりです	-9.04963
ではありません	-9.05075
話	-9.05289
で購入しました	-9.05397
そうで	-9.056
有り	-9.05632
見える	-9.05698
白い	-9.05702
ほぼ	-9.05739
せず	-9.05811
苦	-9.05885
使います	-9.0589
いいですね	-9.05909
ということ	-9.06021
番	-9.06048
される	-9.06052
c	-9.06063
値段も	-9.06271
付いて	-9.06327
難	-9.06333
26	-9.06348
*	-9.06361
値	-9.06383
ざ	-9.06449
したので	-9.06464
食べる	-9.06482
していました	-9.06508
に入れて	-9.06555
方には	-9.06566
濃い	-9.06676
試しに	-9.06731
d	-9.06766
そんなに	-9.06785
ネイビー	-9.06924
素敵な	-9.06942
ップ	-9.06967
感じます	-9.07159
フィット	-9.07213
ガッカリ	-9.07304
乾燥	-9.07342
さらに	-9.07373
ボリューム	-9.07397
せる	-9.07407
と思った	-9.0743
というか	-9.07524
れた	-9.07545
K	-9.07591
立	-9.07697
わかりません	-9.07705
真	-9.07709
買いましたが	-9.07772
だったら	-9.07852
みました	-9.07892
簡単	-9.08039
☆\	-9.08153
薄	-9.08158
のために	-9.08168
するので	-9.08232
ひどい	-9.08297
文字	-9.08305
信	-9.08432
ゴールド	-9.08459
もよく	-9.08575
学	-9.0858
オススメ	-9.08723
のほうが	-9.09099
が悪く	-9.09161
生地も	-9.09176
入れて	-9.09236
スマホ	-9.09263
どんな	-9.09289
があった	-9.09329
おすすめ	-9.09559
大きさも	-9.09597
知	-9.0965
コー	-9.09675
腕	-9.09692
18	-9.09712
多	-9.09777
産	-9.09812
40	-9.09814
犬	-9.09849
表	-9.10057
があれば	-9.10079
くれる	-9.10186
やすいです	-9.1022
違いました	-9.10284
全体的に	-9.10342
の中で	-9.10393
自体	-9.10455
今日	-9.10519
28	-9.10697
感想	-9.10727
レース	-9.10787
0	-9.10902
☆,	-9.1107
会	-9.11084
時期	-9.11136
150	-9.11262
大きくて	-9.11333
mm	-9.11444
掃除	-9.11485
待ち	-9.11502
一緒に	-9.11551
この値段	-9.11566
どこ	-9.11572
出来ない	-9.1171
について	-9.11753
]	-9.11773
もちろん	-9.11879
まま	-9.11921
トイレ	-9.11938
サイズの	-9.11993
追加	-9.12058
棚	-9.12101
ちゃん	-9.12165
が入って	-9.12329
チャ	-9.1233
豆	-9.12435
まあ	-9.12482
りません	-9.12538
時間が	-9.12571
売って	-9.12593
ったら	-9.12623
土	-9.12712
オー	-9.12721
美味しかったです	-9.1284
設置	-9.13046
縫製	-9.13218
を探して	-9.13353
残り	-9.13356
タイプの	-9.13404
携帯	-9.13496
しっとり	-9.13668
効果が	-9.13697
(^^)	-9.13775
うまく	-9.13897
しまったので	-9.1396
読んで	-9.13965
スカート	-9.14003
比べ	-9.14011
小さくて	-9.14031
ペン	-9.14086
合い	-9.14122
的には	-9.14212
少々	-9.14361
目の	-9.1437
言う	-9.14412
荷物	-9.14417
嫌	-9.14589
ネジ	-9.14666
最悪です	-9.1476
ゆ	-9.14767
絶対	-9.14918
手間	-9.15001
U	-9.15016
感じでした	-9.15024
コーヒー	-9.15086
いただきました	-9.1512
商品自体は	-9.1516
が出	-9.15209
箇所	-9.1525
ちょうどいい	-9.15307
ティ	-9.15411
てしまいます	-9.15554
作業	-9.15646
読み	-9.15677
u	-9.15713
へのプレゼント	-9.15965
がついて	-9.15979
可愛く	-9.16
!!!	-9.16028
方も	-9.16046
出して	-9.16154
自体は	-9.16175
会社	-9.16213
いい感じです	-9.1623
[	-9.16231
部分に	-9.16326
その後	-9.16359
良かったので	-9.16432
茶色	-9.16439
と思いましたが	-9.16576
使っている	-9.16615
靴下	-9.16653
履く	-9.16654
の物	-9.16814
27	-9.16897
お腹	-9.16899
出来て	-9.16904
19	-9.16962
要	-9.17054
おしゃれ	-9.17184
表面	-9.17186
友人	-9.17194
、「	-9.1721
オイル	-9.17332
が出て	-9.17423
圧	-9.17449
良かったのですが	-9.17585
たいと思います	-9.17599
後ろ	-9.17619
リボン	-9.17647
肌に	-9.17787
たち	-9.17856
届かない	-9.1786
目に	-9.17888
ペラペラ	-9.17919
使えません	-9.17935
いいのですが	-9.1798
加	-9.18069
向き	-9.18202
脚	-9.18268
との事	-9.18277
現在	-9.1833
その他	-9.18365
していましたが	-9.18411
きつい	-9.18435
食べた	-9.1851
物は	-9.1855
違って	-9.18592
わり	-9.18668
られ	-9.18668
迅速	-9.18747
ありますが	-9.18756
使ってます	-9.18798
成	-9.18848
目が	-9.18851
かけて	-9.1891
痛い	-9.19042
ロン	-9.19237
上に	-9.19286
うちの	-9.19581
きれいに	-9.19637
が一番	-9.1966
割れ	-9.19685
試して	-9.19787
リン	-9.19816
一枚	-9.19823
ろう	-9.19893
張	-9.19909
あたり	-9.19947
パック	-9.19983
履き心地	-9.20143
心地	-9.20207
悪く	-9.20279
開けて	-9.20366
っています	-9.20386
にくく	-9.20422
近	-9.20437
早	-9.20494
張り	-9.20608
差し	-9.2069
前の	-9.20718
おいしく	-9.2073
チェック	-9.20782
おすすめです	-9.20819
を入れる	-9.2084
正	-9.20872
ゲ	-9.21009
体重	-9.21066
受け	-9.2109
が届きました	-9.21126
壊れて	-9.21194
調	-9.21214
細い	-9.21223
固	-9.2125
してから	-9.21287
丈	-9.21415
るのに	-9.21432
丈夫	-9.21623
まる	-9.21732
使えます	-9.21748
1000	-9.21761
名	-9.2179
押し	-9.21807
裾	-9.21868
入荷	-9.21873
後に	-9.21881
あるので	-9.21987
こちらを	-9.22087
すること	-9.22174
改善	-9.22176
もいい	-9.22177
娘の	-9.2218
探して	-9.22207
使い方	-9.22245
たいです	-9.22271
なお	-9.22274
最低	-9.225
体型	-9.22504
二度と	-9.22544
な感じ	-9.22655
この商品は	-9.22689
折り	-9.22693
フード	-9.22698
うち	-9.22703
るのは	-9.22743
耳	-9.22786
分かり	-9.22885
ミス	-9.22914
いです	-9.2295
結	-9.22963
ーン	-9.23083
か月	-9.23197
人は	-9.2325
常	-9.23327
いい感じ	-9.23347
レベル	-9.23355
号	-9.23457
待って	-9.23499
動き	-9.23501
09	-9.23509
疲れ	-9.23517
テレビ	-9.23532
最初は	-9.23549
カップ	-9.23551
流	-9.23668
が付いて	-9.23669
このお値段	-9.23692
方法	-9.23703
せっかく	-9.23718
開封	-9.23784
安かった	-9.2379
を買いました	-9.23792
爪	-9.23904
旦那	-9.23906
新しい	-9.23932
これなら	-9.24019
小さな	-9.24031
香りが	-9.24087
安っぽく	-9.2412
気になります	-9.24132
葉	-9.24141
今は	-9.24156
巻	-9.24237
たのですが	-9.24316
以下	-9.2435
^)	-9.24393
痛	-9.24415
近く	-9.24488
ものの	-9.24542
焼き	-9.24568
安いし	-9.24643
バランス	-9.24717
プラスチック	-9.24717
ゴミ	-9.24719
すっきり	-9.24742
見た目も	-9.24821
全体	-9.24829
仕上がり	-9.24913
屋	-9.24929
ときは	-9.2495
引	-9.24986
部分は	-9.25186
ショップで	-9.25329
そんな	-9.25345
柔らかい	-9.25399
と言われ	-9.2541
違います	-9.25421
いただけ	-9.25471
検品	-9.25491
ガラス	-9.25506
印	-9.25533
置き	-9.25601
際	-9.2566
ヨ	-9.25663
X	-9.25665
ケーキ	-9.25665
定	-9.25779
違和感	-9.25792
..	-9.25899
ワン	-9.25937
テーブル	-9.26044
&#	-9.26108
時計	-9.26133
検討	-9.26173
歯	-9.26232
和	-9.26431
再度	-9.26437
料	-9.26612
人には	-9.26663
穴が	-9.26668
運	-9.26761
干し	-9.2677
おります	-9.268
黄色	-9.26903
の部分	-9.26969
くらいの	-9.26994
のかもしれませんが	-9.27034
床	-9.27067
たっぷり	-9.27072
はない	-9.27104
両	-9.27202
ほうが	-9.27327
が必要	-9.27449
問題ない	-9.27453
ファスナー	-9.27505
いませんが	-9.27562
丁寧に	-9.27587
p	-9.27588
してる	-9.27593
間違い	-9.27646
多い	-9.27666
軽く	-9.27766
曲	-9.27815
に購入しました	-9.27985
こういう	-9.28106
飛び	-9.28121
色違い	-9.28157
安さ	-9.28184
h	-9.28302
したいです	-9.28422
明	-9.28427
ほしい	-9.28537
ラー	-9.28548
みた	-9.28706
似	-9.28723
は無い	-9.28724
いっぱい	-9.28762
どの	-9.28765
合って	-9.28781
薬	-9.28886
かもしれない	-9.28898
キャ	-9.28971
今度は	-9.29012
が良く	-9.29171
切	-9.29194
あれば	-9.29199
てしまう	-9.29201
ちなみに	-9.29214
リピートです	-9.29215
と思いますが	-9.29225
続けて	-9.2923
一回	-9.29281
着心地	-9.29305
後の	-9.29325
ていました	-9.29378
シャンプー	-9.29412
上がり	-9.29413
ベッド	-9.29421
お勧め	-9.29439
込んで	-9.29457
レビューを見て	-9.29487
だったのですが	-9.29533
何も	-9.29555
明るい	-9.29613
頼	-9.29621
店舗	-9.29673
考えて	-9.29673
もらい	-9.29726
+	-9.29738
けて	-9.29742
雨	-9.29782
匹	-9.29809
ですよ	-9.29984
広	-9.30069
迅速な対応	-9.30078
翌日	-9.3025
言	-9.30264
綿	-9.30341
っぽく	-9.30348
しまうので	-9.30366
大きすぎ	-9.30529
枕	-9.30605
大好きな	-9.30675
早くて	-9.3069
調節	-9.30744
ッシュ	-9.30814
均	-9.30873
使用した	-9.30884
ことは	-9.31119
くなって	-9.31131
......	-9.31173
毎回	-9.31178
ザ	-9.31187
来た	-9.31196
→	-9.312
しょ	-9.31221
???	-9.31259
部品	-9.31442
さが	-9.31453
私も	-9.31492
せいか	-9.31573
買ってみました	-9.31605
60	-9.3163
ピー	-9.31638
円で	-9.31669
頼んだ	-9.31677
前から	-9.31677
嬉しい	-9.31758
マイナス	-9.31812
お花	-9.31897
シワ	-9.31935
いたり	-9.31943
毛玉	-9.32042
様に	-9.3206
剤	-9.32073
綺麗	-9.32082
,"	-9.32129
でしたので	-9.32167
財布	-9.32261
として購入しました	-9.32311
テープ	-9.32356
F	-9.32418
コンパクト	-9.32431
過ぎて	-9.32438
90	-9.32447
オススメです	-9.32492
てしまい	-9.32577
予約	-9.3263
工	-9.32662
^	-9.32708
OK	-9.32787
甘い	-9.32797
思います	-9.32798
写真の	-9.32809
余	-9.3285
訳	-9.32938
。。。,	-9.33005
ずれ	-9.33027
を見	-9.33088
やって	-9.33106
一週間	-9.33117
シュ	-9.33173
出し	-9.33301
飲む	-9.33333
下の	-9.3336
キャンセル	-9.33373
遠	-9.33376
ヘ	-9.33383
なんとか	-9.33445
ゆったり	-9.33456
わかりませんが	-9.33567
お安く	-9.33647
機会	-9.33654
ビニール	-9.33694
注文してから	-9.33702
わけ	-9.33716
得	-9.33729
配	-9.33741
実物	-9.33762
ピン	-9.3383
平	-9.33835
無駄	-9.33997
してしまいました	-9.34082
薄くて	-9.3411
らしい	-9.34112
メールで	-9.34224
ほしかった	-9.34281
きれいな	-9.34312
蓋	-9.3445
表記	-9.34484
重さ	-9.34492
愛用	-9.34537
遅く	-9.34555
ぽ	-9.34706
この値段で	-9.34707
スッキリ	-9.34826
雰囲気	-9.34826
的	-9.34858
少ない	-9.34931
驚きました	-9.34937
ブーツ	-9.34963
春	-9.34966
;)	-9.34988
回目	-9.35069
お気に入り	-9.35074
られた	-9.35103
は少し	-9.35144
がよく	-9.3523
レッド	-9.35326
隙間	-9.35383
自	-9.35394
ぬ	-9.35452
これが	-9.35477
ったり	-9.35521
対策	-9.35523
苦手	-9.3566
場合	-9.35695
たって	-9.35723
でき	-9.35761
れない	-9.35791
なんだか	-9.35801
慣れ	-9.35854
消	-9.35864
売り切れ	-9.35879
注文しましたが	-9.36029
硬い	-9.36056
それでも	-9.3606
は全く	-9.36078
あったので	-9.3609
頂きました	-9.36244
類	-9.36285
思った	-9.36397
縫い	-9.36426
出す	-9.36429
緑	-9.36435
の連絡	-9.36454
レンズ	-9.36459
くれ	-9.36591
使えて	-9.36649
後悔	-9.3673
違った	-9.36863
られない	-9.36895
お尻	-9.36963
反応	-9.37008
21	-9.37038
低	-9.37064
折れ	-9.37065
正解でした	-9.37093
コスパ	-9.37102
商品に	-9.37145
割れて	-9.37179
合わなかった	-9.37263
入らない	-9.37287
^^;	-9.37348
つける	-9.37356
と思い購入しました	-9.37473
k	-9.37488
なかったのですが	-9.37505
店で	-9.37562
サン	-9.37614
自分用に	-9.3787
ストラップ	-9.37872
素敵	-9.37875
プレゼントに	-9.37917
具	-9.38057
がありません	-9.38155
消え	-9.38192
対応も	-9.38193
になってしまいました	-9.38289
にしましたが	-9.38326
ショック	-9.38463
対応が	-9.38469
来て	-9.38522
格	-9.38537
とても気に入りました	-9.38587
かわいくて	-9.38621
の購入	-9.38704
ナー	-9.38718
玄関	-9.38727
なくても	-9.38767
モノ	-9.38781
汚れが	-9.38832
当たり	-9.38845
黒い	-9.38903
`)	-9.38957
になっている	-9.38999
の色	-9.39283
を購入して	-9.39289
透け	-9.39309
新品	-9.39373
すべて	-9.39404
辛	-9.39467
高級感	-9.39541
剥	-9.3955
片	-9.39669
見えます	-9.39776
糸が	-9.39805
方の	-9.39896
置いて	-9.39935
透明	-9.39961
加工	-9.39974
通常	-9.39982
漏れ	-9.39989
思いました	-9.40008
具合	-9.40046
アン	-9.40053
ものでした	-9.40084
思	-9.40099
もない	-9.401
自転車	-9.40105
を選びました	-9.40211
しないと	-9.40244
丁度	-9.40269
を買って	-9.40289
なの	-9.40291
落ちて	-9.40455
連	-9.4047
背	-9.4051
ード	-9.40518
防	-9.40546
形が	-9.40549
柔らかく	-9.40586
ですし	-9.40598
色味	-9.40622
の方は	-9.4068
上の	-9.40704
強く	-9.40704
29	-9.40726
シー	-9.40874
最高です	-9.40975
せい	-9.41
何度か	-9.41059
ならない	-9.41087
あまりにも	-9.41133
無料	-9.41134
びっくりしました	-9.41193
中身	-9.4121
近所の	-9.41215
左右	-9.41216
こちらの商品	-9.41382
うちに	-9.4139
える	-9.41405
はかなり	-9.41459
売	-9.41466
米	-9.41474
注文番号	-9.41475
選	-9.41477
絵	-9.41572
感謝	-9.41593
ことに	-9.41593
できるので	-9.41665
れません	-9.41671
ちょうど良い	-9.41672
やり	-9.41676
洗って	-9.41855
交換して	-9.41893
るように	-9.41943
深	-9.4195
がいい	-9.42079
効	-9.42088
厚	-9.42112
しようか	-9.42132
断	-9.42164
壊れ	-9.42238
はあまり	-9.42242
みたいで	-9.42313
チェーン	-9.42335
明るく	-9.4242
ュ	-9.42488
決めました	-9.42513
生地の	-9.42543
泣	-9.42555
超	-9.42558
プラ	-9.42559
づらい	-9.42663
クロ	-9.42805
しっかりして	-9.42813
などの	-9.42816
シルバー	-9.42856
が多く	-9.42952
いただき	-9.42987
08	-9.43045
購入したので	-9.43152
緩	-9.43156
行き	-9.43161
かったので	-9.43177
二つ	-9.43186
がっかりしました	-9.4319
直し	-9.43191
作って	-9.43202
丈が	-9.43285
買え	-9.4341
ですよね	-9.43423
普段は	-9.43428
ハズレ	-9.43477
開	-9.43542
ともに	-9.43584
気になって	-9.43589
液	-9.4363
申し	-9.43717
料理	-9.43771
るか	-9.43787
良いのですが	-9.43795
の問題	-9.43827
達	-9.43886
ステ	-9.4391
皆さん	-9.43926
残	-9.43968
r	-9.44004
玉	-9.44044
国	-9.44219
って感じ	-9.44236
腹	-9.44253
日で	-9.44369
入っていて	-9.44374
迷いましたが	-9.44406
楽しみにして	-9.44454
ヒール	-9.44478
というより	-9.44489
の為	-9.4464
親	-9.44741
かかって	-9.44849
とても良い	-9.44868
鼻	-9.4491
イス	-9.44968
暖かい	-9.44997
感じが	-9.45069
なんで	-9.45107
立ち	-9.45128
傷が	-9.45143
我が家の	-9.45154
減	-9.45163
しますが	-9.45171
インナー	-9.45242
何より	-9.45245
以上の	-9.45319
の長さ	-9.45401
しているので	-9.45419
バラ	-9.45467
かかと	-9.45598
妻	-9.45606
変化	-9.45629
などは	-9.45634
だめ	-9.45649
返信	-9.45708
ける	-9.45789
幅が	-9.45804
iPhone	-9.4584
本日	-9.45875
まあまあ	-9.45933
の大きさ	-9.46002
出来ました	-9.46009
オシャレ	-9.46072
キッチン	-9.46149
注文から	-9.46257
肌触り	-9.46268
日本	-9.46339
ないように	-9.46354
いませんでした	-9.46411
お茶	-9.46527
ものと	-9.46631
しょうがない	-9.46665
セットで	-9.46675
扱い	-9.46736
脂	-9.4677
火	-9.46774
ほつれ	-9.4679
フル	-9.46817
期	-9.46897
が違う	-9.46909
捨て	-9.46987
実家	-9.46993
色々な	-9.46994
使い勝手が	-9.47033
メールが	-9.47158
よかったので	-9.47159
見えて	-9.47171
母に	-9.472
たく	-9.47321
続け	-9.4734
ピアス	-9.47401
ファン	-9.47461
くれて	-9.47467
はじめて	-9.47472
が無い	-9.47485
暖かく	-9.47491
ドレス	-9.47498
によって	-9.47545
とおもいます	-9.4758
ここ	-9.47624
カビ	-9.47736
送り	-9.47787
そうなので	-9.47809
短く	-9.4789
保	-9.4794
予定です	-9.47965
使わない	-9.47983
マー	-9.48027
細かい	-9.48036
%	-9.4809
とても残念です	-9.48133
サー	-9.4814
歩く	-9.48209
キズ	-9.48254
始め	-9.48258
文	-9.48323
ワイン	-9.48334
があったので	-9.48341
目立つ	-9.48353
お気に入りです	-9.48379
言って	-9.48615
今回の	-9.48637
贈	-9.48658
右	-9.48741
いると	-9.48746
y	-9.48752
見る	-9.48757
LL	-9.48784
対応は	-9.48786
してみました	-9.48799
膝	-9.4883
リピです	-9.48862
つです	-9.48893
ジャ	-9.4899
季節	-9.49072
たくない	-9.49082
いくら	-9.49099
キレイ	-9.49109
素敵です	-9.49157
立て	-9.49167
購入です	-9.49184
こんなもの	-9.49208
安物	-9.49208
女	-9.49237
ッチ	-9.49472
組立	-9.49495
000	-9.49527
我が家	-9.49535
落ち着いた	-9.49535
っこ	-9.49558
なくなって	-9.49562
ダイエット	-9.49715
ザー	-9.49729
問題なし	-9.49791
どうしても	-9.49841
止	-9.49876
材	-9.49894
乳	-9.49953
くれた	-9.5008
られません	-9.50091
左	-9.50108
ないのですが	-9.50136
安いから	-9.50136
現	-9.50147
室	-9.50168
壊れました	-9.50174
損	-9.50196
が良い	-9.50235
届くまで	-9.50247
れました	-9.50314
短	-9.50429
確	-9.50583
可能	-9.50631
のメール	-9.50707
訳あり	-9.50716
を感じ	-9.50828
帯	-9.5085
山	-9.50855
純正	-9.50893
嬉しかったです	-9.50967
子供に	-9.50969
は初めて	-9.51029
翌日に	-9.51036
をした	-9.51088
邪魔	-9.51095
いろんな	-9.51098
120	-9.51115
点灯	-9.51205
パッケージ	-9.5126
,2	-9.51288
下げ	-9.51302
初めての	-9.51378
返事	-9.51407
予想	-9.51494
太	-9.51498
大きかった	-9.51533
これからも	-9.5154
根	-9.51542
に近い	-9.51545
色でした	-9.5158
鍋	-9.51587
開け	-9.51653
コレ	-9.51665
すぎず	-9.51678
甲	-9.51724
歳の	-9.51898
が欲しくて	-9.51935
したり	-9.51966
使い心地	-9.51979
干	-9.52045
ハイ	-9.52069
歩き	-9.52073
はないです	-9.52094
いただいて	-9.52183
日目	-9.52192
次は	-9.52235
送料が	-9.52271
中で	-9.52284
感は	-9.52284
種	-9.52307
期間	-9.52332
胸	-9.52342
寒い	-9.52393
130	-9.52395
この価格	-9.52403
お風呂	-9.52417
に行く	-9.52441
いても	-9.52451
備	-9.5248
クラ	-9.52487
跡	-9.52577
下に	-9.52687
らしく	-9.52716
75	-9.52728
スーパー	-9.52747
なくなり	-9.52755
くらいです	-9.52759
観	-9.52829
どれも	-9.52849
レビューに	-9.52856
シンプル	-9.5288
好きです	-9.53059
安定	-9.53065
しようと思います	-9.53116
アイ	-9.53145
野菜	-9.53163
ないのに	-9.53227
”	-9.53244
それに	-9.5327
好	-9.53298
縮	-9.53327
おもちゃ	-9.53334
サイド	-9.53367
丁寧で	-9.53434
んだけど	-9.53436
されました	-9.53481
転	-9.53496
薄手	-9.5352
からの	-9.53673
破れ	-9.53699
四	-9.53746
見えない	-9.53768
にくいです	-9.53792
直ぐに	-9.53824
さっそく	-9.53833
ご飯	-9.53845
金具	-9.53887
ボロボロ	-9.53918
ω	-9.5392
問題ありません	-9.53986
履け	-9.5405
の中に	-9.54068
個人的には	-9.54092
思っていた	-9.54129
バッテリー	-9.54168
価格が	-9.54175
回り	-9.54176
があると	-9.54188
の使用	-9.54215
という感じ	-9.54218
今のところ	-9.54259
わかり	-9.54273
を考えると	-9.54306
贈り物	-9.54339
かさ	-9.54343
買ったのですが	-9.5435
触	-9.5438
綺麗で	-9.54429
悩んで	-9.54517
文句	-9.54521
人に	-9.54525
締め	-9.54542
かどうか	-9.5462
満足してます	-9.54628
たくて	-9.54646
LED	-9.54762
空気	-9.54797
ではないので	-9.54803
日の	-9.54824
言い	-9.54857
送りました	-9.54889
とした	-9.54921
v	-9.54935
キラキラ	-9.55018
際に	-9.55109
ですか	-9.5512
状	-9.55149
といって	-9.55163
ズレ	-9.55179
発送が	-9.55199
よいです	-9.55209
なもの	-9.5522
想像	-9.55224
古	-9.55227
がないので	-9.55228
んです	-9.55244
イイ	-9.55271
だが	-9.55368
スター	-9.55394
強い	-9.55425
ナチュラル	-9.55443
◎	-9.55445
シリーズ	-9.55473
いいので	-9.55593
楽しめ	-9.55625
畳	-9.557
しようと	-9.55701
売り	-9.55813
部屋に	-9.55814
夫	-9.55849
主	-9.55887
きません	-9.55988
V	-9.55993
屋さん	-9.56078
と思っていましたが	-9.56106
破損	-9.56132
かっこいい	-9.56147
買い替え	-9.56182
だいぶ	-9.56216
社	-9.56242
痛く	-9.56243
聞	-9.56255
もありません	-9.56257
ちょ	-9.56268
買わ	-9.5628
メーカーの	-9.56358
トップ	-9.56389
がかなり	-9.56452
価格も	-9.56458
喜んでくれました	-9.56464
合わず	-9.56475
専用	-9.56528
買ってよかったです	-9.56543
散	-9.56551
ロック	-9.56558
を持って	-9.56562
壊れた	-9.56604
ストレッチ	-9.56648
感動	-9.5665
このまま	-9.56667
低い	-9.56702
写真より	-9.5677
冷凍	-9.56818
にならない	-9.56892
息子に	-9.57015
聞いて	-9.57031
ジェル	-9.57033
ボール	-9.57108
良いので	-9.57131
日本製	-9.57182
甘	-9.572
コート	-9.57231
分からない	-9.57257
不足	-9.5729
取れて	-9.57319
色違いで	-9.57396
は良い	-9.57437
切って	-9.5744
塗り	-9.57471
くなり	-9.57476
美	-9.57491
早かったです	-9.57492
b	-9.57516
使っていた	-9.57539
輪	-9.5758
って感じです	-9.5759
ページ	-9.57611
いいかも	-9.57614
ケーブル	-9.57689
傘	-9.57774
コード	-9.57916
ーム	-9.57929
旨	-9.57948
セール	-9.58008
しゃ	-9.58017
いいかな	-9.58024
タグ	-9.58092
ないと思います	-9.58094
設定	-9.58127
Y	-9.58303
サイト	-9.58342
椅子	-9.58463
見つけました	-9.58467
どおり	-9.58469
れます	-9.58474
マン	-9.58499
もし	-9.58515
ために	-9.5862
におい	-9.58705
逆に	-9.58841
渡	-9.58918
届きません	-9.58926
元気	-9.58994
それと	-9.59005
書かれて	-9.59014
もらった	-9.59088
たの	-9.5917
弱い	-9.59188
してくれる	-9.59202
を購入した	-9.59286
確認して	-9.59307
られました	-9.59308
このお値段で	-9.59321
特	-9.59354
ワンサイズ	-9.59355
塗装	-9.59452
健康	-9.59454
かかりました	-9.59506
防止	-9.59549
満	-9.59574
派手	-9.59577
柄が	-9.59587
ずつ	-9.59594
刺	-9.59626
接続	-9.59633
まとめ買い	-9.5964
先に	-9.59667
かわ	-9.5968
23.5	-9.5972
意外と	-9.5981
(>_<)	-9.59811
あれ	-9.5984
ひと	-9.59914
たた	-9.59945
おく	-9.59964
どちら	-9.59986
良さそう	-9.60002
一部	-9.60027
おいしいです	-9.60076
ックス	-9.60097
思って	-9.60099
,1	-9.60106
使おう	-9.60142
プレゼントしました	-9.6016
させ	-9.6016
貼り	-9.60161
おらず	-9.60166
と感じました	-9.60207
ぁ	-9.60207
自然	-9.60231
70	-9.60234
できず	-9.60402
っちゃ	-9.60431
ロング	-9.60451
きっと	-9.6051
縫	-9.60572
ではありませんでした	-9.60607
かず	-9.60612
抜群	-9.60616
ゴムが	-9.60628
である	-9.60663
ダメでした	-9.60685
又	-9.60706
ショックです	-9.60764
(*^^*)	-9.60888
お値段も	-9.60895
剥がれ	-9.60915
してくれ	-9.60966
手触り	-9.60977
購入しています	-9.61027
に合わせて	-9.61103
こちらに	-9.61106
の色が	-9.6112
役	-9.61121
しながら	-9.61196
欲しいです	-9.61233
なくなる	-9.61255
ですので	-9.61278
ありがたいです	-9.61314
美味しかった	-9.61322
吸	-9.61369
下さい	-9.61386
背中	-9.61438
探	-9.61468
ぱ	-9.61495
不可	-9.61527
少	-9.61531
購入を	-9.61548
完全に	-9.61557
電源	-9.61608
とはいえ	-9.61611
あんまり	-9.61711
実物は	-9.61714
一日	-9.61715
としても	-9.61967
素晴らしい	-9.61973
引き出し	-9.61995
みよう	-9.62052
小さかった	-9.62089
チャック	-9.62095
長時間	-9.62099
となって	-9.62131
容量	-9.62202
更に	-9.62205
できた	-9.62232
PC	-9.62257
シミ	-9.6234
直接	-9.62353
毛が	-9.62385
と思ったら	-9.62397
男	-9.624
お勧めです	-9.62429
染	-9.62481
める	-9.62504
処理	-9.62525
はちょっと	-9.62552
他の方のレビュー	-9.62608
!?	-9.62655
海外	-9.62672
ふわふわ	-9.62708
買って良かったです	-9.62871
よりは	-9.62978
思う	-9.62981
柔らか	-9.63008
していない	-9.63024
魚	-9.63076
包	-9.63185
ミニ	-9.6321
タイ	-9.63265
国産	-9.63294
おいて	-9.63306
200	-9.63326
梅	-9.6334
を確認	-9.63347
アイロン	-9.63362
パーツ	-9.63411
草	-9.63442
チョ	-9.63506
誕生日	-9.63526
140	-9.63555
記	-9.63593
フィット感	-9.63598
気にならない	-9.63609
お安い	-9.63615
を注文しました	-9.63672
着け	-9.63679
からは	-9.63776
隠	-9.63782
と思ったのですが	-9.63818
残って	-9.63857
ると思います	-9.63903
最初	-9.6398
を買う	-9.64042
脇	-9.64092
痩せ	-9.64114
ければ	-9.6413
レビューで	-9.64184
最初から	-9.6426
ねじ	-9.64275
疑問	-9.64279
練習	-9.64282
の味	-9.64288
快適	-9.64359
秋	-9.64375
細身	-9.64375
迷って	-9.64379
入った	-9.64556
手元に	-9.64574
っち	-9.64576
出荷	-9.64584
初め	-9.64604
だと思いました	-9.64626
測	-9.6465
並	-9.64651
モデルさん	-9.64749
応	-9.64761
かんじ	-9.64761
しっかりと	-9.64762
安心です	-9.64796
経って	-9.64816
縦	-9.64931
なりません	-9.64964
そちら	-9.65027
価値	-9.65031
を探していて	-9.65101
まらない	-9.65362
くらいで	-9.65389
色を	-9.65424
これだけ	-9.65431
何とか	-9.6547
変わり	-9.6548
後は	-9.65497
しっかりしている	-9.65502
喜んでもらえました	-9.65506
ブラシ	-9.65524
天	-9.6559
治	-9.65595
インク	-9.65606
頼んで	-9.65658
小さすぎ	-9.65715
かかり	-9.65772
貼って	-9.65773
軽	-9.65957
あとは	-9.65974
不良	-9.66011
変な	-9.66063
れている	-9.66066
筋	-9.66068
込む	-9.66171
発送も	-9.66219
カメラ	-9.6631
イメージと	-9.66321
骨	-9.6635
お品	-9.66393
評判	-9.66395
とのことで	-9.66414
たかった	-9.6646
ほかの	-9.66494
保存	-9.66547
知り	-9.66567
カラ	-9.66571
力が	-9.66617
子供も	-9.6665
とおり	-9.66687
いなかった	-9.66713
スーパーで	-9.66772
ことも	-9.66812
親切	-9.6682
リビング	-9.66832
ゼ	-9.66847
共に	-9.66857
と書いて	-9.66872
探し	-9.6698
いけ	-9.66994
たまたま	-9.67034
を入れ	-9.6706
もったいない	-9.67077
ようと	-9.67085
使ってみました	-9.67093
レン	-9.67094
であれば	-9.67113
幅広	-9.67145
しま	-9.67225
の上に	-9.67234
感じられ	-9.67255
落とし	-9.67356
。"	-9.67368
巻き	-9.67423
放	-9.67499
ソー	-9.67513
他店で	-9.67566
昼	-9.676
カン	-9.67608
すぐに届きました	-9.67695
厚手	-9.67812
除	-9.67831
づ	-9.67846
ハン	-9.67877
サラサラ	-9.67894
まし	-9.67923
商品説明	-9.67936
増	-9.67955
近くの	-9.67983
XL	-9.67989
狭い	-9.68055
充分	-9.68066
アレルギー	-9.68085
便	-9.68204
書いてある	-9.68214
クリア	-9.68294
入っていました	-9.68331
なのかな	-9.68345
ワイ	-9.68367
ダー	-9.68374
ついた	-9.68385
このショップ	-9.68388
しかない	-9.68406
思ってたより	-9.68421
出産	-9.6844
感じがします	-9.68471
ますね	-9.68514
無かった	-9.68562
理由	-9.68564
紫	-9.6857
昨日	-9.68591
お世話	-9.68657
虫	-9.68662
他店	-9.68812
二人	-9.68836
だらけ	-9.68837
が少ない	-9.68849
被	-9.68861
形も	-9.68862
思った以上に	-9.68877
明らかに	-9.68958
香りも	-9.69018
お店の	-9.69027
きれい	-9.69069
気になりません	-9.69098
片方	-9.6922
量が	-9.69231
装	-9.69258
この商品を	-9.69285
面倒なので	-9.69292
見ると	-9.69308
友人の	-9.69314
ミリ	-9.6933
求め	-9.69339
少なく	-9.69343
到着しました	-9.69369
ケット	-9.69399
のかもしれません	-9.69459
るのか	-9.69622
寝て	-9.69626
誕生日プレゼント	-9.69638
付属の	-9.69645
粗	-9.69646
シルエット	-9.69648
限り	-9.69675
については	-9.69688
シンプルな	-9.69706
落	-9.69777
重宝しています	-9.69786
しませんでした	-9.69811
たけど	-9.69835
適	-9.69909
ギフト	-9.69944
クオリティ	-9.69945
したのに	-9.69959
仕様	-9.70012
酷い	-9.70048
発送も早く	-9.70068
変わらない	-9.70142
お願いした	-9.70172
試着	-9.70217
自分用	-9.70226
優しい	-9.70259
きたので	-9.70282
息子の	-9.70293
裏地	-9.70297
優	-9.70302
御	-9.70339
昔	-9.7034
パープル	-9.70445
万	-9.70447
どれ	-9.70458
甘さ	-9.70482
道	-9.70485
ドライ	-9.7049
うれしいです	-9.70502
ボタンが	-9.70524
番号	-9.70601
良くて	-9.70611
留め	-9.70615
始めて	-9.70619
イエロー	-9.70637
仕	-9.70672
思ってた	-9.7072
f	-9.70737
使えませんでした	-9.70749
以前から	-9.70795
揃え	-9.70837
つけた	-9.70895
楽しみにしていた	-9.70937
やすかったです	-9.70946
重宝	-9.70983
マイ	-9.71025
砂	-9.7103
履きやすい	-9.71047
いけない	-9.71081
ニー	-9.71081
容器	-9.71083
リア	-9.71109
フィルム	-9.71132
パソコン	-9.71136
模様	-9.71138
収	-9.71195
の時に	-9.71232
色と	-9.71233
注文し	-9.71284
実感	-9.71294
は初めてです	-9.71331
削	-9.71336
必要な	-9.71367
探していた	-9.71427
お金	-9.71431
DVD	-9.71436
いたところ	-9.7147
使いにくい	-9.71507
フェ	-9.71526
の為に	-9.7156
飲	-9.71577
肌が	-9.71601
心配です	-9.71626
安いです	-9.71683
まとめて	-9.71707
数日	-9.71801
色です	-9.71863
さに	-9.71925
壁	-9.72019
針	-9.72238
真ん中	-9.72241
完成	-9.72244
娘に	-9.72261
をする	-9.72286
画	-9.72292
頂け	-9.72317
決	-9.72352
置く	-9.72355
向	-9.72419
お米	-9.72493
手で	-9.72496
戻	-9.7252
していますが	-9.72542
はまだ	-9.72557
忘れ	-9.72627
半年	-9.72636
届いたので	-9.72637
値段の割に	-9.72661
形は	-9.72669
頂いて	-9.72709
誰	-9.72747
家の	-9.72759
友達	-9.7288
使いたい	-9.72893
喜んでいました	-9.729
チョコ	-9.72919
などで	-9.72938
に戻	-9.72972
見たら	-9.72993
進	-9.73053
使用感	-9.73099
食べられ	-9.73119
ちょっとした	-9.73123
なのでしょうか	-9.73134
ヌ	-9.73155
明るさ	-9.73155
良いもの	-9.73156
赤ちゃん	-9.73243
一切	-9.73274
やら	-9.73287
細く	-9.73315
頼まれて	-9.73321
はありますが	-9.7333
を購入し	-9.73341
させていただきます	-9.73472
調子	-9.73524
本人	-9.73537
思ったよりも	-9.73558
下着	-9.73559
お店に	-9.73664
是非	-9.73668
ショ	-9.73685
一本	-9.73694
にある	-9.73702
向け	-9.73829
ファ	-9.73858
保証	-9.73872
スペース	-9.739
フリー	-9.73913
他に	-9.73946
部屋の	-9.73972
感じる	-9.73998
使いやすく	-9.74017
使えそうです	-9.74035
われ	-9.74042
込	-9.74071
なぜ	-9.74073
履いた	-9.74075
閉	-9.74079
の香り	-9.74085
気に入り	-9.7413
が楽しみです	-9.74153
多分	-9.74201
男性	-9.74214
判	-9.74231
かなと思います	-9.74256
同様	-9.74309
使えそう	-9.74373
通りの	-9.74417
画像と	-9.74419
かなと	-9.74426
キング	-9.74475
みんな	-9.74482
持ち運び	-9.74491
の上	-9.74498
プリ	-9.7453
買いません	-9.74565
160	-9.7459
ることができ	-9.74593
くれました	-9.74637
来る	-9.74738
お値段が	-9.74771
でとても	-9.74788
ウェ	-9.74789
紹介	-9.74801
押	-9.74851
対	-9.74852
部屋着	-9.74907
操作	-9.74909
上がって	-9.74957
飾り	-9.7497
ような気がします	-9.74972
薄め	-9.74998
においが	-9.74998
お願いしました	-9.7502
取って	-9.75061
続	-9.75066
やすくて	-9.75155
素材が	-9.75155
なくなった	-9.7519
しやすい	-9.75256
付ける	-9.75283
ほつれて	-9.75305
という感じです	-9.75307
パール	-9.75309
頂き	-9.7537
厚さ	-9.75461
海	-9.75462
いるのですが	-9.75476
クル	-9.75488
冷え	-9.75572
ッド	-9.75631
してました	-9.75666
それなり	-9.757
こんなもん	-9.75729
原	-9.75735
ティー	-9.75745
大好き	-9.75753
きつく	-9.75809
良い商品	-9.7583
しよう	-9.75882
の位置	-9.75887
中国製	-9.75895
ぴったりでした	-9.76032
きましたが	-9.76069
出来ません	-9.7608
よかったのですが	-9.76099
為に	-9.76107
泡	-9.76109
ないか	-9.76146
参	-9.76152
極	-9.76156
選べ	-9.76262
使わ	-9.76265
簡単で	-9.76347
気になりました	-9.76394
以上に	-9.7644
曲がって	-9.7659
る事	-9.7663
口に	-9.7665
ほうがいい	-9.76658
だな	-9.76665
が無く	-9.76666
商品が届きました	-9.76714
意	-9.7672
来ました	-9.76847
様子	-9.7688
ここで	-9.76942
悪いです	-9.77002
サンプル	-9.77007
になるので	-9.77105
麺	-9.77106
崩れ	-9.77112
つもり	-9.77126
分かりませんが	-9.77141
もともと	-9.77174
来年	-9.77192
65	-9.77212
するか	-9.77213
を考えて	-9.77252
側の	-9.7729
娘が	-9.77296
検索	-9.77319
選択	-9.77348
それが	-9.77375
ショックでした	-9.77442
友人に	-9.7746
が悪いのか	-9.77488
心配でしたが	-9.77489
重ね	-9.7751
しわ	-9.77511
すでに	-9.77514
ずれて	-9.77533
わない	-9.77535
レビューが	-9.77557
パッド	-9.77561
繋	-9.77637
事が	-9.77657
一人で	-9.77667
系の	-9.77672
プレ	-9.77714
金属	-9.77744
シーズン	-9.77748
注文後	-9.77752
カーテン	-9.7776
サービス	-9.77856
持ち手	-9.77897
した感じ	-9.77932
高かった	-9.77945
初心者	-9.78068
太い	-9.78084
飽き	-9.78089
感覚	-9.78131
先日	-9.78136
滑り	-9.78148
多く	-9.7817
レー	-9.78176
両方	-9.78232
数回	-9.78264
ローズ	-9.78359
位置	-9.78384
必ず	-9.78407
大喜び	-9.78413
キャップ	-9.78414
興味	-9.78416
開き	-9.78439
苗	-9.78497
喜ばれました	-9.78513
重く	-9.78525
するのに	-9.7861
スプレー	-9.78627
辛い	-9.78633
以外	-9.78644
到着まで	-9.78663
方がいい	-9.78736
期待していた	-9.78737
ので購入しました	-9.78743
お願いします	-9.78779
いただいた	-9.78794
体に	-9.78921
ここまで	-9.78957
使用でき	-9.78964
強度	-9.78991
やすさ	-9.79002
痛み	-9.79003
事を	-9.79008
血	-9.79035
おいしかったです	-9.79093
しており	-9.79131
混	-9.79138
値段は	-9.79263
焼	-9.79267
かれて	-9.79292
だと思って	-9.79314
福袋	-9.79388
やめ	-9.79391
しっかりしています	-9.79399
リピは	-9.79443
飲め	-9.79448
物に	-9.7949
してください	-9.79501
不明	-9.79509
さんに	-9.79529
やすそう	-9.79534
ルー	-9.7956
人気	-9.7957
お祝い	-9.79587
なっている	-9.79641
開いて	-9.79642
メールを	-9.79675
度目	-9.79676
発注	-9.79686
対応して	-9.79721
がありましたが	-9.79767
母の日	-9.79788
ものです	-9.79852
るのも	-9.7987
大丈夫でした	-9.79878
ベビー	-9.79917
おりました	-9.79926
はしません	-9.79934
商品到着	-9.79935
せめて	-9.7998
できませんでした	-9.80009
それほど	-9.80056
未	-9.80058
湿	-9.8007
たまに	-9.80114
理	-9.80124
長持ち	-9.8021
られます	-9.80214
人で	-9.80284
フィ	-9.80326
賞味期限	-9.80343
ファー	-9.80344
同時に	-9.80375
ではないでしょうか	-9.8039
もらえる	-9.80412
ちょっと残念	-9.8048
のまま	-9.80549
詰め	-9.8057
半額	-9.80571
フォー	-9.80571
悪くない	-9.80595
つい	-9.80618
起き	-9.80629
ワンピース	-9.80671
レイ	-9.80676
わたし	-9.80683
暑い	-9.8069
いれば	-9.80703
今回も	-9.80729
修理	-9.8089
ができ	-9.80908
誤	-9.80999
クリスマスプレゼント	-9.81
関係	-9.81002
.0	-9.81055
イメージ通り	-9.81056
乗せ	-9.81092
キツイ	-9.81113
届くのが	-9.81119
管理	-9.81154
私に	-9.81181
通勤	-9.8123
フレ	-9.81273
メール便で	-9.81275
敷	-9.81286
45	-9.81322
届いた商品	-9.8133
方に	-9.81333
購入後	-9.81373
ジュ	-9.81379
とても良かったです	-9.81445
36	-9.8146
法	-9.81464
作りが	-9.81478
はいて	-9.81533
に置いて	-9.8158
ないけど	-9.81604
とても良いです	-9.81646
それぞれ	-9.81666
値段なり	-9.81755
防水	-9.81755
ほんとに	-9.8177
札	-9.81778
襟	-9.81779
が欲しい	-9.81789
バン	-9.81817
児	-9.81888
ガー	-9.81942
困って	-9.8196
こちらのショップ	-9.81979
折	-9.81987
酷	-9.81989
洋服	-9.82008
固い	-9.82043
集	-9.82066
ピッタリでした	-9.82078
梱包も	-9.82107
縫製が	-9.82126
仕方	-9.8214
55	-9.82193
羽	-9.82194
依頼	-9.8222
人が	-9.82272
までは	-9.82316
はっきり	-9.8239
育	-9.82407
ところに	-9.82413
飛	-9.82413
実際は	-9.82449
過	-9.82496
わかる	-9.82547
この価格で	-9.82562
入っていた	-9.82662
かつ	-9.82667
つくり	-9.82674
ストレス	-9.82798
駄目	-9.8281
浮	-9.8281
もらって	-9.82825
安全	-9.82849
などに	-9.82851
切れて	-9.8293
にしても	-9.82942
んですけど	-9.82946
ぞ	-9.8301
いい買い物	-9.83026
(*	-9.83036
愛	-9.83071
るような	-9.83107
比較	-9.83113
バッチリ	-9.83122
使うと	-9.83142
悩み	-9.83164
さえ	-9.83247
絶対に	-9.83331
合いませんでした	-9.83363
こちらも	-9.83397
,3	-9.83403
寝る	-9.83458
はありませんでした	-9.83488
のものを	-9.83507
のない	-9.83559
自宅	-9.83563
ダンボール	-9.83574
ショップに	-9.83582
届いたのは	-9.83599
んですね	-9.83609
使いやすさ	-9.83618
外出	-9.83659
消費	-9.83691
このような	-9.83724
不安でしたが	-9.8374
が多いので	-9.83751
場合は	-9.83808
職場	-9.8381
他の商品	-9.83816
作品	-9.83835
思っていたよりも	-9.83856
届けて	-9.83864
は無理	-9.83871
時には	-9.83886
(^-^)	-9.83916
で使用	-9.83938
お肉	-9.83941
プリント	-9.83952
ショップの対応	-9.84001
もらいました	-9.84004
大変でした	-9.84024
商品で	-9.8408
を買いましたが	-9.84106
で購入した	-9.84123
サイズを購入しました	-9.8416
乗り	-9.84182
終	-9.84211
苦労	-9.84221
願	-9.84251
ボトル	-9.84264
プロ	-9.8428
つもりです	-9.84285
末	-9.84313
精	-9.84367
タイツ	-9.84406
ごと	-9.84459
印刷	-9.84477
段ボール	-9.84497
着れ	-9.84643
酸	-9.84661
を買った	-9.84729
同じような	-9.84758
かける	-9.84804
すら	-9.84838
の高さ	-9.84877
大きかったです	-9.84911
関	-9.84918
部分も	-9.84986
ぴ	-9.85048
っぽ	-9.85068
支	-9.85077
!」	-9.85094
言われ	-9.85106
カワイイ	-9.85172
ないかな	-9.85182
長め	-9.85297
別に	-9.85349
たかったので	-9.8535
に関しては	-9.85424
捨てました	-9.85512
雪	-9.85514
こちらのお店	-9.85525
32	-9.8553
買える	-9.85536
このお店	-9.85542
にしては	-9.85595
させていただきました	-9.85599
48	-9.856
業者	-9.85632
次回	-9.85636
だと思う	-9.8574
させて頂きました	-9.8577
しております	-9.85838
コンパクトで	-9.85848
移動	-9.85872
めの	-9.85872
なのは	-9.85875
業	-9.85938
伝	-9.85938
様な	-9.85952
保護	-9.85972
ものより	-9.85979
はある	-9.86046
自分が	-9.86092
涙	-9.86209
友達に	-9.86225
これまで	-9.86281
暗い	-9.86326
はずれ	-9.86386
購入します	-9.86497
普段使い	-9.865
脱げ	-9.86504
窓	-9.86557
破れて	-9.86567
欲しく	-9.86636
おき	-9.86651
棒	-9.86673
煮	-9.86676
はなく	-9.86701
所に	-9.86738
ブランド	-9.86792
情報	-9.86794
るもの	-9.86868
酒	-9.86879
接着剤	-9.86914
失敗しました	-9.86984
参考に	-9.87001
値段で	-9.87077
いろいろな	-9.8717
しっかりした作り	-9.87227
してほしい	-9.87272
シーツ	-9.87311
,【	-9.87316
バイ	-9.87352
みようと思います	-9.87367
ついていて	-9.87385
本物	-9.87402
鏡	-9.87492
▽	-9.875
分かりません	-9.87509
写真を	-9.87515
済み	-9.87543
スク	-9.87628
ほう	-9.87682
なさそうです	-9.87811
奥	-9.87839
ませ	-9.87873
豊富	-9.87969
いいもの	-9.88001
しみ	-9.88019
早かった	-9.88074
節	-9.88076
祝い	-9.88137
丁寧	-9.8815
たところ	-9.88171
まれて	-9.88175
歩いて	-9.88183
メッセージ	-9.88205
斜め	-9.88213
デザインで	-9.8822
に対して	-9.88235
センチの	-9.88266
能	-9.88282
伸縮性	-9.88334
はじめ	-9.88355
ジャー	-9.88372
ようですが	-9.88401
目的	-9.88437
滑	-9.88448
浮いて	-9.88456
あす楽	-9.8849
いたのに	-9.88525
110	-9.88557
安く買えて	-9.88561
汚	-9.8858
`	-9.88661
を購入したのですが	-9.88667
妊娠	-9.88681
いま	-9.88696
かわいく	-9.88763
濃	-9.888
活躍	-9.88862
大きいサイズ	-9.88867
を使用して	-9.88879
嫌い	-9.88935
という事	-9.88962
分け	-9.88967
ですかね	-9.88969
食べました	-9.89014
もうちょっと	-9.89027
信頼	-9.89058
間違って	-9.89079
送った	-9.89093
スープ	-9.891
っきり	-9.89121
用として	-9.89124
状況	-9.89153
゚	-9.89155
度に	-9.89156
の感想	-9.89222
程度の	-9.89233
かなと思いました	-9.89246
天板	-9.89297
がたくさん	-9.893
良し	-9.89317
イヤ	-9.89327
だけの	-9.89336
使用しました	-9.8936
かん	-9.89383
が増え	-9.89403
と思ってます	-9.89412
スタ	-9.89424
ふた	-9.8948
スムーズ	-9.89514
我慢	-9.89548
していたので	-9.89568
準備	-9.8964
昨年	-9.89658
の良さ	-9.89671
カバーを	-9.89704
敷き	-9.89721
居	-9.89741
灯	-9.89837
易い	-9.89845
使い勝手	-9.89849
挟	-9.89877
付属	-9.8988
良くない	-9.89948
なんですが	-9.8995
気に入ったので	-9.89952
負担	-9.89998
が大変	-9.90013
時点で	-9.901
たのに	-9.90142
ちゃいました	-9.9019
眠	-9.90254
アー	-9.90266
買いたい	-9.90325
割り	-9.90332
白く	-9.90422
を受け	-9.90425
とは思いますが	-9.90492
35	-9.90502
明日	-9.90502
古い	-9.90568
の方に	-9.90581
ことができました	-9.90581
選び	-9.90589
マットレス	-9.90614
ストーン	-9.90689
オン	-9.9069
小物	-9.90722
失敗した	-9.90747
良い買い物	-9.90773
詐欺	-9.90848
∀	-9.90851
ツヤ	-9.9095
髪の毛	-9.90982
みえ	-9.90986
もありましたが	-9.91028
人の	-9.91122
生地で	-9.91162
効いて	-9.91162
窮屈	-9.91214
綺麗です	-9.91269
洗う	-9.91278
工夫	-9.91349
大きいので	-9.91487
シューズ	-9.91582
・・\	-9.91599
バリ	-9.91633
してしまい	-9.91644
ラック	-9.91679
想像以上に	-9.91714
300	-9.91769
よね	-9.9178
おまけの	-9.91792
諦め	-9.91872
娘も	-9.9189
寒	-9.91932
っていて	-9.91942
みる	-9.91944
良さそうです	-9.91958
ガッカリです	-9.91961
きれいで	-9.91967
色落ち	-9.91997
使用しましたが	-9.92026
"	-9.92029
足りない	-9.92037
千円	-9.92054
買い物でした	-9.92057
行く	-9.92112
入ります	-9.92141
食べてくれ	-9.92158
休	-9.9216
失敗でした	-9.92184
妹	-9.92198
持	-9.9223
たん	-9.92231
ぺ	-9.9224
お湯	-9.92321
食い	-9.92356
ボード	-9.92356
の間	-9.92407
ものすごく	-9.92515
余り	-9.92524
皆さんのレビュー	-9.92532
家で	-9.92549
バス	-9.92552
られている	-9.92556
口コミ	-9.92566
だったのに	-9.92632
目で	-9.92687
汁	-9.92691
見つけて	-9.9272
と思うので	-9.92729
なしです	-9.92745
んだろう	-9.92784
可愛かった	-9.92796
サイ	-9.92814
もあって	-9.92878
まった	-9.9301
ランプ	-9.93012
高いので	-9.93013
好評	-9.93034
ゆる	-9.93193
家に	-9.93273
走	-9.93283
スイッチ	-9.93311
かかった	-9.93341
外に	-9.93489
飲みやすい	-9.935
口が	-9.93505
組み立ては	-9.93566
になってしまい	-9.9358
とてもいい	-9.93589
履	-9.93602
いいのに	-9.93615
欲しかったです	-9.93728
期待外れ	-9.93789
間違えて	-9.93799
っか	-9.93801
届かず	-9.93814
用に買いました	-9.93877
方が良い	-9.93962
による	-9.93975
毎年	-9.93992
に惹かれて	-9.94021
ミシン	-9.94038
980	-9.94041
楽しく	-9.94062
画像の	-9.94065
頑張って	-9.94065
上手く	-9.94065
大きさは	-9.94098
すと	-9.94134
縫い目が	-9.94145
してしまった	-9.94145
なったので	-9.94166
果	-9.94168
すこし	-9.94184
一目惚れ	-9.94191
完了	-9.94311
るため	-9.94328
性能	-9.94329
上から	-9.94352
この値段なら	-9.94378
扉	-9.94437
光沢	-9.94442
書いてあった	-9.94445
くれます	-9.94447
なのが	-9.9448
処	-9.94491
売っている	-9.94555
読	-9.94555
柄も	-9.94588
・・,	-9.946
),	-9.94608
大きいです	-9.94648
ギリギリ	-9.94693
商品だと思います	-9.947
こちらの商品を	-9.94701
仕方がない	-9.94712
?」	-9.94771
食感	-9.94797
湯	-9.9482
すべき	-9.94823
ある程度	-9.94847
だけに残念です	-9.94849
買おう	-9.94854
組	-9.94883
そういう	-9.94949
使い始めて	-9.94973
乾き	-9.9498
購入したのに	-9.94984
しっかりとした	-9.95009
洗	-9.95037
も無く	-9.95105
こちらで購入	-9.95118
写真通り	-9.95125
さすが	-9.95139
フォ	-9.95175
薄いです	-9.95189
ならず	-9.95209
使用していた	-9.9528
中身が	-9.95306
急いで	-9.95351
なるので	-9.95433
幼稚園	-9.95459
とう	-9.95466
スーツ	-9.9555
黒の	-9.95581
使いました	-9.95582
シリコン	-9.95584
缶	-9.95584
たぶん	-9.95595
されていた	-9.95622
箱に	-9.95625
が好きな	-9.95635
重量	-9.95709
可愛かったです	-9.95739
ネックレス	-9.95844
もありますが	-9.95876
今年	-9.95899
丁度良い	-9.95923
店頭で	-9.96018
現物	-9.96026
箱が	-9.96058
するのが	-9.96065
お店の方	-9.96145
成分	-9.96155
ような感じ	-9.96163
デカ	-9.96175
版	-9.96223
何度	-9.96268
日後に	-9.96283
発色	-9.96316
にも関わらず	-9.9635
コストパフォーマンス	-9.96354
てます	-9.96369
乾	-9.96373
不安です	-9.96441
とてもいいです	-9.96474
密	-9.9648
活用	-9.9648
歩	-9.9651
住	-9.96518
買います	-9.96546
剥がれて	-9.96553
週	-9.96566
かた	-9.9659
決定	-9.9659
助	-9.96607
予備	-9.96616
アル	-9.96639
ボックス	-9.9664
なー	-9.96727
にもかかわらず	-9.96738
どちらも	-9.96738
チーズ	-9.96741
太もも	-9.96762
不便	-9.96767
同梱	-9.96777
黄	-9.96813
ぷ	-9.96868
63	-9.96871
当日	-9.96951
た方が	-9.96961
していません	-9.96964
いるのか	-9.96972
晩	-9.96996
机	-9.96996
のが残念です	-9.97026
タイヤ	-9.97062
子供用	-9.97099
通販	-9.97116
声	-9.97125
ゅ	-9.97131
木の	-9.97146
上下	-9.97171
したもの	-9.97208
球	-9.97245
あきらめ	-9.97259
帰	-9.97264
になりそうです	-9.97309
溶け	-9.9733
大切に	-9.97391
買ってよかった	-9.97395
がありますが	-9.97459
とこ	-9.97469
ソフト	-9.97517
くなった	-9.97531
家具	-9.97535
の私には	-9.97542
楽天で	-9.9759
慣れて	-9.97615
値段の割には	-9.97626
浴	-9.97645
まだ使って	-9.97664
ようになって	-9.97682
無いので	-9.97691
月に	-9.97696
時も	-9.97704
になっています	-9.97722
保管	-9.97725
それは	-9.97746
足首	-9.97771
正解	-9.97779
の娘に	-9.97789
当然	-9.9779
マシ	-9.97805
お買い物	-9.9782
されていて	-9.9782
使っていますが	-9.97824
目立ち	-9.97913
ようなので	-9.97959
ビー	-9.9796
さすがに	-9.98009
おかげで	-9.98033
が悪かった	-9.98071
部分を	-9.98091
があったら	-9.98092
帽子	-9.98175
汚れて	-9.98216
肌触りも	-9.98247
グル	-9.98284
ひどく	-9.98306
まさか	-9.98309
遊び	-9.98328
すぎます	-9.98354
期待しています	-9.98361
と比べて	-9.98393
付く	-9.98409
モデル	-9.98428
アイボリー	-9.98432
送料無料で	-9.98505
ではないです	-9.98516
98	-9.98518
高い買い物	-9.98544
野	-9.98561
キュ	-9.98571
使ってみて	-9.98583
探していました	-9.98592
ビックリしました	-9.98596
化粧	-9.98637
するのは	-9.98674
学校	-9.98675
かす	-9.98707
の下に	-9.98732
気になっていた	-9.9877
頼みました	-9.98813
誕生日に	-9.98817
落ちる	-9.98821
を送って	-9.98888
>	-9.98953
24.5	-9.9896
含め	-9.98961
艶	-9.98961
おいしかった	-9.99031
ポン	-9.99055
かなー	-9.99069
冊	-9.99092
室内	-9.99118
小さいので	-9.99156
れず	-9.99205
入っている	-9.99235
プレゼント用に	-9.99258
身体	-9.99277
写	-9.99344
買ったのに	-9.9939
一言	-9.99392
こちらの商品は	-9.99441
牛	-9.99479
守	-9.99488
座り心地	-9.99489
これでは	-9.99529
後悔しています	-9.99563
混ぜて	-9.99579
パワー	-9.99621
選びました	-9.99638
可愛いので	-9.99726
ばかりで	-9.99766
たった	-9.99798
それを	-9.9984
オマケ	-9.99888
終わり	-9.99925
安定感	-9.99964
はないと思います	-9.99989
しなくて	-9.99996
移	-10
迅速で	-10.0002
生活	-10.0009
ドア	-10.0009
小さいです	-10.0009
にくかった	-10.002
然	-10.0023
が出る	-10.0026
お弁当	-10.0029
る感じ	-10.0031
縫い目	-10.0034
あけ	-10.0035
拭き	-10.0039
けっこう	-10.0042
していただけ	-10.0049
な感じです	-10.0052
高いです	-10.0054
降	-10.0055
スポンジ	-10.0055
ぃ	-10.0056
届くのが楽しみです	-10.0059
入れる	-10.0066
マジックテープ	-10.0069
エア	-10.0069
夏に	-10.0071
取る	-10.0073
元々	-10.0078
雑な	-10.0085
カル	-10.0085
はめ	-10.0085
無事	-10.0086
こない	-10.0088
最悪でした	-10.009
やわらか	-10.0093
外れて	-10.0096
クリスマス	-10.0097
知って	-10.01
足に	-10.0103
とても満足しています	-10.0107
に見えます	-10.0122
図	-10.0123
がっかりでした	-10.0123
安っぽいです	-10.0124
お友達	-10.0125
かり	-10.0126
若	-10.0135
他の方のレビューに	-10.014
とても気に入って	-10.0143
ウォー	-10.015
必需品	-10.015
これからの季節	-10.015
取り寄せ	-10.0151
個人	-10.0153
ネジが	-10.0154
ショップさん	-10.0155
処分	-10.0157
原因	-10.0163
リュック	-10.0163
もち	-10.0164
厚く	-10.0169
誕生日プレゼントに	-10.017
お得です	-10.0177
といった	-10.0182
メン	-10.0183
かって	-10.0189
置	-10.019
楽です	-10.0191
情	-10.0204
お洒落	-10.0204
ハンガー	-10.0206
42	-10.021
のに残念です	-10.0222
ってます	-10.0223
手帳	-10.0233
ぜひ	-10.0235
カ月	-10.0235
勉強	-10.0241
もあるので	-10.0242
華やか	-10.0246
頂いた	-10.0251
最初に	-10.0251
使用している	-10.0253
どうしよう	-10.0253
ちゃう	-10.0254
返品も	-10.0255
テン	-10.0263
敷いて	-10.0264
を作る	-10.0269
最初の	-10.0271
ゆう	-10.0275
をつけ	-10.0276
ひも	-10.0287
限定	-10.0287
返品したい	-10.0291
クセ	-10.0292
ようと思います	-10.0295
パット	-10.0299
筆	-10.03
通りに	-10.03
つま先	-10.03
田	-10.0301
使いたいと思います	-10.0301
水が	-10.0304
サイズを購入	-10.0306
嫌な	-10.0306
悩みましたが	-10.0307
到着して	-10.0307
高め	-10.0309
良いですね	-10.0313
に比べて	-10.0315
シェ	-10.0315
なぜか	-10.0318
持つ	-10.0318
アレンジ	-10.0318
マスク	-10.0319
ほしいです	-10.0321
写真では	-10.0322
x	-10.0328
植え	-10.033
硬	-10.0331
度と	-10.0332
良かったと思います	-10.0335
っぱなし	-10.0336
-1	-10.0339
かも知れません	-10.0341
フタ	-10.0349
サプリ	-10.035
ようやく	-10.0355
高すぎ	-10.0358
暑	-10.0359
出る	-10.036
論	-10.0368
をつけて	-10.0369
大きめの	-10.0369
私でも	-10.0373
と違う	-10.0374
乗	-10.038
姉	-10.0383
ではなかった	-10.0386
可愛いし	-10.0391
使いましたが	-10.0394
外側	-10.0394
解凍	-10.0397
↓	-10.041
価	-10.0411
仕上げ	-10.0413
=	-10.0424
皮膚	-10.0424
某	-10.0424
お手頃	-10.0425
お店の対応も	-10.0425
手を	-10.0425
38	-10.0431
閉め	-10.0432
着物	-10.0435
反	-10.0436
理解	-10.044
そこまで	-10.0441
感じは	-10.0442
決め	-10.0443
食事	-10.0446
タッチ	-10.0447
洗った	-10.0451
起	-10.0452
仕方なく	-10.0454
使用し	-10.0454
お店の対応は	-10.0461
相当	-10.0462
わりに	-10.0462
した方が	-10.0463
あると	-10.0464
刺激	-10.0467
ですから	-10.0468
100%	-10.0471
地味	-10.0474
ドル	-10.0477
お値段以上	-10.048
ゆとり	-10.0481
キャスター	-10.0481
31	-10.0484
コメント	-10.0485
分の	-10.0486
いいのか	-10.0486
去年	-10.0488
たまま	-10.049
存在感	-10.0493
腐	-10.0494
オーダー	-10.0496
やすかった	-10.0496
教	-10.0507
さっぱり	-10.0509
買えばよかった	-10.0509
フレーム	-10.0509
風味	-10.0517
とのことでした	-10.0517
回目の	-10.0521
神	-10.0522
接	-10.0522
本当は	-10.0527
みなさん	-10.0527
角度	-10.053
などを	-10.0533
凄い	-10.0533
によっては	-10.0536
買えた	-10.0538
塗って	-10.0539
っく	-10.054
利	-10.0541
持っている	-10.0544
補	-10.0548
束	-10.055
率	-10.055
スタイル	-10.055
整理	-10.0551
いいけど	-10.0552
次回は	-10.0556
のでしょうが	-10.0559
していただき	-10.0562
肌触りが	-10.0564
2.	-10.0565
糖	-10.0566
温度	-10.0568
石鹸	-10.0579
お菓子	-10.0581
も同じ	-10.0583
なと思いました	-10.059
と違って	-10.059
払い	-10.0591
が入っている	-10.0592
痛くて	-10.0592
員	-10.0593
ション	-10.0601
取付	-10.0604
ノー	-10.0605
わかって	-10.0608
買ったので	-10.0609
勝手に	-10.0611
不具合	-10.0611
に入れる	-10.0616
辺	-10.0618
そこそこ	-10.0618
ったので	-10.0618
ばら	-10.0618
洗剤	-10.0622
ダウン	-10.0623
ダボ	-10.0625
相手	-10.0628
プラス	-10.0632
市販の	-10.0633
なさそう	-10.0634
が欲しかったので	-10.0639
済	-10.064
送られてきた	-10.0642
が少なく	-10.0644
いらない	-10.0645
スムーズに	-10.065
を見ると	-10.065
言葉	-10.0652
チェ	-10.0655
形状	-10.0655
金具が	-10.0657
楽しい	-10.0659
いざ	-10.0659
ために購入しました	-10.0662
店舗で	-10.0664
パンプス	-10.0664
アウトレット	-10.0664
カバーが	-10.0664
以前は	-10.0674
髪が	-10.0677
広い	-10.068
いいな	-10.0684
問題ないです	-10.0685
水を	-10.0691
ただの	-10.0691
と比べると	-10.0693
色んな	-10.0693
ひっ	-10.0698
遅すぎ	-10.0699
なれば	-10.0702
の様な	-10.0704
疑	-10.0706
科	-10.0707
組み合わせ	-10.0709
贈りました	-10.0709
レビューを参考に	-10.0714
一応	-10.0716
●	-10.0721
購入して良かったです	-10.0724
飲んでいます	-10.0734
冷蔵庫	-10.0735
致	-10.0736
商品が届いて	-10.0736
値段のわりに	-10.074
キン	-10.0742
面白い	-10.0744
用途	-10.0745
造り	-10.0747
大きさで	-10.0748
が好きなので	-10.0749
となりました	-10.0751
上品な	-10.0759
記載されて	-10.0768
磨	-10.0779
思い切って	-10.078
ものなので	-10.0785
せずに	-10.0789
化粧水	-10.0792
もついて	-10.0795
それで	-10.0798
ペット	-10.0798
それも	-10.0801
にぴったり	-10.0801
喜んでいます	-10.0801
ヘア	-10.0803
送料込みで	-10.0806
大変満足しています	-10.0808
になると	-10.0808
の際	-10.0814
ゃ	-10.0816
ょ	-10.0819
念	-10.0819
付いている	-10.0819
言えば	-10.0822
紺	-10.0822
ヘッド	-10.0824
以前に	-10.0831
ところです	-10.0835
送られて	-10.084
普段使いに	-10.0843
破	-10.0844
せない	-10.0846
他にも	-10.0846
できれば	-10.0847
ポーチ	-10.0851
サンダル	-10.0851
フック	-10.0852
元の	-10.0853
伝え	-10.0855
なあ	-10.0863
柄の	-10.0866
続き	-10.0867
痛いです	-10.0869
ないですね	-10.0882
当て	-10.0887
毎	-10.0894
ダイヤ	-10.0898
残念ですが	-10.0903
スニーカー	-10.0909
もあります	-10.0913
買って良かった	-10.0916
縁	-10.0924
遊んで	-10.0928
ように思います	-10.093
が弱い	-10.0934
っていました	-10.0936
鉢	-10.0938
コンタクト	-10.0939
鮮やか	-10.094
作った	-10.0948
53	-10.0949
はわかりませんが	-10.095
丁度いい	-10.0952
なってしまいました	-10.0955
お店の対応	-10.0957
寝心地	-10.0957
説明書が	-10.0965
ーション	-10.0966
おかしい	-10.0968
るだけで	-10.0968
付いた	-10.0978
ナイ	-10.0978
信用	-10.0979
たびに	-10.0985
バイク	-10.0991
小さかったです	-10.0994
チクチク	-10.0997
どんどん	-10.0997
ガーゼ	-10.0998
はみ出	-10.0998
あまりに	-10.0999
急ぎ	-10.1003
安く購入でき	-10.1009
費	-10.1011
折れて	-10.1019
ここの	-10.102
けば	-10.1024
鍵	-10.1027
大き目	-10.1027
編	-10.1028
義	-10.1029
みたいに	-10.1033
拭	-10.1035
封	-10.104
トラ	-10.1042
あわせ	-10.1044
出来た	-10.1046
まわり	-10.1047
ソファー	-10.1054
兼	-10.1057
ずらい	-10.1059
入学	-10.1061
両親	-10.1062
になっていて	-10.1066
気にいって	-10.1068
と言われました	-10.1069
グラス	-10.1071
今までは	-10.1072
代わりに	-10.1074
注文したのに	-10.1075
スタッフ	-10.108
大好きです	-10.1082
届いた商品は	-10.1085
痛くなり	-10.1086
ジャケット	-10.1087
小ぶり	-10.1089
05	-10.1095
愛用しています	-10.1095
記入	-10.1095
少しでも	-10.1096
調べ	-10.1099
飼	-10.1101
病	-10.1101
滑り止め	-10.1103
つかって	-10.1109
横に	-10.111
ニット	-10.1111
必須	-10.1116
刺繍	-10.1116
もらう	-10.1116
なんとも	-10.1117
見つけた	-10.1119
材質	-10.1123
今から	-10.1123
合わせて	-10.1124
減ら	-10.1125
!!!!	-10.113
あっという間に	-10.1131
ネイル	-10.1131
な感じで	-10.1136
受	-10.1138
お得な	-10.1138
視	-10.1138
商品自体	-10.1139
の違い	-10.1141
自分には	-10.1147
感激	-10.115
かと思いましたが	-10.1157
購入できて	-10.116
ができて	-10.1169
注	-10.1172
してほしいです	-10.1178
定番	-10.1179
盛り	-10.1182
周	-10.1187
のために購入しました	-10.119
には不向き	-10.1192
もう一つ	-10.1193
にならず	-10.1194
安いのに	-10.1196
荒れ	-10.1201
期待はずれ	-10.1206
座って	-10.1207
見た目が	-10.1212
を見つけ	-10.122
価格で	-10.122
死	-10.1221
こちらを購入しました	-10.1222
相	-10.1223
欠け	-10.1223
まない	-10.1233
が良かったので	-10.1241
柔らかくて	-10.1243
めっちゃ	-10.125
延	-10.1251
トロ	-10.1251
39	-10.1255
電話で	-10.126
みたところ	-10.1264
限	-10.1265
至	-10.1266
買い換え	-10.1269
注文したのですが	-10.1269
が必要です	-10.1271
と思っていた	-10.1283
購入を決めました	-10.1284
購入したいと思います	-10.1285
ならば	-10.1293
麦	-10.1297
開けた	-10.1298
驚	-10.1299
発生	-10.1308
掲載	-10.1311
?)	-10.1314
飾	-10.1325
ッタ	-10.1326
不思議	-10.1327
雨の日	-10.1331
ケア	-10.1339
ニオイ	-10.1342
撮	-10.1342
愛犬	-10.1344
あっても	-10.1345
中古	-10.1354
さま	-10.1365
取れる	-10.1368
泊	-10.1373
ロール	-10.1376
画像より	-10.1376
基本	-10.1379
肌の	-10.1379
になったので	-10.1381
クリ	-10.1385
トリートメント	-10.1388
わざわざ	-10.1388
杯	-10.1388
着けて	-10.1395
やすいので	-10.1395
客	-10.1402
もう一度	-10.1403
接着	-10.1412
座面	-10.1412
柄は	-10.1414
逆	-10.1416
満足しております	-10.1418
在	-10.1432
越	-10.1433
取っ手	-10.1434
クーポン	-10.1434
かと思って	-10.1436
まして	-10.1436
怖い	-10.1439
ので星	-10.1441
既に	-10.1443
締め付け	-10.1454
丈も	-10.1455
TV	-10.1456
ワイヤー	-10.1465
スポーツ	-10.1465
回答	-10.1468
を期待して	-10.147
用品	-10.147
大活躍	-10.1479
不快	-10.1483
が多かった	-10.1491
49	-10.1491
振り	-10.1492
ネック	-10.1493
あげて	-10.1495
非	-10.1495
ジュース	-10.1496
変わって	-10.1496
スリム	-10.1496
印鑑	-10.1496
連絡も	-10.1497
機種	-10.1498
内祝い	-10.1499
まるで	-10.1501
ウン	-10.1505
文句なし	-10.1509
断然	-10.1512
とは思えない	-10.1514
カバン	-10.152
新居	-10.1529
バンド	-10.1534
電気	-10.1536
実際の	-10.1537
とても気に入っています	-10.1538
もう一	-10.1538
><	-10.1543
ほんと	-10.1545
可	-10.1554
快	-10.1555
ぶり	-10.1557
的にも	-10.156
購入したいです	-10.1561
使っていません	-10.1564
として購入	-10.1566
68	-10.1572
破け	-10.1573
丁寧な	-10.1576
ありえない	-10.1576
使用後	-10.1583
CD	-10.1584
一ヶ月	-10.1585
定価	-10.1589
仕事で	-10.1593
-04	-10.1593
かせ	-10.1594
選べる	-10.1594
納	-10.1599
買い物ができました	-10.1601
暖	-10.1602
途中で	-10.1604
2〜3	-10.1611
を参考に	-10.1612
食器	-10.1612
今年は	-10.1616
お気に入りの	-10.1616
制	-10.162
手持ちの	-10.1622
休み	-10.1624
して頂き	-10.1626
一年	-10.1629
ないといけない	-10.1633
うちの子	-10.1636
&#8252;	-10.1636
内側	-10.1638
きれ	-10.1639
-02	-10.1639
遊	-10.1645
が強い	-10.165
プレート	-10.165
きれいです	-10.1651
レギンス	-10.1652
記念	-10.1653
香りは	-10.1654
簡単でした	-10.1656
しろ	-10.1662
ないため	-10.1662
ズボン	-10.1667
ボディ	-10.1671
連絡を	-10.1686
載せ	-10.1692
73	-10.1692
キレイに	-10.1692
64	-10.1701
以内	-10.1702
本来	-10.1712
見かけ	-10.1715
37	-10.1717
していたのですが	-10.1717
使いづらい	-10.1724
お金を	-10.1727
十分です	-10.1731
動作	-10.1737
聞き	-10.1742
大事に	-10.1745
欲	-10.1757
孫	-10.1763
リピします	-10.1767
ベスト	-10.1771
すぐ届きました	-10.1775
水分	-10.1776
返品交換	-10.1778
病院	-10.1779
厳しい	-10.1779
購入でき	-10.1779
期待しすぎ	-10.1783
シック	-10.1783
異	-10.1786
とは言え	-10.179
来ない	-10.179
インテリア	-10.1795
製造	-10.1795
おけば	-10.1798
ファスナーが	-10.1798
家族に	-10.1799
切る	-10.1799
本当	-10.1804
ml	-10.1807
ソックス	-10.1813
つかない	-10.1814
セールで	-10.1815
染め	-10.1816
出来ます	-10.1822
整	-10.1825
運動	-10.1828
使わせて	-10.1829
なくなったら	-10.183
をかけて	-10.1834
抜き	-10.1835
件	-10.1842
認識	-10.1843
アンダー	-10.1844
好評でした	-10.1848
使い始め	-10.185
当方	-10.1851
上で	-10.1858
通常の	-10.1859
楽に	-10.1862
かと思い	-10.1866
手軽に	-10.1868
パイ	-10.1872
ヴ	-10.1874
この店	-10.1875
映	-10.1876
はがれ	-10.1878
期待した	-10.1879
リピートします	-10.188
倒れ	-10.1881
レス	-10.1886
積	-10.1891
房	-10.1891
-03	-10.1896
かしら	-10.1897
激	-10.1899
ラメ	-10.1905
秒	-10.1907
ツルツル	-10.1907
ホルダー	-10.1907
すみません	-10.1908
予想以上に	-10.1908
まだ届きません	-10.1909
いくつか	-10.191
作れ	-10.1917
家庭	-10.1924
驚き	-10.1927
参考	-10.1928
メイン	-10.1937
-01	-10.1943
もっと早く	-10.195
なんだ	-10.1952
ようなもの	-10.1953
万円	-10.1953
期待を込めて	-10.1956
癖	-10.1956
開閉	-10.1956
リピはないです	-10.1959
載って	-10.196
ブル	-10.1961
99	-10.1965
たかったのですが	-10.1969
魅力	-10.1969
こちらから	-10.1969
順	-10.1971
淡	-10.1972
弾	-10.1972
ショート	-10.1974
会社の	-10.1978
ついている	-10.1981
炊	-10.1982
素材も	-10.1983
ごろ	-10.1988
ガード	-10.2001
バラバラ	-10.2006
歳の娘	-10.2006
広く	-10.2007
いいかもしれません	-10.2014
勝	-10.2019
・・・・・	-10.2021
教えて	-10.2022
それなりに	-10.2025
43	-10.2034
ホームセンターで	-10.2034
録	-10.2037
ミルク	-10.2037
吸収	-10.2038
辺り	-10.204
なんとなく	-10.2043
着用して	-10.2044
到着した	-10.2045
ベット	-10.2045
クリップ	-10.2051
語	-10.2053
範囲	-10.2053
二度と買いません	-10.206
と違い	-10.2061
彼	-10.2069
おまけに	-10.207
チープ	-10.207
良	-10.207
頑丈	-10.2071
水着	-10.2072
だけあって	-10.2073
夏は	-10.2077
浅	-10.2077
95	-10.208
困	-10.208
メイク	-10.2086
耐	-10.2098
ガッカリしました	-10.2098
取り付けて	-10.2101
つきました	-10.2102
オフ	-10.2102
挑戦	-10.2103
かわいいので	-10.2106
程度で	-10.2113
の味が	-10.2114
書いた	-10.2116
甘み	-10.2117
聴	-10.2119
使い勝手は	-10.212
コツ	-10.2122
こちらを購入	-10.2128
買えて	-10.2133
とても喜んで	-10.2133
サイズ感	-10.2134
モン	-10.2134
追	-10.2134
に見える	-10.2135
Д	-10.2136
ホームセンター	-10.2138
腰痛	-10.2141
伸びて	-10.2144
出した	-10.2144
カーキ	-10.2147
ブリ	-10.2148
卵	-10.2152
災	-10.2152
何回か	-10.2153
(;	-10.2154
寒く	-10.2157
友達の	-10.216
静か	-10.2171
のが楽しみです	-10.2175
のほう	-10.2181
抜	-10.2184
マッサージ	-10.2185
書かれている	-10.2186
レザー	-10.2187
主人の	-10.2192
思った通り	-10.2196
以外は	-10.2197
伸びる	-10.2202
五	-10.2202
送る	-10.2206
マグネット	-10.2211
ないもの	-10.2213
値段も安く	-10.2217
肝心の	-10.2218
検討中です	-10.2219
、、、,	-10.222
おやつ	-10.2223
いるのに	-10.2226
欄	-10.2235
対策に	-10.2235
まだまだ	-10.2237
時間がかかり	-10.2245
プリン	-10.225
変わらず	-10.2251
ムラ	-10.2254
っていう	-10.2255
迷った	-10.2258
胸の	-10.2266
覚	-10.2268
少し大きめ	-10.2271
いれ	-10.2272
今度	-10.2279
韓国	-10.2279
復	-10.2285
お客様	-10.2285
怒	-10.2285
させて頂きます	-10.2286
送料込み	-10.2286
ハード	-10.229
今まで使っていた	-10.2292
蓋が	-10.2292
ちょうどよく	-10.2298
席	-10.2302
銀	-10.2302
とても可愛いです	-10.2305
大失敗	-10.2305
しょう	-10.2308
感触	-10.2311
を探していたので	-10.2315
他社の	-10.2316
カレー	-10.2326
上部	-10.2328
固め	-10.2328
手作り	-10.2329
と思っていたのですが	-10.2332
のせいか	-10.2333
も付いて	-10.2335
安かろう悪かろう	-10.2336
ブカブカ	-10.2336
豪華	-10.2336
だけでなく	-10.2343
と一緒に購入しました	-10.2345
含	-10.2352
貼る	-10.2352
遣	-10.2353
^_^	-10.2353
次第	-10.2354
胸が	-10.2354
相応	-10.2355
少量	-10.2359
トル	-10.236
わけではない	-10.2362
するために	-10.2364
フローリング	-10.2369
重たい	-10.237
生地が薄い	-10.2374
荒	-10.2392
換え	-10.2392
梱包も丁寧	-10.2394
スプーン	-10.2404
飲んだ	-10.241
初めて購入しました	-10.2413
当たる	-10.242
丈は	-10.242
瓶	-10.242
甘く	-10.243
67	-10.2436
いるの	-10.2436
ないのが	-10.2437
老	-10.2437
(^_^;)	-10.2437
トラブル	-10.2437
気をつけて	-10.2438
乗って	-10.2442
になったら	-10.2442
したくて	-10.2443
購入しよう	-10.2446
離れ	-10.2447
漬け	-10.2449
ダブル	-10.2449
放置	-10.2455
ドライバー	-10.2457
安いから仕方ない	-10.246
-05	-10.2464
付けた	-10.2465
祝	-10.2476
ヒップ	-10.2476
換	-10.2479
濃く	-10.248
産後	-10.248
大丈夫です	-10.2484
スパ	-10.2486
バスト	-10.249
裏側	-10.2498
非常に残念です	-10.25
アウト	-10.2505
戸	-10.2506
保育園	-10.2506
留	-10.2507
他社	-10.2516
貰	-10.2518
発送まで	-10.252
商品が届き	-10.2522
とても満足です	-10.2525
子供たち	-10.2529
届いたら	-10.2537
めちゃくちゃ	-10.254
07	-10.2542
取れました	-10.2544
洗濯機	-10.2549
して欲しい	-10.255
コットン	-10.2557
公	-10.2557
ふかふか	-10.2557
食いつき	-10.2562
感じた	-10.2563
見えません	-10.2565
を選択	-10.257
レンジ	-10.2571
というのが	-10.2574
各	-10.2574
USB	-10.2575
使い物になりません	-10.2575
段階	-10.2575
向いて	-10.258
なんと	-10.258
あるように	-10.2583
HP	-10.2591
スタンド	-10.2592
厚め	-10.2597
薄さ	-10.2597
だと思い	-10.2604
赤い	-10.2605
ふんわり	-10.2609
気軽に	-10.2609
天然	-10.261
判断	-10.261
と思うのですが	-10.2612
遅れ	-10.2613
無事に	-10.2614
内に	-10.2616
無地	-10.2619
暖かいです	-10.2625
害	-10.2626
難い	-10.2626
するのも	-10.2627
使えるので	-10.2629
デスク	-10.263
できそうです	-10.2633
安価で	-10.2635
物足りない	-10.2637
また機会があれば	-10.2638
感じがしました	-10.264
後日	-10.2641
太く	-10.2641
授乳	-10.2644
ステンレス	-10.2644
効果がある	-10.2644
きり	-10.2645
画像通り	-10.2648
着れない	-10.2649
うれしい	-10.2651
2000	-10.2652
調べて	-10.2652
女の子	-10.2653
良い感じです	-10.2657
待た	-10.2657
息子が	-10.2658
<	-10.266
といった感じ	-10.2661
水槽	-10.2663
ソール	-10.2663
次の日に	-10.2669
クロス	-10.2672
例	-10.2678
とても可愛い	-10.2682
ィ	-10.2683
同時購入	-10.269
結婚	-10.2694
まれ	-10.2697
のでしょう	-10.27
微妙に	-10.2705
同じ商品	-10.2707
03	-10.2707
遅かった	-10.271
みたいと思います	-10.2713
電球	-10.2715
経過	-10.2716
まぁまぁ	-10.2719
閉じ	-10.2719
内側の	-10.2719
過ぎる	-10.272
ハンドル	-10.2722
何とも	-10.2725
のかなぁ	-10.2725
始めた	-10.2726
共	-10.2726
82	-10.2727
施	-10.2731
読む	-10.2736
ことにしました	-10.2736
ころ	-10.2739
接触	-10.2752
直して	-10.2754
高くても	-10.2754
キレイな	-10.2755
する事	-10.2755
父の日	-10.2757
が好きで	-10.2758
素材は	-10.276
ォ	-10.2761
ほしく	-10.2763
太って	-10.2764
されていました	-10.2764
東	-10.2766
気分です	-10.2767
丁寧な対応	-10.2773
☆2	-10.2776
入りました	-10.2781
潤	-10.2784
箸	-10.2784
購入したもの	-10.2785
安く購入できて	-10.2789
用意	-10.2796
恥ずかしい	-10.2796
-07	-10.2798
習	-10.2801
自動	-10.2805
吸い	-10.281
食べれ	-10.2811
毛布	-10.2813
素材で	-10.2817
お薦め	-10.2819
(*^	-10.282
正規品	-10.2823
当たって	-10.2823
ニア	-10.2824
育て	-10.2826
日間	-10.2828
57	-10.2834
回転	-10.2835
突	-10.2836
改良	-10.2839
色々と	-10.2842
られず	-10.2847
見せ	-10.2849
76	-10.2851
発売	-10.2851
んじゃない	-10.2854
ことはない	-10.2855
凹	-10.2857
溶	-10.2862
前後	-10.2864
変わった	-10.2872
た瞬間	-10.2875
取り外し	-10.2878
目立ちます	-10.2883
ことができ	-10.2884
ようでした	-10.2884
を使っていましたが	-10.2886
美味しくて	-10.2887
かわいいし	-10.2888
そのもの	-10.2888
眼	-10.2889
品物は	-10.2893
ティッシュ	-10.2893
いなかったので	-10.2902
寸	-10.2907
サポート	-10.2908
カジュアル	-10.2908
芋	-10.2908
格安	-10.291
納期	-10.2917
タイト	-10.2921
※	-10.2925
沈	-10.2925
勘違い	-10.2926
返答	-10.2926
んでしょうか	-10.2928
重視	-10.2932
届いた時	-10.2937
厚い	-10.294
夏場	-10.2945
あん	-10.2946
-06	-10.295
入金	-10.2952
いただけました	-10.2955
エン	-10.2958
履き心地は	-10.296
と書かれて	-10.2961
リモコン	-10.2961
渋	-10.2962
インチ	-10.2962
何回も	-10.2963
以外の	-10.2966
到着後	-10.2973
を作って	-10.2975
こちらのお店で	-10.2978
リーズナブル	-10.298
(*^_^*)	-10.298
なきゃ	-10.298
気がする	-10.2987
の際に	-10.2994
キャメル	-10.2998
タイム	-10.3004
今年の	-10.3013
んー	-10.3019
ビーズ	-10.3019
家族で	-10.3022
買い直し	-10.3022
83	-10.3024
丈夫そう	-10.3027
真っ白	-10.3034
戦	-10.3034
引っ越し	-10.3034
47	-10.3035
扱って	-10.3038
ないのか	-10.3039
いるうちに	-10.3039
グラ	-10.3042
割には	-10.3043
打	-10.3047
第	-10.305
のが残念	-10.3053
気がしました	-10.3056
69	-10.3058
特別	-10.3064
皆	-10.3067
04	-10.3068
取り出し	-10.307
〓	-10.307
手袋	-10.307
ゎ	-10.307
をお勧めします	-10.3071
自宅用	-10.3072
つきます	-10.3074
どこに	-10.3078
ッツ	-10.308
ついでに	-10.3092
でしょうね	-10.3097
場所を	-10.3097
したほうが	-10.3097
使うので	-10.3102
粗悪品	-10.3106
保湿	-10.3107
58	-10.3108
中身は	-10.3109
切り替え	-10.3113
あったのですが	-10.3114
想像していた	-10.3118
うえ	-10.3119
職	-10.3123
始末	-10.3124
フライパン	-10.3124
ホコリ	-10.3124
加減	-10.3125
ポリ	-10.3126
返金	-10.313
使うこと	-10.313
の香りが	-10.3131
焼け	-10.3134
使用感は	-10.3137
試しましたが	-10.314
恐	-10.3142
貧	-10.3142
かわいいけど	-10.3143
新鮮	-10.3144
小分け	-10.3147
買	-10.3151
負	-10.3153
34	-10.3158
規	-10.3159
擦	-10.316
ハート	-10.3168
離	-10.3168
途中	-10.3169
出し入れ	-10.317
チン	-10.3172
うす	-10.3173
高級	-10.3177
安価	-10.3178
クッキー	-10.3179
よさそう	-10.318
我が家では	-10.318
分かる	-10.3187
大きすぎて	-10.3188
気を付け	-10.3197
と記載	-10.32
枯れ	-10.3209
になっていました	-10.3209
込め	-10.3211
膨	-10.3216
れてしまいました	-10.3216
やわらかく	-10.3221
プレゼント用	-10.3221
お安いので	-10.3224
その点	-10.3229
背もたれ	-10.3234
状態でした	-10.3235
週間以上	-10.3237
02	-10.3238
ボンド	-10.3239
ちょうど良かったです	-10.3243
1.	-10.3244
もう買いません	-10.3246
硬くて	-10.3248
と合わせて	-10.3249
取れない	-10.3249
務	-10.3252
購入させていただきました	-10.3256
するため	-10.3256
股	-10.3257
混ぜ	-10.3259
使い勝手も	-10.3266
ベランダ	-10.3271
覚悟	-10.3272
材料	-10.3273
メッシュ	-10.328
純正品	-10.3281
日焼け	-10.3285
重宝しそうです	-10.329
を選んだ	-10.3291
大量に	-10.3291
楽しみにしています	-10.3292
安心しました	-10.3295
無難	-10.3296
デニム	-10.3308
解消	-10.3312
軽さ	-10.3315
いいですよ	-10.332
商品ページ	-10.3324
喜ばれ	-10.3325
履いている	-10.3325
投	-10.3327
夕方	-10.333
よくて	-10.3332
活	-10.3336
つもりで	-10.3338
十	-10.3338
繊維	-10.3346
購入しません	-10.3349
のではないか	-10.3349
狭く	-10.3351
実物を見て	-10.3356
or	-10.3358
して欲しいです	-10.3361
傾	-10.3363
させる	-10.3364
履くと	-10.3367
受け取り	-10.3367
全然違う	-10.337
べき	-10.3372
あると思います	-10.3373
手頃な	-10.3375
太め	-10.3377
こんなこと	-10.3381
絞	-10.3383
小学生	-10.3383
消臭	-10.3388
気持ちいいです	-10.339
かぶれ	-10.3392
知人	-10.3394
問題ありませんでした	-10.3396
アイテム	-10.3402
開ける	-10.3405
書く	-10.3406
er	-10.3409
組み立てて	-10.341
思わず	-10.341
3000	-10.3411
頼まれ	-10.3412
活躍しそうです	-10.3413
食べたい	-10.342
親戚	-10.342
構造	-10.342
レシピ	-10.3421
入園	-10.3422
メント	-10.3423
も一緒に	-10.3434
間違え	-10.3437
遅	-10.3438
食べています	-10.3443
取り付けました	-10.3444
あげました	-10.3446
倒	-10.3447
医	-10.3458
ショーツ	-10.3458
気をつけ	-10.346
洗顔	-10.346
できないので	-10.3461
デコ	-10.3462
プル	-10.3465
というのは	-10.3466
バター	-10.3473
トン	-10.3473
絶	-10.3476
失	-10.3476
イベント	-10.3477
掛	-10.3485
薄いので	-10.3486
されています	-10.349
トリ	-10.3498
リップ	-10.3499
出来ず	-10.3514
影響	-10.3514
才	-10.3515
ワンコ	-10.3517
今後も	-10.3522
ジャストサイズ	-10.3524
下がって	-10.3524
軽いので	-10.353
評	-10.3531
望	-10.3532
散歩	-10.3535
細かく	-10.3536
してくれて	-10.354
ってしまいます	-10.3545
78	-10.3547
素人	-10.3554
リピーターです	-10.3556
年齢	-10.3556
グラム	-10.3556
迷	-10.356
シン	-10.3567
分には	-10.3568
年生	-10.357
フィルター	-10.3571
まん	-10.3572
汚い	-10.3574
お得感	-10.3582
使用します	-10.3583
66	-10.3584
編み	-10.3589
中途半端	-10.3591
珠	-10.3591
いけません	-10.3591
連絡して	-10.3591
つぶ	-10.3592
値段が安いので	-10.3593
つつ	-10.3594
使うのが楽しみです	-10.3596
こっち	-10.3598
次回も	-10.3605
追加で	-10.3606
いい香り	-10.361
易	-10.361
くっついて	-10.3613
時間がかかる	-10.3614
ノン	-10.3617
コスト	-10.3629
消耗品	-10.3629
ショルダー	-10.3629
つけられ	-10.3634
横幅	-10.3641
ホントに	-10.3644
給	-10.3648
鉄	-10.3648
鳴	-10.3648
気持ちよく	-10.3649
短め	-10.3652
も悪く	-10.3655
せば	-10.3659
可愛いけど	-10.3659
ドット	-10.3659
その分	-10.3663
最適	-10.3667
勢	-10.3667
このサイズ	-10.3667
歌	-10.3668
でこの値段は	-10.367
配線	-10.3671
決して	-10.3672
新しく	-10.3678
ジェ	-10.3679
久しぶりに	-10.3686
皿	-10.3687
完璧	-10.3687
しっくり	-10.3687
よろしくお願いします	-10.3687
格好	-10.3688
取り付ける	-10.3689
塗	-10.3693
買わなかった	-10.3693
使ってみた	-10.3699
作りもしっかりして	-10.3699
期限	-10.3699
回目の購入です	-10.37
内側に	-10.3705
こちらの方が	-10.3705
独特の	-10.3706
しようと思って	-10.3707
掛かり	-10.3707
サラ	-10.3714
もう二度と	-10.372
良かったかな	-10.3724
瞬間	-10.3729
気味	-10.3731
が気になり	-10.3738
芯	-10.3744
J	-10.3745
レット	-10.3745
一緒	-10.3746
じゃなかった	-10.375
私的には	-10.3752
着れません	-10.3753
意見	-10.3755
薄すぎ	-10.3757
姿	-10.3764
使いやすそうです	-10.3767
あげる	-10.377
置け	-10.3771
行って	-10.3772
食品	-10.3775
ないうちに	-10.3777
どうかな	-10.3778
中敷き	-10.3783
登	-10.3783
宅配	-10.3783
よさそうです	-10.3786
使い捨て	-10.3789
こちらのショップで	-10.379
ロゴ	-10.3801
クレーム	-10.3802
責任	-10.3803
うどん	-10.3803
ベタベタ	-10.3803
ダークブラウン	-10.3805
それから	-10.3806
品切れ	-10.3808
チャー	-10.3811
変色	-10.3819
庭	-10.3821
落ち着いて	-10.3823
寸法	-10.3823
硬さ	-10.3829
お出かけ	-10.3831
肩幅	-10.3832
ポスト	-10.3836
商品届きました	-10.3841
複数	-10.3844
ましょう	-10.3844
髪に	-10.3848
800	-10.3859
開封して	-10.3861
可愛らしい	-10.3863
適当	-10.3864
46	-10.3869
を選んで	-10.387
そのうち	-10.3871
ステキ	-10.3872
手首	-10.3876
持て	-10.3876
枠	-10.3881
お揃い	-10.3882
羽織	-10.3882
深い	-10.3883
泡立ち	-10.3883
分かって	-10.3884
むしろ	-10.3886
良い感じ	-10.3892
つにしました	-10.3893
プール	-10.3894
^)/	-10.3898
バレ	-10.3899
のが残念でした	-10.39
年末	-10.3901
鳥	-10.3901
同じもの	-10.3902
温かい	-10.3906
気に入っている	-10.3907
してしまう	-10.3909
がついている	-10.391
美容	-10.3911
着れる	-10.3915
履きやすく	-10.3918
機能性	-10.3919
22.5	-10.3921
メガネ	-10.3921
☆4	-10.3921
履ける	-10.3924
不要	-10.3929
られるので	-10.3933
使用してます	-10.3933
59	-10.3934
十分な	-10.3935
目立たない	-10.3941
ラッキー	-10.3941
楽しんで	-10.3941
&#9825;	-10.3941
きつくて	-10.3943
期待していただけに	-10.3949
と思われます	-10.3961
捨てる	-10.3964
アリ	-10.3965
とてもよかったです	-10.3974
気になった	-10.3979
描	-10.398
落として	-10.3994
を発見	-10.4
許容範囲	-10.4
考慮	-10.4
ディー	-10.4003
落ち着いた色	-10.4005
割高	-10.4006
買ったけど	-10.4009
と思っていたので	-10.4017
こちらで購入しました	-10.4017
クール	-10.4019
美味しかったので	-10.402
さほど	-10.402
ふくらはぎ	-10.402
に比べると	-10.4021
ラク	-10.4021
72	-10.4026
酸味	-10.4029
ガス	-10.4031
といいな	-10.4032
詰	-10.4033
薄かった	-10.4038
径	-10.404
埃	-10.404
買えば良かった	-10.404
自宅で	-10.4041
きつかった	-10.4042
読め	-10.4042
あるのですが	-10.405
▁^	-10.4053
購入してよかったです	-10.4055
可愛さ	-10.4056
ゼロ	-10.4056
洗濯したら	-10.4057
歴	-10.406
イライラ	-10.406
煙	-10.406
お値打ち	-10.406
ジン	-10.4064
壁に	-10.4064
が弱く	-10.4067
貼れ	-10.4068
伸ばし	-10.4069
ちょうど良く	-10.4073
答	-10.4074
二重	-10.4074
考	-10.4075
穿	-10.408
西	-10.408
着せ	-10.4081
悲しい	-10.4082
想像通り	-10.4085
試した	-10.4094
ジョ	-10.4097
致しました	-10.4099
証	-10.4099
うるさい	-10.41
助かっています	-10.41
通販で	-10.4103
85	-10.4104
ユ	-10.4106
貼り付け	-10.4112
注文する	-10.4118
園	-10.4118
安物買いの銭失い	-10.412
どころか	-10.4123
快適です	-10.4124
お酒	-10.4126
簡単な	-10.4127
このシリーズ	-10.4133
予	-10.4136
側面	-10.4139
93	-10.4148
基	-10.4151
抑え	-10.4151
騙された	-10.4153
ジャスト	-10.4155
ちょうどよかったです	-10.416
洗浄	-10.416
親指	-10.4161
ャ	-10.4161
感があります	-10.4164
出産祝いに	-10.4166
それだけ	-10.4166
美味	-10.4167
長年	-10.4174
他のレビュー	-10.4177
入りません	-10.4181
初期不良	-10.4181
硬く	-10.4187
大量	-10.4187
入らず	-10.419
ダーク	-10.4192
タイトル	-10.4193
−1	-10.42
増え	-10.42
咲	-10.4201
ママ	-10.4202
ぴったりです	-10.4207
ヒビ	-10.4216
蒸	-10.4221
少しずつ	-10.4223
安いけど	-10.4223
料金	-10.4224
おしり	-10.4226
違う色	-10.423
不安定	-10.4241
86	-10.4243
ハンド	-10.4243
穴が開いて	-10.4245
級	-10.4246
隠れ	-10.4249
甲高	-10.4249
まさに	-10.4261
ベース	-10.4262
ホール	-10.4264
買ってしまいました	-10.4265
パイプ	-10.4265
いきます	-10.4267
使い続け	-10.4268
イマイチでした	-10.4269
未だに	-10.4274
大容量	-10.4276
チュー	-10.4279
そば	-10.428
筒	-10.4282
よくわかりません	-10.4282
滅	-10.4282
以降	-10.4283
巾	-10.4283
いえば	-10.4283
^*)	-10.4289
トップス	-10.4291
ソファ	-10.4292
中々	-10.4294
送料込	-10.4303
刃	-10.4303
日本語	-10.4304
デザインは可愛い	-10.4311
アルミ	-10.4316
ちょうどいいです	-10.4318
日にち	-10.4319
植	-10.4319
を探してました	-10.4321
なんでしょうか	-10.4321
示	-10.4322
長さも	-10.4323
ゴワゴワ	-10.4324
営業	-10.4325
エコ	-10.4328
こともあり	-10.4333
安価な	-10.4334
キャッチ	-10.4338
迷い	-10.4338
潰れて	-10.4342
パウダー	-10.4344
'	-10.4345
理想	-10.4345
していただきました	-10.4353
以外に	-10.4356
なくなってしまいました	-10.4357
危険	-10.4365
思っていた以上に	-10.4367
充電器	-10.4374
ーーー	-10.4376
(?)	-10.4378
170	-10.4378
に入れた	-10.4383
院	-10.4385
二枚	-10.4385
困りました	-10.4387
するべき	-10.4391
いまいちでした	-10.4393
私には合いませんでした	-10.4394
故障	-10.4406
久	-10.4406
言えない	-10.4413
役に立	-10.4414
中国	-10.4418
ポット	-10.4421
外す	-10.4422
今日届きました	-10.4425
一個	-10.4426
継続	-10.4428
""	-10.4428
一人	-10.4431
入ってる	-10.4432
ダン	-10.4433
発送メール	-10.4436
動いて	-10.4447
独	-10.4448
しなければ	-10.4448
炭酸	-10.4448
06	-10.4457
照	-10.4468
私の場合	-10.4468
税	-10.4468
男の子	-10.4469
るのが楽しみです	-10.447
くさい	-10.4471
気になりませんでした	-10.4473
おしゃれな	-10.4481
試してみました	-10.4482
吹き	-10.4484
いい商品	-10.4492
苦労しました	-10.4496
生まれ	-10.4499
本日届きました	-10.4503
まくり	-10.4506
ピンクを購入しました	-10.4508
利用させていただ	-10.4512
97	-10.4513
プチ	-10.4519
利用しました	-10.4519
も多く	-10.452
利用しています	-10.4521
少し大きい	-10.4522
さないと	-10.4523
与え	-10.4525
期待通り	-10.4525
づけ	-10.4528
いかない	-10.4529
胸元	-10.453
当たり前	-10.4531
次の日	-10.4533
抹茶	-10.4533
載	-10.4534
使い道	-10.4541
の購入です	-10.4542
機会があれば	-10.4543
行け	-10.4543
履けません	-10.4549
堅	-10.4552
パジャマ	-10.4552
コーティング	-10.4553
掃除機	-10.4555
完	-10.4561
ホット	-10.4562
大変満足です	-10.4563
ちゃんとした	-10.4564
百	-10.4573
ごめんなさい	-10.4574
美味しさ	-10.4574
改めて	-10.4574
選んだ	-10.4575
込んだ	-10.4579
週間ほど	-10.4579
欠	-10.4583
充電でき	-10.4593
歩け	-10.4596
更	-10.4598
軽量	-10.4602
開く	-10.4604
動く	-10.4605
支え	-10.4611
01	-10.4612
安いもの	-10.4613
パサパサ	-10.4616
小型	-10.4617
77	-10.4622
いただきたい	-10.4628
困る	-10.4633
と思ったけど	-10.4634
おそらく	-10.4636
買い物が出来ました	-10.4637
GOOD	-10.4637
にすればよかった	-10.4639
運転	-10.4639
額	-10.464
近い	-10.4642
変わる	-10.4643
重ねて	-10.4647
輝き	-10.4653
減り	-10.4656
■	-10.4657
無かったので	-10.4657
見栄え	-10.4658
術	-10.4658
頻繁に	-10.4658
最安値	-10.4658
期待していましたが	-10.4663
小さいサイズ	-10.4664
分けて	-10.4665
履けない	-10.4673
どり	-10.4675
触れ	-10.4675
よかったかな	-10.4683
ユニ	-10.4685
くせ	-10.4688
覚え	-10.4689
未だ	-10.469
締	-10.4697
なってきたので	-10.4699
アロマ	-10.47
おススメ	-10.4701
ぅ	-10.4701
造	-10.4703
かわいかったです	-10.4703
使いやすそう	-10.4707
ミラー	-10.4712
衣	-10.472
頑	-10.4721
算	-10.4721
菌	-10.4722
Z	-10.4722
ばっちり	-10.4722
カーペット	-10.4725
んど	-10.4728
使いやすくて	-10.4731
とてもかわいいです	-10.4734
やめました	-10.4735
考えると	-10.4736
お味	-10.474
アダプタ	-10.4743
シルク	-10.4744
さらさら	-10.4744
んじゃないか	-10.4745
無視	-10.4746
ティング	-10.4746
ちゃち	-10.4749
出てくる	-10.4755
見つけ	-10.4755
陰	-10.4765
退	-10.4765
にたどり着きました	-10.4765
とは違い	-10.4766
美味しそう	-10.4766
遅れる	-10.4771
可能性	-10.4772
あがり	-10.4774
水色	-10.4774
だったため	-10.4774
メモ	-10.4777
期待してた	-10.4778
スーパーセール	-10.4778
違	-10.4779
一気に	-10.4781
夫婦	-10.4787
かけた	-10.4788
値段的に	-10.4789
想	-10.4793
嫁	-10.4808
電動	-10.4814
着られ	-10.4819
ふき	-10.482
ビス	-10.4824
風呂	-10.4829
あちこち	-10.483
はっきり言って	-10.4831
ギャ	-10.4831
出来上がり	-10.4835
と書いてあったので	-10.4837
気泡	-10.4838
して下さい	-10.4843
ぜんぜん	-10.4851
に最適	-10.4856
ることなく	-10.4859
るべき	-10.4869
ペーパー	-10.4873
選んで	-10.4876
方向	-10.488
考えれば	-10.4883
買った方が	-10.4884
固くて	-10.489
網	-10.4895
ボーダー	-10.4895
されていない	-10.4895
世	-10.4895
もう買わない	-10.4902
入ってました	-10.4904
ればいい	-10.491
繰り返し	-10.4914
怪	-10.4917
出会え	-10.4917
劣化	-10.4918
書け	-10.4922
チャレンジ	-10.4933
焼いて	-10.4938
いきなり	-10.4939
ボン	-10.4939
明記	-10.4939
流れ	-10.4947
納品	-10.495
るようになりました	-10.4951
義母	-10.4957
歳の息子	-10.4957
頂	-10.4959
マッチ	-10.4959
取れません	-10.4959
乱	-10.496
ウィッグ	-10.496
96	-10.4961
手続き	-10.4969
画像では	-10.4969
素敵でした	-10.497
購入できました	-10.497
直後	-10.4978
擦れ	-10.498
省	-10.4981
鞄	-10.4982
撮影	-10.4982
意外に	-10.4983
焦げ	-10.4984
を入れた	-10.4986
荷	-10.4988
年以上	-10.499
お手入れ	-10.4991
貼	-10.4996
立って	-10.4997
微妙な	-10.5
庫	-10.5003
隠れる	-10.5004
敏感肌	-10.5004
ちょっと残念でした	-10.5005
気持ちいい	-10.5005
甘くて	-10.5007
ることが出来	-10.5008
になりそう	-10.5009
起こ	-10.5013
つかえ	-10.5024
ありがたい	-10.5025
なくなります	-10.5033
この時期	-10.5038
安っぽく見え	-10.5043
購入すること	-10.5047
両面テープ	-10.5048
噛	-10.5049
度目の購入です	-10.505
ベリー	-10.5061
されてる	-10.5064
満足しました	-10.5064
最後まで	-10.507
許	-10.507
ショッピング	-10.507
ラグ	-10.5076
みたのですが	-10.5076
想像より	-10.5084
まらず	-10.5087
した後	-10.509
組み	-10.5092
命	-10.5092
景	-10.5093
アクセント	-10.5093
バカ	-10.5093
見本	-10.5096
カッコ	-10.51
直す	-10.5102
に行って	-10.5103
ルーム	-10.5108
わかります	-10.5109
ダイ	-10.5111
られませんでした	-10.5112
簡易	-10.5115
ワンピ	-10.5115
こぼれ	-10.5116
子供達	-10.5121
自然な	-10.5124
買うこと	-10.5125
高級感があり	-10.513
買おうか	-10.5132
そもそも	-10.5137
震	-10.5137
ストッキング	-10.5137
液晶	-10.5137
お肌	-10.5139
生地が薄く	-10.5141
このお値段なら	-10.5141
ョ	-10.5146
払	-10.5147
ペア	-10.5149
浮き	-10.5151
出産祝い	-10.5155
上がる	-10.5157
なにより	-10.5158
総	-10.5159
馴	-10.5159
(^_^)	-10.516
づらく	-10.5161
欠けて	-10.5161
ではなかったです	-10.5161
が多くて	-10.5164
発見	-10.5166
太さ	-10.5168
濃厚	-10.5169
かかります	-10.5172
寄り	-10.5175
砂糖	-10.5183
小銭入れ	-10.5187
難しく	-10.5189
違うもの	-10.5195
フルーツ	-10.5204
痒	-10.5208
使おうと思います	-10.521
長財布	-10.5211
欠品	-10.5211
名入れ	-10.5217
ぶかぶか	-10.5226
ON	-10.5235
この値段でこの	-10.5245
忘れて	-10.5246
ミックス	-10.5251
それ以外は	-10.5253
売ってる	-10.5254
壊	-10.5259
マーク	-10.5262
刻	-10.5271
島	-10.5272
北海道	-10.5272
中学生	-10.5272
添付	-10.5272
時々	-10.5279
靴底	-10.5287
盤	-10.5291
165	-10.5292
爽やか	-10.5296
細め	-10.5297
無理でした	-10.5299
固く	-10.53
カフェ	-10.5301
パネル	-10.5317
安っぽさ	-10.5317
調理	-10.5319
とても便利です	-10.5321
期待はずれでした	-10.5324
送付	-10.5324
発売日	-10.5326
諦めて	-10.5328
花柄	-10.533
どこか	-10.5331
ベタ	-10.5333
本目	-10.5334
使ったら	-10.5336
やめて	-10.5337
とは違う	-10.5339
申し訳ない	-10.534
センス	-10.534
お土産	-10.534
ブレスレット	-10.534
ちょうどよい	-10.5341
中央	-10.5341
88	-10.5342
キツく	-10.5342
取り扱い	-10.5347
ハマ	-10.5353
検	-10.5355
届いていません	-10.5356
ジャン	-10.5359
になってしまった	-10.5362
プチプチ	-10.5363
渡す	-10.5363
予防	-10.5364
▁゚	-10.5364
リピートしました	-10.5366
仕切り	-10.5366
打ち	-10.5367
何故か	-10.5367
程よい	-10.5368
良い物	-10.537
暗く	-10.5374
扱	-10.5376
はずなのに	-10.5378
センター	-10.5385
軽減	-10.5387
わからず	-10.5389
残る	-10.5391
出かけ	-10.5396
未使用	-10.5397
使えました	-10.5404
円以上	-10.5404
切った	-10.5406
餅	-10.5408
割引	-10.5409
74	-10.5409
購入してしまいました	-10.5409
同じものを	-10.5416
また利用したいと思います	-10.5419
個人的に	-10.5423
400	-10.5425
菜	-10.5431
出てきて	-10.5431
有名	-10.5437
曲げ	-10.544
なりませんでした	-10.544
一品	-10.5442
届け	-10.5443
安っぽい感じ	-10.5445
使っていて	-10.5448
抱	-10.5453
期待していたのですが	-10.5454
兄	-10.5454
さらっと	-10.5454
お皿	-10.5455
もうすぐ	-10.5459
店頭	-10.5462
アイス	-10.547
壊れる	-10.5471
酢	-10.5477
切れる	-10.5478
出来ませんでした	-10.5482
チャーム	-10.5484
午前中	-10.5487
広がり	-10.5492
★4	-10.5495
華奢	-10.55
かわからない	-10.5502
諦めました	-10.5504
暗	-10.5519
カロリー	-10.5523
過去	-10.5524
ヨーグルト	-10.5524
今回初めて	-10.5524
感じませんでした	-10.5525
ベル	-10.5526
ナッツ	-10.5527
ネコ	-10.5529
600	-10.5532
ラーメン	-10.5535
甘すぎ	-10.554
ごみ	-10.5544
ゴミ箱	-10.5547
舞	-10.5547
飲んでます	-10.5547
こども	-10.5548
説	-10.5566
ウム	-10.5584
変わりません	-10.5585
くれません	-10.5587
揚げ	-10.5593
☆5	-10.5612
囲	-10.5616
まわ	-10.5618
ついていた	-10.5632
馴染んで	-10.564
カタログ	-10.564
広告	-10.564
ありがとう	-10.564
新築	-10.5641
完全	-10.5642
歪んで	-10.5647
感じません	-10.5651
こそ	-10.5654
収納力	-10.5659
円くらい	-10.566
敏	-10.5663
アクセサリー	-10.5664
川	-10.5664
入りませんでした	-10.5664
染み	-10.5665
都合	-10.5666
いいなぁ	-10.5667
当初	-10.567
の為に購入しました	-10.5686
聞いた	-10.5696
つけました	-10.5703
いままで	-10.5706
あくまで	-10.571
踵	-10.571
請求	-10.5711
便秘	-10.5711
静電気	-10.5711
座る	-10.5713
グリップ	-10.5714
1-0	-10.5717
確認メール	-10.572
送られてきました	-10.572
シングル	-10.5721
と思っていました	-10.5727
透けて	-10.5728
乾か	-10.5731
帰って	-10.5732
悲	-10.5732
隅	-10.5734
満足度	-10.5734
ゆるい	-10.5744
効果なし	-10.575
待った	-10.5754
粘着	-10.5756
重み	-10.5756
純	-10.5757
握	-10.5758
コンセント	-10.5758
暖かさ	-10.5759
カラコン	-10.5762
二度	-10.5763
使用していません	-10.5765
縫い付け	-10.5766
歩きやすい	-10.5775
供	-10.5776
またリピします	-10.5778
¥	-10.5781
英語	-10.5782
吐	-10.5782
雑誌	-10.5783
出番	-10.5784
考えています	-10.5784
見えました	-10.5784
ようになりました	-10.579
値段もお手頃	-10.5792
158	-10.5792
人間	-10.5793
ラベンダー	-10.5806
商品が届いた	-10.5806
値段の割りに	-10.5806
バスタオル	-10.5809
には合いませんでした	-10.5816
合皮	-10.5817
研	-10.5829
美味しくない	-10.5829
姿勢	-10.5829
1.5	-10.583
&#8252;&#65038;	-10.583
貰え	-10.5835
喜	-10.5846
標準	-10.5853
値段が安い	-10.5859
体調	-10.5867
浅い	-10.5868
何だか	-10.5874
謝罪	-10.5876
浸	-10.5877
滴	-10.5877
豚	-10.5877
°	-10.5877
だんだん	-10.5877
清潔	-10.5877
ニュー	-10.5877
ダンス	-10.5877
ミント	-10.5878
裂け	-10.5882
組み立ても簡単	-10.5885
されない	-10.5898
態	-10.59
ニキビ	-10.5902
詰め替え	-10.5904
レモン	-10.5907
スーツケース	-10.5908
保温	-10.5911
事前に	-10.5915
ラベル	-10.5916
乾く	-10.5919
値段も手頃	-10.5924
ガタガタ	-10.5925
引越し	-10.5925
д	-10.5926
抱っこ	-10.5926
自由	-10.5926
`*)	-10.5926
収まり	-10.593
が欲しかったのですが	-10.5931
不親切	-10.5931
湿気	-10.5935
集め	-10.5935
にすれば良かった	-10.5941
で買うより	-10.5944
レール	-10.5946
手配	-10.5946
重宝してます	-10.5954
着丈	-10.5957
祖母	-10.5958
事が出来	-10.5961
ぜ	-10.5962
のせいで	-10.5963
落ちます	-10.5964
探しました	-10.5968
長すぎ	-10.5968
波	-10.5972
相談	-10.5973
不愉快	-10.5974
一般	-10.5974
低反発	-10.5974
卓	-10.5974
療	-10.5974
フワフワ	-10.5974
ハム	-10.5974
頭皮	-10.5982
届くのも	-10.5993
マチ	-10.5995
識	-10.5997
芽	-10.5998
替	-10.5999
チェア	-10.6008
全く違う	-10.6013
払って	-10.6014
呼	-10.6022
釣	-10.6023
インソール	-10.6025
79	-10.6027
ねぇ	-10.603
づつ	-10.6033
クリーニング	-10.6047
弟	-10.6047
レビューが良かったので	-10.6047
断念	-10.6048
ナイロン	-10.6048
留め具	-10.6049
巻いて	-10.606
たくなる	-10.606
熟	-10.6071
トマト	-10.6072
高価な	-10.6072
ホールド	-10.6077
はいって	-10.6079
ついていました	-10.6088
早い対応	-10.6089
痒く	-10.6091
きたら	-10.6106
木目	-10.6108
振	-10.6109
使い続けて	-10.6119
ハンカチ	-10.612
確実に	-10.612
抵抗	-10.612
封筒	-10.6121
知らせ	-10.6121
テンション	-10.6121
中心	-10.6123
ことはありません	-10.6123
千	-10.6124
スライド	-10.6145
お得だと思います	-10.6145
スリッパ	-10.6145
ガン	-10.6148
あったかい	-10.6148
見た感じ	-10.6149
中敷	-10.6151
でかい	-10.6152
ちゃいます	-10.6163
本革	-10.6163
ランク	-10.6166
ふつう	-10.617
洗える	-10.6188
モニター	-10.6194
蛍	-10.6194
ゾ	-10.6194
ひんやり	-10.6195
質問	-10.6196
を想像して	-10.6198
下がり	-10.62
表紙	-10.6205
it	-10.6209
句	-10.6218
紅茶	-10.6222
また購入したいと思います	-10.6241
衝撃	-10.6244
栄養	-10.6244
値段が高い	-10.6249
ma	-10.6253
歪	-10.6262
思っていた通り	-10.6266
真っ黒	-10.6269
どういう	-10.6269
また利用したいです	-10.6269
レビューを書く	-10.6271
一回り	-10.6271
比較的	-10.6279
待	-10.6284
買い足し	-10.6284
洋	-10.6292
慌てて	-10.6294
下半身	-10.6294
炎	-10.6294
レンタル	-10.6294
思ったほど	-10.6294
電波	-10.6295
お財布	-10.6295
毛羽	-10.63
ストール	-10.6306
きつめ	-10.6315
硬め	-10.6316
何故	-10.6318
環境	-10.6319
想定	-10.632
照明	-10.632
書いてありましたが	-10.6327
じゃなくて	-10.6334
日常	-10.6337
迅速に対応して	-10.6342
かわいかった	-10.6343
みないと	-10.6343
士	-10.6344
挙	-10.6344
ぶら	-10.6349
要注意	-10.635
を履いています	-10.6355
ゴルフ	-10.6361
入っているので	-10.6362
直ぐ	-10.6362
着ている	-10.6363
その時	-10.6367
距離	-10.6369
ドラッグストア	-10.637
相性	-10.6372
合わせやすい	-10.6374
母親	-10.6387
また購入したいです	-10.6391
都	-10.6392
噛み	-10.6394
ホース	-10.6394
頻	-10.6394
ストレート	-10.6395
似たような	-10.6395
時間がかかりました	-10.64
大型	-10.6405
粘着力	-10.6408
★5	-10.6408
先生	-10.641
いかにも	-10.6411
折りたたみ	-10.642
醤油	-10.642
センサー	-10.642
Q	-10.642
衛生	-10.642
オリジナル	-10.642
衣装	-10.6421
マンション	-10.6421
カール	-10.6429
股上	-10.6429
立派な	-10.6435
味付け	-10.644
カニ	-10.6442
スタンプ	-10.6446
お正月	-10.6446
と思っていたら	-10.6448
ることもなく	-10.6448
ポンプ	-10.645
目立って	-10.6452
決めて	-10.6454
切れ味	-10.6461
毛穴	-10.6469
妙	-10.647
すっごく	-10.6471
初めての購入	-10.6472
試着して	-10.6482
低価格	-10.6485
症	-10.6496
チョコレート	-10.6496
スマート	-10.6496
パーティー	-10.65
初日	-10.6502
日で届きました	-10.6505
石油	-10.6506
通学	-10.6507
ユー	-10.6508
伝票	-10.6521
オムツ	-10.6522
週末	-10.6523
シンプルなデザイン	-10.6532
先端	-10.6538
いらっしゃ	-10.6547
旧	-10.6547
押さえ	-10.6549
....	-10.6554
分厚い	-10.6557
してもらいました	-10.656
リピしたいです	-10.656
感じられませんでした	-10.6572
頂きたい	-10.6572
オリーブ	-10.6573
コンビニ	-10.6573
盆	-10.6573
麻	-10.6573
手入れ	-10.6573
嬉しく	-10.6574
には向かない	-10.6587
ものを探していました	-10.6593
遅れて	-10.6595
不自然	-10.6595
ボルト	-10.6598
“	-10.6598
腫	-10.6599
彫	-10.6599
軟	-10.6599
アルバム	-10.6599
ペットボトル	-10.66
塗った	-10.66
ようになり	-10.6609
ホック	-10.661
その上	-10.6612
商品名	-10.6616
届いたものは	-10.6618
安く購入出来	-10.662
控えめ	-10.6625
迷わず	-10.6625
錆び	-10.6627
お届け	-10.6631
ビール	-10.6634
悩んだ	-10.6643
出ている	-10.6647
ハッキリ	-10.6651
リクエスト	-10.6651
も欲しくなりました	-10.6654
しようと思い	-10.6656
成長	-10.666
私には合わなかった	-10.6662
モカ	-10.6668
5000	-10.6668
我慢して	-10.667
ウチ	-10.6672
売れ	-10.6675
微	-10.6676
カッター	-10.6677
しっかりしてます	-10.6681
避け	-10.6683
ブラックを購入しました	-10.6697
と言っていました	-10.6699
ジッパー	-10.6702
ゆっくり	-10.6702
聞こえ	-10.6702
馬	-10.6703
good	-10.6703
あたたか	-10.6703
輸入	-10.6704
珍しい	-10.6704
マグ	-10.6705
探していたら	-10.6707
ウィ	-10.6707
小学校	-10.6708
レビューを書いて	-10.6711
方がいいと思います	-10.6713
先方	-10.6716
取り替え	-10.6719
与えて	-10.6719
そんなこと	-10.6721
入れたら	-10.6729
問い合わせたところ	-10.6732
87	-10.6735
カッコいい	-10.6745
この手の	-10.6746
ストック	-10.6746
眠れ	-10.6752
ナット	-10.6752
認	-10.6753
担	-10.6754
ほこり	-10.6755
ポチ	-10.6755
素早い対応	-10.6757
激安	-10.6757
いい加減	-10.6758
工具	-10.6758
っけ	-10.676
後悔しました	-10.6761
対応も早く	-10.6773
映え	-10.6778
枝	-10.6781
投稿	-10.6781
玄米	-10.6781
迎	-10.6781
終わって	-10.6782
グラグラ	-10.6782
つなぎ	-10.6783
UV	-10.6784
片付け	-10.6787
ちがい	-10.6793
される方	-10.68
たくて購入しました	-10.6802
スティック	-10.6809
開けたら	-10.6815
悪すぎ	-10.6815
甘味	-10.6818
決め手	-10.6827
つかず	-10.6832
フロント	-10.6834
詳細	-10.6834
持続	-10.6835
寄	-10.6845
と思うくらい	-10.6859
てしまいそう	-10.6859
尚	-10.686
初回	-10.6861
データ	-10.6862
できなかった	-10.6872
高評価	-10.6874
されており	-10.6879
みなさんのレビュー	-10.688
システム	-10.6886
条件	-10.6886
上手に	-10.689
に惹かれ	-10.6897
幸	-10.691
無添加	-10.6913
〜〜〜	-10.6914
くすんだ	-10.6915
袖口	-10.6916
洗え	-10.6918
という印象	-10.692
以前使っていた	-10.6924
食べさせ	-10.6924
裏面	-10.6935
障	-10.6939
郵便	-10.694
z	-10.694
トレー	-10.6941
まずまず	-10.6942
見つかり	-10.6942
お手頃価格	-10.6944
じゃなく	-10.6955
合った	-10.6958
言わ	-10.696
覆	-10.6967
映画	-10.6968
つまみ	-10.6971
丸見え	-10.6979
だから仕方ない	-10.6988
多数	-10.699
否	-10.6993
弁	-10.6994
有難うございました	-10.6994
実用的	-10.6995
めんどくさい	-10.7021
メッキ	-10.7021
良好	-10.7022
別物	-10.7024
ホント	-10.7026
想像していたより	-10.703
お礼	-10.7031
怖	-10.7036
どうにか	-10.704
臭み	-10.7071
構	-10.7073
くださり	-10.7075
余計に	-10.7075
買うべき	-10.7076
魅力的	-10.7082
IN	-10.7083
痛くなる	-10.7083
押す	-10.7086
商品として	-10.7089
―	-10.7101
挿	-10.7102
すっぽり	-10.7102
良い商品だと思います	-10.7102
個人差	-10.7104
我	-10.711
作りが雑	-10.7113
冬場	-10.7114
以前購入した	-10.7115
暑く	-10.7118
凹み	-10.7124
にはなりません	-10.7126
配送業者	-10.7136
キュー	-10.7142
カゴ	-10.7154
曇	-10.7156
手数料	-10.7156
浴衣	-10.7157
困ります	-10.7158
年間	-10.7163
使ってみると	-10.7168
んですかね	-10.7169
履いたら	-10.717
面倒くさ	-10.7171
取引	-10.7176
写真のように	-10.7183
忙しい	-10.7184
来客	-10.7186
ゲーム	-10.7187
ネーム	-10.7189
透ける	-10.7191
パスタ	-10.7192
ポール	-10.7196
気にせず	-10.7211
展開	-10.7211
症状	-10.7211
間違えた	-10.7217
勉強になりました	-10.7219
作動	-10.7223
化粧品	-10.7225
まとめ	-10.723
濃い色	-10.7231
剥がし	-10.7231
きっちり	-10.7239
突然	-10.7239
生産	-10.7245
欲しくなり	-10.7247
書き込み	-10.7248
良品	-10.7249
踏	-10.7258
勧め	-10.7262
ピチピチ	-10.7266
詳しく	-10.7267
;&#	-10.7269
サラダ	-10.7272
齢	-10.7288
悔	-10.7289
余裕があり	-10.7289
過ぎず	-10.7292
煎	-10.7294
900	-10.7294
彼女	-10.7295
何の連絡も	-10.7299
注意書き	-10.7302
背面	-10.7304
わかりやすく	-10.7307
やり方	-10.7316
終了	-10.7321
穴があいて	-10.7321
お歳暮	-10.7322
と思いきや	-10.7327
可愛	-10.7339
拭いて	-10.7339
木製	-10.7342
塗る	-10.7343
階	-10.7346
そろそろ	-10.7349
嘘	-10.7349
特典	-10.7349
良い買い物ができました	-10.7352
ことにします	-10.7354
こちらにしました	-10.7356
リピ買い	-10.7356
お勧めできません	-10.7357
意味がない	-10.7361
並べて	-10.7377
待つ	-10.7379
味わい	-10.738
宅	-10.7402
あっさり	-10.7405
ビジネス	-10.7405
廃棄	-10.7405
たいへん	-10.7405
ゆるゆる	-10.7406
使わず	-10.7414
分かれ	-10.7414
ネジ穴	-10.7429
タバコ	-10.7432
働	-10.7433
ダイニング	-10.7433
経ちますが	-10.7433
ぉ	-10.7433
馴染み	-10.7433
開け閉め	-10.7434
短すぎ	-10.7434
易く	-10.744
下地	-10.744
出張	-10.7458
露	-10.7461
逃	-10.7461
配慮	-10.7461
繊	-10.7461
賞	-10.7461
反省	-10.7462
入らなかった	-10.7463
返送	-10.7471
流行	-10.7472
体質	-10.7477
たりする	-10.7478
しっかりしてる	-10.7479
乗る	-10.748
劣	-10.7487
ヤマト	-10.7489
グッズ	-10.7489
試してみた	-10.7492
案内	-10.7493
お世話になり	-10.7493
使う予定	-10.75
勧められ	-10.7504
訂正	-10.7517
オーガニック	-10.7517
一人暮らし	-10.7517
結婚式用に	-10.7521
つぶれて	-10.7522
チュ	-10.7522
後悔してます	-10.7525
覚悟して	-10.7543
協	-10.7545
迫	-10.7545
自己	-10.7546
楽しみに待って	-10.7546
終わった	-10.7546
取説	-10.7547
エアコン	-10.7548
飲み続け	-10.7551
不可能	-10.7556
持った	-10.7557
飾って	-10.7559
ゆるく	-10.7569
使えば	-10.7571
潰れ	-10.7572
包丁	-10.7574
以来	-10.7574
そうな感じ	-10.7576
大き過ぎ	-10.7578
使ってみます	-10.7581
炊き	-10.7584
89	-10.7586
効き目	-10.7591
液体	-10.7594
寄せ	-10.7597
安いので仕方ない	-10.7598
晴	-10.7603
フォン	-10.7612
良さ	-10.7615
まだ届いてない	-10.7615
夏用	-10.7621
柱	-10.7631
ハサミ	-10.7631
ストライプ	-10.7631
癒されます	-10.7632
だけに残念	-10.7632
んですけどね	-10.7637
寝室	-10.7637
とは思えません	-10.7638
ビニール袋	-10.7641
受付	-10.7646
布地	-10.7648
キャン	-10.7653
コネクタ	-10.7659
専門	-10.766
早めに	-10.766
と思われる	-10.7661
毎朝	-10.7663
1〜2	-10.7676
無くなり	-10.7685
承知	-10.7688
北	-10.7689
ヵ月	-10.7689
刻印	-10.769
してくれました	-10.769
ソース	-10.7695
指輪	-10.7695
生地もしっかりしていて	-10.7705
どうやって	-10.7707
いまだに	-10.7711
と言った	-10.7713
OFF	-10.7717
と思える	-10.7717
蜜	-10.7717
タブレット	-10.7717
ヘビロテ	-10.7718
履かせ	-10.772
予想通り	-10.772
チップ	-10.7726
餌	-10.7746
高校生	-10.7746
ブレンド	-10.7746
ヶ所	-10.7747
振動	-10.7748
趣味	-10.7748
補強	-10.7749
歯ブラシ	-10.7749
頂ける	-10.7749
敷布団	-10.7751
安全性	-10.7754
温かく	-10.7755
円ショップ	-10.7762
低く	-10.7764
買ってしまった	-10.7769
エビ	-10.7788
ジーンズ	-10.7804
が悪かったのか	-10.7806
最後に	-10.781
おなか	-10.782
le	-10.7823
ことがあります	-10.7832
チャン	-10.7838
ラップ	-10.7842
使えなかった	-10.7844
間違いない	-10.7847
ほうが良い	-10.7853
開いた	-10.7855
溜	-10.7862
着やすい	-10.7862
つるつる	-10.7862
肘	-10.7862
凝	-10.7863
申し分ない	-10.7864
ひざ	-10.787
無理やり	-10.7871
んでしょうね	-10.7873
気にならなく	-10.7876
お手軽	-10.7877
生地もしっかりして	-10.7883
入っていませんでした	-10.7883
re	-10.7887
路	-10.7892
カッコイイ	-10.7893
牛乳	-10.7893
@	-10.7894
併用	-10.7897
平気	-10.79
利用したいと思います	-10.7902
ノート	-10.7904
困っていました	-10.7912
ワンサイズ上	-10.7917
ほんのり	-10.7921
発表会	-10.7921
適度な	-10.7922
パッキン	-10.7923
飲みやすく	-10.793
似て	-10.7936
前髪	-10.7938
できそう	-10.7941
小銭	-10.7945
菓子	-10.7948
しまえば	-10.7951
のが難点	-10.7951
ファイル	-10.7951
蒸れ	-10.7951
まだ使用していませんが	-10.7952
入れ替え	-10.7954
引っ掛け	-10.7959
購入いたしました	-10.7965
長靴	-10.7965
に向けて	-10.7966
持っていますが	-10.7974
故	-10.7974
入っていない	-10.7978
アトピー	-10.798
指紋	-10.7981
表現	-10.7984
を開けると	-10.7985
締め付け感	-10.7994
入っており	-10.7994
根元	-10.7995
しかたない	-10.7996
パンパン	-10.7997
二回目	-10.8005
交	-10.8009
買っちゃ	-10.8012
-----	-10.8012
涼しく	-10.8013
につられて	-10.8014
音楽	-10.8026
白髪	-10.8031
福	-10.8032
案	-10.8036
溝	-10.804
上がった	-10.804
タイミング	-10.804
祭	-10.804
磁石	-10.8041
何年も	-10.8041
明け	-10.8042
とは思って	-10.8046
あえて	-10.805
暗め	-10.806
住所	-10.806
買ってみた	-10.8064
師	-10.8069
の付け根	-10.807
尿	-10.8071
異なる	-10.8071
異常	-10.8071
一緒に購入した	-10.8073
傷だらけ	-10.8078
満点	-10.8085
お買い得だと思います	-10.8098
裏起毛	-10.81
技	-10.81
設計	-10.81
随分	-10.8101
作成	-10.8109
うまい	-10.8112
内部	-10.8113
リアル	-10.8115
多すぎ	-10.8123
ずいぶん	-10.813
シャワー	-10.813
食べやすい	-10.813
無くなったら	-10.813
すっかり	-10.8131
楽チン	-10.8133
届いていない	-10.8146
を変えて	-10.8152
射	-10.816
0.5	-10.8163
仕方ありません	-10.8167
もしくは	-10.8173
出来れば	-10.8182
方が良いと思います	-10.8188
排	-10.819
フラワー	-10.819
上記	-10.8201
喜んでくれる	-10.8206
ようになった	-10.8214
互	-10.822
提	-10.822
ポーター	-10.822
チョット	-10.8227
重ね着	-10.824
映像	-10.8251
&#10071;	-10.8251
肩こり	-10.8251
要望	-10.8252
にくそう	-10.8255
落ち着き	-10.8255
絵柄	-10.8256
届いたとき	-10.8261
苦しい	-10.8261
エラー	-10.8265
バネ	-10.8269
よく見ると	-10.8274
実感でき	-10.8278
コロコロ	-10.8281
貴	-10.8282
有りません	-10.8285
月末	-10.8294
強力	-10.83
届くのを	-10.8309
痛かった	-10.8309
凸	-10.8311
局	-10.8311
贅沢	-10.8312
いちいち	-10.8312
漫画	-10.8312
が大好きで	-10.832
在庫切れ	-10.8326
違いすぎ	-10.8337
裁	-10.8341
概	-10.8342
クローゼット	-10.8343
お蔵入り	-10.8343
翌朝	-10.8343
眼鏡	-10.8344
肩紐	-10.8353
問題はありません	-10.8357
一瞬	-10.8369
効き	-10.8374
知り合い	-10.8377
安ければ	-10.8378
自信	-10.8378
思っていたのと	-10.8387
値段相当	-10.8388
包装紙	-10.8392
正規	-10.8399
鮮	-10.8399
燃	-10.8404
漂	-10.8404
祈	-10.8404
ランドセル	-10.8404
気づき	-10.8405
折り返し	-10.8412
商品到着後	-10.8428
ブレス	-10.8429
宅急便	-10.8435
従	-10.8435
宣伝	-10.8435
歯磨き	-10.8435
助かってます	-10.8435
暫く	-10.8436
ようとしたら	-10.8452
取れてしまいました	-10.8455
喜び	-10.8464
幼	-10.8466
バージョン	-10.8466
量販店	-10.8466
こういった	-10.8466
うれしかったです	-10.8466
揺れ	-10.8469
残念な買い物	-10.8469
長く使えそうです	-10.8472
走行	-10.8472
踏み	-10.8475
織	-10.8496
見つからず	-10.8497
海苔	-10.8498
道具	-10.85
をオススメします	-10.85
掛け布団	-10.851
つもりでしたが	-10.8512
に関して	-10.8526
イラスト	-10.8528
ストッパー	-10.8528
やさしい	-10.8529
知らない	-10.8575
狭	-10.8591
儀	-10.8591
触り心地	-10.8591
置いた	-10.8594
苦しく	-10.8606
焦	-10.862
県	-10.8623
芸	-10.8623
唯一	-10.8623
塗料	-10.8624
乾燥肌	-10.8624
付けられ	-10.8625
皆様	-10.8634
垂れ	-10.8645
わからなかった	-10.8652
良心的	-10.8655
辞	-10.8655
対象	-10.8655
骨盤	-10.8655
させてもらいました	-10.8656
止まり	-10.8664
負け	-10.8667
長袖	-10.867
充	-10.8673
と思わ	-10.8677
超え	-10.8685
浄	-10.8686
演	-10.8686
妊婦	-10.8686
ありがたかったです	-10.8686
丁度良く	-10.8696
半端	-10.8698
運ぶ	-10.87
なってきた	-10.8703
動画	-10.8714
補修	-10.8718
仲	-10.8718
天井	-10.8718
開けてみると	-10.8718
定期	-10.8721
ァ	-10.8721
決済	-10.8727
友	-10.8733
著	-10.875
ゥ	-10.875
個体差	-10.875
わかりやすい	-10.8759
短かった	-10.876
偽物	-10.8761
股下	-10.8763
はやく	-10.8774
使用してみました	-10.8782
iPad	-10.8782
をおすすめします	-10.8785
正確	-10.8785
靴擦れ	-10.8787
を利用して	-10.8788
はないかと	-10.8811
お詫び	-10.8814
胴	-10.8814
アンティーク	-10.8814
列	-10.8814
借り	-10.8816
防寒	-10.8816
いただく	-10.882
自身	-10.8822
洗い替え	-10.8825
迷惑	-10.8847
フリル	-10.8847
修正	-10.8847
かっこよく	-10.8847
くれれば	-10.8867
取られ	-10.8869
危ない	-10.8869
息	-10.8875
蟹	-10.8879
読んだ	-10.8879
アルコール	-10.8879
片側	-10.8881
実物を見	-10.8893
正面	-10.8895
おもい	-10.8911
イヤホン	-10.8912
冷たい	-10.8913
もしかしたら	-10.8913
袋に入って	-10.8918
隣	-10.8976
蔵	-10.8977
炒	-10.8977
漢	-10.8977
胃	-10.9009
粘	-10.9061
企	-10.9075
就	-10.9075
芝	-10.9141
去	-10.9156
題	-10.9174
惑	-10.9175
攻	-10.9175
司	-10.9175
埋	-10.9242
暴	-10.9242
肥	-10.9242
殺	-10.9242
吹	-10.925
悩	-10.9252
清	-10.9276
駄	-10.93
飯	-10.9305
暮	-10.9316
彩	-10.9377
桜	-10.948
却	-10.948
七	-10.948
垢	-10.9549
派	-10.9568
仮	-10.9618
茎	-10.9688
六	-10.9688
宮	-10.9689
還	-10.9724
問	-10.9756
厳	-10.9793
錠	-10.983
永	-10.9866
市	-10.9902
松	-10.9902
層	-10.9902
蝶	-10.9902
喉	-10.9902
譲	-10.9938
八	-10.9938
夢	-10.9938
謳	-10.9974
茹	-11.001
旬	-11.0046
静	-11.0076
校	-11.0083
睡	-11.0083
摂	-11.0084
泳	-11.0119
華	-11.0155
館	-11.0156
氷	-11.0156
紅	-11.0227
界	-11.023
栗	-11.0231
設	-11.0265
∇	-11.0305
夕	-11.0336
軸	-11.0342
誠	-11.0379
殻	-11.038
撥	-11.038
ェ	-11.0402
必	-11.041
谷	-11.0459
響	-11.0494
僕	-11.0494
栓	-11.0494
改	-11.0525
拡	-11.0531
株	-11.057
沸	-11.057
項	-11.0608
寿	-11.0608
毒	-11.0609
街	-11.0686
肝	-11.0686
労	-11.0723
王	-11.0724
因	-11.0763
貨	-11.0764
鶏	-11.0764
勇	-11.0803
胡	-11.0803
竹	-11.0803
涼	-11.0837
影	-11.0842
炭	-11.0842
泥	-11.0842
舌	-11.0843
秀	-11.0882
販	-11.0957
輸	-11.0959
及	-11.1001
存	-11.1041
団	-11.108
州	-11.1082
到	-11.1114
〇	-11.1122
吊	-11.1122
徳	-11.1123
魔	-11.1123
貝	-11.1163
劇	-11.1163
帳	-11.1198
陽	-11.1204
介	-11.1204
誕	-11.1241
謎	-11.1245
⌒	-11.1245
伸	-11.1305
奨	-11.1327
資	-11.1369
云	-11.1369
採	-11.1369
裸	-11.1369
此	-11.141
九	-11.141
旅	-11.1492
導	-11.1494
容	-11.1523
奮	-11.1536
停	-11.1579
使	-11.1601
絡	-11.1638
禁	-11.1665
狙	-11.1665
船	-11.1707
既	-11.1724
偏	-11.175
迄	-11.1793
功	-11.1794
唇	-11.1794
勤	-11.1835
昆	-11.1837
診	-11.1837
≧	-11.1881
灰	-11.1881
婦	-11.1923
盛	-11.1961
嬉	-11.1965
暦	-11.1969
南	-11.1969
癒	-11.1995
修	-11.2011
珍	-11.2011
糊	-11.2012
卒	-11.2013
朱	-11.2057
≦	-11.2058
偽	-11.2087
謝	-11.2097
管	-11.2101
寂	-11.2102
祖	-11.2176
錆	-11.2189
農	-11.2192
ヽ	-11.2192
推	-11.2237
練	-11.2282
叩	-11.2283
輩	-11.2283
偶	-11.2328
区	-11.2328
穀	-11.2329
潰	-11.2336
途	-11.2369
犯	-11.2374
忙	-11.2418
憶	-11.242
伊	-11.242
尻	-11.2447
但	-11.2466
堂	-11.2466
危	-11.248
救	-11.2559
尾	-11.256
始	-11.2568
護	-11.2605
臓	-11.2654
渉	-11.27
塊	-11.2701
桃	-11.2749
掴	-11.2749
候	-11.2844
京	-11.2893
陶	-11.2893
詳	-11.2988
#	-11.2989
抗	-11.3039
亡	-11.3039
呆	-11.3039
緒	-11.3082
往	-11.3088
皺	-11.3138
宿	-11.3138
建	-11.3138
蛇	-11.3138
伴	-11.3138
幾	-11.3138
午	-11.3159
任	-11.3188
懐	-11.3188
奇	-11.3189
準	-11.3237
獣	-11.3237
嗅	-11.3288
◯	-11.329
慣	-11.3314
典	-11.3338
掻	-11.3338
棄	-11.3339
称	-11.3339
柔	-11.3389
究	-11.3389
刈	-11.339
象	-11.3439
挽	-11.3441
姪	-11.3441
営	-11.3486
複	-11.3488
門	-11.3492
隔	-11.3543
籍	-11.3595
丼	-11.3595
酵	-11.3646
蜂	-11.3647
告	-11.375
磁	-11.375
察	-11.3752
遮	-11.3803
券	-11.3805
慢	-11.3805
倉	-11.3805
軍	-11.3805
報	-11.3858
垂	-11.3874
郵	-11.3911
耗	-11.3911
養	-11.3912
届	-11.394
沿	-11.3965
境	-11.4019
扇	-11.4019
貸	-11.402
戴	-11.4073
且	-11.4074
賀	-11.4074
剃	-11.4128
崩	-11.4181
砕	-11.4183
仰	-11.4238
巡	-11.4238
双	-11.4239
賃	-11.4239
噴	-11.4239
廃	-11.4239
槽	-11.4289
函	-11.4294
肢	-11.4294
腸	-11.4294
藤	-11.4295
興	-11.4336
蚊	-11.435
泉	-11.4351
闘	-11.4406
培	-11.4406
旦	-11.4406
焚	-11.4406
唐	-11.4406
↑	-11.4462
濁	-11.4463
ぇ	-11.4502
吉	-11.4577
如	-11.4577
昨	-11.4613
述	-11.4633
⇒	-11.4634
芳	-11.4634
暇	-11.4634
拝	-11.469
談	-11.4691
仏	-11.4692
霧	-11.4693
ぢ	-11.475
|	-11.4809
凍	-11.4865
阪	-11.4867
努	-11.4867
縛	-11.4867
領	-11.4867
岡	-11.4868
駆	-11.4986
将	-11.4986
輝	-11.5001
比	-11.5044
飴	-11.5046
臨	-11.5046
継	-11.5046
史	-11.5046
舎	-11.5047
併	-11.5097
井	-11.5105
季	-11.5106
△	-11.5108
爆	-11.5167
頬	-11.5167
英	-11.5289
騒	-11.5289
只	-11.5289
←	-11.5289
援	-11.5289
翌	-11.5333
展	-11.535
釘	-11.5413
誇	-11.5413
箋	-11.5413
恋	-11.5475
逸	-11.5476
操	-11.5535
摩	-11.5601
跳	-11.5601
岩	-11.5602
警	-11.5602
腿	-11.5602
拾	-11.5602
簡	-11.5664
蓄	-11.5664
富	-11.5665
◆	-11.5665
爽	-11.5727
猛	-11.5794
尖	-11.5794
緊	-11.5794
栽	-11.5859
溢	-11.5859
求	-11.5893
昇	-11.5924
踊	-11.5924
君	-11.5925
商	-11.5981
宝	-11.5989
把	-11.5989
掃	-11.599
償	-11.599
碗	-11.599
森	-11.5991
覗	-11.6056
魅	-11.6119
稼	-11.6123
廊	-11.6123
痕	-11.6123
ゞ	-11.619
遜	-11.619
銘	-11.619
◇	-11.6258
蕾	-11.6258
屑	-11.6258
刀	-11.6258
淵	-11.6326
絹	-11.6326
宛	-11.6463
剰	-11.6464
奏	-11.6464
険	-11.6533
滲	-11.6533
竿	-11.6533
煩	-11.6603
j	-11.6603
腎	-11.6603
桐	-11.6673
免	-11.6673
湾	-11.6673
膜	-11.6744
樹	-11.6744
釈	-11.6815
栄	-11.6815
狂	-11.6815
q	-11.6816
氏	-11.6887
覧	-11.6888
欧	-11.6888
坂	-11.696
貯	-11.696
恥	-11.696
撃	-11.6962
拠	-11.7032
揮	-11.7033
呑	-11.7033
創	-11.7033
眉	-11.7033
添	-11.7053
駐	-11.7106
羊	-11.7106
乏	-11.7106
礼	-11.7151
預	-11.718
雲	-11.718
姫	-11.718
宜	-11.7181
漬	-11.7206
鑑	-11.7254
糞	-11.7254
標	-11.7255
鯛	-11.7256
占	-11.733
哀	-11.733
━	-11.7332
搬	-11.7405
惨	-11.7406
斑	-11.7482
М	-11.7483
授	-11.7558
疲	-11.7577
牧	-11.7636
脆	-11.7637
葬	-11.7637
帽	-11.7711
略	-11.7715
刊	-11.7715
町	-11.7715
麗	-11.7715
婚	-11.7793
幹	-11.7794
蘭	-11.7794
仔	-11.7872
尽	-11.7873
殊	-11.7952
鋭	-11.7953
椒	-11.7953
希	-11.7953
査	-11.8033
坊	-11.8034
頓	-11.8034
透	-11.8109
剛	-11.8114
酔	-11.8115
曰	-11.8196
詮	-11.8197
麹	-11.8197
駅	-11.828
民	-11.828
請	-11.8362
纏	-11.8363
崎	-11.8363
捜	-11.8363
龍	-11.8363
鈴	-11.8365
恰	-11.8447
嵐	-11.8447
統	-11.8526
ヵ	-11.8527
眩	-11.8531
袴	-11.8531
褪	-11.8532
嵩	-11.8532
郎	-11.8532
拍	-11.8616
穫	-11.8617
林	-11.8617
塞	-11.8617
凄	-11.8686
屈	-11.8703
彡	-11.8704
‐	-11.879
矢	-11.879
践	-11.879
熊	-11.879
拒	-11.8877
招	-11.8878
袢	-11.8878
堪	-11.8878
噂	-11.8878
申	-11.8925
豊	-11.8966
誘	-11.8967
漏	-11.9021
湧	-11.9055
佐	-11.9055
牡	-11.9056
艸	-11.9056
訪	-11.9145
鹿	-11.9145
益	-11.9146
剣	-11.9237
繁	-11.9237
粋	-11.9237
弦	-11.9237
霜	-11.9328
胆	-11.9328
鈍	-11.9328
敗	-11.9328
津	-11.9329
村	-11.933
匂	-11.9395
避	-11.9397
》	-11.942
軒	-11.942
尋	-11.942
惹	-11.9421
里	-11.9421
《	-11.9514
威	-11.9609
稽	-11.9609
喫	-11.9704
σ	-11.9705
秘	-11.9799
顎	-11.98
〃	-11.9801
杢	-11.9801
模	-11.9895
掘	-11.9995
冒	-11.9996
由	-12.0093
族	-12.0093
鎖	-12.0094
課	-12.0094
揺	-12.0185
捕	-12.0194
鮭	-12.0195
ヾ	-12.0195
以	-12.0235
銭	-12.0293
騰	-12.0295
敬	-12.0295
融	-12.0296
盗	-12.0296
貫	-12.0296
健	-12.0296
柿	-12.0296
岐	-12.0296
釜	-12.0397
餡	-12.0398
域	-12.0496
伺	-12.0499
了	-12.0499
紗	-12.05
甥	-12.0501
般	-12.0598
疹	-12.0604
遭	-12.0605
瞳	-12.0605
厄	-12.0605
咳	-12.0605
舗	-12.0607
斜	-12.0702
浜	-12.0709
汎	-12.071
萎	-12.071
僅	-12.071
鬱	-12.071
群	-12.071
患	-12.0711
顧	-12.0816
罪	-12.0816
柵	-12.0816
膏	-12.0816
鍛	-12.0816
巨	-12.0816
Σ	-12.0817
港	-12.0817
裂	-12.0902
憂	-12.0924
羨	-12.0924
承	-12.1032
α	-12.1032
柴	-12.1032
宗	-12.1032
召	-12.1033
江	-12.1033
源	-12.1141
訓	-12.1142
焙	-12.1143
票	-12.1143
善	-12.1253
瞭	-12.1253
懸	-12.1253
瞼	-12.1254
巣	-12.1254
兎	-12.1254
志	-12.1365
畑	-12.1366
像	-12.1477
遺	-12.1479
遥	-12.148
陸	-12.148
則	-12.1594
羅	-12.1594
忌	-12.1595
籠	-12.1595
抽	-12.1596
穏	-12.171
吟	-12.171
該	-12.1711
□	-12.1711
講	-12.1711
募	-12.1828
玩	-12.1829
稚	-12.1829
丁	-12.1943
昧	-12.1947
副	-12.1947
喪	-12.1948
没	-12.2067
紛	-12.2067
雛	-12.2068
博	-12.2068
城	-12.2068
騙	-12.2164
嵌	-12.2189
柚	-12.219
敢	-12.219
刷	-12.219
脳	-12.219
杖	-12.219
椎	-12.2313
俺	-12.2313
章	-12.2313
須	-12.2313
拘	-12.2314
墨	-12.2314
沢	-12.2436
看	-12.2437
携	-12.2437
慮	-12.2437
辿	-12.2438
赴	-12.2438
徹	-12.2438
勘	-12.2564
敵	-12.2564
妊	-12.2564
楊	-12.2565
冠	-12.2565
渇	-12.2566
塵	-12.2566
瞬	-12.2664
慌	-12.2693
曹	-12.2693
ε	-12.2694
策	-12.2821
漆	-12.2822
叶	-12.2823
怠	-12.2823
竜	-12.2823
衿	-12.2954
砲	-12.2954
訴	-12.2955
挫	-12.3088
侵	-12.3088
伏	-12.3088
議	-12.3088
億	-12.3222
椀	-12.3223
藻	-12.3223
律	-12.3223
膳	-12.3223
寺	-12.3224
詞	-12.336
檀	-12.336
武	-12.336
о	-12.336
苺	-12.336
醸	-12.3361
♂	-12.3362
鬼	-12.3498
洞	-12.3499
揉	-12.3499
酌	-12.3499
賛	-12.364
橋	-12.364
恵	-12.3782
筈	-12.3782
築	-12.3782
蓮	-12.3783
兵	-12.3783
櫛	-12.3783
摘	-12.3925
河	-12.3927
蹴	-12.3927
梨	-12.3927
捲	-12.3927
撒	-12.3927
賢	-12.3928
購	-12.4073
争	-12.4074
痴	-12.4074
据	-12.4074
豪	-12.4074
宇	-12.4074
競	-12.4075
虹	-12.4075
帆	-12.4075
亜	-12.4075
譜	-12.4075
柑	-12.4076
奴	-12.4077
杏	-12.4079
忘	-12.4123
依	-12.4223
憩	-12.4223
諸	-12.4224
銅	-12.4224
縞	-12.4224
党	-12.4224
廻	-12.4224
徒	-12.4224
骸	-12.4375
茸	-12.4375
蘇	-12.4376
趣	-12.4521
腱	-12.453
晶	-12.468
属	-12.4682
捻	-12.4685
廉	-12.4685
菊	-12.4685
嗜	-12.4685
潔	-12.4685
糠	-12.4686
甚	-12.4686
航	-12.4686
ヶ	-12.4833
黙	-12.4844
促	-12.4844
滞	-12.4844
墓	-12.4844
圏	-12.4844
献	-12.4845
♀	-12.4845
池	-12.4949
潜	-12.5005
潟	-12.5005
審	-12.5005
幻	-12.5006
烏	-12.5006
誌	-12.5159
励	-12.5168
鯉	-12.5169
箔	-12.5169
喘	-12.517
昭	-12.517
─	-12.517
監	-12.5335
喰	-12.5335
賭	-12.5335
憤	-12.5336
窪	-12.5336
丹	-12.5337
析	-12.5504
杉	-12.5504
穂	-12.5504
繕	-12.5505
絆	-12.5505
宙	-12.5506
箪	-12.5506
妖	-12.5506
忍	-12.5506
儲	-12.5507
紋	-12.5676
搭	-12.5678
殖	-12.5678
撫	-12.5678
仁	-12.5678
搾	-12.5678
衝	-12.5853
牌	-12.5853
嘔	-12.5853
虚	-12.5853
稲	-12.5854
奈	-12.5854
政	-12.5854
童	-12.5855
粕	-12.5855
随	-12.6025
係	-12.6032
亀	-12.6032
楚	-12.6032
壇	-12.6032
戒	-12.6032
誉	-12.6032
紀	-12.6034
陥	-12.6213
’	-12.6214
専	-12.628
菓	-12.6396
契	-12.6398
索	-12.6399
軋	-12.6399
≪	-12.6399
≫	-12.6399
▼	-12.64
豹	-12.64
填	-12.6588
〔	-12.6588
〕	-12.6589
催	-12.6976
環	-12.6976
錯	-12.7177
抑	-12.7268
苔	-12.7588
詫	-12.7589
縄	-12.78
掲	-12.8241
枯	-12.8322
繰	-12.8467
与	-12.8626
需	-12.8701
揚	-12.918
橘	-12.9952
条	-12.9954
衛	-13.022
鉛	-13.0223
隙	-13.1677
範	-13.2016
斗	-13.2018
慎	-13.2344
責	-13.235
普	-13.269
躍	-13.2696
玄	-13.3051
財	-13.3422
趾	-13.3424
捨	-13.3753
愉	-13.5515
邪	-13.5988
暫	-13.6475
沙	-13.6491
挑	-13.6491
稿	-13.6491
宣	-13.7017
寧	-13.7017
濯	-13.7572
宴	-13.7574
韓	-13.7786
箇	-13.878
贅	-13.8785
択	-13.8785
汰	-13.8786
是	-13.8786
抹	-13.9405
較	-13.9452
痩	-14.0005
那	-14.0167
醤	-14.0933
訂	-14.0935
沖	-14.0936
徴	-14.2676
借	-14.3621
詐	-14.3679
飽	-14.4563
唯	-14.4769
械	-14.4788
漫	-14.4789
勧	-14.5955
悟	-14.6039
況	-14.6039
央	-14.7338
討	-14.7466
徐	-14.7468
紹	-14.7469
康	-14.9152
呂	-15.1133
僚	-15.6961
梱	-15.6966
酎	-15.6967
己	-15.6967
裕	-15.6967
欺	-15.6969
熨	-15.697
勉	-15.6979
諦	-16.1934
繍	-16.1962
窮	-16.1964
迅	-16.1967
維	-16.1968
距	-16.1981
哺	-17.191
曖	-17.1911
惣	-17.1912
懲	-17.1913
劫	-17.1914
佃	-17.1915
袱	-17.1916
蠣	-17.1917
絨	-17.1918
毯	-17.1919
唖	-17.192
楕	-17.1921
淹	-17.1922
襦	-17.1923
斐	-17.1924
叔	-17.1925
愕	-17.1926
礎	-17.1927
朴	-17.1928
憧	-17.1929
蕎	-17.193
痢	-17.1931
挨	-17.1932
拶	-17.1933
披	-17.1934
薔	-17.1935
薇	-17.1936
舐	-17.1937
眺	-17.1938
琲	-17.1939
珈	-17.194
姜	-17.1941
肪	-17.1942
矯	-17.1943
躊	-17.1944
躇	-17.1945
烈	-17.1946
餃	-17.1947
惜	-17.1948
褒	-17.1949
遽	-17.195
抵	-17.1951
殆	-17.1952
璧	-17.1953
戚	-17.1954
妥	-17.1955
噌	-17.1956
勿	-17.1957
鹸	-17.1958
控	-17.1959
̄	-17.196
洒	-17.1961
薦	-17.1962
娠	-17.1963
惚	-17.1964
験	-17.1965
濡	-17.1966
椅	-17.1967
雰	-17.1968
曜	-17.1968
奢	-17.1969
粧	-17.1969
揃	-17.197
燥	-17.1971
́	-17.1972
綺	-17.1973
膚	-17.1973
