<unk>	0
<s>	0
</s>	0
、	-3.05995
。	-3.16496
n	-3.32639
。\	-3.77768
の	-4.02872
が	-4.13319
,	-4.52889
は	-4.5498
で	-4.58483
に	-4.69677
も	-4.79684
▁1,	-4.80911
\	-4.81605
▁2,	-4.88985
を	-4.92107
と	-4.9357
です	-5.17711
▁2,,	-5.51409
▁	-5.54327
▁1,,	-5.69641
い	-5.76986
!	-5.77987
し	-5.78393
ので	-5.8652
1	-5.94517
でした	-6.0259
2	-6.02618
(	-6.03159
から	-6.06615
な	-6.12617
なので	-6.1556
?	-6.16719
て	-6.2204
か	-6.30647
や	-6.36967
...	-6.37187
でも	-6.37569
して	-6.37817
とても	-6.41617
)	-6.42257
ですが	-6.4374
ます	-6.4659
ました	-6.48298
3	-6.50976
購入	-6.53783
。,	-6.54975
!\	-6.55881
る	-6.61137
には	-6.64567
この	-6.65623
また	-6.65815
!,	-6.746
お	-6.78136
少し	-6.79803
、\	-6.80884
り	-6.83145
・・・	-6.84601
購入しました	-6.88873
た	-6.89575
ちょっと	-6.91219
って	-6.9145
と思います	-6.94795
かな	-6.96362
ない	-6.96413
ら	-6.97815
のですが	-7.00342
」	-7.01132
「	-7.01968
かなり	-7.04199
・	-7.04438
まだ	-7.04679
した	-7.08123
商品	-7.08719
〜	-7.09524
ー	-7.09954
つ	-7.10229
なら	-7.10856
ただ	-7.11513
4	-7.12185
けど	-7.16051
5	-7.16332
しました	-7.1912
残念です	-7.22192
く	-7.23231
サイズ	-7.23597
する	-7.23732
本	-7.23972
より	-7.24018
ス	-7.24719
cm	-7.25454
にも	-7.26246
ですね	-7.27177
残念	-7.27407
もう	-7.29137
いて	-7.32974
だったので	-7.33538
日	-7.33845
ね	-7.34293
10	-7.34413
色	-7.34638
ん	-7.34996
良かったです	-7.36983
すぐに	-7.37613
】	-7.38066
いい	-7.41052
良い	-7.41171
します	-7.4202
まで	-7.43628
L	-7.4464
もう少し	-7.45433
だけ	-7.45678
す	-7.46468
き	-7.46955
なく	-7.47009
用	-7.47407
!!	-7.47503
あまり	-7.47586
【	-7.47593
では	-7.48206
...\	-7.48665
さ	-7.48986
満足です	-7.49822
M	-7.50821
という	-7.51511
だと	-7.53207
)\	-7.53215
使用	-7.54316
本当に	-7.55448
よく	-7.55637
など	-7.55981
すごく	-7.5629
いる	-7.57659
として	-7.57895
います	-7.57962
円	-7.59532
♪	-7.59697
ません	-7.59705
すぐ	-7.59736
よ	-7.60499
用に	-7.61356
物	-7.62922
やはり	-7.63497
...,	-7.63709
いました	-7.64253
個	-7.65128
私は	-7.65349
分	-7.66151
着	-7.66177
リ	-7.66651
いつも	-7.66977
いた	-7.67221
これは	-7.67531
商品は	-7.6822
しか	-7.68428
他の	-7.69213
中	-7.69425
のに	-7.70164
う	-7.70827
もっと	-7.70887
デザイン	-7.71275
よかったです	-7.71504
感じ	-7.71827
これ	-7.72197
注文	-7.72433
安い	-7.72789
とっても	-7.73414
・・・,	-7.73436
のは	-7.7361
可愛い	-7.74128
その	-7.74202
だと思います	-7.74838
あり	-7.74903
み	-7.75163
発送	-7.75733
6	-7.75987
一	-7.76631
ず	-7.77785
購入しましたが	-7.78125
わ	-7.78303
とか	-7.78445
笑	-7.78602
なかなか	-7.79016
かも	-7.79087
ありがとうございました	-7.792
ましたが	-7.80119
大	-7.80155
今回は	-7.80249
だ	-7.80946
☆	-7.81459
対応	-7.82046
ないので	-7.82438
でしたが	-7.8286
だった	-7.82929
ため	-7.83715
ほど	-7.83817
くらい	-7.8415
のか	-7.84274
回	-7.84658
年	-7.85183
大変	-7.86211
今回	-7.86252
たら	-7.8644
を購入しました	-7.86862
ル	-7.87054
全く	-7.8713
やっぱり	-7.87298
そうです	-7.8746
小さい	-7.87591
かわいい	-7.88424
月	-7.88691
足	-7.88814
こ	-7.88821
T	-7.88832
水	-7.88956
色が	-7.89191
そう	-7.89508
S	-7.89601
め	-7.90373
になりました	-7.90424
白	-7.91305
黒	-7.91743
ように	-7.91866
-	-7.91928
時に	-7.91991
交換	-7.92117
あと	-7.92168
何	-7.92347
を購入	-7.93132
品	-7.9434
こと	-7.94639
人	-7.95157
がある	-7.95251
だし	-7.95706
ある	-7.95747
センチ	-7.95862
枚	-7.959
残念でした	-7.96109
数	-7.96416
ク	-7.96433
同じ	-7.96543
カ	-7.96622
があり	-7.9675
プレゼント	-7.97049
買って	-7.97406
・・・\	-7.97931
普段	-7.98206
こちらの	-7.98595
使い	-7.99402
ば	-7.9942
の方が	-7.99441
見	-7.9984
ト	-8.0006
良かった	-8.00228
!!\	-8.01386
初めて	-8.01827
しかし	-8.01896
なかった	-8.01927
もの	-8.02142
と思いました	-8.02337
時	-8.02538
部分が	-8.02545
出	-8.02566
思ったより	-8.02667
セット	-8.02727
イ	-8.03107
事	-8.03718
後	-8.0389
しています	-8.0405
ようです	-8.04482
良いです	-8.04682
したら	-8.04709
ような	-8.0492
7	-8.04945
っ	-8.05253
満足	-8.05511
違う	-8.05795
前に	-8.06198
美味しい	-8.06385
私の	-8.0674
使って	-8.06875
今まで	-8.07665
色も	-8.07736
なのに	-8.07991
毎日	-8.08181
特に	-8.08561
全然	-8.08642
あ	-8.08724
と思い	-8.08823
った	-8.08968
度	-8.09922
ラ	-8.10015
サイズが	-8.10308
のが	-8.1048
?,	-8.10498
早く	-8.10499
届きました	-8.10758
結局	-8.10989
ところ	-8.11042
大満足です	-8.11187
しかも	-8.11376
気に入りました	-8.11539
ア	-8.11688
レビュー	-8.11735
私には	-8.11739
もなく	-8.1233
ッ	-8.13221
コ	-8.13245
A	-8.13808
。。。	-8.13937
点	-8.14084
いいです	-8.14112
しましたが	-8.14121
購入して	-8.14158
目	-8.14404
以前	-8.14555
方	-8.15931
になる	-8.15988
しっかり	-8.16061
o	-8.16075
8	-8.16224
ピンク	-8.1646
ま	-8.16521
価格	-8.16689
自分で	-8.1676
買いました	-8.17127
非常に	-8.17149
だから	-8.17496
結構	-8.17597
色は	-8.17738
ると	-8.17774
ませんでした	-8.17805
すると	-8.1806
時間	-8.18176
今	-8.18436
感	-8.19239
マ	-8.19502
いたので	-8.20002
前	-8.20151
味	-8.2193
届いた	-8.22195
るので	-8.22201
なくて	-8.22301
普通の	-8.22359
いましたが	-8.22455
早速	-8.22507
薄い	-8.22517
100	-8.22657
20	-8.22739
よかった	-8.23061
上	-8.23197
へ	-8.23619
ロ	-8.2376
キ	-8.23959
返品	-8.24194
タ	-8.24383
良く	-8.24574
...。	-8.24959
ちゃんと	-8.25255
届いて	-8.25863
している	-8.26243
にしました	-8.2645
受注番号	-8.2707
そのまま	-8.27259
高い	-8.27328
なのか	-8.27709
配送	-8.28152
ずっと	-8.28865
手	-8.28881
確認	-8.29183
できる	-8.295
え	-8.29639
ご	-8.29664
タイプ	-8.30117
のような	-8.30267
・・	-8.3051
ド	-8.31004
む	-8.31104
:	-8.317
商品の	-8.31933
食べ	-8.32184
これから	-8.32583
♪\	-8.32936
満足しています	-8.33442
ち	-8.33851
っと	-8.33892
ますが	-8.34142
12	-8.34317
ではなく	-8.3434
と思って	-8.34429
カバー	-8.34882
30	-8.34985
なし	-8.35146
/	-8.35167
値段	-8.35187
一番	-8.35325
取り付け	-8.35415
気	-8.35755
見て	-8.36079
商品が	-8.36194
とにかく	-8.36242
生地が	-8.36379
送料無料	-8.36569
シ	-8.37212
とは	-8.37413
大きい	-8.37905
.	-8.38277
赤	-8.38479
等	-8.38547
力	-8.38777
充電	-8.38895
形	-8.38923
購入した	-8.39116
デザインは	-8.39516
一度	-8.39549
だけで	-8.39705
正直	-8.39935
チ	-8.40019
効果	-8.40421
になります	-8.41079
外	-8.41253
たので	-8.4133
9	-8.42399
いるので	-8.43061
ン	-8.43194
よい	-8.43764
ケース	-8.44125
そして	-8.44468
組み立て	-8.44588
安くて	-8.44708
汚れ	-8.44818
入り	-8.44902
使う	-8.44956
履いて	-8.45056
連絡	-8.45067
ウ	-8.4508
状態	-8.45181
付き	-8.4583
小	-8.45833
用に購入しました	-8.45862
まず	-8.4618
柄	-8.46206
方が	-8.46408
サイズは	-8.46572
可愛いです	-8.46684
自分の	-8.46727
できない	-8.46742
星	-8.47097
なんて	-8.47398
これで	-8.4762
しない	-8.47635
袋	-8.47861
!!,	-8.48061
れば	-8.48137
メール	-8.4819
しても	-8.48429
最悪	-8.48493
よりも	-8.48753
大きく	-8.4886
こんなに	-8.49372
しまい	-8.49395
下	-8.49493
梱包	-8.49896
助かりました	-8.4995
ありません	-8.49969
簡単に	-8.50125
ベージュ	-8.50142
傷	-8.50171
安く	-8.50175
こんな	-8.50465
11	-8.50592
性	-8.50737
け	-8.50786
買った	-8.50845
んで	-8.50905
たくさん	-8.50916
付け	-8.51037
★	-8.51064
・・・。	-8.51275
ヶ月	-8.51909
到着	-8.5202
利用	-8.52446
所	-8.52459
注文しました	-8.52473
なかったので	-8.52529
になり	-8.52769
日に	-8.52909
フ	-8.53091
期待	-8.53152
ポイント	-8.53168
れ	-8.53354
感じです	-8.53445
身長	-8.53457
収納	-8.5374
-20	-8.53824
入れ	-8.53942
レ	-8.54012
買い	-8.54121
きて	-8.54156
通り	-8.54325
為	-8.54372
生地	-8.54452
じ	-8.54475
確かに	-8.54487
ゴム	-8.5451
作り	-8.54524
しまいました	-8.54633
商品を	-8.54684
用の	-8.5486
やすい	-8.54978
不良品	-8.55104
靴	-8.55228
すぎて	-8.55499
臭い	-8.55638
洗濯	-8.55674
バ	-8.55796
24	-8.55913
オ	-8.56077
どう	-8.56281
リピート	-8.56317
おり	-8.5635
よう	-8.56583
ないです	-8.56664
週間	-8.56717
モ	-8.56793
使える	-8.56808
パ	-8.56938
かわいいです	-8.57032
持ち	-8.571
していて	-8.57178
みたいです	-8.57196
二	-8.57289
されて	-8.57347
若干	-8.5755
軽くて	-8.57607
♪,	-8.57633
生	-8.57691
取り	-8.58211
問い合わせ	-8.5829
だけど	-8.5843
kg	-8.58495
子供の	-8.58652
評価	-8.588
うーん	-8.5882
位	-8.59169
んだ	-8.59311
おいしい	-8.59902
でしょうか	-8.59932
便利です	-8.59984
ミ	-8.59989
一つ	-8.60098
になって	-8.60172
型	-8.60351
ブ	-8.60395
安っぽい	-8.60564
ズ	-8.60643
子	-8.60715
中の	-8.60832
デザインも	-8.61124
サ	-8.61222
つけ	-8.61561
としては	-8.61699
ツ	-8.61725
のある	-8.61748
ライト	-8.61887
された	-8.61895
のでしょうか	-8.62191
箱	-8.62353
B	-8.62369
ときに	-8.6241
ブラック	-8.6276
んですが	-8.62904
でしょう	-8.62944
まったく	-8.63067
きちんと	-8.63443
残念ながら	-8.6379
使用して	-8.63835
メ	-8.63868
使いやすい	-8.63887
使えない	-8.64009
欲しい	-8.64043
代	-8.64084
E	-8.64247
バッグ	-8.64248
着用	-8.64284
きました	-8.64318
ナ	-8.6435
たい	-8.64468
ショップ	-8.64505
こちらで	-8.6452
せ	-8.64545
くる	-8.64549
なる	-8.64563
何か	-8.64609
と思う	-8.64613
にくい	-8.64652
ど	-8.64707
ビ	-8.64733
見た目	-8.64906
▁́	-8.6496
ようで	-8.65129
たり	-8.65805
ぐらい	-8.65899
気に入っています	-8.66051
私	-8.66058
香り	-8.66204
食べて	-8.66222
しまった	-8.6637
がっかり	-8.6673
15	-8.66741
大きさ	-8.66961
かった	-8.67068
三	-8.67378
製品	-8.67437
そ	-8.67546
なり	-8.6782
お店	-8.68026
いいと思います	-8.68083
電話	-8.68183
購入したのですが	-8.68343
ではない	-8.68453
種類	-8.68565
がありました	-8.68616
C	-8.68692
注文して	-8.68987
心配	-8.69027
ブルー	-8.69075
グ	-8.69131
中に	-8.6918
ム	-8.69285
23	-8.69306
写真	-8.69338
ものが	-8.69375
前回	-8.69403
小さく	-8.69421
にして	-8.69493
思っていたより	-8.69663
&	-8.69688
なぁ	-8.69978
けれど	-8.70062
程	-8.70101
助かります	-8.70123
口	-8.70167
リピ	-8.70175
々	-8.70177
不安	-8.70401
ホワイト	-8.70522
送料	-8.70646
とも	-8.70798
エ	-8.70965
使っています	-8.71028
先	-8.71044
ネットで	-8.71323
紙	-8.71364
グレー	-8.71366
気に入って	-8.71736
ものを	-8.7219
普通に	-8.72316
ブラウン	-8.72331
もあり	-8.72684
D	-8.72772
タオル	-8.72788
買う	-8.73438
パン	-8.73636
面	-8.73717
カード	-8.73728
やっと	-8.73861
台	-8.73931
長く	-8.73948
び	-8.73985
イン	-8.74253
さん	-8.74427
気持ち	-8.74582
品質	-8.74594
安心して	-8.74777
ながら	-8.74826
内容	-8.75126
のため	-8.75131
悪い	-8.75148
味は	-8.75357
必要	-8.75456
カラー	-8.75572
飲み	-8.75725
良いと思います	-8.75827
色々	-8.75868
問題	-8.75878
m	-8.76027
便利	-8.76042
仕事	-8.76469
ということで	-8.76481
効果は	-8.76559
かもしれません	-8.76783
使いやすいです	-8.76854
つけて	-8.76889
商品です	-8.76942
ないと	-8.77079
画像	-8.77171
まぁ	-8.77217
的に	-8.77245
体	-8.77262
商品も	-8.77442
みると	-8.77545
マット	-8.7758
着て	-8.77583
地	-8.77633
私が	-8.7767
があります	-8.77695
凄く	-8.77753
バック	-8.77915
肉	-8.77951
^^	-8.77974
P	-8.78139
違い	-8.78304
方は	-8.78362
ノ	-8.78509
じゃない	-8.78575
素材	-8.7862
25	-8.78735
それ	-8.78739
テ	-8.78774
ろ	-8.78918
~	-8.79042
いますが	-8.79153
通	-8.79263
花	-8.79268
店	-8.79467
つき	-8.79521
ボ	-8.79627
いない	-8.7967
いまいち	-8.79688
なんか	-8.79794
夜	-8.80057
量	-8.8022
普通	-8.80382
いたら	-8.80481
嬉しいです	-8.8053
届く	-8.80941
時は	-8.80965
のかな	-8.80991
食	-8.81011
安いので	-8.81097
切れ	-8.81179
』	-8.81336
があって	-8.8136
『	-8.81428
ダメ	-8.81495
しまって	-8.816
れて	-8.81661
かと	-8.81836
ダ	-8.81857
ありがとうございます	-8.81978
何度も	-8.82004
綺麗に	-8.82087
g	-8.82343
こちらは	-8.82613
きた	-8.82618
機能	-8.82656
があるので	-8.82724
注文した	-8.82822
全部	-8.8294
値段相応	-8.82961
グリーン	-8.82967
しばらく	-8.82972
しません	-8.82987
ケ	-8.8316
子供が	-8.83167
ほとんど	-8.83227
がなく	-8.8325
キロ	-8.83484
不	-8.83694
を探していました	-8.83742
なのですが	-8.83783
結果	-8.8406
を見て	-8.84083
布団	-8.84128
ニ	-8.84148
の部分が	-8.84242
質	-8.8433
味が	-8.84615
なって	-8.84683
生地は	-8.84706
サイズも	-8.84796
50	-8.85029
を購入しましたが	-8.85056
全て	-8.85162
あって	-8.85309
w	-8.85473
別	-8.85535
かなぁ	-8.85751
しまいます	-8.85827
同	-8.85882
喜んで	-8.86019
好み	-8.86081
できました	-8.86089
油	-8.86151
パンツ	-8.86185
ガ	-8.86228
見た目は	-8.86229
になった	-8.86233
っぽい	-8.86353
みたい	-8.86395
朝	-8.8682
失敗	-8.8689
以上	-8.87031
この商品	-8.87035
別の	-8.87117
らず	-8.87123
毛	-8.87129
−	-8.87553
すれば	-8.87683
気がします	-8.87798
a	-8.87843
大きな	-8.88007
薄く	-8.88011
式	-8.88051
長い	-8.88055
ぶ	-8.88065
光	-8.88068
s	-8.88497
なりました	-8.88636
直	-8.88746
のみ	-8.89025
無	-8.89143
できます	-8.89405
ジ	-8.89502
デザインが	-8.89723
i	-8.89762
ピ	-8.89913
プ	-8.89962
伸び	-8.90003
感じで	-8.90487
かったです	-8.90539
着る	-8.90625
風	-8.90797
お値段	-8.90919
布	-8.91066
くて	-8.91103
サイズで	-8.91123
装着	-8.91137
ラッピング	-8.91151
これを	-8.91432
みて	-8.91523
持って	-8.91576
美味しいです	-8.91678
大満足	-8.91721
そうな	-8.91828
追記	-8.91832
最近	-8.91872
問題なく	-8.91894
やや	-8.91909
のも	-8.91913
気分	-8.91917
とりあえず	-8.91949
内	-8.92015
大きめ	-8.92067
可愛くて	-8.92146
説明	-8.92213
しまう	-8.92237
実際	-8.9232
;	-8.92491
O	-8.92526
イマイチ	-8.92527
500	-8.92572
ありました	-8.92638
無い	-8.92863
木	-8.92888
への	-8.93043
感が	-8.93106
かもしれませんが	-8.93216
書いて	-8.93347
なければ	-8.93355
実際に	-8.93538
ふ	-8.93553
かけ	-8.93604
13	-8.93626
いろいろ	-8.93736
重	-8.93737
すぎる	-8.93837
メール便	-8.93884
生地も	-8.93896
軽い	-8.94036
きます	-8.94157
はず	-8.94171
音	-8.94252
やすく	-8.94339
車	-8.94648
クリーム	-8.94657
気に入ってます	-8.9471
履き	-8.94767
と同じ	-8.9483
出来る	-8.94848
楽しみです	-8.94935
買いましたが	-8.94986
そんなに	-8.9503
×	-8.95039
倍	-8.9512
のように	-8.95195
がっかりです	-8.95223
と思っています	-8.95247
というか	-8.95259
シート	-8.9528
なった	-8.95294
したところ	-8.95553
行	-8.95554
ボリューム	-8.95735
いたのですが	-8.95874
部分	-8.95917
リング	-8.95948
したので	-8.95969
さらに	-8.96
サイズを	-8.96031
販売	-8.96097
せず	-8.96217
ブラ	-8.96299
予定	-8.96313
用に購入	-8.96439
足が	-8.96445
匂いが	-8.96665
程度	-8.96803
すぎ	-8.97151
☆\	-8.97183
表示	-8.97441
包装	-8.97462
スマホ	-8.97599
G	-8.97688
無理	-8.97795
味も	-8.97833
??	-8.97926
部分の	-8.98256
物が	-8.98485
長	-8.98517
ことが	-8.98526
ネット	-8.98566
全体的に	-8.98595
e	-8.98741
ぎ	-8.98779
(^	-8.98796
つく	-8.99044
子供	-8.99046
白い	-8.9922
シャツ	-8.99239
今日	-8.99341
イメージ	-8.99526
配達	-8.99531
系	-8.99559
あります	-8.9964
大きくて	-8.99725
心	-8.99909
☆,	-8.99933
mm	-8.99946
短い	-8.99994
ハ	-9.0003
服	-9.0004
美味しく	-9.00045
シンプルで	-9.00088
]	-9.00109
なくなりました	-9.00463
を入れて	-9.00479
のもの	-9.00481
石	-9.00556
メーカー	-9.00559
してます	-9.00585
寝	-9.00711
まあ	-9.00713
いません	-9.00726
があれば	-9.00834
落ち	-9.01132
多少	-9.01144
半	-9.01217
アップ	-9.01255
18	-9.01362
ぐ	-9.01401
ッと	-9.01428
だけに	-9.01451
好きな	-9.01466
ています	-9.01505
送って	-9.01553
使用しています	-9.01611
気に	-9.01708
安心	-9.0171
使用する	-9.01724
携帯	-9.01835
がない	-9.01894
のほうが	-9.01972
ほぼ	-9.02103
カット	-9.02109
I	-9.02121
ぴったり	-9.02154
希望	-9.0216
小さくて	-9.02198
40	-9.02218
スカート	-9.02341
(^^)	-9.0245
調整	-9.02521
れる	-9.02522
少々	-9.02687
汗	-9.02737
最悪です	-9.02767
約	-9.0307
場所	-9.03171
らない	-9.03289
コーヒー	-9.03422
みたいな	-9.03528
沢山	-9.03573
箇所	-9.0359
ベルト	-9.03601
なかったです	-9.03753
気が	-9.03873
手に	-9.03896
作業	-9.03967
商品自体は	-9.04018
スト	-9.04219
あった	-9.04234
サイズの	-9.04345
その後	-9.04428
夏	-9.04485
ても	-9.04533
と一緒に	-9.04709
履く	-9.0473
オレンジ	-9.04798
だったら	-9.04818
製	-9.04905
歳	-9.0492
楽	-9.04939
ている	-9.0501
者	-9.05077
穴	-9.05338
切り	-9.05349
最高	-9.05635
うまく	-9.05744
安かったので	-9.05747
ワ	-9.05996
デ	-9.06005
在庫	-9.0601
臭いが	-9.06073
が悪い	-9.06083
かと思います	-9.06109
_	-9.06148
十分	-9.06227
買い物	-9.06239
を使って	-9.06316
上に	-9.06338
間	-9.06414
時の	-9.06428
見える	-9.06441
その他	-9.06477
いい感じです	-9.06585
購入し	-9.06635
ウエスト	-9.06802
入れて	-9.06805
できて	-9.06922
猫	-9.0705
みたら	-9.07185
ないし	-9.07196
ということ	-9.07269
るし	-9.07342
09	-9.07507
ネ	-9.07809
大人	-9.07894
られて	-9.08138
ぼ	-9.0815
パック	-9.08164
きれいに	-9.08207
あたり	-9.08256
身	-9.08273
ずに	-9.08296
させて	-9.08388
ちょうど	-9.08532
おすすめです	-9.08616
、「	-9.08736
・・・・	-9.08823
仕方ない	-9.0889
的な	-9.08961
金	-9.0909
するので	-9.09129
体重	-9.09239
ピッタリ	-9.09346
青	-9.09471
大きさも	-9.09553
購入する	-9.09567
1000	-9.09641
14	-9.09764
ター	-9.09849
金額	-9.09869
みましたが	-9.09936
こう	-9.1002
自分	-9.10135
さんの	-9.10169
げ	-9.10207
K	-9.1024
設置	-9.10328
今は	-9.10427
改善	-9.10513
指	-9.1052
びっくり	-9.10553
付けて	-9.1058
掃除	-9.10647
熱	-9.10756
番	-9.10882
新	-9.11044
シール	-9.11051
ボタン	-9.11255
込み	-9.11282
一緒に	-9.11339
されている	-9.11372
この商品は	-9.11411
音が	-9.1143
お試し	-9.11458
痛い	-9.11467
糸	-9.1156
疲れ	-9.11564
他	-9.11663
電池	-9.11729
号	-9.11796
わかりません	-9.11821
できません	-9.11927
注意	-9.11965
食べる	-9.11973
られる	-9.12049
物を	-9.12064
最初は	-9.12102
22	-9.12131
ポケット	-9.1216
品物	-9.12227
27	-9.12316
小さな	-9.12367
これなら	-9.12467
焼き	-9.12486
ひどい	-9.12596
19	-9.12703
あるので	-9.12752
ペ	-9.12786
とのこと	-9.12995
人は	-9.13075
に入れて	-9.13159
リー	-9.13181
遅い	-9.13234
仕上がり	-9.13256
綺麗な	-9.13346
される	-9.1337
セ	-9.13485
ことを	-9.13492
出来ない	-9.13508
効果が	-9.13524
を買いました	-9.13639
読み	-9.13668
値段も	-9.1378
とき	-9.1392
耐久性	-9.14074
も良く	-9.14122
と思いましたが	-9.14157
幅	-9.1419
みました	-9.14248
タイプの	-9.14249
ヤ	-9.14291
17	-9.14325
半分	-9.14358
肌	-9.14388
そうで	-9.14417
塩	-9.14521
ミス	-9.14554
気になる	-9.14706
ビックリ	-9.14841
重い	-9.14843
ほしい	-9.14856
つか	-9.14961
引き	-9.1497
見た目も	-9.15033
粉	-9.15059
たっぷり	-9.15419
かかる	-9.15542
しっかりしていて	-9.15575
使います	-9.15577
納得	-9.15602
軽く	-9.15633
説明書	-9.15641
娘の	-9.15723
現在	-9.1578
部	-9.15811
飲んで	-9.15847
何も	-9.15885
色の	-9.1591
W	-9.15963
リピートです	-9.15979
わからない	-9.16006
どんな	-9.16032
変更	-9.1615
まま	-9.16316
が少し	-9.16369
ところが	-9.16398
もよく	-9.16418
ポ	-9.16448
ネイビー	-9.1645
28	-9.16464
値段が	-9.16466
楽天	-9.16511
好き	-9.16514
固定	-9.16541
ガッカリ	-9.16603
腰	-9.16608
すごい	-9.16678
購入してみました	-9.16799
いいですね	-9.16868
自体は	-9.17039
され	-9.17136
今度は	-9.1729
不満	-9.17376
穴が	-9.17442
ック	-9.1755
ちなみに	-9.17554
うちの	-9.17629
高	-9.17641
名前	-9.17736
シャンプー	-9.17751
ベッド	-9.17754
の商品	-9.17755
ロー	-9.17772
せいか	-9.17832
ゴールド	-9.17854
していた	-9.17978
素敵な	-9.18025
+	-9.18085
この値段で	-9.18101
匹	-9.18147
人には	-9.18172
ひ	-9.18287
ものは	-9.18288
商品でした	-9.18333
レビューを見て	-9.18345
私も	-9.18546
オイル	-9.18611
使った	-9.18642
綿	-9.18675
カップ	-9.1876
茶	-9.18786
16	-9.18804
匂い	-9.18824
前の	-9.19075
家族	-9.19141
物は	-9.1915
について	-9.1929
したい	-9.19457
26	-9.19492
毎回	-9.19495
会	-9.1951
→	-9.19544
思い	-9.19622
美味しかったです	-9.19628
後に	-9.20096
だったのですが	-9.20115
マイナス	-9.20151
なります	-9.202
合わせ	-9.20205
ついて	-9.20207
オススメです	-9.20295
薄	-9.20618
財布	-9.20734
合わない	-9.20741
べ	-9.20755
色で	-9.20875
ゴ	-9.20916
話	-9.20933
○	-9.21011
なんとか	-9.21067
再	-9.21087
OK	-9.21182
香りが	-9.21209
使えません	-9.21221
と思いますが	-9.21224
肩	-9.21333
入って	-9.21354
期待して	-9.21426
ください	-9.21486
はありません	-9.21632
そんな	-9.21702
キャンセル	-9.21713
細い	-9.21782
雨	-9.21968
ギ	-9.22041
60	-9.22124
テーブル	-9.22127
置き	-9.22183
。。。,	-9.22203
ソ	-9.22226
ビニール	-9.22231
記載	-9.22235
微妙	-9.22353
があった	-9.22366
ネジ	-9.22366
ライン	-9.22495
家	-9.22582
か月	-9.22594
したのですが	-9.22653
無く	-9.22666
ガラス	-9.22681
すっきり	-9.22687
初	-9.22989
過ぎて	-9.23008
スッキリ	-9.23164
発	-9.23239
めて	-9.23254
の方	-9.23277
指定	-9.23349
翌日	-9.23424
いい感じ	-9.23459
文字	-9.23472
方には	-9.23629
ひとつ	-9.23698
いく	-9.23788
お店で	-9.23842
あれば	-9.23942
体型	-9.23944
にくく	-9.24032
硬い	-9.24075
なんだか	-9.24115
やって	-9.24138
それでも	-9.24287
クッション	-9.24411
ことは	-9.24429
りました	-9.24455
使ってます	-9.24462
いっぱい	-9.24696
届き	-9.24764
F	-9.24774
可愛く	-9.24785
雑	-9.24858
が多い	-9.24994
薄くて	-9.25058
少ない	-9.25109
売って	-9.25126
お気に入り	-9.25453
乾燥	-9.25455
ときは	-9.25578
0	-9.25615
込んで	-9.25829
肌に	-9.25875
黒い	-9.2591
しまったので	-9.25979
考え	-9.26035
欲しかった	-9.26038
洗い	-9.26064
はとても	-9.26082
ストラップ	-9.2621
目に	-9.26271
残り	-9.26297
粒	-9.26344
チェック	-9.26401
で購入	-9.26408
レース	-9.26453
とても気に入りました	-9.26527
をして	-9.26537
してしまいました	-9.26813
!!!	-9.2691
ショック	-9.26924
高さ	-9.27047
モノ	-9.27092
しっとり	-9.27125
こちらの商品	-9.27146
流	-9.27186
弱	-9.27239
していました	-9.27263
てしまいました	-9.27342
ばかり	-9.27344
80	-9.27349
柔らかく	-9.27394
巻	-9.27398
良かったので	-9.27567
掛け	-9.27573
安いし	-9.27627
時間が	-9.27654
っている	-9.27659
新品	-9.2767
紐	-9.27723
すべて	-9.27724
150	-9.27819
娘	-9.27835
バー	-9.2801
方法	-9.28045
状態で	-9.28211
楽しみ	-9.28262
になってしまいました	-9.28297
加工	-9.283
が悪く	-9.2838
丈	-9.28381
ありませんでした	-9.28397
ピン	-9.28528
オススメ	-9.28553
H	-9.28561
最高です	-9.28651
もちろん	-9.28768
過ぎ	-9.28791
良かったのですが	-9.28874
簡単	-9.28894
レベル	-9.2891
場	-9.28947
これが	-9.28956
作って	-9.29042
動き	-9.29056
柔らかい	-9.2907
こういう	-9.29181
名	-9.29274
何度か	-9.29389
早い	-9.29428
ります	-9.29453
あまりにも	-9.29463
ほ	-9.29492
が一番	-9.29554
で購入しました	-9.29644
食べた	-9.2965
様	-9.29706
カー	-9.29785
注文番号	-9.29802
リボン	-9.2982
産	-9.29893
横	-9.29895
女性	-9.2997
普段は	-9.30032
使えます	-9.30044
長さ	-9.3012
部分に	-9.30234
革	-9.30255
甘い	-9.30293
再度	-9.30315
違いました	-9.30424
黄色	-9.30427
びっくりしました	-9.30441
絶対	-9.30661
予約	-9.30792
90	-9.30793
印象	-9.30858
無し	-9.30931
実	-9.30948
出来	-9.31065
シルバー	-9.31194
たち	-9.31221
腕	-9.31316
のために	-9.31367
日で	-9.31415
枕	-9.31418
お得	-9.31611
薬	-9.3175
我が家の	-9.31776
強	-9.31923
レンズ	-9.31955
ものでした	-9.32035
画面	-9.3209
書	-9.32105
いただきました	-9.32238
してる	-9.32268
ゆったり	-9.32431
ブーツ	-9.32468
きつい	-9.32595
がっかりしました	-9.326
一回	-9.32616
などの	-9.32693
頭	-9.32903
時計	-9.32925
なお	-9.32957
注文してから	-9.32982
にしましたが	-9.33239
暖かい	-9.33315
ゴミ	-9.33383
お買い得	-9.33413
嬉しい	-9.33444
歯	-9.33471
おまけ	-9.33629
押し	-9.33739
バラ	-9.33763
でき	-9.33788
目が	-9.33837
本日	-9.33925
止め	-9.33932
,"	-9.3394
が必要	-9.33966
店舗	-9.34128
iPhone	-9.34177
まあまあ	-9.34272
素	-9.34284
があったので	-9.34303
丸	-9.34341
の方は	-9.3436
R	-9.34387
反応	-9.34387
続けて	-9.34462
キッチン	-9.34486
みたいで	-9.34575
自分用に	-9.34669
でしたので	-9.34672
新しい	-9.34705
線	-9.34807
いないので	-9.34862
たいと思います	-9.3488
ベ	-9.34927
付いて	-9.34993
色々な	-9.3514
おります	-9.35175
雰囲気	-9.35179
犬	-9.35372
作	-9.35465
前から	-9.35506
書き	-9.3562
はじめて	-9.35625
つです	-9.35655
リピです	-9.35731
ピアス	-9.35741
バランス	-9.35978
濃い	-9.36042
超	-9.3607
高く	-9.36088
じゃ	-9.36098
とても残念です	-9.36107
もある	-9.36168
使わない	-9.36187
こちら	-9.36213
フード	-9.36226
ですよ	-9.36304
見え	-9.36375
細かい	-9.36376
を買って	-9.36381
プレゼントに	-9.36384
今後	-9.36407
ケーキ	-9.36446
茶色	-9.36447
段	-9.36471
してから	-9.36495
キズ	-9.3651
ティ	-9.36531
の為	-9.36539
ませんが	-9.3659
胸	-9.36673
裏	-9.36677
入らない	-9.36697
目立つ	-9.36702
などは	-9.36771
小さめ	-9.36842
有り	-9.36844
おすすめ	-9.36909
ット	-9.36916
せっかく	-9.36987
一週間	-9.37014
合う	-9.37141
LL	-9.37161
即	-9.37189
が届きました	-9.37233
追加	-9.37358
字	-9.37445
自転車	-9.37629
旅行	-9.37777
抜け	-9.37782
付	-9.37896
がとても	-9.3793
ダイエット	-9.38052
しないと	-9.38093
が出て	-9.38196
通常	-9.38253
皮	-9.38325
気に入った	-9.3833
壊れました	-9.38387
こちらを	-9.3842
近く	-9.38493
試しに	-9.3854
どの	-9.38547
いいのですが	-9.3855
な感じ	-9.38578
どうしても	-9.38621
これからも	-9.38651
買わない	-9.38663
側	-9.38712
らしく	-9.38787
いたり	-9.38846
表	-9.38898
なんで	-9.38937
初めての	-9.3908
お茶	-9.39086
大丈夫	-9.39089
お気に入りです	-9.39216
純正	-9.39221
次は	-9.39235
嬉しかったです	-9.39291
細	-9.39342
この値段	-9.39367
いろんな	-9.39433
点灯	-9.39533
パッケージ	-9.39599
来た	-9.39743
落ちて	-9.39839
ですし	-9.39928
d	-9.40047
合って	-9.40125
ファスナー	-9.40148
しっかりした	-9.40155
はない	-9.40195
顔	-9.40224
ハイ	-9.40238
綺麗	-9.40286
ペン	-9.40358
角	-9.4036
のお	-9.40387
棚	-9.40451
どれも	-9.40625
替え	-9.40691
届かない	-9.4071
ること	-9.40839
店で	-9.40898
ではありません	-9.40911
重さ	-9.40911
好きです	-9.40995
来て	-9.41134
いませんが	-9.41138
本体	-9.41247
出して	-9.41254
くらいの	-9.41292
u	-9.41304
たのですが	-9.41436
元	-9.4148
野菜	-9.41501
下に	-9.41527
”	-9.41584
るのが	-9.41593
丁寧に	-9.41753
対策	-9.41877
ドレス	-9.41956
違和感	-9.4199
生地の	-9.42164
さっそく	-9.42171
ご飯	-9.42177
思っていた	-9.4219
ボロボロ	-9.42255
ω	-9.42256
個人的には	-9.42379
達	-9.42413
アン	-9.42459
二度と	-9.42476
だろう	-9.42481
バッテリー	-9.42509
かけて	-9.42573
和	-9.42605
今のところ	-9.42609
髪	-9.42643
なん	-9.42648
円で	-9.42683
ぁ	-9.42952
耳	-9.42975
部分は	-9.42976
LED	-9.43098
調節	-9.43205
使えて	-9.43293
入	-9.4334
満足してます	-9.43456
注文しましたが	-9.43472
21	-9.43593
って感じです	-9.43595
カビ	-9.43625
向き	-9.43724
^	-9.43752
ものの	-9.4377
鼻	-9.4378
ナチュラル	-9.43781
◎	-9.43783
ディ	-9.43923
[	-9.43928
色違いで	-9.44014
返信	-9.44019
と言う	-9.44111
コスパ	-9.44144
夫	-9.44197
によって	-9.44252
様に	-9.44252
すること	-9.44289
るのに	-9.44316
ここ	-9.44326
V	-9.4433
読んで	-9.44462
かわいくて	-9.44513
ヒール	-9.44551
だいぶ	-9.44554
写真と	-9.44663
袖	-9.44679
を探して	-9.44685
場合	-9.44716
買ってよかったです	-9.44754
脚	-9.44829
驚きました	-9.44888
買い替え	-9.44917
がよく	-9.44932
使っていた	-9.45019
しているので	-9.45028
目の	-9.45142
冷凍	-9.45156
割れて	-9.4521
ペラペラ	-9.45326
汚れが	-9.45329
日本製	-9.45451
を購入して	-9.45597
出し	-9.45621
塗り	-9.45681
シャ	-9.45722
出来ました	-9.45851
ちゃん	-9.45867
土	-9.45956
時期	-9.46007
ケーブル	-9.46029
靴下	-9.46182
はあまり	-9.46247
思った	-9.46321
タグ	-9.46331
できず	-9.46355
わかりませんが	-9.46403
設定	-9.46467
きれいな	-9.46486
U	-9.46579
と言って	-9.46761
椅子	-9.46812
したり	-9.47009
逆に	-9.47155
出て	-9.4718
待って	-9.47257
下さい	-9.47263
器	-9.47294
直ぐに	-9.47319
考えて	-9.47333
安物	-9.47394
シンプル	-9.47438
春	-9.47497
悪く	-9.47556
の物	-9.47603
あれ	-9.47624
が多く	-9.47724
色合い	-9.47733
鍋	-9.47792
しょうがない	-9.47875
冬	-9.47934
何より	-9.47948
は全く	-9.47969
しい	-9.47984
張り	-9.48085
(>_<)	-9.48149
意外と	-9.48237
手間	-9.48378
板	-9.48388
おいしいです	-9.48431
下の	-9.48469
中で	-9.48533
テレビ	-9.4858
どこ	-9.48645
きっと	-9.48669
ロング	-9.48676
レッド	-9.48715
安いから	-9.48798
旦那	-9.48818
外れ	-9.48974
ショックです	-9.48975
インナー	-9.48983
ことに	-9.49003
又	-9.49044
欲しいです	-9.49092
かかりました	-9.49123
からの	-9.49137
ダメでした	-9.49175
試	-9.49194
(*^^*)	-9.49225
愛用	-9.49349
泣	-9.49399
70	-9.49417
トイレ	-9.49493
美味しかった	-9.49542
ありがたいです	-9.49714
ほつれ	-9.49731
曲	-9.49826
完全に	-9.49842
キー	-9.49906
ちょうどいい	-9.49966
あんまり	-9.5004
部品	-9.50055
,2	-9.50055
お勧めです	-9.50063
更に	-9.50081
やすいです	-9.50102
直接	-9.50136
感じでした	-9.50212
に合わせて	-9.50278
剤	-9.50302
実物は	-9.50304
長時間	-9.50399
メールで	-9.50472
のかもしれませんが	-9.50474
上の	-9.50489
玉	-9.50507
200	-9.50532
PC	-9.50574
くらいです	-9.50693
玄関	-9.50705
見えて	-9.50707
ミニ	-9.50721
ないように	-9.50768
的	-9.50804
コン	-9.5083
......	-9.50943
柄が	-9.50946
変	-9.50968
寒い	-9.51017
商品に	-9.51031
買って良かったです	-9.51032
剥がれ	-9.5106
豆	-9.51075
みた	-9.51094
コレ	-9.51117
最初	-9.51182
シリーズ	-9.51186
そうなので	-9.51361
荷物	-9.51405
床	-9.51433
使用した	-9.51504
残念な	-9.51559
合	-9.51561
れた	-9.51668
パーツ	-9.51701
フィット感	-9.51839
ザ	-9.51877
具合	-9.51939
なくても	-9.51975
まる	-9.51977
問題ない	-9.52122
安心です	-9.52286
は少し	-9.52295
待ち	-9.52298
ヒ	-9.5235
単	-9.52353
見えます	-9.52373
ねじ	-9.52416
p	-9.52452
したいと思います	-9.52507
最初から	-9.52582
練習	-9.52618
葉	-9.52633
お風呂	-9.52747
がいい	-9.52751
レビューで	-9.52766
端	-9.52836
ワイン	-9.52862
の色	-9.52873
出荷	-9.5295
妻	-9.5301
素敵です	-9.5322
購入したので	-9.53333
そちら	-9.53366
あとは	-9.53422
部屋	-9.53445
縫製	-9.53452
お勧め	-9.53464
があると	-9.53552
何とか	-9.53564
使い方	-9.53575
はかなり	-9.53581
ではないので	-9.53687
が無い	-9.53745
できるので	-9.53772
ブラシ	-9.53775
変な	-9.53786
;)	-9.53816
難	-9.53819
インク	-9.53826
会社	-9.53836
と感じました	-9.53876
おもちゃ	-9.53902
一枚	-9.53904
背	-9.54021
だと思いました	-9.5404
容量	-9.54076
ついた	-9.5414
米	-9.54175
要	-9.54193
これだけ	-9.5425
季節	-9.54307
ゴムが	-9.54322
とても良い	-9.54448
しようと	-9.54504
問題ありません	-9.54569
いただき	-9.54575
???	-9.54641
カメラ	-9.54645
娘に	-9.54648
評判	-9.54715
いつ	-9.54822
足の	-9.54822
高級感	-9.54829
に近い	-9.5483
糸が	-9.54884
保存	-9.54885
入る	-9.549
引	-9.55158
v	-9.55161
山	-9.55259
というより	-9.55282
感じました	-9.55299
たまたま	-9.55362
しながら	-9.55384
がないので	-9.55392
安	-9.55433
最低	-9.55451
とのことで	-9.55546
がありません	-9.55552
とおもいます	-9.55656
巻き	-9.5566
帯	-9.55684
意味	-9.55694
だめ	-9.55754
縫い	-9.55766
類	-9.55771
ですので	-9.55836
。"	-9.55917
それに	-9.55925
見えない	-9.55934
がついて	-9.55983
機	-9.5607
ラン	-9.56216
サラサラ	-9.56231
ひと	-9.56283
ミリ	-9.56396
充分	-9.56397
感じがします	-9.56435
お花	-9.56471
変化	-9.56512
クリア	-9.5656
迷って	-9.56576
られた	-9.56648
安っぽく	-9.56705
当たり	-9.56855
付属の	-9.5687
種	-9.56977
虫	-9.57003
しますが	-9.57068
を入れる	-9.57086
るのは	-9.57135
思った以上に	-9.57209
明らかに	-9.57299
の上に	-9.57306
検品	-9.57446
首	-9.57462
ものと	-9.57506
気になりません	-9.57522
爪	-9.57529
としても	-9.57611
訳あり	-9.57657
近所の	-9.57733
ほかの	-9.57747
酷い	-9.57882
として購入しました	-9.57906
y	-9.57987
の時に	-9.5799
質感	-9.57992
計	-9.5804
に購入しました	-9.58094
形が	-9.581
重宝しています	-9.58105
二つ	-9.58134
しませんでした	-9.58179
られ	-9.58201
合わなかった	-9.58286
仕様	-9.58311
上げ	-9.58398
テープ	-9.58406
火	-9.58464
よいです	-9.58478
なかったのですが	-9.58555
差	-9.58573
自分用	-9.58638
液	-9.58668
ほうが	-9.58759
パープル	-9.58779
29	-9.5879
感じます	-9.588
使え	-9.58819
道	-9.58833
いくら	-9.5896
うれしいです	-9.58967
イエロー	-9.58976
幅広	-9.5898
解	-9.59035
このまま	-9.5916
臭	-9.59168
傘	-9.5921
と思ったのですが	-9.59215
調	-9.59253
プラスチック	-9.5926
余裕	-9.59264
使えませんでした	-9.59264
かかって	-9.59348
08	-9.59388
動	-9.59415
悩んで	-9.59416
パソコン	-9.59473
間違い	-9.59478
後の	-9.59506
タン	-9.59519
置いて	-9.59519
23.5	-9.59528
容器	-9.59572
明るい	-9.59673
チェーン	-9.59678
が良く	-9.59728
k	-9.59735
可能	-9.59762
DVD	-9.59774
子供に	-9.59776
息子の	-9.59783
お値段も	-9.59883
レビューを	-9.59923
言って	-9.59934
母	-9.59945
嫌	-9.5995
難しい	-9.59968
まとめて	-9.59972
ジェル	-9.59988
他に	-9.60039
ファン	-9.60081
回目	-9.60315
ですよね	-9.60371
の中に	-9.60529
ショップで	-9.6055
お米	-9.6061
ホ	-9.60618
とした	-9.60665
t	-9.60702
ボタンが	-9.60741
いいかも	-9.60818
定	-9.60848
使用感	-9.60868
御	-9.60883
素敵	-9.60896
ずつ	-9.60934
今回の	-9.6105
と思った	-9.6105
素材が	-9.61118
早かったです	-9.61134
買ってみました	-9.61164
チョコ	-9.61218
一本	-9.61227
いると	-9.61273
ゆ	-9.61362
出来て	-9.6138
部屋に	-9.61455
落ち着いた	-9.6149
得	-9.61491
アイ	-9.61492
明るさ	-9.61495
のない	-9.61527
したのに	-9.61562
下着	-9.61565
悪	-9.61586
んです	-9.61599
使えそうです	-9.61634
弱い	-9.61658
印	-9.61672
絵	-9.6171
接続	-9.61748
使っている	-9.6176
立ち	-9.61927
思ったよりも	-9.61968
是非	-9.62004
頂きました	-9.62061
ちょっとした	-9.62185
スペース	-9.62242
と思い購入しました	-9.62246
まし	-9.62298
なぜ	-9.62317
後ろ	-9.62333
^)	-9.6234
みます	-9.62343
..	-9.62347
ぬ	-9.62358
アイロン	-9.62378
腹	-9.62389
このお値段	-9.62389
多分	-9.62455
の香り	-9.62476
お品	-9.62488
もありません	-9.62518
飲む	-9.62535
という感じです	-9.62543
などで	-9.62559
作りが	-9.62617
!?	-9.62627
膝	-9.62637
半年	-9.62722
形は	-9.62771
みんな	-9.6282
飾り	-9.62933
とはいえ	-9.62952
160	-9.62971
っています	-9.62994
組立	-9.63027
魚	-9.63126
薄め	-9.63137
られない	-9.6314
不足	-9.6321
ロック	-9.63226
おしゃれ	-9.63245
見た	-9.63251
お店の	-9.63254
痛	-9.63263
N	-9.63361
先に	-9.63397
パール	-9.63401
入荷	-9.63457
届いたので	-9.63472
それが	-9.63501
香りも	-9.63547
ような気がします	-9.63561
畳	-9.63627
にくいです	-9.63632
感じが	-9.63684
実物	-9.637
一部	-9.63707
出来ません	-9.63842
骨	-9.63863
いただけ	-9.63946
たくて	-9.63967
わけ	-9.64105
していましたが	-9.6416
きつく	-9.64201
探して	-9.64239
を買う	-9.64286
中国製	-9.64334
るように	-9.64398
価格も	-9.64474
処理	-9.64485
においが	-9.64514
ちゃ	-9.6453
平	-9.64592
もし	-9.64727
注文から	-9.64761
お願い	-9.64801
分からない	-9.6483
子ども	-9.64872
上がり	-9.64877
到着しました	-9.64934
と思っていましたが	-9.64971
はありませんでした	-9.65008
お安く	-9.6506
頼んで	-9.65062
せる	-9.65079
が欲しくて	-9.65105
母に	-9.65114
良いもの	-9.65115
あげ	-9.65128
すでに	-9.65171
トップ	-9.65224
サン	-9.653
なくなり	-9.65301
サンプル	-9.65343
滑り	-9.65378
が良い	-9.65398
商品が届きました	-9.65399
早くて	-9.65404
化	-9.65406
麺	-9.65446
人で	-9.65484
もともと	-9.65488
片	-9.65523
回り	-9.65683
なのでしょうか	-9.65701
開けて	-9.65726
ショックでした	-9.65735
割れ	-9.65762
空	-9.65797
しまうので	-9.65831
注文後	-9.65963
先日	-9.6602
強い	-9.66047
太い	-9.66049
セール	-9.66076
カーテン	-9.66086
壊れた	-9.66118
120	-9.66156
金具	-9.66161
サービス	-9.66193
まり	-9.66302
しようと思います	-9.66322
を探していて	-9.66477
の色が	-9.66562
コート	-9.66589
左右	-9.66651
がかなり	-9.66654
材	-9.66727
キャップ	-9.6673
必ず	-9.66735
このお値段で	-9.6674
苗	-9.66833
スプレー	-9.67006
痛み	-9.67119
ストレッチ	-9.67156
おいしかったです	-9.67164
せて	-9.67164
強度	-9.67248
ここまで	-9.67272
健康	-9.67306
表記	-9.67361
いれば	-9.67402
福袋	-9.67447
届くまで	-9.67533
しっかりと	-9.6756
に行く	-9.67574
やり	-9.67598
よかったのですが	-9.67655
低	-9.67679
次	-9.67713
破損	-9.67767
開いて	-9.67809
シンプルな	-9.67819
暖かく	-9.6784
だと思って	-9.67874
かもしれない	-9.67884
文	-9.67952
てしまい	-9.67984
底	-9.67989
全	-9.68007
発注	-9.68013
今回も	-9.68127
よりは	-9.6813
人が	-9.6824
値	-9.68246
てしまいます	-9.68263
せめて	-9.6827
それほど	-9.68301
一日	-9.68318
後悔	-9.68333
気にならない	-9.68351
とても良かったです	-9.68416
取れ	-9.68495
もない	-9.68522
しっかりしています	-9.68675
開封	-9.68687
お値段が	-9.68696
暑い	-9.6873
他店で	-9.68759
人に	-9.68802
子供も	-9.68806
の問題	-9.68853
っぽく	-9.68902
大丈夫でした	-9.68943
購入後	-9.68972
ワンピース	-9.69009
っぱ	-9.69049
ったら	-9.69061
しかない	-9.69086
を持って	-9.69123
になるので	-9.69129
見ると	-9.69133
されました	-9.69168
XL	-9.69172
が違う	-9.69208
修理	-9.69227
後は	-9.69262
違った	-9.69319
電	-9.69351
とても良いです	-9.69414
固い	-9.6948
的には	-9.69522
なくなる	-9.69546
多く	-9.69566
肌が	-9.69607
娘が	-9.69634
大好きな	-9.6964
実感	-9.69643
頃	-9.69768
良いのですが	-9.69894
ほんとに	-9.69897
ボール	-9.69901
ール	-9.69902
になっている	-9.69925
邪魔	-9.69997
他の商品	-9.70024
言う	-9.70036
してください	-9.70048
お腹	-9.7009
優しい	-9.70108
甘さ	-9.70108
気になります	-9.70158
てしまう	-9.70176
メール便で	-9.70182
ていました	-9.70236
いても	-9.70279
が入って	-9.70289
洋服	-9.70378
さえ	-9.7042
実際は	-9.70506
安かった	-9.70519
ギフト	-9.7056
買ったのですが	-9.70602
問題なし	-9.70662
使い勝手	-9.70692
扱い	-9.70699
こちらも	-9.70707
たまに	-9.70758
わかる	-9.70765
のまま	-9.70782
*	-9.70789
折り	-9.70905
お安い	-9.71075
ストレス	-9.71126
たいです	-9.71133
まとめ買い	-9.71148
にしては	-9.71158
文句	-9.71167
おいしく	-9.71175
を入れ	-9.71179
ありますが	-9.7128
ページ	-9.71289
との事	-9.71388
期間	-9.71411
んですけど	-9.71426
安全	-9.71475
だらけ	-9.71476
お肉	-9.71533
様な	-9.7154
プラ	-9.71649
ずれて	-9.7168
国産	-9.71687
んだけど	-9.71706
このような	-9.71725
さが	-9.71799
親	-9.71819
特	-9.71862
ならない	-9.71901
ダンボール	-9.71908
使いやすさ	-9.71936
するのに	-9.71947
いいかな	-9.71971
頂け	-9.71973
開き	-9.71992
洗って	-9.72033
を買いましたが	-9.72067
緑	-9.72073
昨日	-9.72074
以前から	-9.72131
プリント	-9.72265
キラキラ	-9.72322
作品	-9.72369
ローズ	-9.72398
思っていたよりも	-9.72449
感想	-9.72479
間に	-9.72563
隙間	-9.72586
ともに	-9.72586
ボトル	-9.72594
機会	-9.72652
防止	-9.7271
タイツ	-9.72714
ものです	-9.72788
印刷	-9.72814
来	-9.72818
段ボール	-9.72826
写真の	-9.72911
コンパクトで	-9.72929
Y	-9.72932
すぐに届きました	-9.72944
受け	-9.72972
らしい	-9.72998
際に	-9.73029
友達	-9.73031
同じような	-9.73122
マー	-9.73162
どおり	-9.73164
ないのに	-9.7317
色でした	-9.73207
購入しています	-9.73265
フィット	-9.73296
長め	-9.73314
不良	-9.73321
料理	-9.73401
それと	-9.73433
が付いて	-9.73459
切	-9.73474
軽	-9.73488
フィルム	-9.73491
03	-9.73496
価格が	-9.73532
不安でしたが	-9.73538
傷が	-9.73604
に関しては	-9.73814
雪	-9.73853
ぴったりでした	-9.73924
番号	-9.7394
届くのが	-9.73984
頼んだ	-9.73995
コンパクト	-9.73995
届いたのは	-9.74015
もいい	-9.74072
厚	-9.74182
移動	-9.74205
たく	-9.74206
迷いましたが	-9.74215
初心者	-9.74281
海外	-9.74325
b	-9.74326
転	-9.74377
これまで	-9.74379
試着	-9.74415
なのかな	-9.74416
のメール	-9.74438
感動	-9.74483
普段使い	-9.74504
紫	-9.74511
短く	-9.74511
づらい	-9.74518
にならない	-9.74532
絶対に	-9.74598
口に	-9.74602
形も	-9.74606
捨てました	-9.74684
体に	-9.74685
成	-9.74727
素晴らしい	-9.74753
送	-9.74769
調子	-9.74785
アレルギー	-9.74893
窓	-9.74895
大変でした	-9.74967
リン	-9.75007
棒	-9.75014
煮	-9.75015
はずれ	-9.75015
頂き	-9.75016
いろいろな	-9.75037
梱包も	-9.75051
情報	-9.75129
父	-9.7518
失敗しました	-9.752
かどうか	-9.75233
右	-9.75349
左	-9.75351
ート	-9.75364
格	-9.75373
済み	-9.75375
速	-9.75511
以外	-9.75594
ざ	-9.75599
シーツ	-9.75617
!」	-9.75631
,3	-9.75725
厚さ	-9.7577
送りました	-9.75778
鏡	-9.7583
コード	-9.75849
引き出し	-9.75905
面倒	-9.75939
いませんでした	-9.75953
自分が	-9.75957
してくれる	-9.76231
を購入し	-9.76259
輪	-9.76274
思います	-9.76314
におい	-9.76412
だが	-9.76424
残	-9.76501
面倒なので	-9.76523
については	-9.76554
浮いて	-9.76558
皆さん	-9.76563
出産	-9.76576
写真より	-9.76588
発送が	-9.76596
貼り	-9.76597
に対して	-9.766
伸縮性	-9.76668
届いた商品	-9.76789
のかもしれません	-9.76845
黒の	-9.76933
対応が	-9.76995
行き	-9.76999
喜んでくれました	-9.77034
履き心地	-9.77097
込む	-9.77111
はなく	-9.77121
スープ	-9.77144
試して	-9.77145
砂	-9.77201
おまけの	-9.77209
ずれ	-9.77232
パッド	-9.77263
際	-9.77269
貼って	-9.77282
誕生日	-9.77284
自	-9.77306
泡	-9.77436
とおり	-9.77453
゚	-9.77463
が欲しい	-9.77469
,【	-9.77485
状況	-9.77496
増	-9.77597
変わり	-9.77614
友人に	-9.77653
天板	-9.77685
,1	-9.7778
を選びました	-9.77784
って感じ	-9.77832
お金	-9.7788
ために	-9.77894
曲がって	-9.77941
もうちょっと	-9.77961
気に入ったので	-9.78014
間違って	-9.78084
大好き	-9.78125
昨年	-9.78128
海	-9.78134
ふわふわ	-9.78137
短	-9.78159
きれい	-9.78165
(*	-9.78171
売り	-9.78219
使用しました	-9.78239
は初めて	-9.78289
ファー	-9.78299
多	-9.78346
へのプレゼント	-9.78364
破れて	-9.78369
専用	-9.7837
しゃ	-9.78423
古い	-9.78472
社	-9.78486
事が	-9.78515
かた	-9.78587
数回	-9.78603
入っていて	-9.78645
思ってたより	-9.78648
くれる	-9.78771
方の	-9.7878
なー	-9.78864
中身が	-9.78894
マットレス	-9.78952
送料が	-9.78952
別に	-9.78974
なんですが	-9.78987
をした	-9.78993
使いやすく	-9.79028
センチの	-9.79132
この商品を	-9.79138
を考えて	-9.79154
詐欺	-9.79186
役	-9.79202
切れて	-9.79246
してほしい	-9.79296
強く	-9.79301
香	-9.79331
お店に	-9.79389
壊れて	-9.79397
メーカーの	-9.7953
窮屈	-9.79552
友人	-9.79565
秋	-9.79578
の大きさ	-9.79584
の購入	-9.79624
ピッタリでした	-9.79652
狭い	-9.79689
自然	-9.797
大きかったです	-9.79791
ガッカリです	-9.79792
・・\	-9.79798
シューズ	-9.79926
対応も	-9.79935
45	-9.8
太	-9.80041
余り	-9.80068
失敗した	-9.80073
値段の割に	-9.80119
色落ち	-9.80167
使用しましたが	-9.80172
縦	-9.80225
がありましたが	-9.80235
想像以上に	-9.80274
気になって	-9.80353
300	-9.80359
サイト	-9.80421
出す	-9.80507
男性	-9.80516
歳の	-9.80578
断	-9.80628
ったり	-9.80643
変え	-9.80651
かったので	-9.80685
の中で	-9.80717
力が	-9.80778
ものすごく	-9.8082
色違い	-9.8082
口コミ	-9.80908
`)	-9.80948
屋	-9.80954
事を	-9.81004
すら	-9.81017
詰め	-9.81073
息子	-9.81081
つけた	-9.81162
だな	-9.81205
娘も	-9.81206
ランプ	-9.81247
もらった	-9.81332
立	-9.81358
スター	-9.8142
周り	-9.8147
家で	-9.81508
丈が	-9.81514
の良さ	-9.81529
多い	-9.81583
%	-9.81592
ハズレ	-9.81597
家の	-9.81604
スイッチ	-9.81653
れない	-9.81719
開け	-9.81742
いいもの	-9.8175
千円	-9.81751
を購入したのですが	-9.81759
届きません	-9.81814
ですかね	-9.8184
などに	-9.81859
背中	-9.81878
店頭で	-9.81923
吸	-9.82008
スーパー	-9.82026
肌触り	-9.82163
ほしかった	-9.82169
していますが	-9.82173
はっきり	-9.82181
とこ	-9.8225
剥がれて	-9.82271
向け	-9.82278
入ります	-9.82278
c	-9.82279
による	-9.82295
毎年	-9.82296
楽しく	-9.82299
冷え	-9.82306
具	-9.82309
理由	-9.82329
ミシン	-9.82346
頑張って	-9.82403
いいのに	-9.82406
上手く	-9.8246
性能	-9.82465
小さかった	-9.8249
安いです	-9.82507
きたので	-9.82568
喜んでいました	-9.82568
気に入り	-9.82569
乾き	-9.82571
位置	-9.82597
この値段なら	-9.82632
食感	-9.82646
見る	-9.82651
届かず	-9.82661
っか	-9.82713
ここで	-9.82714
仕方がない	-9.82727
ズレ	-9.82762
極	-9.82777
扉	-9.82779
光沢	-9.8278
涙	-9.82781
にしても	-9.82787
近くの	-9.828
した感じ	-9.82824
ぱ	-9.82892
である	-9.82909
購入したのに	-9.82948
ギリギリ	-9.83033
片方	-9.83062
落ちる	-9.83081
上がって	-9.83091
が楽しみです	-9.83114
使い始めて	-9.83135
とてもいいです	-9.83162
イイ	-9.83183
人気	-9.83208
発色	-9.83214
・・,	-9.83246
大きさは	-9.83283
そういう	-9.83308
必要な	-9.83317
使いました	-9.83355
便	-9.83355
予定です	-9.83364
だったのに	-9.8342
壁	-9.8348
ますね	-9.8349
縫い目が	-9.83516
丁度	-9.83517
可愛かったです	-9.83554
ッシュ	-9.83566
色と	-9.83662
さすが	-9.83675
一人で	-9.83676
ある程度	-9.83699
方も	-9.83762
"	-9.83775
スーツ	-9.83808
防水	-9.83841
安さ	-9.83859
脂	-9.83892
かなと思います	-9.83921
たかった	-9.83974
?」	-9.84012
^^;	-9.84022
すぎず	-9.8405
まった	-9.84054
結婚式	-9.84059
感は	-9.84135
すべき	-9.84137
ネックレス	-9.8418
大きいサイズ	-9.84233
安定	-9.84247
喜んでもらえました	-9.84248
どちらも	-9.8426
日の	-9.84328
たって	-9.84329
ほつれて	-9.84348
それは	-9.84379
の為に	-9.84398
値段は	-9.84422
探していました	-9.84439
成分	-9.84441
していない	-9.84508
版	-9.84562
かんじ	-9.84567
失敗でした	-9.8461
にも関わらず	-9.84691
▁̄	-9.84692
楽天で	-9.84747
かかり	-9.84748
管理	-9.84805
塗装	-9.84806
つくり	-9.8482
と思ってます	-9.84845
選択	-9.84848
カバーを	-9.84911
こちらに	-9.84921
程度の	-9.84942
予備	-9.84949
料	-9.84979
系の	-9.84984
しやすい	-9.84988
ティー	-9.85047
にもかかわらず	-9.85078
連	-9.85084
太もも	-9.85087
32	-9.85127
同梱	-9.85154
にある	-9.8516
合わず	-9.85212
ければ	-9.85225
上下	-9.85287
厚み	-9.85294
机	-9.85334
知	-9.85335
ちょっと残念	-9.854
迅速な対応	-9.85439
タイヤ	-9.85479
なの	-9.85485
依頼	-9.85515
は無い	-9.85531
干し	-9.85534
だけの	-9.85575
損	-9.85595
治	-9.85596
残って	-9.8562
ものより	-9.85664
ではありませんでした	-9.85672
箱に	-9.85721
大切に	-9.85728
柄も	-9.8582
ようと	-9.85824
操作	-9.85835
がありますが	-9.85837
ソフト	-9.85857
はめ	-9.8586
家具	-9.85865
36	-9.85886
売	-9.85922
きません	-9.85943
もち	-9.86004
良さそうです	-9.86005
木の	-9.86029
していたので	-9.86065
保管	-9.86116
始め	-9.86117
当然	-9.86117
さすがに	-9.86119
たところ	-9.86159
使いたい	-9.86227
たぶん	-9.86228
ーン	-9.86244
派手	-9.86301
であれば	-9.86371
親切	-9.86376
はいて	-9.86385
デザインで	-9.86403
大きいです	-9.8643
したいです	-9.86496
スーパーで	-9.86504
蓋	-9.86508
帽子	-9.86514
使ってみて	-9.86561
できませんでした	-9.86592
発送も	-9.86603
遊び	-9.86644
有	-9.86656
モデル	-9.86686
かっこいい	-9.86727
リア	-9.86728
アイボリー	-9.86771
ほしいです	-9.86835
最	-9.8684
シミ	-9.86872
からは	-9.86877
買ってよかった	-9.86896
付く	-9.86902
思って	-9.86941
化粧	-9.86952
ラック	-9.86956
返事	-9.86982
学校	-9.87024
楽です	-9.87033
買ったのに	-9.87072
える	-9.87117
襟	-9.87121
電源	-9.8714
比較	-9.87157
これでは	-9.87198
切って	-9.87232
丈夫	-9.87282
>	-9.87283
艶	-9.87297
明るく	-9.8734
いるのですが	-9.87462
縫い目	-9.87464
と思うので	-9.87464
31	-9.87489
ただの	-9.87563
取れて	-9.87617
リビング	-9.87671
お尻	-9.87688
プロ	-9.87693
ようですが	-9.8772
と思ったら	-9.87721
裾	-9.87742
バン	-9.87767
加	-9.8778
牛	-9.87822
のものを	-9.8784
ビックリしました	-9.87862
こちらの商品は	-9.87866
までは	-9.879
以下	-9.8794
両方	-9.8795
オシャレ	-9.87978
クリスマス	-9.87998
足首	-9.88
ないけど	-9.88007
深	-9.88065
なのは	-9.88077
画像と	-9.88134
生活	-9.88171
ないのですが	-9.88175
送った	-9.88219
オマケ	-9.88227
きれいで	-9.88242
通勤	-9.88259
と比べて	-9.88268
カン	-9.88285
開	-9.88305
消え	-9.8837
シー	-9.88379
送料無料で	-9.88399
抜群	-9.88408
もあって	-9.88408
なくなって	-9.88499
不安です	-9.88572
もありますが	-9.88579
マン	-9.88591
(^-^)	-9.88604
心地	-9.88694
合いませんでした	-9.88744
けっこう	-9.8876
始めて	-9.88781
方に	-9.88786
ネジが	-9.88806
根	-9.88814
やすくて	-9.88838
入っている	-9.8885
言い	-9.88854
スポンジ	-9.88893
寝て	-9.88906
最悪でした	-9.88921
細身	-9.89015
マジックテープ	-9.89041
頂いて	-9.89044
元々	-9.89051
とても満足しています	-9.89071
が多いので	-9.89078
対応は	-9.89147
届くのが楽しみです	-9.89173
が出る	-9.89192
サイド	-9.89205
頂いた	-9.89208
送り	-9.89236
買える	-9.89241
共に	-9.89267
歩き	-9.89292
マシ	-9.89311
屋さん	-9.89331
女	-9.89381
コストパフォーマンス	-9.8942
もったいない	-9.89454
この価格で	-9.89527
`	-9.89541
近	-9.89546
チャ	-9.89615
ないと思います	-9.89632
えて	-9.89656
安っぽいです	-9.89663
折れ	-9.89676
赤ちゃん	-9.89762
疑問	-9.89788
させていただきました	-9.89808
飽き	-9.8987
を考えると	-9.89915
を注文しました	-9.89925
心配でしたが	-9.89954
リュック	-9.89973
辛い	-9.9
漏れ	-9.90006
冷	-9.90011
立て	-9.90026
ようなので	-9.9003
気になりました	-9.90119
主	-9.90128
毛が	-9.90228
-1	-9.90391
ハンガー	-9.90392
カ月	-9.90397
サー	-9.90554
人の	-9.90568
ヨ	-9.90586
手で	-9.90591
お願いします	-9.90598
ですか	-9.90599
ぜひ	-9.90687
日本	-9.90705
と言われ	-9.90732
最初に	-9.90738
勉強	-9.90751
もらえ	-9.90808
無料	-9.90813
シルエット	-9.90821
高め	-9.90828
きましたが	-9.90873
シワ	-9.90906
万	-9.90907
出る	-9.9098
着物	-9.90987
手が	-9.91032
合い	-9.9105
かわ	-9.91071
の下に	-9.91077
ダー	-9.91095
細く	-9.91121
持つ	-9.91212
パット	-9.91233
使いたいと思います	-9.91264
つい	-9.91326
シュ	-9.91412
レビューが	-9.91417
売り切れ	-9.91444
65	-9.91456
嫌な	-9.91475
なぜか	-9.9157
マスク	-9.91571
届けて	-9.91576
ですから	-9.91646
小さいので	-9.91653
ショップに	-9.91655
75	-9.91661
暗い	-9.91698
で使用	-9.9172
甲	-9.91741
悩みましたが	-9.91756
使いましたが	-9.91789
空気	-9.918
想像	-9.91823
違います	-9.91888
ようやく	-9.91891
良いですね	-9.91893
になりそうです	-9.91929
お得です	-9.92034
以前は	-9.92086
水が	-9.92122
の連絡	-9.92198
相当	-9.92213
なもの	-9.92256
写真では	-9.92279
持っている	-9.92338
髪が	-9.9236
それで	-9.92362
レビューに	-9.92368
大きかった	-9.92409
次回	-9.92411
最初の	-9.92423
時には	-9.9247
そこまで	-9.92513
割	-9.92533
の味	-9.92534
観	-9.9254
仕上げ	-9.92553
食事	-9.92575
某	-9.92583
=	-9.92589
けて	-9.92611
低い	-9.92616
薄いです	-9.92653
はちょっと	-9.92677
円の	-9.927
お店の対応は	-9.92718
理解	-9.92725
思いました	-9.92726
仕方なく	-9.92809
みなさん	-9.92855
風味	-9.92862
38	-9.92881
使用している	-9.92906
35	-9.92915
うちに	-9.93006
に置いて	-9.93025
48	-9.93028
100%	-9.93031
塗って	-9.93072
してしまい	-9.93083
お店の対応も	-9.93098
元気	-9.93136
みる	-9.93141
キャスター	-9.93145
コメント	-9.93147
写真を	-9.93154
ザー	-9.93172
去年	-9.93194
持ち運び	-9.93293
ほう	-9.93359
フレーム	-9.93421
さっぱり	-9.93422
良さそう	-9.93437
かなー	-9.93454
本当は	-9.93502
何度	-9.93504
角度	-9.93507
チャック	-9.93518
湯	-9.93543
クラ	-9.93631
凄い	-9.93634
がっかりでした	-9.9364
血	-9.93695
ならず	-9.93705
次回は	-9.93751
期待しています	-9.9379
存在感	-9.93796
取	-9.93806
カバーが	-9.9384
やら	-9.93841
も無く	-9.93869
となりました	-9.93888
サイズを購入	-9.93896
以前に	-9.93897
痛くて	-9.93931
温度	-9.93934
なのが	-9.94038
残念ですが	-9.94069
スタイル	-9.94083
お菓子	-9.94087
はまだ	-9.94104
石鹸	-9.94124
配	-9.94159
04	-9.94163
それも	-9.94183
ピンクの	-9.94191
完成	-9.94212
量が	-9.94247
られました	-9.94256
X	-9.94267
クロ	-9.94271
業者	-9.94299
プラス	-9.94374
のが残念です	-9.94431
不具合	-9.9447
そこそこ	-9.94498
洗剤	-9.94549
わかり	-9.94562
の私には	-9.94609
送られてきた	-9.94613
部分を	-9.94632
&#	-9.94637
日目	-9.94692
思う	-9.94702
という感じ	-9.94767
あまりに	-9.9477
分かりません	-9.94779
市販の	-9.94796
に比べて	-9.94817
形状	-9.94888
しく	-9.94892
送料込みで	-9.94936
パンプス	-9.94977
勝手に	-9.94985
問題ないです	-9.94992
ニット	-9.95014
ゲ	-9.95033
時点で	-9.95074
高いので	-9.95161
真	-9.95176
それぞれ	-9.95192
スムーズに	-9.95194
長持ち	-9.95209
到着して	-9.95252
準備	-9.95261
色んな	-9.95265
作った	-9.95301
いただいた	-9.95314
金具が	-9.95318
色を	-9.95339
小物	-9.95346
ぞ	-9.95387
丁度いい	-9.95387
が全く	-9.95399
一応	-9.95422
いです	-9.95443
選びました	-9.95472
を使用して	-9.95479
が高い	-9.95499
贈りました	-9.9551
購入して良かったです	-9.95524
大きめの	-9.95536
●	-9.95537
歩いて	-9.95561
手を	-9.95617
ので購入しました	-9.95617
キツイ	-9.95628
心配です	-9.95632
ベビー	-9.95691
しま	-9.95704
面白い	-9.95736
分の	-9.95741
天	-9.95778
用途	-9.95857
ヘア	-9.95911
をつけて	-9.95928
x	-9.9598
使っていますが	-9.95981
ふた	-9.96029
おらず	-9.96084
るか	-9.9609
思い切って	-9.96127
分かりませんが	-9.96173
選べる	-9.96177
と比べると	-9.96231
に見えます	-9.96259
化粧水	-9.96262
飲んでいます	-9.96264
通販	-9.96273
ペット	-9.96273
あったので	-9.96345
大変満足しています	-9.96369
24.5	-9.96386
今までは	-9.96391
f	-9.96413
なさそう	-9.96429
可愛いので	-9.96463
探していた	-9.96466
フル	-9.96502
注文し	-9.96505
用に買いました	-9.96508
駄目	-9.96576
せずに	-9.96581
不可	-9.96582
発送も早く	-9.96735
フック	-9.96747
他にも	-9.96774
ポーチ	-9.96847
サンダル	-9.96849
おいて	-9.96859
商品説明	-9.9686
迅速	-9.96893
ライ	-9.96904
忘れ	-9.96914
に戻	-9.96914
できれば	-9.96928
ことも	-9.96932
結	-9.96936
友人の	-9.9695
月に	-9.96985
買って良かった	-9.96989
お祝い	-9.97049
来年	-9.97071
交換して	-9.97089
サイ	-9.97091
値段の割には	-9.97207
ように思います	-9.97233
ぃ	-9.97287
見たら	-9.97331
かつ	-9.97345
家に	-9.97405
スニーカー	-9.97429
使い心地	-9.97452
毛玉	-9.97466
育	-9.97478
外出	-9.97529
縁	-9.97577
やすかったです	-9.97625
小さいです	-9.97694
検討	-9.97715
鉢	-9.97724
なくなった	-9.97728
商品到着	-9.97753
ばかりで	-9.97771
我慢	-9.97809
手元に	-9.97813
ワン	-9.97853
とてもいい	-9.97883
かわいく	-9.97899
寝心地	-9.97928
裏地	-9.9795
良かったと思います	-9.97972
おかしい	-9.98014
喜んでいます	-9.98072
ード	-9.98123
針	-9.98148
横に	-9.98178
バイク	-9.98187
なあ	-9.98212
レビューを参考に	-9.98251
思	-9.98278
の様な	-9.98282
しよう	-9.98285
どんどん	-9.9831
ガーゼ	-9.98315
少しでも	-9.98349
まわり	-9.98363
筆	-9.98457
主人の	-9.98458
脇	-9.98472
をする	-9.9856
購入です	-9.98604
大き目	-9.98608
鍵	-9.9861
締め	-9.98674
しております	-9.98704
なっている	-9.98713
古	-9.98722
完了	-9.9874
あわせ	-9.98759
が入っている	-9.98788
大好きです	-9.98791
減	-9.98797
まして	-9.988
もあるので	-9.98808
ソファー	-9.98826
みたいに	-9.9884
未	-9.98867
来ました	-9.98886
使いにくい	-9.98893
たびに	-9.98898
脱	-9.98934
法	-9.98946
透明	-9.98976
フタ	-9.98996
かなと	-9.99031
価値	-9.99063
を見	-9.99072
してました	-9.9909
信頼	-9.99105
差し	-9.99132
悩み	-9.99167
連絡が	-9.99175
プレゼントしました	-9.99176
少	-9.9918
ジャケット	-9.99202
小ぶり	-9.99215
るのか	-9.9925
みたところ	-9.99266
愛	-9.99288
ヘ	-9.99336
を買った	-9.99343
当	-9.99348
滑り止め	-9.99358
商品で	-9.99359
取れる	-9.9937
丁度良い	-9.99425
期待していた	-9.99457
刺繍	-9.99497
直し	-9.99506
購入したいと思います	-9.99545
は無理	-9.99559
お得な	-9.9962
くれ	-9.99626
限り	-9.99632
シリコン	-9.99649
好	-9.9968
可愛いし	-9.99709
材質	-9.99737
あっという間に	-9.99757
使わ	-9.99807
届いた商品は	-9.99862
パー	-9.99892
壊れ	-9.99982
ガー	-9.99991
缶	-9.99992
購入を	-10.0005
たくない	-10.0009
だけに残念です	-10.0009
定番	-10.0011
こちらを購入しました	-10.0012
と言われました	-10.0013
するのが	-10.0017
個人	-10.0018
用として	-10.0019
まって	-10.0022
もう一つ	-10.0023
関係	-10.0026
セットで	-10.0031
商品が届いて	-10.0033
息子に	-10.0035
づ	-10.0039
もらって	-10.004
期待はずれ	-10.0041
国	-10.0042
が欲しかったので	-10.0043
決めました	-10.0047
やすさ	-10.0053
バッチリ	-10.0054
キレイ	-10.0056
良くて	-10.0059
柔らかくて	-10.0059
オン	-10.0066
変わらない	-10.0069
明	-10.007
商品自体	-10.0072
めっちゃ	-10.0072
綺麗です	-10.0072
それを	-10.0074
圧	-10.0075
縫製が	-10.0078
一切	-10.0081
注文したのに	-10.0084
できた	-10.0086
見た目が	-10.0086
55	-10.0088
とは思いますが	-10.0098
金属	-10.0102
入れる	-10.0107
購入を決めました	-10.0117
),	-10.0119
くれて	-10.0125
草	-10.0127
広	-10.0128
が無く	-10.0131
によっては	-10.0141
くらいで	-10.0142
箱が	-10.0144
図	-10.0145
幅が	-10.0148
痛いです	-10.0152
着心地	-10.0153
ルー	-10.0157
オーダー	-10.0161
を購入した	-10.0163
合わせて	-10.0166
?)	-10.0168
なってしまいました	-10.0168
活躍	-10.017
愛犬	-10.018
書いてある	-10.0184
てる	-10.0187
させていただきます	-10.0187
手触り	-10.0188
色です	-10.0191
説明書が	-10.0191
返品も	-10.0202
まるで	-10.0204
などを	-10.021
140	-10.0211
はありますが	-10.0216
わざわざ	-10.0222
快適	-10.0224
無駄	-10.0229
l	-10.0234
既に	-10.0239
使っていません	-10.024
接着	-10.024
座面	-10.0242
興味	-10.0245
急いで	-10.0252
もう一度	-10.0253
この価格	-10.0255
逆	-10.0255
自分には	-10.0256
させ	-10.0258
の違い	-10.0259
いなかった	-10.0267
クーポン	-10.0268
取っ手	-10.0268
知って	-10.0278
な感じです	-10.0281
様子	-10.0284
の長さ	-10.0287
られません	-10.0287
愛用しています	-10.029
キレイに	-10.0291
TV	-10.0291
重く	-10.0292
取って	-10.0293
履きやすい	-10.0294
スポーツ	-10.0299
ワイヤー	-10.0299
37	-10.0301
してしまった	-10.0303
履いた	-10.0304
保	-10.0308
明日	-10.0309
はしません	-10.0312
が強い	-10.0313
やめ	-10.0324
といった	-10.0324
組み立ては	-10.0325
経	-10.0328
スリム	-10.033
ジュース	-10.033
印鑑	-10.033
変わって	-10.033
機種	-10.0331
生地で	-10.0331
とても気に入っています	-10.0331
室	-10.0332
安いのに	-10.0333
白く	-10.0335
断然	-10.0346
とは思えない	-10.0347
苦手	-10.0347
ほどの	-10.0348
見つけた	-10.0352
こちらのお店	-10.0353
模様	-10.0353
足に	-10.0353
今年は	-10.0359
ブランド	-10.0359
どちら	-10.0363
バンド	-10.0364
お店の方	-10.0368
使用後	-10.0369
つもりです	-10.0369
たけど	-10.0377
粗	-10.0379
返	-10.038
違って	-10.039
2〜3	-10.0392
着けて	-10.0393
ロン	-10.0396
つかない	-10.0398
が悪いのか	-10.0399
痩せ	-10.0406
高かった	-10.0408
収	-10.0409
ありえない	-10.0411
いざ	-10.0414
いつもは	-10.0419
定価	-10.0421
CD	-10.0422
広く	-10.0432
きれいです	-10.0432
途中で	-10.0435
活用	-10.0435
の間	-10.044
部屋の	-10.0441
が好きなので	-10.0445
悪くない	-10.0447
スムーズ	-10.0448
場合は	-10.0448
手持ちの	-10.0455
購入したいです	-10.0455
内側	-10.0457
〜,	-10.0459
使い勝手が	-10.0462
ショップの	-10.0464
&#8252;	-10.047
すこし	-10.0472
プレート	-10.0477
側の	-10.0478
入っていました	-10.048
る事	-10.0481
本体の	-10.0484
レギンス	-10.0486
ヌ	-10.0486
整理	-10.0486
美	-10.0489
しみ	-10.0493
続け	-10.0493
ちゃう	-10.0494
ズボン	-10.0497
確認して	-10.0498
仕事で	-10.05
等の	-10.0502
楽に	-10.0504
居	-10.0507
数日	-10.0508
チョ	-10.0513
お願いしました	-10.0522
はじめ	-10.0526
しっかりして	-10.0527
ちょうど良い	-10.0532
ならば	-10.0538
よかったので	-10.0538
プレゼント用に	-10.0539
れます	-10.0544
してほしいです	-10.0555
夏に	-10.0557
動作	-10.0559
リピします	-10.0563
当方	-10.0565
本当	-10.0568
取付	-10.0572
110	-10.0575
39	-10.0576
キャ	-10.0581
決定	-10.0584
980	-10.0586
には不向き	-10.0589
安定感	-10.059
進	-10.0591
すぐ届きました	-10.0592
迅速で	-10.0594
孫	-10.0597
みよう	-10.0597
ベスト	-10.0599
経って	-10.06
ml	-10.0607
になっていて	-10.0608
球	-10.0611
厳しい	-10.0613
柄の	-10.0613
パワー	-10.0613
柄は	-10.0614
返品交換	-10.0618
つで	-10.0622
このショップ	-10.0622
探し	-10.0625
散	-10.0626
盛り	-10.0633
車の	-10.0633
歩く	-10.0634
代わりに	-10.0636
なるので	-10.064
来ない	-10.0641
抜き	-10.0643
ソックス	-10.0645
ぽ	-10.0645
丁寧な	-10.0652
の量	-10.0654
サイズを購入しました	-10.0656
商品だと思います	-10.0658
聞いて	-10.0658
運動	-10.066
本物	-10.0669
水分	-10.0672
大事に	-10.0674
件	-10.0676
認識	-10.0676
アンダー	-10.0677
学	-10.0683
だと思いますが	-10.0687
度に	-10.0688
ファスナーが	-10.0693
通常の	-10.0697
高いです	-10.0698
部分も	-10.0702
が好きな	-10.0704
リピはないです	-10.0706
梅	-10.0707
ダウン	-10.0709
手軽に	-10.0717
が出	-10.0718
ワンサイズ	-10.0719
ラメ	-10.0726
アレンジ	-10.0726
まだ届きません	-10.0738
飛び	-10.0738
反	-10.074
ツルツル	-10.0741
いくつか	-10.0741
で良かったです	-10.0749
運	-10.0751
のようです	-10.0752
週	-10.0754
ジャ	-10.0755
誤	-10.0756
すみません	-10.0758
の上	-10.0759
良し	-10.076
とり	-10.0761
カワイイ	-10.0762
こちらから	-10.0763
はないです	-10.0764
メイン	-10.0764
は初めてです	-10.0765
ひも	-10.0766
あの	-10.0768
予想以上に	-10.0769
トリートメント	-10.0773
もっと早く	-10.0781
四	-10.0783
小さかったです	-10.0785
妊娠	-10.0785
おまけに	-10.0788
癖	-10.0789
開閉	-10.079
ヘッド	-10.079
期待を込めて	-10.079
それなりに	-10.079
期	-10.0791
・・・・・	-10.0792
なくなったら	-10.0794
42	-10.08
ごろ	-10.0803
丈も	-10.0804
声	-10.0804
出来ます	-10.0806
のために購入しました	-10.0807
伸びて	-10.0811
色味	-10.0811
袋に	-10.0812
は良い	-10.0812
水着	-10.0816
る感じ	-10.0816
頼まれて	-10.0818
になったので	-10.0819
の際	-10.082
慣れ	-10.0821
お気に入りの	-10.0822
ピー	-10.0822
なども	-10.0822
サイズ感	-10.0826
お買い物	-10.0828
集	-10.0829
されていて	-10.0833
フォ	-10.0834
灯	-10.0835
バラバラ	-10.084
外れて	-10.084
を受け	-10.0845
洗う	-10.0858
参考に	-10.0859
悪いです	-10.0859
適	-10.0868
蓋が	-10.0869
この店	-10.087
香りは	-10.087
出来た	-10.0874
なんとなく	-10.0876
ミルク	-10.0878
クリップ	-10.088
物に	-10.0881
オフ	-10.0884
捨て	-10.0885
以上に	-10.0887
よね	-10.0887
あると	-10.0887
使うと	-10.0888
良い商品	-10.0894
カーキ	-10.0896
たた	-10.0897
素材も	-10.0898
はある	-10.09
彼	-10.0903
拭き	-10.0903
チープ	-10.0904
するのは	-10.0905
んですね	-10.0909
したが	-10.091
脱げ	-10.0912
乗り	-10.0919
たのに	-10.092
ガッカリしました	-10.092
-02	-10.0921
メイク	-10.0921
訳	-10.0926
工夫	-10.0932
取り付けて	-10.0934
友達の	-10.0935
が少ない	-10.0936
ありましたが	-10.0938
かかった	-10.094
甘み	-10.094
水を	-10.0947
が欲しかった	-10.095
こちらで購入	-10.0955
メールを	-10.0965
でとても	-10.0965
早かった	-10.0966
お湯	-10.0968
Д	-10.097
発送は	-10.0973
腰痛	-10.0974
-03	-10.0975
のでしょうが	-10.0977
める	-10.0979
卵	-10.0986
綺麗で	-10.0988
到着した	-10.0989
つける	-10.099
になると	-10.1007
何回か	-10.1016
が少なく	-10.1016
辛	-10.1018
マッサージ	-10.1019
モデルさん	-10.1021
万円	-10.1021
.0	-10.1021
きり	-10.1022
歩	-10.1025
張	-10.1029
状	-10.1029
以外は	-10.1035
五	-10.1036
るような	-10.104
満	-10.1041
マグネット	-10.1043
自体	-10.1044
感謝	-10.1045
レザー	-10.1045
感じは	-10.1046
丁寧で	-10.1049
会社の	-10.1051
ぴ	-10.1052
肝心の	-10.1052
保護	-10.1054
余	-10.1054
他社の	-10.1059
今までの	-10.1062
りません	-10.1063
ごと	-10.1063
ラー	-10.1069
とても可愛いです	-10.1073
ていた	-10.1074
オー	-10.1078
おやつ	-10.1079
変わらず	-10.1085
ボックス	-10.1085
▽	-10.1086
紹介	-10.1089
ッチ	-10.1095
ムラ	-10.1099
ネック	-10.1104
間違えて	-10.1105
固め	-10.1107
今度	-10.1107
選び	-10.1112
-01	-10.1115
っていう	-10.1115
(;	-10.1118
貼る	-10.1121
お客様	-10.1122
取り寄せ	-10.1123
手作り	-10.1123
ーム	-10.1123
今まで使っていた	-10.1125
レー	-10.1129
くれました	-10.1129
、、、,	-10.1136
てます	-10.1138
初めて購入しました	-10.1141
と違う	-10.1148
カレー	-10.1149
縮	-10.1149
良いので	-10.1151
口が	-10.1152
甘く	-10.1156
記入	-10.1157
感触	-10.1161
買えて	-10.1162
ブカブカ	-10.117
安かろう悪かろう	-10.117
少し大きめ	-10.1171
造り	-10.1173
所に	-10.1173
カバン	-10.1174
重たい	-10.1178
と一緒に購入しました	-10.118
まだまだ	-10.1181
検討中です	-10.1182
お金を	-10.1182
したもの	-10.1186
次第	-10.1187
チーズ	-10.1187
こんなもの	-10.1189
フローリング	-10.1203
お弁当	-10.1204
にぴったり	-10.1205
上部	-10.1207
だけでなく	-10.1208
書いた	-10.1213
意	-10.1213
ところで	-10.1214
利	-10.1215
ちょ	-10.1216
戻	-10.1219
生地が薄い	-10.1219
良い買い物	-10.1222
わかって	-10.1225
いや	-10.1225
これも	-10.1226
為に	-10.1227
かと思いましたが	-10.1228
スプーン	-10.1237
飲んだ	-10.1238
まらない	-10.1241
負担	-10.1244
辺り	-10.1248
原	-10.1248
製造	-10.1248
とても満足です	-10.1251
01	-10.1252
瓶	-10.1254
泊	-10.1254
ニー	-10.1256
着れない	-10.1262
価格で	-10.1262
にします	-10.1267
はわかりませんが	-10.127
用品	-10.1271
トラブル	-10.1271
(^_^;)	-10.1272
赤い	-10.1272
使い勝手は	-10.1274
と書いて	-10.1275
漬け	-10.1279
が大変	-10.1281
組	-10.1282
送料込み	-10.1283
ける	-10.1284
シーズン	-10.1287
さんに	-10.1288
こない	-10.1289
ダブル	-10.1293
くなって	-10.1293
させて頂きます	-10.1298
レン	-10.1299
ップ	-10.1304
移	-10.1304
ヒップ	-10.1306
バスト	-10.1306
到着まで	-10.131
温	-10.1311
微妙に	-10.1312
破れ	-10.1313
-04	-10.1317
を作る	-10.1318
一ヶ月	-10.1318
産後	-10.1318
続き	-10.1319
目的	-10.132
コンタクト	-10.1321
痛く	-10.1329
02	-10.1333
皮が	-10.134
保育園	-10.134
おく	-10.1343
植え	-10.1344
2000	-10.1346
裏側	-10.1358
感じがしました	-10.1358
度と	-10.1359
おりました	-10.1361
たの	-10.1365
自宅	-10.1367
プリ	-10.1368
られます	-10.137
非常に残念です	-10.1372
ないかな	-10.1372
めちゃくちゃ	-10.1374
こちらを購入	-10.1374
ナー	-10.1374
洗濯機	-10.138
それなり	-10.138
素材は	-10.1384
半額	-10.1389
もあります	-10.139
コットン	-10.1391
ふかふか	-10.1391
を探していたので	-10.1392
というのが	-10.1393
子供たち	-10.1394
食いつき	-10.1395
書かれて	-10.1399
薄さ	-10.14
素材で	-10.1401
後日	-10.1405
いいな	-10.1405
ックス	-10.1405
各	-10.1408
も同じ	-10.1409
USB	-10.1409
はなかなか	-10.1409
以前の	-10.1411
ドア	-10.1412
乗って	-10.1415
HP	-10.1421
高い買い物	-10.1422
スタンド	-10.1426
中です	-10.1427
で購入した	-10.1432
日後に	-10.1432
を送って	-10.1436
母の	-10.1439
の味が	-10.1441
二人	-10.1441
ふんわり	-10.1443
気軽に	-10.1443
崩れ	-10.1445
ところに	-10.1447
無地	-10.1448
購入します	-10.1449
重量	-10.1449
たった	-10.145
日間	-10.145
言葉	-10.1455
取れました	-10.1458
うれしい	-10.1462
デスク	-10.1464
物足りない	-10.1464
また機会があれば	-10.1471
筋	-10.1475
暖かいです	-10.1475
調べて	-10.1476
ステンレス	-10.1477
授乳	-10.1478
と思っていたのですが	-10.1479
画像通り	-10.148
なったので	-10.1485
クロス	-10.1488
感覚	-10.1488
になっています	-10.1493
そのもの	-10.1493
に使用	-10.1494
水槽	-10.1495
のサイズ	-10.1496
発売	-10.1499
届いたら	-10.1499
に出	-10.1504
さに	-10.1506
処分	-10.1506
ファ	-10.1506
遠	-10.1507
女の子	-10.1511
05	-10.1515
アー	-10.152
内側の	-10.1521
の注文	-10.1525
慣れて	-10.1529
フェ	-10.1534
ために購入しました	-10.1536
-05	-10.1536
一年	-10.1539
胸の	-10.154
こちらが	-10.1541
紐が	-10.1542
ケア	-10.1545
ブル	-10.1546
経過	-10.1547
電球	-10.1548
閉じ	-10.1548
汚れて	-10.1548
ハンドル	-10.1549
頼みました	-10.155
量も	-10.1551
まぁまぁ	-10.1554
するか	-10.1554
程度で	-10.1555
のレビュー	-10.1556
吸い	-10.1559
高さが	-10.1559
一目惚れ	-10.1559
読む	-10.1566
値段なり	-10.1567
買い物でした	-10.1575
ると思います	-10.1577
を確認	-10.1577
センチで	-10.1584
れません	-10.1586
締め付け	-10.1588
冊	-10.159
☆2	-10.1592
好きの	-10.1592
不便	-10.1596
お安いので	-10.1597
胸が	-10.1599
07	-10.1601
あげて	-10.1606
恥ずかしい	-10.1609
共	-10.1615
刺激	-10.1617
どれ	-10.1622
いか	-10.1628
安価で	-10.1629
用意	-10.1629
ハン	-10.163
自動	-10.1636
分かり	-10.1637
丁寧な対応	-10.1638
こちらのお店で	-10.1638
ものなので	-10.1641
毛布	-10.1642
良い感じです	-10.1644
の靴	-10.1644
丁寧	-10.1645
欲しかったです	-10.1647
編	-10.165
入った	-10.1651
いいので	-10.1652
正規品	-10.1658
で購入しましたが	-10.1659
美味しくて	-10.1662
いるのか	-10.1663
付けた	-10.1665
お洒落	-10.1666
回転	-10.1667
皮膚	-10.167
なんと	-10.1674
くと	-10.1678
中身は	-10.1679
装	-10.1679
座って	-10.1683
座	-10.1686
事に	-10.1687
しわ	-10.1688
チクチク	-10.169
安価	-10.169
前後	-10.1691
があったら	-10.1691
の際に	-10.1692
なりません	-10.1695
の高さ	-10.1698
厚い	-10.1703
変わった	-10.1706
ないか	-10.1709
母の日	-10.1709
できそうです	-10.1717
行く	-10.1718
バス	-10.172
ティッシュ	-10.1725
を見ると	-10.1726
含め	-10.1726
解凍	-10.1729
タイト	-10.1731
安いから仕方ない	-10.1731
買ったので	-10.1733
サイズに	-10.1735
値段で	-10.1737
53	-10.1739
つに	-10.174
接着剤	-10.174
カジュアル	-10.1741
これに	-10.1745
っこ	-10.1749
納期	-10.1749
を使う	-10.1753
の良い	-10.1759
※	-10.1759
ビー	-10.1759
返答	-10.176
勘違い	-10.176
重視	-10.1761
贈り物	-10.1764
いたのに	-10.1765
丈は	-10.1768
イス	-10.1778
正解でした	-10.1783
無事	-10.1789
感じる	-10.179
いう	-10.1791
リモコン	-10.1795
-07	-10.1795
高くても	-10.1796
インチ	-10.1804
ないため	-10.1805
しなくて	-10.1806
っぱなし	-10.1808
(*^_^*)	-10.1813
バリ	-10.1814
大丈夫です	-10.1814
なしで	-10.1815
到着後	-10.1816
色々と	-10.1817
るのも	-10.182
ホームセンター	-10.1821
目立ちます	-10.1826
キャメル	-10.1831
使えそう	-10.1831
過ぎる	-10.1834
何回も	-10.1845
させる	-10.1846
検索	-10.1847
まさか	-10.1848
が弱い	-10.1848
ビーズ	-10.1851
遅れ	-10.1855
ただし	-10.1857
おいしかった	-10.1858
焼け	-10.1859
使用していますが	-10.186
〜\	-10.186
アウトレット	-10.1861
引っ越し	-10.1868
内に	-10.1873
現物	-10.1876
あっても	-10.1876
溶け	-10.1877
真っ白	-10.1878
47	-10.1878
だと思う	-10.1881
打	-10.1883
履き心地は	-10.1892
かわいいので	-10.1896
特別	-10.1896
何の	-10.1897
取り外し	-10.1897
男	-10.1898
すぎます	-10.1898
ろう	-10.1899
一度も	-10.19
いれ	-10.19
大きすぎて	-10.1902
ゎ	-10.1904
〓	-10.1904
を作って	-10.1909
母が	-10.1911
当日	-10.1913
が悪かった	-10.1913
地味	-10.1917
手袋	-10.1918
ついでに	-10.1924
誕生日プレゼント	-10.1925
で買った	-10.1928
丈夫そう	-10.1929
がいいです	-10.1933
06	-10.1935
写真通り	-10.1936
主人が	-10.1939
十分です	-10.1943
喜ばれました	-10.1944
重宝	-10.1946
おき	-10.1951
粗悪品	-10.1951
連絡も	-10.1955
息子が	-10.1955
始末	-10.1958
フライパン	-10.1959
返金	-10.1959
求め	-10.1961
食べました	-10.1961
切り替え	-10.1968
試しましたが	-10.1968
自分は	-10.1969
も良い	-10.1972
かき	-10.1972
んー	-10.1974
ボード	-10.1978
小分け	-10.1978
用に購入しましたが	-10.198
を使っていましたが	-10.198
ケースが	-10.1985
途中	-10.1996
主人	-10.1996
ハート	-10.1997
出し入れ	-10.1999
我が家では	-10.1999
ショップさん	-10.2004
分かる	-10.2005
電気	-10.201
表面	-10.2011
43	-10.2011
しっかりしている	-10.2017
上から	-10.2017
クオリティ	-10.2018
やすいので	-10.2019
ずらい	-10.2022
の時	-10.2024
買わ	-10.2027
製の	-10.2027
付ける	-10.203
防	-10.2039
自体が	-10.2047
易い	-10.2048
63	-10.2052
組み立てて	-10.2053
カル	-10.2053
店舗で	-10.2057
苦	-10.2061
好評でした	-10.2065
早	-10.2066
背もたれ	-10.2068
跡	-10.2069
追加で	-10.207
硬くて	-10.207
もう買いません	-10.2075
取れない	-10.2077
大きいので	-10.2077
品物は	-10.2077
と合わせて	-10.2078
長さも	-10.208
っていて	-10.2081
の方に	-10.2084
股	-10.2084
食べたい	-10.2085
のび	-10.2086
000	-10.2088
使用感は	-10.2094
履け	-10.2094
長さが	-10.2095
サプリ	-10.2095
ちょうど良かったです	-10.2097
過	-10.2102
んでしょうか	-10.2104
ベランダ	-10.2105
誕生日に	-10.2107
メッシュ	-10.2107
安心しました	-10.2108
さま	-10.2108
行って	-10.2108
いいか	-10.2111
純正品	-10.2116
になってしまい	-10.2117
取り出し	-10.2117
させて頂きました	-10.2122
重宝しそうです	-10.2124
しろ	-10.2125
被	-10.2126
想像していた	-10.2126
78	-10.2127
もらいました	-10.2133
種類の	-10.2134
夕方	-10.2135
末	-10.2136
デニム	-10.2142
があまり	-10.2146
電話で	-10.2146
薄手	-10.2147
家族で	-10.2147
すと	-10.2148
95	-10.2149
こちらの商品を	-10.2153
状態でした	-10.2154
その点	-10.2156
固	-10.2159
3000	-10.2163
買いません	-10.2166
な感じで	-10.2169
気持ちいいです	-10.2171
十	-10.2171
今後も	-10.2175
信用	-10.2175
上品な	-10.2175
欠け	-10.2179
やつ	-10.218
靴は	-10.218
今から	-10.2181
つつ	-10.2181
書く	-10.2183
品質は	-10.2183
に購入	-10.2188
大量に	-10.2191
太め	-10.2191
なんだ	-10.2199
閉め	-10.22
高級	-10.2203
履ける	-10.2211
が大きく	-10.2214
ではなかった	-10.222
かぶれ	-10.2225
だと思い	-10.2225
思わず	-10.2225
同様	-10.2226
捨てる	-10.2228
全然違う	-10.223
使えるので	-10.223
ところです	-10.223
画像の	-10.2231
位の	-10.2247
メールが	-10.2252
構造	-10.2254
レシピ	-10.2254
親戚	-10.2254
いただいて	-10.2256
履くと	-10.2259
こちらのショップ	-10.2262
実物を見て	-10.2265
姉	-10.227
頼まれ	-10.2278
判	-10.2278
このサイズ	-10.2279
にしか	-10.2282
いなかったので	-10.2286
教えて	-10.2289
のに残念です	-10.229
記念	-10.2292
ショーツ	-10.2292
バター	-10.2298
感激	-10.2304
というのは	-10.2304
失	-10.231
非	-10.231
イベント	-10.2311
込	-10.2317
素人	-10.2321
作る	-10.2323
の香りが	-10.2323
内容は	-10.2325
ユ	-10.2329
出来ず	-10.233
軽いので	-10.233
入っていた	-10.2331
改良	-10.2333
かわいいし	-10.2334
かず	-10.2335
こちらのショップで	-10.2338
購入させていただきました	-10.2339
時間も	-10.234
置	-10.234
がすごく	-10.2342
ノー	-10.2347
デカ	-10.2348
のうち	-10.2348
才	-10.2348
汚い	-10.2352
時も	-10.2358
ここの	-10.2358
ジャストサイズ	-10.2366
用で	-10.2366
田	-10.2367
終わり	-10.2368
細かく	-10.2369
髪の毛	-10.2371
が気になる	-10.2371
室内	-10.2374
グラ	-10.2375
汚	-10.2375
両	-10.2379
使い始め	-10.2382
素材の	-10.2384
リピーターです	-10.2387
年齢	-10.2387
着れる	-10.2388
使用します	-10.2389
グラム	-10.2389
せい	-10.239
間違え	-10.239
次回も	-10.239
そこ	-10.239
るもの	-10.239
-06	-10.2392
プレゼント用	-10.2397
コツ	-10.2397
野	-10.2405
フィルター	-10.2405
遅く	-10.2409
かなりの	-10.2413
の部分	-10.2413
こっち	-10.2414
外で	-10.2415
一緒	-10.2415
つぶ	-10.2417
他の方のレビュー	-10.2418
食べています	-10.2419
買えばよかった	-10.2419
編み	-10.2427
購入したが	-10.2429
ないですね	-10.2432
コスト	-10.2434
使うのが楽しみです	-10.2435
気持ちよく	-10.244
かさ	-10.2444
時間がかかる	-10.2447
気をつけ	-10.2448
ストーン	-10.2448
ゼ	-10.2451
割り	-10.2453
して欲しい	-10.2454
来る	-10.2455
ホントに	-10.2456
アル	-10.246
ショルダー	-10.2463
ほんと	-10.2463
ベット	-10.2465
その分	-10.2465
ワンコ	-10.247
短め	-10.2472
ができ	-10.2473
子どもの	-10.2474
ドット	-10.248
保証	-10.2481
匂いも	-10.2481
入りました	-10.2482
ヶ月で	-10.2483
子供用	-10.2486
しにくい	-10.249
かわいいけど	-10.2492
かかと	-10.2492
音は	-10.2495
汁	-10.2496
ていて	-10.2498
大きさが	-10.2501
歌	-10.2501
として購入	-10.2502
着れません	-10.2503
新しく	-10.2504
のかなぁ	-10.2506
楽しみにしています	-10.2506
配線	-10.2507
だけなので	-10.2512
同時に	-10.2514
久しぶりに	-10.2519
を注文	-10.252
完璧	-10.252
しっくり	-10.252
よろしくお願いします	-10.2521
格好	-10.2521
あると思います	-10.2523
使用し	-10.2525
ホームセンターで	-10.2525
薄いので	-10.2526
休み	-10.2527
くっついて	-10.253
リピは	-10.2531
皿	-10.2532
それから	-10.2537
独特の	-10.254
振り	-10.2548
いるのに	-10.2548
69	-10.2549
買います	-10.2553
甘	-10.2554
下がって	-10.2554
作りも	-10.2555
簡単でした	-10.2556
していたのですが	-10.2556
厚く	-10.2557
ができました	-10.2559
夏の	-10.2559
折	-10.2559
もう一	-10.2573
J	-10.2579
芯	-10.2579
しっかりとした	-10.2581
のではないでしょうか	-10.2581
私的には	-10.2582
意見	-10.2582
かり	-10.2582
子供は	-10.2585
に入って	-10.2586
主人に	-10.259
可愛かった	-10.2592
が良かったので	-10.2593
気味	-10.2595
の購入です	-10.2596
姿	-10.2598
使いやすそうです	-10.2603
わりに	-10.2605
品切れ	-10.2605
いつもの	-10.2606
乳	-10.2606
こちらの方が	-10.261
内側に	-10.2614
ロゴ	-10.2616
前回は	-10.2618
に見える	-10.2618
深い	-10.2618
使い捨て	-10.2619
くれます	-10.262
中敷き	-10.2623
っち	-10.2623
アリ	-10.2628
よさそう	-10.2628
お試しで	-10.2632
業	-10.2632
さんで	-10.2636
ネイル	-10.2636
ベタベタ	-10.2637
クレーム	-10.2637
とてもよかったです	-10.2638
硬さ	-10.2642
型の	-10.2644
食品	-10.2645
お出かけ	-10.2647
かと思い	-10.2648
商品届きました	-10.2648
にて	-10.2651
連絡を	-10.2652
の娘に	-10.2653
商品と	-10.2654
と違い	-10.2655
庭	-10.2655
飲みやすい	-10.2657
したくて	-10.2657
うち	-10.266
h	-10.266
ポスト	-10.2661
そのうち	-10.2662
賞味期限	-10.2664
複数	-10.2666
のかも	-10.2667
していただき	-10.267
破	-10.267
分け	-10.2671
寸法	-10.2671
相	-10.2672
良い感じ	-10.2674
をしました	-10.2679
も一緒に	-10.268
このお店	-10.2682
見かけ	-10.2686
49	-10.2687
ができて	-10.2691
うどん	-10.2695
可愛らしい	-10.27
いらない	-10.27
ダークブラウン	-10.2701
インテリア	-10.2704
年末	-10.2709
キュ	-10.2711
いい香り	-10.2712
よさそうです	-10.2712
なと思いました	-10.2713
ュ	-10.2715
さほど	-10.2715
枠	-10.2715
1.	-10.2716
泡立ち	-10.2716
食器	-10.2718
プール	-10.2718
現	-10.2718
むしろ	-10.2718
だけでも	-10.272
がたくさん	-10.2726
ないですが	-10.2735
温かい	-10.2736
貼れ	-10.2741
可愛いけど	-10.2741
使用してます	-10.2746
つかって	-10.2753
もらえる	-10.2753
メガネ	-10.2755
お手頃	-10.2755
98	-10.2755
76	-10.2755
静か	-10.2757
きつくて	-10.2757
購入したもの	-10.2757
不要	-10.2758
娘は	-10.2761
130	-10.2762
もしっかり	-10.2762
はいい	-10.2764
範囲	-10.2769
☆4	-10.277
実際の	-10.277
つもりで	-10.2772
もので	-10.2772
&#9825;	-10.2775
硬く	-10.2778
匂いは	-10.2779
の状態	-10.2782
ガス	-10.2794
瞬間	-10.2795
決して	-10.2795
みたいと思います	-10.2796
と思われます	-10.2797
自宅で	-10.2799
が好きで	-10.28
読め	-10.28
簡単な	-10.2801
周りの	-10.2803
買ったけど	-10.2807
落とし	-10.2808
状態です	-10.2811
を選んで	-10.2813
芋	-10.2814
向	-10.2815
異	-10.2816
酸味	-10.2819
始めた	-10.2823
使い勝手も	-10.2825
割高	-10.2827
通りの	-10.2828
のせいか	-10.2829
視	-10.2831
染め	-10.2833
つきます	-10.2834
りと	-10.2835
お値段以上	-10.2836
こちらで購入しました	-10.2836
ようと思います	-10.2838
付いた	-10.2842
くなり	-10.2848
かって	-10.2849
対策に	-10.285
目立たない	-10.2853
回答	-10.2853
ふくらはぎ	-10.2854
皆さんのレビュー	-10.2854
><	-10.2855
んだろう	-10.2857
相手	-10.2857
お得感	-10.2858
美味しかったので	-10.2862
部屋着	-10.2864
マイ	-10.2864
おしゃれな	-10.2864
快適です	-10.2864
93	-10.2871
物も	-10.2871
頑丈	-10.2872
機能性	-10.2873
埃	-10.2873
消	-10.2879
可愛さ	-10.2881
ゼロ	-10.2881
引っ	-10.2884
はありませんが	-10.2889
になりません	-10.2892
ショート	-10.2893
手首	-10.2893
煙	-10.2894
お値打ち	-10.2894
購入してよかったです	-10.2899
飲め	-10.29
二重	-10.2901
想像通り	-10.2904
頭が	-10.2906
どうかな	-10.291
それだけ	-10.2915
点は	-10.2917
で使う	-10.2918
外側	-10.2918
はみ出	-10.2919
して欲しいです	-10.2921
感じた	-10.2921
目で	-10.2923
幼稚園	-10.2924
簡単で	-10.2926
外に	-10.293
自分に	-10.293
ではないです	-10.2932
お酒	-10.2932
助かっています	-10.2934
正	-10.2937
はき	-10.2937
大量	-10.2949
肌触りが	-10.2949
フリー	-10.2949
ダーク	-10.2952
安物買いの銭失い	-10.2954
の使用	-10.2954
イメージと	-10.2957
渡	-10.2957
ケット	-10.2957
と思うのですが	-10.2957
ポン	-10.2959
でないと	-10.296
他の方のレビューに	-10.2962
このシリーズ	-10.2962
買えば良かった	-10.2967
購入してみましたが	-10.2974
を発見	-10.2975
困る	-10.2976
履けません	-10.2978
以上の	-10.2979
のみで	-10.298
までに	-10.2982
貼り付け	-10.2983
直して	-10.2987
期待してた	-10.2991
をみて	-10.2991
肩幅	-10.2992
トン	-10.2992
洗浄	-10.2994
酒	-10.2995
革の	-10.2995
テレビで	-10.2997
ちょうどいいです	-10.3002
美味	-10.3003
いきます	-10.3004
親指	-10.3008
とても可愛い	-10.301
58	-10.3014
ちょうどよかったです	-10.3014
上で	-10.3018
着用して	-10.3019
もついて	-10.3024
どころか	-10.3026
・・・。,	-10.3027
...(	-10.3032
入らず	-10.3033
となって	-10.3034
料金	-10.3035
ママ	-10.3037
タイトル	-10.3039
ぺ	-10.3043
混ぜて	-10.3045
ング	-10.3045
組み立てる	-10.3046
のものが	-10.3046
行け	-10.3047
エコ	-10.3047
しないので	-10.305
少しずつ	-10.3051
食べてくれ	-10.3051
良かったかな	-10.3053
不安定	-10.3054
袋が	-10.3055
買うの	-10.3056
違う色	-10.3056
ブリ	-10.3061
少なく	-10.3062
緩	-10.3068
どうか	-10.3071
してくれて	-10.3076
中々	-10.3078
穴が開いて	-10.3079
で満足です	-10.308
外す	-10.308
ポケットが	-10.3084
まさに	-10.3084
ッタ	-10.3084
つにしました	-10.3085
十分な	-10.3086
イマイチでした	-10.309
べき	-10.3093
ベース	-10.3096
お友達	-10.3096
パイプ	-10.3097
甲高	-10.3102
先が	-10.3105
今年	-10.3106
未だに	-10.3108
に比べ	-10.3109
で気に入りました	-10.3111
遅すぎ	-10.3113
大容量	-10.3114
わたし	-10.3115
けば	-10.3117
以降	-10.3117
に比べると	-10.3118
そば	-10.3119
トリ	-10.312
ドライ	-10.3126
利用しました	-10.3129
日にち	-10.3129
ソファ	-10.313
トップス	-10.3131
入りません	-10.3136
刃	-10.3137
ゆる	-10.314
等で	-10.3143
問題ありませんでした	-10.3146
に変更	-10.3151
冷蔵庫	-10.3153
買ってしまいました	-10.3156
もとても	-10.3156
員	-10.3157
ゴワゴワ	-10.3158
の説明	-10.3159
一個	-10.3161
のでしょう	-10.3163
写真で	-10.3163
といい	-10.3163
買い換え	-10.3165
似	-10.3165
アルミ	-10.3165
でしょ	-10.317
側面	-10.3174
雑な	-10.3178
パウダー	-10.3178
'	-10.3178
たため	-10.3179
のが残念	-10.318
レット	-10.319
支え	-10.3191
優	-10.3191
吸収	-10.3191
チン	-10.3194
履けない	-10.3195
跡が	-10.3198
殆ど	-10.3199
危険	-10.3199
思っていた以上に	-10.32
充電器	-10.3204
と思うと	-10.3206
いまいちでした	-10.3207
ようになりました	-10.3214
(?)	-10.3214
水色	-10.3217
動いて	-10.3218
しており	-10.322
普段使いに	-10.3222
バイ	-10.3223
初期不良	-10.3225
するべき	-10.3225
壁に	-10.3226
困りました	-10.3227
私には合いませんでした	-10.3227
場所に	-10.3228
170	-10.3231
洗濯したら	-10.3239
故障	-10.324
他店	-10.3242
▁2	-10.3248
豊富	-10.325
丈夫で	-10.3252
になっていました	-10.3254
今日届きました	-10.3255
あげました	-10.3255
画像より	-10.326
使わせて	-10.3262
たま	-10.3264
77	-10.3264
昔	-10.3268
近い	-10.3271
ポリ	-10.3271
あげる	-10.3273
色合いも	-10.3274
もありましたが	-10.3275
いいかもしれません	-10.3283
期待通り	-10.3284
不明	-10.3287
800	-10.3289
かえ	-10.3292
と思っていたので	-10.3296
物の	-10.3297
コー	-10.3298
申し	-10.3299
事は	-10.3303
男の子	-10.3303
切る	-10.3304
どうしよう	-10.3308
気になりませんでした	-10.3309
調べ	-10.331
梱包が	-10.3311
落として	-10.3312
er	-10.3312
写真とは	-10.3318
ポット	-10.3321
顔が	-10.3323
秒	-10.3323
プチ	-10.3329
入ってました	-10.3332
両親	-10.3334
本日届きました	-10.3335
われ	-10.3339
73	-10.334
利用しています	-10.3341
かい	-10.3341
然	-10.3341
試した	-10.3342
当たり前	-10.3345
安価な	-10.3345
トラ	-10.3346
まくり	-10.3348
注文したのですが	-10.3354
いいですよ	-10.3354
つま先	-10.3355
伸びる	-10.3355
胸元	-10.3359
ボディ	-10.3361
できないので	-10.3364
たかったので	-10.3364
気分です	-10.3367
揃え	-10.3367
韓国	-10.337
使い道	-10.3372
抹茶	-10.3374
安いけど	-10.3374
機会があれば	-10.3376
載って	-10.3379
歩け	-10.338
電話を	-10.338
返品したい	-10.338
諦め	-10.3383
感想は	-10.3386
コーティング	-10.3386
パジャマ	-10.3386
掃除機	-10.3388
ソール	-10.3389
試し	-10.3389
ホット	-10.3389
からも	-10.3394
髪に	-10.3394
ちゃんとした	-10.3395
開封して	-10.3397
満足しております	-10.3398
動く	-10.34
同じもの	-10.3404
注	-10.3405
見つけて	-10.3407
ごめんなさい	-10.3407
美味しさ	-10.3407
改めて	-10.3408
開く	-10.3415
・・。	-10.3417
くさい	-10.3422
フィ	-10.3423
込んだ	-10.3424
大変満足です	-10.3425
のが楽しみです	-10.3429
でよかったです	-10.343
軽量	-10.3432
華やか	-10.3434
果	-10.3434
流れ	-10.3435
評価は	-10.3436
そうに	-10.3437
よくわかりません	-10.3441
結婚式に	-10.3442
なくなってしまいました	-10.3444
に入れ	-10.3444
二度と買いません	-10.3444
送る	-10.3448
パサパサ	-10.345
変わる	-10.345
子どもが	-10.3456
疑	-10.3457
判断	-10.3457
もないので	-10.3458
翌日に	-10.3459
花が	-10.3463
大失敗	-10.3465
選んだ	-10.3466
次の	-10.3467
おそらく	-10.3471
GOOD	-10.3471
運転	-10.3472
額	-10.3472
縫製も	-10.3473
作れ	-10.3475
輝き	-10.3485
購入したい	-10.3485
■	-10.349
期待していましたが	-10.3492
最安値	-10.3492
頻繁に	-10.3492
見栄え	-10.3492
価格は	-10.3492
作りは	-10.3493
どうも	-10.3493
かわいかったです	-10.3495
一人	-10.3496
がひどく	-10.35
履き心地も	-10.3507
,5	-10.3507
しょう	-10.3508
床に	-10.3508
週間ほど	-10.3509
真ん中	-10.3511
座る	-10.3513
未だ	-10.3515
つけられ	-10.3518
返品は	-10.3518
他で	-10.3521
昼	-10.3523
値段も安く	-10.3524
あがり	-10.3525
ちょうどよく	-10.3529
全体	-10.3531
がなかったので	-10.3533
使いやすそう	-10.3534
アロマ	-10.3535
ぅ	-10.3535
なんとも	-10.3535
期待外れ	-10.3535
身体	-10.3537
ミラー	-10.3537
結婚	-10.3545
ウン	-10.3546
やめました	-10.3546
切れる	-10.3551
考えると	-10.3553
小さすぎ	-10.3556
ばっちり	-10.3556
Z	-10.3556
カーペット	-10.3557
ことで	-10.3559
の通り	-10.3559
ないといけない	-10.3559
ませ	-10.3561
原因	-10.3563
83	-10.3567
の仕方	-10.3567
足を	-10.3571
ピンクを購入しました	-10.3573
付いている	-10.3576
ぴったりです	-10.3576
シルク	-10.3577
選んで	-10.3581
さらさら	-10.3581
奥	-10.3587
欠けて	-10.3587
と思い購入しましたが	-10.359
小さいサイズ	-10.3591
が大きい	-10.3593
デザインは可愛い	-10.3594
っても	-10.3596
とてもかわいいです	-10.3598
ゆう	-10.36
キロの	-10.3602
美味しそう	-10.3603
とありますが	-10.3606
いいけど	-10.361
もらい	-10.3611
方がいい	-10.3616
持ち手	-10.3616
方が良い	-10.3617
をかけて	-10.362
夫婦	-10.3621
以外の	-10.3621
してて	-10.3623
洗っても	-10.3623
の感想	-10.3623
繰り返し	-10.3624
起き	-10.3626
雨の日	-10.3627
消費	-10.3627
気持ちいい	-10.3629
デザインの	-10.3631
ないから	-10.3631
妹	-10.3632
一気に	-10.3632
.\	-10.3632
あけ	-10.3632
を見つけ	-10.3638
いい買い物	-10.364
本は	-10.3642
クッキー	-10.3642
固く	-10.3645
雑で	-10.3645
ビス	-10.3647
クリ	-10.365
もいいです	-10.3653
体が	-10.3653
不良品でした	-10.3656
にすればよかった	-10.3661
ルーム	-10.3663
あちこち	-10.3663
とあったので	-10.3664
はっきり言って	-10.3665
隠れる	-10.3668
方向	-10.3671
品です	-10.3673
クリスマスプレゼント	-10.3676
壊れる	-10.368
からか	-10.368
▁^	-10.3681
太って	-10.3684
ぜんぜん	-10.3685
浮き	-10.3688
使ってみました	-10.3689
予想	-10.369
52	-10.3693
のが残念でした	-10.3693
かと思って	-10.3693
微妙な	-10.3694
開ける	-10.3695
大喜び	-10.3697
出来上がり	-10.3701
等は	-10.3702
で届きました	-10.3703
少し大きい	-10.3705
中が	-10.3705
混	-10.3705
ゅ	-10.3707
になったら	-10.3707
固くて	-10.3708
との事で	-10.3717
が気になります	-10.3719
白の	-10.372
ないもの	-10.372
の商品です	-10.3724
もう買わない	-10.3725
メッセージ	-10.3727
網	-10.3729
ボーダー	-10.3729
記	-10.3732
使うので	-10.3738
焼いて	-10.374
必需品	-10.3742
いま	-10.3742
遅れる	-10.3746
違	-10.3748
老	-10.375
劣化	-10.3751
ドライバー	-10.3751
だったため	-10.3751
出産祝い	-10.3752
顔に	-10.3755
かなと思いました	-10.3756
直後	-10.3757
言	-10.3758
中身	-10.3759
年以上	-10.3764
周りが	-10.3766
内祝い	-10.3768
★2	-10.3768
食い	-10.3769
後ろの	-10.3769
本の	-10.3769
チャレンジ	-10.3769
してみましたが	-10.377
納品	-10.3773
素敵でした	-10.3774
れず	-10.3775
シールが	-10.3775
付きで	-10.3775
いきなり	-10.3775
見せ	-10.3782
を注文しましたが	-10.3783
ハード	-10.3784
上品で	-10.3785
れました	-10.3786
放	-10.3787
発生	-10.3788
99	-10.3788
肌触りも	-10.3789
を探してました	-10.3791
週間以上	-10.3792
頃に	-10.3793
ウィッグ	-10.3794
洗った	-10.3795
に使う	-10.38
手続き	-10.38
34	-10.3801
やめて	-10.3804
ちょっと残念でした	-10.3806
回目の	-10.3808
いかない	-10.3811
ぷ	-10.3812
楽しい	-10.3812
お手入れ	-10.3812
鞄	-10.3816
写真は	-10.3816
肌の	-10.3816
撮影	-10.3816
焦げ	-10.3816
減ら	-10.3819
みたのですが	-10.382
出てくる	-10.3821
実は	-10.3821
甘くて	-10.3824
発見	-10.3825
の商品でした	-10.3829
柔らか	-10.3829
歳の息子	-10.383
もかなり	-10.3831
にした	-10.3836
ありがたい	-10.3837
なきゃ	-10.3838
敏感肌	-10.3838
広い	-10.3842
ッド	-10.3846
送料も	-10.3848
もありました	-10.3851
カス	-10.3851
聞き	-10.3855
が弱く	-10.3855
円は	-10.3855
至	-10.386
ていません	-10.3864
意外に	-10.3864
おしゃれで	-10.3872
と違って	-10.3872
の記載	-10.3873
足りない	-10.3873
角が	-10.3874
残る	-10.388
直す	-10.3883
両面テープ	-10.3884
想像より	-10.3887
夏は	-10.3887
この本	-10.3888
バカ	-10.3891
くれた	-10.3892
中は	-10.3892
届いてから	-10.3895
見本	-10.3898
なさそうです	-10.39
買え	-10.3901
すり	-10.3907
最後まで	-10.3908
したけど	-10.3914
この値段は	-10.3914
最近は	-10.3916
育て	-10.3916
するため	-10.3917
ついている	-10.3918
ぐらいの	-10.392
わかります	-10.3921
57	-10.3922
重ねて	-10.3927
表面が	-10.393
位で	-10.3931
ゆとり	-10.3931
つかえ	-10.3932
カッコ	-10.3934
ワンピ	-10.3935
通販で	-10.3936
していません	-10.3939
諦めて	-10.3939
物で	-10.3941
でこの値段は	-10.3945
レビューの	-10.3945
エア	-10.3946
こぼれ	-10.3949
の写真	-10.3951
与え	-10.3953
無理でした	-10.3954
このお値段なら	-10.3956
とれて	-10.3957
基本	-10.3958
髪の	-10.396
はもちろん	-10.3962
高すぎ	-10.3963
まらず	-10.3964
切った	-10.3966
旨	-10.3968
そもそも	-10.397
ストッキング	-10.3971
液晶	-10.3971
抜けて	-10.3972
""	-10.3972
太さ	-10.3973
46	-10.3976
とれ	-10.3976
日も	-10.3977
倒れ	-10.3977
まずい	-10.3982
22.5	-10.3983
寄り	-10.3984
と書いてあったので	-10.3989
子供達	-10.3993
ぶり	-10.3993
なにより	-10.3993
(^_^)	-10.3993
づらく	-10.3994
二枚	-10.3998
円以上	-10.4002
ツヤ	-10.4003
を入れると	-10.4006
画像では	-10.4007
なったら	-10.4012
砂糖	-10.4016
難しく	-10.4017
重ね	-10.4018
小銭入れ	-10.402
と思っていた	-10.402
濃	-10.4023
!!!,	-10.4026
誕生日プレゼントに	-10.4026
使おうと思います	-10.4026
これからは	-10.4027
お店の対応	-10.403
サポート	-10.403
グラス	-10.4031
どこか	-10.4032
望	-10.4037
他社	-10.4039
欠品	-10.404
長財布	-10.4042
時々	-10.4043
してしまう	-10.4043
名入れ	-10.4044
着ると	-10.4046
していただけ	-10.4047
やすかった	-10.4047
食べれ	-10.4053
リピートしました	-10.4054
敷いて	-10.4056
とう	-10.4056
効果がある	-10.4056
クセ	-10.406
なってきたので	-10.406
ぶかぶか	-10.406
という事	-10.4061
皆	-10.4065
この時期	-10.4069
ることができ	-10.407
下げ	-10.4072
知り	-10.4074
たまま	-10.4074
使ってみましたが	-10.4076
天然	-10.408
を感じ	-10.408
なしです	-10.4083
マーク	-10.4083
の部分は	-10.4084
細め	-10.4084
濡れ	-10.4086
立って	-10.4088
感じの	-10.4091
うちは	-10.4097
制	-10.4098
も良いです	-10.4098
意味が	-10.4104
するには	-10.4105
あるのですが	-10.4105
いけない	-10.4105
安いもの	-10.4105
使いやすくて	-10.4106
北海道	-10.4106
鳥	-10.4106
添付	-10.4106
着け	-10.4109
暗く	-10.4115
量は	-10.4116
イメージが	-10.4117
割引	-10.4117
欲しく	-10.4119
貰	-10.4123
に決めました	-10.4124
が低い	-10.4125
率	-10.4128
アイテム	-10.4128
と思い購入	-10.4128
ないのが	-10.413
はほとんど	-10.4133
だけが	-10.4134
使えました	-10.4135
急	-10.4136
の高い	-10.4136
85	-10.4137
に合う	-10.4139
と迷いましたが	-10.4142
文字が	-10.4144
言えば	-10.415
みても	-10.415
花柄	-10.4151
安っぽさ	-10.4151
パネル	-10.4151
調理	-10.4152
期待はずれでした	-10.4152
キレイな	-10.4155
ボタンを	-10.4157
加減	-10.4159
送付	-10.4161
くなる	-10.4162
持て	-10.4162
それ以外は	-10.4162
家族に	-10.4163
怖い	-10.4165
165	-10.4166
レス	-10.4167
されていた	-10.4168
とありましたが	-10.417
ブレスレット	-10.4174
お土産	-10.4174
中央	-10.4174
狭く	-10.4174
ができる	-10.4176
ジャン	-10.4177
センス	-10.4179
あす楽	-10.418
もあまり	-10.4181
をつけ	-10.4183
かん	-10.4183
かと思いました	-10.4184
濃く	-10.4186
程よい	-10.4186
義母	-10.4192
ちょうどよい	-10.4194
物と	-10.4194
プチプチ	-10.4196
予防	-10.4196
何故か	-10.4197
キャッチ	-10.4197
仕切り	-10.4198
打ち	-10.4199
良い物	-10.42
取り扱い	-10.4201
まずは	-10.4202
のだが	-10.4203
▁゚	-10.4203
目を	-10.4203
ってます	-10.4204
靴底	-10.4206
内容が	-10.4206
レビューも	-10.421
はずなのに	-10.4211
2.	-10.4212
均	-10.4213
式の	-10.4215
当て	-10.4218
センター	-10.4219
週間で	-10.4222
形の	-10.4223
出来ませんでした	-10.4228
そうですが	-10.4232
ほうがいい	-10.4232
かす	-10.4233
わない	-10.4234
あまりの	-10.4237
お色	-10.4237
とても便利です	-10.4241
神	-10.4242
限定	-10.4242
変わりません	-10.4242
ころ	-10.4243
対応して	-10.4243
掲載	-10.4244
スク	-10.4246
されていない	-10.4246
込め	-10.4246
使ったら	-10.4248
大きさで	-10.4248
申し訳ない	-10.425
また利用したいと思います	-10.4255
出来るので	-10.4256
個人的に	-10.4259
壊	-10.426
向いて	-10.4261
モン	-10.4262
とても残念でした	-10.4263
放置	-10.4265
菜	-10.4265
プラスチックの	-10.4265
有名	-10.4267
全体に	-10.4267
折れて	-10.4268
キング	-10.4269
かける	-10.4273
付きの	-10.4273
お皿	-10.4274
の長さが	-10.4275
次の日	-10.4278
長すぎ	-10.4278
ラッピングも	-10.4282
わからず	-10.4288
上がる	-10.4288
いるうちに	-10.4289
ごみ	-10.429
して下さい	-10.429
してくれ	-10.4292
っていた	-10.4292
になっても	-10.4294
トー	-10.4294
割と	-10.4295
もうすぐ	-10.4295
ペラペラで	-10.4298
通りに	-10.4304
諦めました	-10.4304
ベル	-10.4304
理	-10.4304
他の色も	-10.4305
何とも	-10.4309
酢	-10.4311
になってしまった	-10.4311
タイプで	-10.4313
チャーム	-10.4313
広がり	-10.4315
軽いです	-10.4318
キン	-10.4326
さらっと	-10.4328
さは	-10.4333
冬は	-10.4336
食べられ	-10.434
店の	-10.4341
期待していたのですが	-10.4342
★4	-10.4343
メン	-10.4343
困って	-10.4344
同じものを	-10.4347
ラク	-10.4348
軽さ	-10.4348
服に	-10.4355
過去	-10.4357
カロリー	-10.4357
ヨーグルト	-10.4357
染み	-10.4362
ナッツ	-10.4363
ゴミ箱	-10.4364
教	-10.4364
留め	-10.4364
我が家は	-10.4364
アイス	-10.4365
ウエストが	-10.4366
選	-10.4366
苦労	-10.4368
ラーメン	-10.4369
ってる	-10.437
無いので	-10.4375
手帳	-10.4375
ものも	-10.4377
裏の	-10.4379
こども	-10.4381
と思ったけど	-10.4381
ので星	-10.4381
つは	-10.4383
飲	-10.4383
お尻が	-10.4383
☆1	-10.4384
ようになって	-10.4387
魅力	-10.4396
しっかりした作りで	-10.4397
飲んでます	-10.4398
発売日	-10.44
する事	-10.4405
出した	-10.4406
部の	-10.4407
を参考に	-10.4411
はしない	-10.4411
に惹かれて	-10.4416
たりして	-10.4416
見つけました	-10.4416
☆5	-10.4418
お肌	-10.4418
大活躍	-10.4419
中古	-10.4425
経験	-10.4427
揚げ	-10.4427
に行って	-10.4432
微妙です	-10.4432
して頂き	-10.4433
になりそう	-10.4435
とのことでした	-10.4437
本体が	-10.4438
か所	-10.4443
クル	-10.4448
長年	-10.4454
落	-10.4456
今回初めて	-10.4456
値段が安いので	-10.4457
64	-10.4459
ミックス	-10.4459
だけあって	-10.446
美味しくない	-10.446
たような	-10.4461
円くらい	-10.4462
はいいのですが	-10.4467
ベルトが	-10.447
入学	-10.4473
ホルダー	-10.4473
入りませんでした	-10.4474
暗	-10.4474
ありがとう	-10.4474
<	-10.4474
といって	-10.4474
じゃないと	-10.4475
馴染んで	-10.4475
歪んで	-10.4475
収納力	-10.4478
完全	-10.448
札	-10.4483
旅行に	-10.4486
軽いし	-10.4487
値段的に	-10.4487
そうと	-10.4491
くるので	-10.4493
タイプを	-10.4496
アクセサリー	-10.4498
当初	-10.4499
なんでしょうか	-10.4499
ゆるい	-10.45
しやすく	-10.45
隙間が	-10.45
人間	-10.4501
の下	-10.4502
買った方が	-10.4503
使い方が	-10.4507
方を	-10.4511
眠	-10.4514
購入してしまいました	-10.4516
急遽	-10.4521
よかったかな	-10.4523
客	-10.4527
色合いが	-10.453
してみると	-10.453
すき	-10.4531
帰って	-10.454
気をつけて	-10.454
敷き	-10.4541
枚で	-10.4542
カバーの	-10.4542
ときの	-10.4543
ショ	-10.4543
請求	-10.4544
踵	-10.4544
便秘	-10.4545
静電気	-10.4545
グリップ	-10.4546
62	-10.4551
デザインと	-10.4553
満足度	-10.4554
伝え	-10.4555
重み	-10.4559
シングル	-10.456
誰	-10.4561
思ってた	-10.4561
多少の	-10.4564
は本当に	-10.4567
ゃ	-10.4577
158	-10.458
送料を	-10.4583
紺	-10.4584
を選択	-10.4585
しっかりした作り	-10.4586
歳の娘	-10.4588
粘着	-10.4588
ことができました	-10.4591
コンセント	-10.4592
カラコン	-10.4592
グル	-10.4601
しっかりしているので	-10.4601
にかけて	-10.4601
67	-10.4606
を取り	-10.4607
出番	-10.4607
期限	-10.4607
のであれば	-10.461
使用していた	-10.4611
またリピします	-10.4614
¥	-10.4615
英語	-10.4616
取る	-10.4616
雑誌	-10.4617
つきました	-10.4617
暖かさ	-10.4618
除	-10.4621
質が	-10.4622
刺	-10.4624
につけて	-10.4624
見られ	-10.4624
ダイヤ	-10.4633
味噌	-10.4639
ラベンダー	-10.4639
満足しました	-10.4641
的にも	-10.4641
バスタオル	-10.4641
回目の購入です	-10.4642
易	-10.4643
感じませんでした	-10.4646
浅い	-10.4647
レビューが良かったので	-10.4648
を想像して	-10.465
合皮	-10.4651
太く	-10.4651
商品には	-10.4652
屋さんで	-10.4653
洗える	-10.4654
に届きました	-10.4656
後悔しています	-10.4657
売ってる	-10.4658
トロ	-10.4659
1.5	-10.466
責任	-10.4662
姿勢	-10.4663
&#8252;&#65038;	-10.4663
家庭	-10.4665
注文する	-10.4667
今年の	-10.467
が出来て	-10.4671
を使った	-10.4672
しょ	-10.4674
を買い	-10.4675
着せ	-10.4678
同時購入	-10.468
使用していません	-10.4684
まわ	-10.4685
美容	-10.4686
気がする	-10.4687
標準	-10.4687
簡単です	-10.4687
部屋が	-10.469
体調	-10.4691
千	-10.4691
発送まで	-10.4698
友達に	-10.4699
ダンス	-10.47
分も	-10.4702
普段着	-10.4703
レール	-10.4703
何だか	-10.4705
商品が届き	-10.4708
色合いで	-10.4709
事前に	-10.471
豚	-10.4711
浸	-10.4711
だんだん	-10.4711
謝罪	-10.4711
値段の割りに	-10.4712
だけです	-10.4715
配送も	-10.4716
でなく	-10.4722
連絡して	-10.4722
ちゃいました	-10.4727
いき	-10.4728
乾く	-10.4728
鉄	-10.4731
とても助かりました	-10.4732
ニキビ	-10.4735
だったり	-10.4736
レモン	-10.4739
書かれている	-10.4742
が入っていて	-10.4743
底が	-10.4743
湿気	-10.4744
こんなもん	-10.4746
物でした	-10.475
スーツケース	-10.4757
んと	-10.4758
ミント	-10.4759
日本語	-10.4759
抱っこ	-10.4759
д	-10.4759
引越し	-10.476
いただきたい	-10.476
ガタガタ	-10.476
されていました	-10.4761
74	-10.4761
手配	-10.4763
急に	-10.4764
チェア	-10.4765
ラベル	-10.4765
でしょうが	-10.4771
お腹が	-10.4771
マチ	-10.4774
収まり	-10.4775
が欲しかったのですが	-10.4776
仕事用に	-10.4778
持	-10.4779
売っている	-10.4781
のものは	-10.4781
楽しめ	-10.4783
全く違う	-10.4784
重宝してます	-10.4785
しなかった	-10.4785
にすれば良かった	-10.4786
しなければ	-10.4789
こんなの	-10.479
ハム	-10.4791
ところは	-10.4792
が苦手な	-10.4795
使用でき	-10.4796
洗顔	-10.4796
もん	-10.4796
感じません	-10.4796
を希望	-10.4799
一般	-10.4802
世	-10.4807
戸	-10.4807
相談	-10.4807
フワフワ	-10.4808
低反発	-10.4808
不愉快	-10.4808
いるもの	-10.4811
安っぽい感じ	-10.4813
★,	-10.4818
透ける	-10.4819
プル	-10.4819
87	-10.482
振	-10.482
はがれ	-10.4821
同じ商品	-10.4826
使いづらい	-10.4827
しようか	-10.4827
ケースに	-10.4832
かく	-10.4833
お願いした	-10.4834
を購入する	-10.4834
頭皮	-10.4838
も全く	-10.484
ベルトの	-10.4841
測	-10.4845
ノン	-10.4846
なくなります	-10.4849
保湿	-10.4849
普段の	-10.485
所が	-10.4851
いいのか	-10.4851
づつ	-10.4856
かもです	-10.4857
インソール	-10.4858
ことはありません	-10.4864
を考え	-10.4867
決めて	-10.4874
巻いて	-10.4874
を選びましたが	-10.4876
いたところ	-10.4876
カバーは	-10.4878
の対応は	-10.4878
を見つけました	-10.4879
入金	-10.4879
クリーニング	-10.488
ナイロン	-10.4881
留め具	-10.4881
時間を	-10.4883
下が	-10.4884
替	-10.4885
長さは	-10.4889
タイ	-10.4892
母も	-10.4896
してみました	-10.4902
もいいし	-10.4903
私に	-10.4904
トマト	-10.4905
おかげで	-10.4906
ねぇ	-10.4907
その時	-10.4911
あら	-10.4913
木目	-10.4915
今後は	-10.4916
味で	-10.4917
早い対応	-10.492
だけでした	-10.4923
サイズ購入	-10.4923
タイプは	-10.4923
ものに	-10.4924
ほか	-10.4925
はいって	-10.4927
いままで	-10.4929
はないと思います	-10.4935
ガン	-10.4936
をお	-10.4942
見えません	-10.4944
袖が	-10.4945
と記載	-10.4945
していただきました	-10.4945
をしている	-10.4946
払い	-10.4946
本目	-10.4947
により	-10.4948
の間に	-10.4948
ランク	-10.4951
中心	-10.4953
だったのか	-10.4954
探	-10.4954
ハンカチ	-10.4954
になりますが	-10.4954
テンション	-10.4954
封筒	-10.4954
商品なので	-10.4956
接	-10.4959
さんが	-10.496
のこと	-10.4961
ジェ	-10.4961
ますよ	-10.4963
他のレビュー	-10.4966
ニア	-10.4967
染	-10.497
満足でした	-10.4974
るべき	-10.4974
迅速に	-10.4976
不親切	-10.4976
スリッパ	-10.4979
スライド	-10.4979
破け	-10.498
祖母	-10.4981
難しいです	-10.4985
ジュ	-10.4985
ステ	-10.4988
さないと	-10.4989
ダイ	-10.499
入っているので	-10.4992
こんなこと	-10.4994
中敷	-10.4996
欲	-10.4996
落ちます	-10.4997
購入してから	-10.4998
選べ	-10.4998
ちゃいます	-10.5
日後	-10.5002
もないし	-10.5002
ふつう	-10.5003
に入れる	-10.5006
袋を	-10.5013
気がしました	-10.5022
耐久性は	-10.5025
安くても	-10.5025
あったかい	-10.5026
本革	-10.5028
質問	-10.5029
モニター	-10.5029
おしり	-10.5029
してましたが	-10.503
と思っていました	-10.5031
400	-10.5032
もらう	-10.5033
は難しい	-10.5035
つの	-10.5037
画面で	-10.5038
購入者	-10.5038
時間は	-10.5042
していませんが	-10.5044
無事に	-10.5045
不満です	-10.5046
68	-10.5046
みえ	-10.5048
板が	-10.5048
効果なし	-10.5053
紅茶	-10.5055
が必要です	-10.5058
確実に	-10.506
も大変	-10.5065
600	-10.5067
びっくりです	-10.5071
にピッタリ	-10.5072
急ぎ	-10.5073
分かって	-10.5073
息子も	-10.5074
また購入したいと思います	-10.5075
衝撃	-10.5077
栄養	-10.5078
眠れ	-10.5079
混ぜ	-10.5081
時期に	-10.5081
ダボ	-10.5082
お財布	-10.5083
本体に	-10.5087
リピしました	-10.5089
賞味期限が	-10.5093
られませんでした	-10.51
迷った	-10.5102
かかとが	-10.5104
レビューを書く	-10.5104
の部分に	-10.5106
感も	-10.5106
でない	-10.511
真っ黒	-10.511
比較的	-10.5112
だけは	-10.5115
ラグ	-10.5116
お得だと思います	-10.5118
常に	-10.5118
洋	-10.5119
るだけで	-10.512
好評	-10.5121
騙された	-10.5123
炎	-10.5127
慌てて	-10.5128
下半身	-10.5128
ケースを	-10.5128
レンタル	-10.5128
に注文して	-10.513
値段が安い	-10.513
ストール	-10.513
硬め	-10.5131
でかい	-10.5137
?!	-10.5139
今では	-10.5139
...。,	-10.5143
靴を	-10.5145
置く	-10.5147
(*^	-10.5151
照明	-10.5153
何故	-10.5153
環境	-10.5153
商品が届いた	-10.5155
時間がかかりました	-10.5156
分けて	-10.5163
また利用したいです	-10.5164
寝る	-10.5166
合わせやすい	-10.5166
は良いのですが	-10.5167
買い足し	-10.5168
透け	-10.5168
スタッフ	-10.5172
カール	-10.5174
したこと	-10.5177
忘れて	-10.5178
日常	-10.5179
るけど	-10.5182
ないのか	-10.5182
さら	-10.5185
潰れて	-10.5186
しようと思い	-10.5186
もしっかりしていて	-10.5187
ゴルフ	-10.5188
られず	-10.5189
付属	-10.519
ではないでしょうか	-10.5192
きつめ	-10.5198
これからの季節	-10.5199
普通です	-10.52
耐	-10.52
用です	-10.5201
離	-10.5202
下がり	-10.5203
切れ味	-10.5203
距離	-10.5203
ドラッグストア	-10.5203
妥当	-10.5203
相性	-10.5203
56	-10.5208
発送メール	-10.5209
を選んだ	-10.5209
感じも	-10.5212
違うもの	-10.5213
ショップの対応	-10.5214
先生	-10.5215
噛み	-10.5215
が入る	-10.5218
▁2,,2	-10.5219
72	-10.5219
に期待	-10.5221
にしたら	-10.5223
また購入したいです	-10.5225
うるさい	-10.5227
カニ	-10.5228
ストレート	-10.5228
ホース	-10.5228
の位置	-10.5233
★5	-10.5234
・・・・,	-10.5237
みないと	-10.5239
驚き	-10.5239
粘着力	-10.524
届いた時	-10.5241
遅かった	-10.5242
お味	-10.5243
あい	-10.5245
絞	-10.5245
たて	-10.5246
買うこと	-10.5247
めの	-10.5247
決め	-10.5247
迅速な対応で	-10.5249
初日	-10.5249
かれ	-10.525
毛穴	-10.525
96	-10.5251
磨	-10.5251
味付け	-10.5252
オリジナル	-10.5254
折りたたみ	-10.5254
醤油	-10.5254
マンション	-10.5254
センサー	-10.5254
衣装	-10.5254
肌触りは	-10.5258
いかにも	-10.526
立派な	-10.5262
似たような	-10.5263
記載されて	-10.5263
表紙	-10.5264
が雑	-10.5266
されています	-10.5266
次に	-10.5277
スタンプ	-10.5279
低価格	-10.528
ポンプ	-10.5281
お正月	-10.5286
した後	-10.5286
サイズです	-10.5291
思ったほど	-10.5294
目立ち	-10.5294
が非常に	-10.5299
豪華	-10.5299
されてる	-10.53
をよく	-10.5302
かっこいいです	-10.5303
すっごく	-10.5305
値段が高い	-10.5305
好きなので	-10.5305
リーズナブル	-10.5306
腰が	-10.5306
が入っていました	-10.5306
使うこと	-10.5307
上が	-10.5308
質感も	-10.5309
この値段でこの	-10.5314
デコ	-10.5314
素敵で	-10.5322
母親	-10.5325
5000	-10.5326
症	-10.5329
ゴムの	-10.533
チョコレート	-10.533
本人	-10.5332
その上	-10.5332
先の	-10.5332
パーティー	-10.5335
のなら	-10.5337
ちょうど良く	-10.5337
上品	-10.5339
色や	-10.5339
....	-10.5344
に行った	-10.5345
と後悔	-10.5345
塗った	-10.5345
が多くて	-10.5349
つけると	-10.5351
のセット	-10.5351
箸	-10.5352
手入れ	-10.5353
病院	-10.5354
オムツ	-10.5356
じゃなかった	-10.5365
を付けて	-10.5365
充電でき	-10.5367
フラ	-10.5368
小さめの	-10.537
エン	-10.5374
鳴	-10.5377
の価値	-10.5378
少量	-10.5379
の差	-10.5381
旧	-10.5381
押さえ	-10.5382
週末	-10.5382
部品が	-10.5384
荷物が	-10.5385
個目	-10.5385
してみます	-10.5387
分厚い	-10.5388
を入れた	-10.5389
やわらかい	-10.5389
〜〜	-10.5389
先端	-10.5392
^)/	-10.5399
粒が	-10.5399
良い商品です	-10.5405
麻	-10.5407
コンビニ	-10.5407
嬉しく	-10.5408
ような感じ	-10.5411
と思っていたら	-10.5414
暑く	-10.5414
あったら	-10.5416
味の	-10.5416
,4	-10.542
日が	-10.542
正解	-10.5421
高価な	-10.5423
届くのも	-10.5424
良くない	-10.5428
も付いて	-10.5429
“	-10.5432
アルバム	-10.5433
ボルト	-10.5433
92	-10.5433
ペットボトル	-10.5434
消臭	-10.5435
ホック	-10.5437
耐久性が	-10.5444
探していたら	-10.5446
プレゼントで	-10.5446
リピートは	-10.5446
わり	-10.5446
活	-10.5447
お届け	-10.5448
掛けて	-10.545
ビール	-10.5452
も欲しくなりました	-10.5453
レンジ	-10.5455
商品名	-10.5455
じゃなくて	-10.5456
モカ	-10.5456
衣	-10.5457
迷わず	-10.5459
薄手の	-10.5461
我慢して	-10.5464
無くて	-10.5466
映え	-10.547
良いかも	-10.5472
っていました	-10.5472
が届いた	-10.5472
りして	-10.5475
届いたものは	-10.5477
使ってみた	-10.548
一言	-10.548
面に	-10.5481
リクエスト	-10.5485
羽	-10.5486
ついていました	-10.5486
と言っていました	-10.5487
最悪な	-10.5487
ブラックを購入しました	-10.5488
解消	-10.5489
着丈	-10.5491
せば	-10.5492
日で届きました	-10.5493
私には合わなかった	-10.5494
大変です	-10.5495
などが	-10.5496
重いです	-10.5496
の匂い	-10.5499
が気になり	-10.5502
だったけど	-10.5502
激	-10.5504
カッター	-10.551
の方には	-10.5519
を感じます	-10.5521
不自然	-10.5521
いるの	-10.5523
このタイプ	-10.5524
整	-10.5526
プレ	-10.5529
と言い	-10.5529
様です	-10.553
54	-10.553
つもり	-10.5532
どこに	-10.5532
良いですが	-10.5532
初め	-10.5534
悪すぎ	-10.5534
馬	-10.5536
珍しい	-10.5537
good	-10.5537
ゆっくり	-10.5537
聞こえ	-10.5537
ジッパー	-10.5537
ウィ	-10.5538
88	-10.5541
小学校	-10.5541
が強く	-10.5545
ィ	-10.5546
丈夫な	-10.5546
チャックが	-10.5546
いないのに	-10.5547
レビューを書いて	-10.5556
??,	-10.5557
違うの	-10.5557
合った	-10.5558
今の	-10.556
きついです	-10.556
ひっ	-10.5561
片付け	-10.5564
比べ	-10.5564
ポチ	-10.5565
ストック	-10.5567
クール	-10.5569
便利な	-10.5571
カッコいい	-10.5572
指が	-10.5577
寒	-10.5586
利用する	-10.5587
ほこり	-10.5589
ズレて	-10.5589
工具	-10.5589
激安	-10.559
素早い対応	-10.559
接触	-10.559
覚	-10.559
が多かった	-10.5592
が出来	-10.5593
この手の	-10.5598
シンプルなデザイン	-10.5599
寒く	-10.5605
つかず	-10.5605
といいな	-10.5606
遊んで	-10.5608
好みの	-10.5608
包装も	-10.5609
2015	-10.5611
良	-10.5613
再購入	-10.5614
投稿	-10.5615
玄米	-10.5615
終わって	-10.5615
楽しみに	-10.5615
グラグラ	-10.5615
期待した	-10.5616
カラ	-10.5616
UV	-10.5617
色に	-10.5623
仕	-10.5623
甘味	-10.5626
と言っても	-10.5626
使い続けて	-10.5628
なさ	-10.5629
しめ	-10.5632
かけた	-10.5637
島	-10.5641
るようになりました	-10.5642
怒	-10.5647
になっているので	-10.565
だけでは	-10.5651
活躍しそうです	-10.5655
,[	-10.5658
欲しくなり	-10.5658
あるのに	-10.5662
になってしまう	-10.5665
が高く	-10.5666
84	-10.5667
詳細	-10.5668
フロント	-10.5668
41	-10.5675
剥がし	-10.5677
守	-10.568
決	-10.568
ればいい	-10.568
ようになり	-10.5684
必須	-10.5685
糖	-10.5686
と思うくらい	-10.5687
まない	-10.5691
しないで	-10.5692
通し	-10.5693
喜ばれ	-10.5693
データ	-10.5694
高評価	-10.5698
若い	-10.5699
しっかりしてます	-10.5706
ふき	-10.5707
部が	-10.5708
イライラ	-10.5714
袖口	-10.5716
私でも	-10.5718
にくかったです	-10.5719
体の	-10.5719
システム	-10.572
条件	-10.5721
ものを探していました	-10.5721
しようと思って	-10.5727
ぐらいで	-10.5728
59	-10.573
ポケットに	-10.5731
線が	-10.5732
取り替え	-10.5733
じゃなく	-10.5735
なれば	-10.5736
上げて	-10.5738
はありましたが	-10.5739
翌日には	-10.574
買わなかった	-10.5741
つま	-10.5742
可	-10.5744
確認メール	-10.5745
きれ	-10.5745
にくかった	-10.5747
無添加	-10.5747
に感じました	-10.5748
くすんだ	-10.5749
わけではない	-10.575
裾が	-10.575
夜に	-10.5751
もう二度と	-10.5755
語	-10.5759
点が	-10.576
お買い得です	-10.576
聞いた	-10.5762
とても使いやすいです	-10.5764
できなかった	-10.5764
かなと思いましたが	-10.5765
まずまず	-10.5765
座り心地	-10.5768
肩が	-10.5769
控え	-10.577
写真が	-10.5775
裏面	-10.5777
格安	-10.5778
無かった	-10.5778
毛玉が	-10.5779
97	-10.578
リップ	-10.5781
難い	-10.5782
82	-10.5788
もって	-10.5788
梱包は	-10.5789
塗る	-10.5789
淡い	-10.5794
れている	-10.5797
許容範囲	-10.5799
覆	-10.5801
映画	-10.5801
覚悟して	-10.5802
備	-10.5803
これって	-10.5804
臭く	-10.5805
成長	-10.5806
丸見え	-10.5806
どうにか	-10.5806
おまけも	-10.5807
新鮮	-10.5807
いけ	-10.5807
ゆるく	-10.5808
多数	-10.5808
首が	-10.581
やすそう	-10.5814
の評価	-10.5816
入ってる	-10.5816
他の色	-10.5819
はできません	-10.5821
も多く	-10.5822
お手頃価格	-10.5823
やす	-10.5824
ところも	-10.5825
有難うございました	-10.5828
音も	-10.583
を探し	-10.5831
凹み	-10.5831
期待していただけに	-10.5833
洗濯して	-10.5834
換え	-10.5835
いただけました	-10.5836
リピートします	-10.5836
には向かない	-10.5836
箱の	-10.5836
ニオイ	-10.5837
にする	-10.5837
ちがい	-10.5839
感じられませんでした	-10.584
前は	-10.5842
履きやすいです	-10.5844
渋	-10.5845
ですけど	-10.5846
臭み	-10.5849
に入れた	-10.5852
がありませんでした	-10.5853
↓	-10.5853
めんどくさい	-10.5855
メッキ	-10.5855
良好	-10.5855
みなさんのレビュー	-10.5856
こともなく	-10.586
お礼	-10.5861
ょ	-10.5866
押す	-10.5867
できたので	-10.5871
想像していたより	-10.5877
っとした	-10.5879
それなりの	-10.588
羽織	-10.5883
してある	-10.5883
使ってる	-10.5885
臭いも	-10.5888
ホント	-10.5894
いるような	-10.5895
考慮	-10.5895
かわからない	-10.5898
ーション	-10.5898
と書いてある	-10.59
着られ	-10.5901
ビン	-10.5903
かも知れません	-10.5903
お買い得でした	-10.5903
満足できる	-10.5906
分には	-10.5907
魅力的	-10.5908
苦手な	-10.5909
言わ	-10.5909
濃い色	-10.5911
次の日に	-10.5911
一枚で	-10.5912
不快	-10.5914
良い商品だと思います	-10.5916
買ったら	-10.5919
という事で	-10.5919
買うべき	-10.5919
の一言	-10.592
気になっていた	-10.5924
そんなこと	-10.5928
ついていた	-10.5928
怖	-10.5929
干して	-10.5934
使い物になりません	-10.5935
好きで	-10.5935
すっぽり	-10.5936
大丈夫かな	-10.5936
よし	-10.5938
とは違う	-10.5938
冬場	-10.5939
実用的	-10.5945
効果も	-10.5946
臭いは	-10.5949
カゴ	-10.595
の為に購入しました	-10.5951
済	-10.5951
杯	-10.5952
られている	-10.5953
するのも	-10.5956
別物	-10.5958
事が出来	-10.5959
年間	-10.596
配送が	-10.596
ジャー	-10.596
消し	-10.5961
追加購入	-10.5962
黒く	-10.5963
このショップで	-10.5964
配送業者	-10.5967
車に	-10.5967
厚みが	-10.5969
使ってみると	-10.597
いって	-10.597
作りが雑	-10.597
た方が	-10.5971
とても気に入って	-10.5971
上手に	-10.5973
た時に	-10.5974
いけません	-10.5976
デザインや	-10.5976
^_^	-10.5979
履いたら	-10.5979
取引	-10.598
こな	-10.5981
含	-10.5981
乗	-10.5982
わりと	-10.5982
側に	-10.5984
歩くと	-10.5985
乾	-10.5985
伝	-10.5988
写真のように	-10.5989
手数料	-10.599
浴衣	-10.599
購入できて	-10.5994
溶	-10.5996
形で	-10.5997
に惹かれ	-10.5998
痛くなる	-10.5999
元の	-10.6001
例	-10.6001
以前購入した	-10.6001
無難	-10.6002
お薦め	-10.6006
問い合わせたところ	-10.6008
厚手の	-10.6009
の使用で	-10.601
弾	-10.6011
くっ	-10.6013
余計に	-10.6017
2014	-10.6017
忙しい	-10.6018
来客	-10.6018
ゲーム	-10.6018
ネーム	-10.6019
パスタ	-10.602
のせい	-10.602
180	-10.6023
ポール	-10.6023
サイズですが	-10.6025
のようで	-10.6026
にしようか	-10.6026
困ります	-10.6028
暑	-10.603
購入しない	-10.6031
飾って	-10.6034
気にせず	-10.6035
靴の	-10.6037
示	-10.6037
園	-10.6044
お願いして	-10.6044
展開	-10.6045
症状	-10.6045
作動	-10.6047
払って	-10.6047
スタ	-10.6049
の表示	-10.605
勉強になりました	-10.6052
を履いています	-10.606
遅れて	-10.6061
いるようです	-10.6061
化粧品	-10.6062
日ほど	-10.6066
だそうです	-10.6067
なのも	-10.6068
もあった	-10.6068
少し残念でした	-10.607
きっちり	-10.6072
突然	-10.6072
サラダ	-10.6073
がでて	-10.6074
まとめ	-10.6076
くり	-10.6077
文句なし	-10.6077
頂きたい	-10.6077
いなくて	-10.6079
かかります	-10.6085
してた	-10.6086
良品	-10.6088
んじゃないか	-10.6089
洗濯物	-10.6089
も多い	-10.6091
ことにしました	-10.6093
ON	-10.6094
いるし	-10.6094
買おう	-10.6095
61	-10.6097
なくなったので	-10.6098
書き込み	-10.6098
詳しく	-10.6099
ピチピチ	-10.61
しっかりしてる	-10.61
の部分の	-10.6102
良かったのに	-10.6104
短すぎ	-10.6104
のところが	-10.6105
くせ	-10.6106
よけ	-10.6111
効いて	-10.6112
値段のわりに	-10.6112
リボンが	-10.6114
履き心地が	-10.6115
にあった	-10.6116
拭いて	-10.6117
抜群です	-10.6117
ラム	-10.612
わかりやすく	-10.6121
若	-10.6121
間違えた	-10.6122
購入でき	-10.6125
をお願いしました	-10.6126
白色	-10.6127
買いたい	-10.6128
着ている	-10.6128
彼女	-10.6128
買えた	-10.613
場所を	-10.613
注意書き	-10.6131
度目	-10.6131
猫の	-10.6133
乗せ	-10.6133
お揃い	-10.6134
に使っています	-10.6134
着れ	-10.6137
購入しません	-10.6143
背面	-10.6147
そのため	-10.6147
降	-10.6151
盤	-10.6153
お歳暮	-10.6155
終了	-10.6155
こちらにしました	-10.6156
他のもの	-10.6156
穴があいて	-10.6157
お世話	-10.616
ではなかったです	-10.6161
良さ	-10.6162
大きすぎる	-10.6164
階	-10.6165
44	-10.6165
ショップから	-10.6168
他のショップで	-10.617
あて	-10.6174
プリン	-10.6175
透けます	-10.6177
表面の	-10.6179
店に	-10.618
出産祝いに	-10.6181
のは初めてです	-10.6181
買い直し	-10.6182
そろそろ	-10.6183
特典	-10.6183
嘘	-10.6183
お勧めできません	-10.6188
押して	-10.6189
低く	-10.6192
良い買い物ができました	-10.6193
この評価	-10.6195
セールで	-10.6195
かれて	-10.6196
手の	-10.6203
炊き	-10.6203
待つ	-10.6206
リピ買い	-10.6206
っぽくて	-10.6207
試着して	-10.6207
乱	-10.6211
°	-10.6211
味わい	-10.6212
効	-10.6213
が足りない	-10.6218
綺麗でした	-10.622
花の	-10.6224
易く	-10.6227
起こ	-10.6234
快適に	-10.6238
廃棄	-10.6239
ビジネス	-10.6239
あっさり	-10.6239
ゆるゆる	-10.6239
念	-10.624
表面に	-10.624
らく	-10.624
たいへん	-10.624
腐	-10.624
何の連絡も	-10.6241
病	-10.6241
早いです	-10.6241
したくない	-10.6241
見た感じ	-10.6243
可愛いのですが	-10.6244
腕が	-10.6245
が有り	-10.6245
られるので	-10.6246
タイプなので	-10.6247
とろ	-10.6248
生産	-10.6251
持った	-10.6254
感覚で	-10.6257
しただけで	-10.6258
って感じでした	-10.6258
並べて	-10.6261
てしまうので	-10.6261
1-0	-10.6261
下地	-10.6262
返送	-10.6262
いける	-10.6263
重くて	-10.6264
波	-10.6266
ぉ	-10.6267
タバコ	-10.6267
だったのが	-10.6267
経ちますが	-10.6268
斜めに	-10.6268
印象です	-10.6272
信	-10.6276
枚目	-10.6276
ないのは	-10.6278
が増え	-10.6278
ボンド	-10.6278
出張	-10.6279
たん	-10.628
苦労しました	-10.6282
体質	-10.6282
を感じました	-10.6284
と考えて	-10.6285
誰か	-10.6286
木製	-10.6288
留	-10.6288
ピンクと	-10.6289
つぶれて	-10.6289
勧め	-10.6289
洗濯しても	-10.629
86	-10.6291
常	-10.6294
賞	-10.6294
配慮	-10.6295
ゾ	-10.6295
反省	-10.6295
入らなかった	-10.6296
が悪いです	-10.6304
が沢山	-10.6304
履きやすく	-10.6304
大きめで	-10.6304
流行	-10.6309
カラーは	-10.6309
星は	-10.631
間違いない	-10.6311
開け閉め	-10.6319
対応も早く	-10.632
ジン	-10.6321
裏に	-10.6322
宅配	-10.6322
グッズ	-10.6323
掛かり	-10.6323
らしいです	-10.6323
案内	-10.6325
★1	-10.6326
162	-10.6327
ロール	-10.6328
円ショップ	-10.6328
母の日に	-10.6328
嫌い	-10.6329
なっていました	-10.633
かも知れませんが	-10.633
せっかくの	-10.6331
赤く	-10.6334
小さすぎて	-10.6334
馴染み	-10.6335
900	-10.6339
寄せ	-10.6345
関	-10.6346
オーガニック	-10.6351
一人暮らし	-10.6351
訂正	-10.6352
を期待して	-10.6356
な感じでした	-10.6357
してくれました	-10.636
安っぽくて	-10.636
使えなかった	-10.6361
吹き	-10.6362
自然な	-10.6365
品でした	-10.6366
丸い	-10.6366
る方	-10.6366
ガッカリでした	-10.6368
おう	-10.637
酸	-10.6372
父の日	-10.6372
たりする	-10.6375
が難しい	-10.6375
との事でした	-10.6379
給	-10.6379
購入したけど	-10.6379
広告	-10.6379
取説	-10.638
終わった	-10.638
エアコン	-10.638
スの	-10.6384
よいと思います	-10.6385
言えませんが	-10.6388
使えば	-10.6389
炭酸	-10.639
−1	-10.6391
買うと	-10.6392
ビニール袋	-10.6393
使ってみます	-10.6394
155	-10.6394
効き	-10.6395
大きすぎ	-10.6399
中国	-10.6401
79	-10.6403
どうして	-10.6405
当たる	-10.6406
少しだけ	-10.6408
ペーパー	-10.6408
包丁	-10.6408
大き過ぎ	-10.6411
よくて	-10.6417
大変気に入りました	-10.6417
楽しみに待って	-10.6423
効き目	-10.6425
意味がない	-10.6428
実家に	-10.643
問題は	-10.6431
ケースの	-10.6431
不可能	-10.6434
液体	-10.6435
組み立ても	-10.6438
とてもよい	-10.6438
取り付けました	-10.644
使い心地は	-10.644
ちょっと残念です	-10.6442
で大満足です	-10.6443
蒸れ	-10.6443
読	-10.6443
検品して	-10.6445
を食べて	-10.6447
ではありませんが	-10.6448
知人	-10.6451
軽減	-10.6452
受付	-10.6453
潰れ	-10.6453
黄	-10.6454
買ってみましたが	-10.6454
少し残念です	-10.6456
ジー	-10.6456
買ってしまった	-10.6459
ポケットの	-10.646
機能は	-10.6463
安いと思います	-10.6463
戦	-10.6464
ストライプ	-10.6465
仕事用	-10.6466
そこが	-10.6466
寝室	-10.6467
癒されます	-10.6467
開いた	-10.647
...?	-10.647
の位置が	-10.6471
散歩	-10.6473
早く届きました	-10.6474
押	-10.6475
なと思います	-10.6476
とは思えません	-10.6476
はよく	-10.6477
あったか	-10.648
実家	-10.6481
るのが楽しみです	-10.6482
というので	-10.6485
勝	-10.6487
んですけどね	-10.6488
まだ届いてない	-10.6493
純	-10.6493
早めに	-10.6493
柄で	-10.6494
をお勧めします	-10.6495
も悪く	-10.6496
ソース	-10.6501
布地	-10.6502
せない	-10.6504
と思われる	-10.6505
枚数	-10.6506
は大変	-10.6507
プレゼントとして	-10.6508
固定する	-10.6509
用と	-10.6511
なると	-10.6513
楽しみにして	-10.6514
取れません	-10.6514
後悔してます	-10.6515
ホコリ	-10.6517
かっこ	-10.6518
がほとんど	-10.6519
ことです	-10.652
眼	-10.6521
承知	-10.6522
ヵ月	-10.6522
刻印	-10.6523
パイ	-10.6524
と変わらない	-10.6524
渡す	-10.6524
指輪	-10.6525
塗装が	-10.6526
1〜2	-10.653
どうやって	-10.653
予想通り	-10.6531
覚悟	-10.6531
るのですが	-10.6532
づらいです	-10.6533
使用中	-10.6535
生地もしっかりしていて	-10.6536
切れました	-10.6536
使ってません	-10.6539
チップ	-10.6539
なかったり	-10.6539
外し	-10.654
といっても	-10.6541
はがれて	-10.6541
ぶん	-10.6541
入っていない	-10.6543
結婚式の	-10.6544
浅	-10.6546
のほう	-10.6551
タブレット	-10.6551
OFF	-10.6551
ヘビロテ	-10.6551
お得でした	-10.6554
ウェ	-10.6557
髪を	-10.6557
いまだに	-10.6557
メールも	-10.6558
並	-10.656
ネジ穴	-10.656
他のショップ	-10.6563
周	-10.6565
ついていて	-10.6565
日焼け	-10.6566
ったので	-10.6569
品は	-10.657
良かったかも	-10.6571
結婚式用に	-10.6573
してもらいました	-10.6573
その日	-10.6575
購入したら	-10.6579
餌	-10.658
ブレンド	-10.658
補強	-10.6581
振動	-10.6581
ヶ所	-10.6581
温かく	-10.6582
歯ブラシ	-10.6583
趣味	-10.6583
敷布団	-10.6583
高くて	-10.6584
を探していたところ	-10.6585
安全性	-10.6585
シック	-10.6588
と思える	-10.6589
してくれます	-10.6592
はあります	-10.6595
咲	-10.6598
家族の	-10.6598
んですか	-10.6599
割に	-10.6603
可能性	-10.6603
トル	-10.6607
出会え	-10.6607
気持ちが	-10.6608
一体	-10.6608
交換も	-10.6613
鮮やかな	-10.6613
ダメです	-10.6616
落ちない	-10.6617
問題なしです	-10.6618
使いにくいです	-10.6621
毎朝	-10.6624
という印象	-10.6625
アクセント	-10.6628
を履いて	-10.6632
だったので購入しました	-10.6634
にプレゼントしました	-10.6638
ジーンズ	-10.6638
の息子に	-10.6638
ション	-10.6641
ってしまいました	-10.6643
敷	-10.6644
買おうか	-10.665
生地に	-10.6651
の名前	-10.6653
抑え	-10.6656
おなか	-10.6657
止	-10.6661
て良かったです	-10.6663
後悔しました	-10.6664
炊	-10.6664
写真よりも	-10.6666
石が	-10.6666
取り付ける	-10.6668
入っていませんでした	-10.6674
交換は	-10.6683
ョ	-10.6683
エル	-10.6684
過ぎず	-10.6684
箱から	-10.6685
方がいいと思います	-10.6687
大満足でした	-10.6689
気になった	-10.669
ことができ	-10.6692
ひざ	-10.6694
ホール	-10.6695
もつ	-10.6695
水に	-10.6695
夏場	-10.6696
平気	-10.6696
つるつる	-10.6697
申し分ない	-10.6697
壊れてしまいました	-10.6698
困っていました	-10.6699
これからの季節に	-10.6702
コク	-10.6702
待た	-10.6711
無理やり	-10.6712
となり	-10.6713
よくある	-10.6713
を見つけて	-10.6713
あるけど	-10.6714
暖かくて	-10.6714
色違いを	-10.6718
利用したいと思います	-10.6719
食べやすい	-10.6723
163	-10.6724
だったから	-10.6724
路	-10.6726
牛乳	-10.6727
箱を	-10.6727
の悪い	-10.6731
自体も	-10.6731
するために	-10.6732
ラインが	-10.6733
カッコイイ	-10.6735
かえって	-10.6736
臭いです	-10.6736
ベタ	-10.6736
と思ってましたが	-10.6737
使わず	-10.6744
いるため	-10.6744
食べましたが	-10.6746
の買い物	-10.6747
キロで	-10.675
プレゼント用に購入しました	-10.6751
してますが	-10.6753
欲しかったので	-10.6753
持っていますが	-10.6754
施	-10.6755
ほんのり	-10.6755
適度な	-10.6755
パッキン	-10.6756
も少なく	-10.6756
ノート	-10.6758
言われ	-10.6758
届いてすぐに	-10.6762
を感じる	-10.6768
味でした	-10.6768
切ら	-10.6773
前髪	-10.6773
とセットで	-10.6776
使用できる	-10.6777
小銭	-10.6779
命	-10.6785
ファイル	-10.6785
しまえば	-10.6785
ラップ	-10.6785
まだ使用していませんが	-10.6785
ぜ	-10.6785
変色	-10.6787
水で	-10.6787
なんだろう	-10.6789
菓子	-10.6793
期待してます	-10.6794
減り	-10.6795
は何	-10.6795
明け	-10.6797
のおかげで	-10.6799
そこで	-10.68
に合わせ	-10.6802
で満足しています	-10.6803
ヒビ	-10.6803
楽しんで	-10.6805
と購入しました	-10.6805
つかい	-10.6806
テン	-10.6807
ステキ	-10.6807
画像を	-10.681
生き	-10.6813
アトピー	-10.6814
枝	-10.6814
指紋	-10.6815
を入れても	-10.6815
第	-10.6815
表現	-10.6815
根元	-10.682
ファスナーの	-10.6821
締め付け感	-10.6822
しかたない	-10.6824
飲みやすく	-10.6825
パンパン	-10.6826
ことにします	-10.6826
ケースは	-10.6828
ボン	-10.6829
本来	-10.6832
内の	-10.6836
音楽	-10.6837
高すぎる	-10.6841
涼しく	-10.6845
がついている	-10.685
を出して	-10.685
あえて	-10.6851
してしまいます	-10.6855
お手軽	-10.6856
載せて	-10.6859
だろうと	-10.6861
バレ	-10.6862
につられて	-10.6864
引っ掛け	-10.6871
喜んでました	-10.6872
チェーンが	-10.6873
溝	-10.6874
餃子	-10.6874
祭	-10.6874
タイミング	-10.6874
のが難点	-10.6874
電動	-10.6875
食べられる	-10.6875
を購入したので	-10.6876
がなくて	-10.6876
磁石	-10.6877
住所	-10.6877
剥げて	-10.6878
とても可愛くて	-10.6883
履いている	-10.6884
暗め	-10.6885
出ている	-10.6886
わかりました	-10.6886
取れた	-10.6887
問題ないと思います	-10.6887
のかと	-10.6889
着た	-10.6889
入っており	-10.6894
を着て	-10.6895
異なる	-10.6899
ワンサイズ上	-10.6902
フルーツ	-10.6904
の付け根	-10.6904
付けられ	-10.6907
使おうと	-10.6908
立つ	-10.6909
程の	-10.6912
貰え	-10.6913
感があり	-10.6916
有りません	-10.6917
で十分	-10.6917
にくそう	-10.6918
デス	-10.6918
何年も	-10.6919
が早い	-10.6919
購入しようと思います	-10.6921
お買い得だと思います	-10.6921
とても喜んで	-10.6922
をつける	-10.6922
異常	-10.6923
も簡単で	-10.6924
だから仕方ない	-10.6924
重ね着	-10.6924
新築	-10.6925
されない	-10.6926
裏起毛	-10.6934
設計	-10.6934
で売っている	-10.6934
随分	-10.6935
作成	-10.6935
発送して	-10.6936
厚め	-10.6937
た瞬間	-10.6939
満点	-10.6939
なか	-10.694
商品説明に	-10.6942
^*)	-10.6943
この商品の	-10.6944
CM	-10.6944
到着が	-10.6945
んですよね	-10.6947
長靴	-10.6951
うえ	-10.6956
最後の	-10.6957
左右の	-10.6957
良い香り	-10.696
ずいぶん	-10.6963
シャワー	-10.6964
ので良かったです	-10.6964
すっかり	-10.6964
内部	-10.6965
ピンク色	-10.6965
楽チン	-10.6965
無くなったら	-10.6971
した方が	-10.6973
似た	-10.6973
疑問です	-10.6974
とは思って	-10.6975
仕方ありません	-10.6975
出来れば	-10.6975
ものが届きました	-10.6975
^)\	-10.6976
触れ	-10.6977
円も	-10.6978
カラーも	-10.6978
るため	-10.698
が取れて	-10.6992
あき	-10.6994
0.5	-10.6995
使うには	-10.6997
付いていて	-10.6999
潤い	-10.6999
もしくは	-10.7
チュ	-10.7
なりそうです	-10.7003
しかありません	-10.7004
カード入れ	-10.7005
父の	-10.7007
お店から	-10.7008
厚手	-10.7009
風呂	-10.7009
直しました	-10.701
止めて	-10.701
を読んで	-10.7018
ますので	-10.7023
フラワー	-10.7024
は良かったのですが	-10.7025
上記	-10.7027
まち	-10.7027
とは違い	-10.7027
嫁	-10.703
に送りました	-10.7038
喜んでくれる	-10.7038
最後に	-10.7039
どうせ	-10.7048
にしてみました	-10.7049
ためか	-10.705
よー	-10.7054
チョット	-10.7056
迷い	-10.7057
ペア	-10.7057
この金額	-10.7058
タッチ	-10.706
かと思いますが	-10.7063
期待外れでした	-10.7065
あたる	-10.7065
助	-10.7065
において	-10.7066
が結構	-10.7068
の対応も	-10.7068
あったのですが	-10.707
事も	-10.7072
板の	-10.7074
届いていない	-10.7076
専用の	-10.7077
無視	-10.7078
がないと	-10.7078
と思って購入しましたが	-10.7079
絵柄	-10.7084
肩こり	-10.7084
映像	-10.7084
&#10071;	-10.7085
おけば	-10.7085
座り	-10.7085
要望	-10.7086
苦しい	-10.7086
風に	-10.7086
手間が	-10.7087
エラー	-10.7087
した時	-10.7092
無駄に	-10.7096
屋で	-10.7096
た時	-10.7098
ってこと	-10.7099
ため購入しました	-10.7099
うまい	-10.71
になってる	-10.7102
裏地が	-10.7105
すく	-10.7105
を出す	-10.7106
実感でき	-10.7106
クリスマスプレゼントに	-10.7108
バネ	-10.711
よく見ると	-10.7113
コロコロ	-10.7115
使い続け	-10.7118
確認を	-10.7118
値段から	-10.7119
降り	-10.7119
ことなく	-10.712
甘すぎ	-10.712
限	-10.712
してもらった	-10.7121
やり方	-10.7121
ようでした	-10.7122
私の足	-10.7122
もいいので	-10.7122
良い品	-10.7123
細身の	-10.7123
強力	-10.7124
メーカーに	-10.7127
するなら	-10.7128
頭の	-10.7129
月末	-10.7131
ベルトを	-10.7132
の物を	-10.7132
と書いてあった	-10.7134
置いた	-10.7137
質感は	-10.7138
たもの	-10.7138
いい商品	-10.7138
を頼んだ	-10.7139
都合	-10.714
ワイ	-10.7141
繊維	-10.7143
やわらか	-10.7145
もうひとつ	-10.7145
いちいち	-10.7146
みようと思います	-10.7146
贅沢	-10.7146
漫画	-10.7146
購入できました	-10.7146
と後悔しています	-10.7146
ジム	-10.7148
在庫切れ	-10.7154
66	-10.7154
着いて	-10.7159
が大好きで	-10.7161
そこは	-10.7161
かったのですが	-10.7162
るまで	-10.7163
削	-10.7164
こともあり	-10.7166
と思うほど	-10.7168
我が家	-10.7171
密	-10.7171
傷だらけ	-10.7172
諦めます	-10.7173
開けたら	-10.7173
にたどり着きました	-10.7174
クローゼット	-10.7176
お蔵入り	-10.7176
眼鏡	-10.7177
材料	-10.7178
ことはない	-10.7182
サイトで	-10.7183
ロット	-10.7185
受	-10.7187
初めてです	-10.719
楽しめる	-10.719
しそうです	-10.7191
サイズでした	-10.7193
受け取り	-10.7195
ボタンの	-10.7196
濡れて	-10.7198
の私でも	-10.7199
なれ	-10.7201
落ち着き	-10.7202
一瞬	-10.7204
やわらかく	-10.7204
自信	-10.7208
知り合い	-10.7208
っちゃ	-10.7209
になってしまいます	-10.7212
黒を購入しました	-10.7214
ナシ	-10.7216
包装紙	-10.7216
荒れ	-10.7217
たくなる	-10.7219
質感が	-10.722
肩紐	-10.7225
合います	-10.7225
153	-10.7226
子供用に	-10.7228
正規	-10.7229
見ましたが	-10.723
イヤ	-10.7233
安く購入できて	-10.7235
シワが	-10.7236
安く買えて	-10.7237
フィットして	-10.7238
ランドセル	-10.7238
翌朝	-10.7238
お値段は	-10.724
マル	-10.724
リアル	-10.7241
折り返し	-10.7241
何を	-10.7243
っぽ	-10.7243
おもい	-10.7243
少し残念	-10.7245
とても喜んでくれました	-10.7246
or	-10.7246
89	-10.7248
ダメですね	-10.7251
商品到着後	-10.7252
注文します	-10.7254
想定	-10.7255
包	-10.7256
かね	-10.7256
布が	-10.7256
ブラウンを購入しました	-10.7257
までの	-10.7264
シェ	-10.7266
営業	-10.7267
銀	-10.7267
エビ	-10.7268
宅急便	-10.7269
宣伝	-10.7269
助かってます	-10.7269
暫く	-10.7269
ブレス	-10.7272
揺れ	-10.7279
おまけで	-10.7279
しやすいです	-10.7282
ただけで	-10.7282
かしら	-10.7287
臭さ	-10.7288
届きましたが	-10.7289
とても可愛く	-10.7289
首の	-10.729
▁)	-10.7295
お値段なり	-10.7296
喜び	-10.7297
布団を	-10.7297
た状態で	-10.7297
を見た	-10.7298
ガタ	-10.7299
コップ	-10.7299
うれしかったです	-10.73
バージョン	-10.7301
こういった	-10.7301
ようとしたら	-10.7301
走行	-10.7301
キレイで	-10.7302
日に注文	-10.7303
踏み	-10.7303
にしたのですが	-10.7303
考えれば	-10.7305
取れてしまいました	-10.7307
一緒に購入した	-10.7308
の種類	-10.7308
沈	-10.731
しすぎ	-10.7312
遠く	-10.7312
置け	-10.7317
とても早く	-10.7319
味に	-10.732
あけて	-10.7322
使っても	-10.7323
アラ	-10.7324
の中では	-10.7324
を変えて	-10.7325
痒く	-10.7326
映	-10.7327
くれません	-10.7329
海苔	-10.7331
しまうと	-10.7331
見つからず	-10.7332
道具	-10.7333
をオススメします	-10.7333
というのも	-10.7335
に関して	-10.7343
掛け布団	-10.7344
祝い	-10.7345
にとっては	-10.7348
長く使えそうです	-10.7349
日本の	-10.735
ベージュを購入しました	-10.7351
とくに	-10.7352
は初めてでした	-10.7352
いいですが	-10.7354
最適	-10.7355
てくれる	-10.7356
とても気に入ってます	-10.7356
空いて	-10.7359
やっと届きました	-10.736
つも	-10.7361
このお店で	-10.7362
やさしい	-10.7362
ストッパー	-10.7363
イラスト	-10.7364
発送も早くて	-10.7364
これじゃ	-10.7365
帰り	-10.7365
短かった	-10.737
購入させて頂きました	-10.737
探してました	-10.7373
いたため	-10.7376
になっていた	-10.7376
ピンクで	-10.7376
にくいので	-10.7377
と連絡	-10.7378
てよかったです	-10.7381
確認した	-10.7381
カリ	-10.7383
の無い	-10.7384
値段相当	-10.7385
サブ	-10.7386
使ってますが	-10.7387
いたしました	-10.7388
が気になって	-10.7391
をしましたが	-10.7392
熟	-10.7393
る時	-10.7393
肩の	-10.7394
挑戦	-10.7395
部屋着に	-10.7397
感謝です	-10.74
テー	-10.7402
級	-10.7405
戻って	-10.7406
辺	-10.741
って感じで	-10.7412
に置く	-10.7416
会社で	-10.742
割には	-10.7423
わからなかった	-10.7425
休	-10.7425
は一切	-10.7425
」「	-10.7426
ないで	-10.7426
触り心地	-10.7426
苦しく	-10.7427
方が良かった	-10.7429
色味が	-10.743
垂れ	-10.743
見つけ	-10.7431
していたら	-10.7433
個セット	-10.7434
届いたとき	-10.7435
早く届いて	-10.7437
方が良いと思います	-10.7437
乾燥肌	-10.7438
ブラック購入	-10.744
主人も	-10.744
使えず	-10.7443
を使っています	-10.7443
下手	-10.7444
なっています	-10.7445
職場	-10.7445
ませんでしたが	-10.7446
チラ	-10.7447
感想です	-10.745
回数	-10.7451
二人で	-10.7452
プレゼントした	-10.7453
みたいなので	-10.7456
品を	-10.7456
勿論	-10.7456
県	-10.7457
塗料	-10.7457
どうり	-10.7457
唯一	-10.7457
サイズ違い	-10.7457
面が	-10.7459
思った通り	-10.7459
隠れ	-10.7465
よかったと思います	-10.7466
勢い	-10.7466
欲しくて	-10.7466
きませんでした	-10.7467
返品する	-10.7467
味を	-10.7469
とは思いませんでした	-10.7472
あるように	-10.7473
まれて	-10.7474
ちょい	-10.7475
開けてみると	-10.7475
っているので	-10.7478
品質も	-10.748
いただく	-10.7483
はまり	-10.7487
51	-10.7487
対象	-10.7488
良心的	-10.7489
骨盤	-10.7489
コンパクトな	-10.7489
が壊れて	-10.7494
うす	-10.7495
ることが出来	-10.7497
くらいでした	-10.7497
品質が	-10.7502
ようか	-10.7504
ソー	-10.7505
長袖	-10.7505
だったと思います	-10.7509
させてもらいました	-10.7512
届くのを	-10.7513
精	-10.7514
自分も	-10.7514
細くて	-10.7515
購入いたしました	-10.7517
希望通り	-10.7518
値段と	-10.752
妊婦	-10.752
ありがたかったです	-10.752
電話して	-10.7521
が届き	-10.7522
運ぶ	-10.7523
168	-10.7524
半端	-10.7524
ナット	-10.7527
対	-10.7528
売れ	-10.7529
タンク	-10.7529
わかりやすい	-10.753
カーブ	-10.7531
と思いながら	-10.7533
してしまったので	-10.7533
なかったら	-10.7534
サイズを購入しましたが	-10.7534
足元	-10.7534
はやく	-10.7534
が好き	-10.7534
仕方	-10.7537
焼く	-10.7537
せません	-10.7537
指定日	-10.7538
量を	-10.7538
狭	-10.7539
外れる	-10.754
傾	-10.7541
シン	-10.7542
にすると	-10.7542
くれれば	-10.7543
なったり	-10.7543
時間がかかり	-10.7544
ちゃった	-10.7547
ジャスト	-10.7548
自宅用	-10.7548
ブラックを購入	-10.7548
後で	-10.7548
ハリ	-10.7549
待ちました	-10.7549
大分	-10.755
動画	-10.7552
天井	-10.7552
補修	-10.7552
届いてみると	-10.7552
面で	-10.7552
日目に	-10.7553
届け	-10.7554
丁度良く	-10.7556
クッション性	-10.7557
ついてる	-10.7559
決済	-10.7559
思っていたのと	-10.7563
頭に	-10.7563
贈	-10.7565
時代	-10.7566
使用すると	-10.7569
製品は	-10.7569
度目の購入です	-10.7573
がついていて	-10.7575
こそ	-10.7577
つもりでしたが	-10.758
の対応が	-10.7581
着脱	-10.7581
個体差	-10.7583
枯れ	-10.7585
ネコ	-10.7586
ガード	-10.7587
ネジを	-10.7587
美味しいと	-10.7587
購入すること	-10.7589
見えました	-10.7589
倒	-10.7589
私にとっては	-10.7592
臭くて	-10.7594
明記	-10.7596
お値段相応	-10.7596
のかしら	-10.7597
年生	-10.7598
コリ	-10.7598
かご	-10.7602
いるところ	-10.7603
偽物	-10.7603
かせ	-10.7603
まだ使って	-10.7604
股下	-10.7606
そうでした	-10.7609
合わ	-10.761
開けた	-10.7611
後から	-10.7614
と言った	-10.7615
正確	-10.7615
iPad	-10.7616
`*)	-10.7616
靴擦れ	-10.7618
が楽しみ	-10.7618
ダニ	-10.7618
ができた	-10.7624
ないような	-10.7625
参考	-10.7625
指先	-10.7628
以内	-10.7635
たんですが	-10.7641
サイズより	-10.7643
ぶら	-10.7644
寸	-10.7646
お詫び	-10.7648
アンティーク	-10.7648
列	-10.7648
防寒	-10.7649
洗い替え	-10.7652
自身	-10.7653
夏用	-10.7654
ーー	-10.7655
されており	-10.7662
と言われて	-10.7662
説明書も	-10.7662
なので仕方ない	-10.7664
んじゃない	-10.7666
子が	-10.767
相応	-10.7671
安っぽく見え	-10.7671
快	-10.7671
すぎた	-10.7672
ので助かります	-10.7673
IN	-10.7674
危ない	-10.7674
落ち着いて	-10.7675
紙袋	-10.7675
装着して	-10.7675
簡易	-10.7678
をしても	-10.7679
ることなく	-10.7679
カタログ	-10.768
修正	-10.768
フリル	-10.768
迷惑	-10.7681
納	-10.7683
できそう	-10.7684
冷たい	-10.7684
it	-10.7685
に入る	-10.7686
ではありますが	-10.7686
描	-10.7687
といった感じ	-10.7689
伸びない	-10.7691
購入していますが	-10.7691
んだり	-10.7694
ているので	-10.7694
ピッタリです	-10.7694
が無いので	-10.7697
横の	-10.77
縫って	-10.7703
もありませんでした	-10.7703
の多い	-10.7704
悲しい	-10.7705
が入っていた	-10.7705
片側	-10.7709
長いので	-10.771
読んだ	-10.771
息	-10.7711
剥	-10.7712
の購入は	-10.7712
アルコール	-10.7713
蟹	-10.7713
冬の	-10.7718
箱も	-10.7719
正面	-10.7721
便利で	-10.7722
入れ替え	-10.7722
段階で	-10.7722
重宝します	-10.7725
作りに	-10.7726
かっこよく	-10.7727
かもしれませんね	-10.7734
このお値段は	-10.7736
枚購入しました	-10.7739
まれ	-10.774
を選ぶ	-10.7742
って思いました	-10.7744
祝	-10.7744
直ぐ	-10.7745
もしかしたら	-10.7746
内で	-10.7748
義	-10.7752
張って	-10.7753
でこのお値段は	-10.7755
あま	-10.7756
石の	-10.7758
組み合わせ	-10.7761
らないので	-10.7762
載せ	-10.7762
ウム	-10.7763
くらいに	-10.7766
のようなものが	-10.7767
が良いので	-10.7767
辛く	-10.7771
日に注文して	-10.7771
なりませんでした	-10.7773
乗る	-10.7773
工	-10.7776
re	-10.7776
大変な	-10.7777
スピード	-10.7778
キャンプ	-10.7779
美しい	-10.7779
ないかも	-10.7781
っけ	-10.7781
ほしかったです	-10.7784
運送会社	-10.7784
一般的な	-10.7785
消耗品	-10.7786
分で	-10.7789
質は	-10.7789
気がして	-10.779
といえば	-10.779
方がいいです	-10.7793
お手ごろ	-10.7796
を買ったのですが	-10.7796
とおもいました	-10.7796
間違いなく	-10.7796
微妙でした	-10.7801
感じられ	-10.7803
か心配です	-10.7805
とても良かったので	-10.7806
汚く	-10.7806
体系	-10.7809
隣	-10.7811
口の	-10.7812
カフェ	-10.7812
つぶれ	-10.7813
目は	-10.7817
して頂きました	-10.7822
を使用していましたが	-10.7822
服を	-10.7822
端が	-10.7823
薄っぺら	-10.7824
サイズでも	-10.7831
本人も	-10.7833
検	-10.7833
かわいいのですが	-10.7834
ので残念です	-10.7834
決めた	-10.7836
袋も	-10.7843
開始	-10.7843
胃	-10.7843
カートリッジ	-10.7843
幸せ	-10.7844
良ければ	-10.7844
抵抗	-10.7845
してもらい	-10.7845
比べて	-10.7845
ごはん	-10.7846
高級感があり	-10.7853
近所	-10.7854
は買わない	-10.7854
写真で見るより	-10.7855
と共に	-10.7856
探していたところ	-10.7856
と比べ	-10.7858
値段が値段なので	-10.7858
背中の	-10.7859
れてしまいました	-10.786
蓋の	-10.7863
中身を	-10.7864
ましょう	-10.7865
きれいな色	-10.7869
ちょっと高い	-10.7871
かもしれないです	-10.7872
減って	-10.7873
があるのか	-10.7874
圧迫感	-10.7876
行った	-10.7876
うさぎ	-10.7876
一回り	-10.7876
吸盤	-10.7877
っき	-10.7877
怖くて	-10.7878
なのでしょう	-10.7878
にはちょっと	-10.7878
なってきた	-10.7884
恥ずかしくて	-10.7884
初めは	-10.7885
書きます	-10.7887
ナビ	-10.7888
た感じ	-10.7889
支払い	-10.7889
んでしょうね	-10.789
トイレに	-10.7891
実家の	-10.7892
湿	-10.7892
んじゃ	-10.7893
安かったです	-10.7894
さんは	-10.7897
する予定です	-10.7897
にひかれて	-10.7897
入るので	-10.7898
粘	-10.7899
と書かれて	-10.7905
たとき	-10.7907
イカ	-10.7908
飲みやすいです	-10.7909
ばかりです	-10.7909
iphone	-10.7909
久々に	-10.7909
慎重に	-10.7909
を見たら	-10.791
聴	-10.7911
を利用して	-10.7911
気に入ったのですが	-10.7915
面倒です	-10.7916
切れた	-10.7918
辛口	-10.7919
われて	-10.792
長くて	-10.7922
キット	-10.7922
入れた	-10.7922
ぴったりで	-10.7927
袖の	-10.7929
穴の	-10.7929
買ったもの	-10.7932
たのか	-10.7936
楽天の	-10.7936
もったいないので	-10.7938
つけました	-10.7938
節	-10.7939
よくない	-10.794
尚	-10.7942
補正	-10.7942
クッションが	-10.7942
ドライヤー	-10.7942
お得に	-10.7942
遮光	-10.7943
統一	-10.7944
息子は	-10.7944
二回目	-10.7945
使用してみました	-10.7947
濃いめ	-10.7948
深く	-10.7948
良かったけど	-10.7949
着心地が	-10.7949
感があります	-10.7951
透けて	-10.7953
手洗い	-10.7954
のために購入	-10.7957
重いので	-10.7958
入れても	-10.7964
乗せて	-10.7967
堅	-10.7968
とても美味しかったです	-10.7972
箱は	-10.7973
絵本	-10.7973
の上で	-10.7973
この商品に	-10.7974
ように感じます	-10.7975
スカスカ	-10.7975
ホテル	-10.7975
電波	-10.7975
クレンジング	-10.7976
宅配便	-10.7976
は必要	-10.7976
すばらしい	-10.7977
以外に	-10.7977
機能的	-10.7978
つけ心地	-10.798
少し小さめ	-10.7981
糸くず	-10.7983
さい	-10.7984
楽で	-10.7986
冬に	-10.7989
感じられません	-10.7991
他店の	-10.7993
積	-10.7994
しちゃいました	-10.7994
かわかりませんが	-10.7996
走	-10.7997
まっすぐ	-10.7998
味です	-10.8001
百	-10.8002
子供と	-10.8006
をおすすめします	-10.8007
題	-10.8007
が良くて	-10.8008
度目の	-10.8008
月中旬	-10.8009
ふっくら	-10.8009
衣類	-10.8009
水晶	-10.8009
贈り物に	-10.8011
綺麗な色	-10.8012
なってしまった	-10.8016
難点	-10.8016
猫が	-10.8017
抜け毛	-10.8017
それまで	-10.8019
消えて	-10.8026
はなかったです	-10.8026
斜め	-10.8028
影響	-10.8029
ごとに	-10.803
とのことでしたが	-10.8031
かもしれないけど	-10.8033
値段の	-10.8035
使っていて	-10.8038
皮の	-10.8039
川	-10.8042
使い物にならない	-10.8042
とてもかわいい	-10.8042
に対する	-10.8043
程よく	-10.8043
気持ち悪い	-10.8044
届いてすぐ	-10.8045
たかったのですが	-10.8045
ワックス	-10.8045
即決	-10.8048
無いです	-10.8048
市販	-10.8051
の様に	-10.8052
にならず	-10.8054
は絶対	-10.8056
まだ届いていませんが	-10.806
ッカ	-10.8061
期待しすぎた	-10.8063
添え	-10.8065
イメージ通り	-10.8066
普段から	-10.8071
ワー	-10.8072
書け	-10.8074
文章	-10.8075
スマート	-10.8076
紛失	-10.8076
が出来る	-10.8077
梅雨	-10.8078
作りで	-10.8078
たれ	-10.8083
購入できる	-10.8087
見てみると	-10.8088
買ってみた	-10.809
が面倒	-10.8091
全体の	-10.8093
速く	-10.8093
いずれ	-10.8094
まえ	-10.8094
トレ	-10.8095
れませんでした	-10.8096
交換してもらいました	-10.8096
対応を	-10.8096
ますし	-10.8098
足のサイズ	-10.8099
濃厚	-10.8105
ボー	-10.8106
清	-10.8109
隅	-10.8109
ゴロゴロ	-10.811
一袋	-10.8112
購入しよう	-10.8115
首回り	-10.8116
袋から	-10.8117
写真のような	-10.8117
問題はありません	-10.8118
利用しません	-10.8119
掛	-10.812
福	-10.812
長かった	-10.8123
わかりませんでした	-10.8124
本体は	-10.8125
かなと思い	-10.8128
大きいの	-10.8128
有る	-10.8129
の時は	-10.8134
みたいな感じ	-10.814
飯	-10.814
明るめ	-10.8143
な気がします	-10.8143
常備	-10.8144
可愛らしく	-10.8144
もちもち	-10.8145
らなくて	-10.8145
あんな	-10.8147
精度	-10.8147
知らない	-10.8151
感動しました	-10.8152
とても良く	-10.8152
と思ったので	-10.8152
AN	-10.8155
キラキラして	-10.8156
訳で	-10.8156
ってしまいます	-10.8157
最高に	-10.8162
開封した	-10.8163
時間指定	-10.8164
食べてます	-10.8165
本来の	-10.8169
試してみた	-10.8171
わかりにくい	-10.8172
でしょうね	-10.8172
生地が薄く	-10.8172
おりましたが	-10.8173
るから	-10.8173
髪質	-10.8174
わからないので	-10.8174
は十分	-10.8176
弱く	-10.8176
待ち遠しい	-10.8177
バレンタイン	-10.8177
異なり	-10.8179
出ます	-10.818
チャン	-10.8182
おすすめできません	-10.8182
があったり	-10.8184
組み立てが	-10.8187
良いかな	-10.8193
所々	-10.8194
頼んだのに	-10.8194
いただける	-10.8197
安いだけ	-10.8197
商品ページ	-10.8197
短くて	-10.8197
触った	-10.8199
ることができました	-10.82
黒と	-10.8201
さっと	-10.8203
明るい色	-10.8206
マフラー	-10.8211
ガンガン	-10.8212
だら	-10.8213
接着剤で	-10.8215
使えなくなりました	-10.8216
どり	-10.8217
未使用	-10.8218
梱包も丁寧で	-10.8223
暖	-10.8224
リピートしたいです	-10.8227
はきやすい	-10.823
今後の	-10.824
地元	-10.8244
パカパカ	-10.8245
ポロポロ	-10.8245
Q	-10.8245
フラット	-10.8246
髪の毛が	-10.8247
の悪さ	-10.8248
ゴミが	-10.8253
小学生の	-10.8255
ることも	-10.8256
とっても可愛いです	-10.8257
やった	-10.8258
中途半端	-10.826
になってます	-10.8261
写	-10.8261
しかなく	-10.8263
靴下を	-10.8265
色が違う	-10.8267
ひどく	-10.8267
敷く	-10.8268
落ちました	-10.8268
を求めて	-10.8269
また購入	-10.8271
送料込	-10.8273
高額	-10.8274
っさ	-10.8276
見ても	-10.8279
代わり	-10.8279
医	-10.8279
ぽっちゃり	-10.828
ソン	-10.828
ついつい	-10.8281
付け替え	-10.8281
自体の	-10.8282
余裕がある	-10.8283
気にいって	-10.8284
言うと	-10.8284
荷物を	-10.8284
方なら	-10.8286
やっぱ	-10.8288
きちんとした	-10.829
サイズにしました	-10.8291
汚れも	-10.8292
聞く	-10.8294
たくありません	-10.8297
考えた	-10.8299
利用した	-10.8302
爪が	-10.8302
するもの	-10.8304
立派	-10.8304
玄関に	-10.8304
値段も手頃	-10.8307
掛ける	-10.8309
不思議	-10.8309
レイ	-10.831
グレーの	-10.831
小さめで	-10.8313
桜	-10.8314
前回の	-10.8315
羽毛布団	-10.8317
結び	-10.8318
やすそうです	-10.8319
164	-10.8321
注文したら	-10.8324
速度	-10.8326
小粒	-10.8327
母の日のプレゼント	-10.8328
着心地も	-10.833
以前より	-10.8332
トイレの	-10.8334
書いてあった	-10.8335
ランド	-10.8337
ないようです	-10.834
嬉しかった	-10.834
新居	-10.8343
外して	-10.8345
だけに残念	-10.8347
階段	-10.8349
ひんやり	-10.8351
リビングに	-10.8354
されず	-10.8354
ちゃち	-10.8355
飼って	-10.8357
と言う事	-10.8363
丁寧な梱包	-10.8363
ってしまう	-10.8364
ぐらいです	-10.8368
やすいし	-10.837
品物が	-10.8371
ときには	-10.8373
自宅用に	-10.8373
と聞いて	-10.8375
チューブ	-10.8375
脇の	-10.8376
死	-10.8376
商品画像	-10.8378
ちょっとがっかり	-10.8379
かなあ	-10.8381
良かったですが	-10.8381
傷んで	-10.8381
底の	-10.8382
機械	-10.8383
デパート	-10.8383
垢	-10.8383
酵素	-10.8383
@	-10.8384
飛んで	-10.8385
私自身	-10.8385
どうしようか	-10.8385
ないよう	-10.8388
レビューをみて	-10.8389
たのは	-10.8391
チュー	-10.8392
毎	-10.8392
落とした	-10.8393
黒を購入	-10.8395
おくと	-10.8395
良いのか	-10.8395
突	-10.8396
であること	-10.84
小型	-10.8401
の上から	-10.8401
可愛かったので	-10.8404
派	-10.8405
なかったのに	-10.8406
はけ	-10.8406
喜んでくれて	-10.8406
壊れそう	-10.8409
利用したいです	-10.8411
もらいましたが	-10.8412
余裕で	-10.8415
買ったほうが	-10.8415
ないこと	-10.8415
さず	-10.8417
証	-10.8417
なるべく	-10.8418
この価格なら	-10.8418
優しく	-10.8419
かんじです	-10.842
なってきました	-10.8421
使い易い	-10.8424
ができない	-10.8425
の方も	-10.8431
思った通りの	-10.8431
無かったので	-10.8435
購入前に	-10.8437
るだけ	-10.8437
という感じでした	-10.8438
購入してます	-10.8438
役に立	-10.8439
と思いつつ	-10.844
の形が	-10.844
洗	-10.8448
無駄な買い物	-10.8452
仮	-10.8453
程で	-10.8453
二の腕	-10.8454
この大きさ	-10.8455
具合が	-10.8456
が違います	-10.8461
ミン	-10.8462
あるの	-10.8463
らないと	-10.8466
幼稚園の	-10.847
問題なく使用でき	-10.8473
を敷いて	-10.8475
と言われた	-10.8475
とは言え	-10.8475
サイドの	-10.8476
返事が	-10.8476
動物	-10.8477
;;	-10.8478
(^^;	-10.848
バックル	-10.8483
ショップです	-10.8483
値段以上の	-10.8483
うん	-10.8487
アメリカ	-10.8487
等に	-10.8488
物より	-10.8488
初回	-10.8489
シュー	-10.849
点セット	-10.8492
店の対応	-10.8493
選ぶ	-10.8493
れるので	-10.8494
いきたいと思います	-10.8495
脚の	-10.8496
にしたい	-10.8498
なっていて	-10.8498
存在	-10.8499
であった	-10.8504
94	-10.8509
のところに	-10.8514
素早く	-10.8516
で買うより	-10.8517
痛くなり	-10.8518
探した	-10.8519
樹脂	-10.8523
六	-10.8523
絶賛	-10.8523
茎	-10.8523
涼しい	-10.8523
詰め替え	-10.8523
納品書	-10.8524
なければならない	-10.8524
我が家には	-10.8525
貼った	-10.8526
発送予定	-10.8527
アーム	-10.8529
に最適	-10.853
文句なしです	-10.853
かないと	-10.8531
それ以上	-10.8535
合わせる	-10.8536
一杯	-10.8536
職場の	-10.8537
ろうと	-10.8538
には合いませんでした	-10.8539
だったし	-10.8543
商品が届く	-10.8544
シルエットが	-10.855
がよかったので	-10.8554
の臭いが	-10.8554
均で	-10.8557
働	-10.8558
フカフカ	-10.8558
バルブ	-10.8559
真っ赤	-10.856
補	-10.856
すごいです	-10.8561
UP	-10.8564
ヒモ	-10.8565
全然違います	-10.8566
父の日のプレゼント	-10.8568
お店です	-10.857
分解	-10.8571
洗ったら	-10.8574
ブルーの	-10.8575
購入していましたが	-10.8582
ニオイが	-10.8582
NG	-10.8583
しっかりしていました	-10.8585
されます	-10.8586
大型	-10.8587
ドン	-10.8588
真冬	-10.859
見やすい	-10.859
問	-10.8591
職	-10.8592
楽天市場	-10.8593
ターコイズ	-10.8593
使いこなせ	-10.8593
分くらい	-10.8593
相変わらず	-10.8594
食べると	-10.8594
文字盤	-10.8594
足りません	-10.8594
午後	-10.8596
絡ま	-10.8596
焼	-10.8604
レビューします	-10.8604
多すぎ	-10.8605
タイム	-10.8606
致しました	-10.8607
完成品	-10.8607
不明です	-10.8613
トライ	-10.8614
取った	-10.8614
損した気分	-10.8614
いたもの	-10.8621
これが一番	-10.8623
をしたら	-10.8626
厳	-10.8628
250	-10.8628
劣	-10.8628
検査	-10.8628
スタイリッシュ	-10.8629
大切な	-10.8629
ブログ	-10.8629
美味しくなかった	-10.8629
した時に	-10.8633
購入時	-10.8636
るところ	-10.8637
の匂いが	-10.8639
それとも	-10.8642
▁1,,2	-10.8645
扱って	-10.8645
買って損	-10.8646
なかったけど	-10.8649
物なので	-10.865
継続	-10.8651
より少し	-10.8653
付いていた	-10.8655
見れば	-10.8656
コンパクトに	-10.8658
深さ	-10.8663
ハッキリ	-10.8663
錠	-10.8664
楽しみにしていたのに	-10.8666
送料は	-10.8667
奥行き	-10.8667
家族みんな	-10.8668
大丈夫な	-10.867
お勧めしません	-10.867
塩分	-10.867
ウエストは	-10.8671
ニング	-10.8671
大変助かりました	-10.8675
カラーが	-10.8676
組立て	-10.8678
こちらでは	-10.8678
たび	-10.8678
に驚きました	-10.8682
もう一枚	-10.8683
様で	-10.8684
主に	-10.8684
縫い付け	-10.8688
なんの	-10.8688
持っていた	-10.8689
遅くなりました	-10.869
あげた	-10.869
いだ	-10.869
全体が	-10.8693
.........	-10.8695
が大好きな	-10.8697
職場で	-10.8698
アウト	-10.8699
独	-10.87
ハーフ	-10.87
通気性	-10.87
マウス	-10.87
もらおう	-10.87
安っぽかった	-10.87
レバー	-10.8701
シフォン	-10.8702
んど	-10.8704
検索して	-10.8705
記載して	-10.8705
似て	-10.8706
したほうが	-10.8708
贈った	-10.8711
もらえた	-10.8714
必需品です	-10.8714
がいいので	-10.8714
今年も	-10.872
安かったので購入しました	-10.8723
着用する	-10.8728
しっかりした生地	-10.873
身体に	-10.8731
見えるので	-10.8732
在	-10.8734
日は	-10.8734
後ろに	-10.8734
リピーター	-10.8734
いった	-10.8735
松	-10.8736
層	-10.8736
クリーナー	-10.8736
喉	-10.8736
インパクト	-10.8736
市	-10.8736
ヨガ	-10.874
00	-10.874
重要	-10.8741
ケースも	-10.8742
長く使える	-10.8745
レビューを読んで	-10.8747
ずら	-10.8747
なんですね	-10.8748
触って	-10.8752
袋の	-10.8753
厚みがあり	-10.8754
分かれ	-10.8755
毛の	-10.8756
一口	-10.8757
横幅	-10.8759
席	-10.876
してみたら	-10.8761
を使っている	-10.8762
丁寧でした	-10.877
宅	-10.8771
報告	-10.8771
譲	-10.8772
まつげ	-10.8772
特有の	-10.8772
だって	-10.8773
激しい	-10.8773
メンズ	-10.8774
薄かった	-10.8775
いたのが	-10.8775
ブラックの	-10.8775
満足のいく	-10.8776
と言うより	-10.8776
控えめ	-10.8776
知らず	-10.8781
オフホワイト	-10.8782
犬の	-10.8783
ブレ	-10.8784
違和感なく	-10.8786
飲める	-10.8787
革が	-10.8788
買えない	-10.879
が多いです	-10.879
とても喜んでもらえました	-10.8791
購入しようか	-10.8792
とても便利	-10.8793
粉が	-10.8794
良いのに	-10.8794
配送は	-10.8796
を開けて	-10.8797
際は	-10.8798
即買い	-10.88
後味	-10.8801
静	-10.8803
本当に残念です	-10.8804
乾か	-10.8805
おしゃれです	-10.8806
月下旬	-10.8808
欠陥	-10.8808
馬鹿	-10.8808
グリ	-10.881
使いやすかったです	-10.8812
付け心地	-10.8813
美味しいので	-10.8817
急ぎで	-10.8818
理想	-10.8819
ひどいです	-10.882
歪み	-10.8821
さない	-10.8822
とてもよく	-10.8823
裾の	-10.8825
読ま	-10.8825
カバーも	-10.8827
スーパーの	-10.8829
時から	-10.883
最大	-10.8832
してくれた	-10.8833
箱に入って	-10.8833
ポケットも	-10.8834
他の人	-10.8834
するし	-10.8837
のようなもの	-10.8839
クオリティー	-10.8842
気づか	-10.8844
寿命	-10.8844
の割に	-10.8844
カーディガン	-10.8844
少なめ	-10.8844
気づいた	-10.8844
まだ使っていませんが	-10.8846
値段が値段	-10.8847
写真と違う	-10.8849
二度と利用しません	-10.8849
越	-10.885
透明の	-10.8853
空気が	-10.8856
無料で	-10.8856
へのプレゼントに	-10.8857
ヶ月の	-10.8857
結婚祝い	-10.8859
広げて	-10.8862
しまいましたが	-10.8863
部分と	-10.8865
画	-10.8866
これ以上	-10.8868
付けました	-10.8869
には合わなかった	-10.887
きたら	-10.887
人なら	-10.8872
想像してた	-10.8872
って思って	-10.8876
151	-10.8876
ダン	-10.8877
なじみ	-10.8877
束	-10.8877
落ち着いた感じ	-10.8879
洗面所	-10.888
風邪	-10.8881
続ける	-10.8881
主張	-10.8882
ちがう	-10.8882
臭が	-10.8882
買い物を	-10.8882
座椅子	-10.8882
価格相応	-10.8884
間に合う	-10.8884
だれ	-10.8885
メイ	-10.8886
が来る	-10.8888
気を付けて	-10.8894
ナイ	-10.8895
微	-10.8895
意味で	-10.8896
来ません	-10.8897
実物を見	-10.8898
チャー	-10.8899
いつ届く	-10.8902
るとき	-10.8904
持ち上げ	-10.891
いい買い物ができました	-10.8914
だなぁ	-10.8914
可愛いのに	-10.8916
いろいろと	-10.8916
アクリル	-10.8917
よっぽど	-10.8917
ザラザラ	-10.8917
(-_-;)	-10.8917
ステッチ	-10.8917
素足で	-10.8918
茹で	-10.8918
固まって	-10.8918
カラフル	-10.8919
キャリー	-10.8919
ファンデ	-10.8921
風合い	-10.8921
オシャレで	-10.8921
悩んだ	-10.8921
になっていたので	-10.8921
なのかもしれませんが	-10.8927
落ち着いた色	-10.893
試してみましたが	-10.8931
レースが	-10.8936
よって	-10.8938
生地もしっかりして	-10.8938
ピンクを購入	-10.894
指の	-10.894
幸い	-10.8941
届きませんでした	-10.8943
その辺	-10.8948
何回	-10.8949
筒	-10.895
日程	-10.895
値段に	-10.8951
っく	-10.8951
足は	-10.8951
癒され	-10.8953
値段を考えると	-10.8953
習	-10.8953
くるぶし	-10.8953
不味い	-10.8953
かわいらしい	-10.8954
ビタミン	-10.8954
泳	-10.8954
詰まって	-10.8954
はないですが	-10.8954
との相性	-10.8957
充実	-10.8958
ちぎれ	-10.8958
というよりは	-10.8959
アダプター	-10.8959
おすすめしません	-10.896
画像は	-10.896
×2	-10.8961
といった感じです	-10.8962
違っていました	-10.8966
用紙	-10.8967
効く	-10.8968
身が	-10.8969
しっかりとした作り	-10.8972
扱いやすい	-10.8973
無理です	-10.8973
たべ	-10.8975
マッチ	-10.8975
揃えて	-10.8976
商品が届きません	-10.8977
気になりますが	-10.898
のですか	-10.898
難しいですね	-10.8983
良いかもしれません	-10.8984
かは	-10.8984
状の	-10.8985
ご対応	-10.8985
パンツは	-10.8986
ような感じで	-10.8987
児	-10.8988
科	-10.8989
敏	-10.899
郵便	-10.899
してみて	-10.899
ヤマト	-10.899
リラックス	-10.899
お中元	-10.899
氷	-10.899
こたつ	-10.8991
気に入っている	-10.8991
値段相応です	-10.8993
コチラ	-10.8993
赤色	-10.9
困っています	-10.9
コピー	-10.9002
料理に	-10.9003
んでしょう	-10.9003
と言うか	-10.9004
は買いません	-10.9004
していないので	-10.9004
広がって	-10.9005
ぽい	-10.9005
それなら	-10.9008
が出た	-10.9009
ごく	-10.901
着心地は	-10.901
マグ	-10.901
回ほど	-10.9011
セン	-10.9016
ビックリです	-10.9017
サイズと	-10.9017
を置く	-10.9017
ごま	-10.902
履いています	-10.902
へん	-10.9022
言うこと	-10.9024
痩せて	-10.9024
伸縮	-10.9026
あり得ない	-10.9027
ごこち	-10.9027
くっきり	-10.9033
薄手で	-10.9036
段階	-10.9038
にするか	-10.9039
撮	-10.9039
かゆく	-10.9041
増え	-10.9041
写真に	-10.9042
商品到着まで	-10.9043
漏れて	-10.9045
予	-10.9045
干	-10.9047
他の方が	-10.9047
よくわからない	-10.9048
楽しめます	-10.9049
滑らか	-10.905
とても美味しい	-10.9051
手頃な	-10.9052
が原因	-10.9053
旦那さん	-10.9053
では無い	-10.9054
た後	-10.9054
も綺麗で	-10.9055
期待以上	-10.9057
日中	-10.9058
していると	-10.9058
吸水性	-10.906
紅	-10.9061
数時間	-10.9063
―	-10.9063
あん	-10.9063
栗	-10.9064
オレンジ色	-10.9064
凝	-10.9064
予想より	-10.9065
冷凍庫	-10.9065
話題	-10.9066
ウッド	-10.9068
型崩れ	-10.9068
コードが	-10.9072
フリーサイズ	-10.9074
が悪いので	-10.9076
始めました	-10.908
すご	-10.908
確認しなかった	-10.9081
気を付け	-10.9081
ミル	-10.9083
与えて	-10.9083
経つ	-10.9087
いいのかな	-10.9088
かと思ったら	-10.9089
届かなかった	-10.909
学生	-10.9092
ようなもの	-10.9095
お部屋	-10.9095
ピタ	-10.9096
使用していました	-10.91
設	-10.91
行きました	-10.9101
誠意	-10.9101
ドキドキ	-10.9101
発表会	-10.9101
だいたい	-10.9102
突っ張	-10.9102
おむつ	-10.9102
運動会	-10.9104
入りの	-10.9104
盛れ	-10.9105
(;_;)	-10.9105
プッシュ	-10.9105
とってもかわいいです	-10.9106
すべり	-10.9108
しっかりしたもの	-10.9108
レビューは	-10.9109
決め手	-10.9113
156	-10.9113
紺色	-10.9113
するほど	-10.9115
あいませんでした	-10.9115
ではなかったので	-10.9116
保温	-10.9116
葉っぱ	-10.9118
動きやすい	-10.9134
毛先	-10.9134
良くなかった	-10.9135
無くなり	-10.9136
を置いて	-10.9137
マラソン	-10.9139
ちゃっちい	-10.9139
着こなせ	-10.9139
ゴミ箱行き	-10.914
違いすぎ	-10.9141
同じように	-10.9142
注文してみました	-10.9145
取り付けは	-10.9146
グリーンを購入しました	-10.9147
問題はない	-10.9149
いつか	-10.9154
ホワイトを購入しました	-10.9157
組み立てました	-10.9157
ライブ	-10.9161
組み	-10.9164
耳に	-10.9164
メモ	-10.9166
に変えて	-10.9169
剥げ	-10.9172
色違いも	-10.9175
ヒーター	-10.9175
西	-10.9175
軸	-10.9176
問合せ	-10.9176
サイズなので	-10.9177
しようかな	-10.9177
定期的に	-10.9177
社の	-10.9178
ショップの対応は	-10.9179
即納	-10.9179
なにか	-10.9179
飲むと	-10.918
緩い	-10.9181
香りで	-10.9181
割れた	-10.9184
落下	-10.9185
服の	-10.919
をすると	-10.9192
2013	-10.9196
を開け	-10.9197
安くなって	-10.9201
柔らかさ	-10.9202
したかったので	-10.9206
二度	-10.9209
見たこと	-10.9209
の場合	-10.9209
分からず	-10.9212
芽	-10.9213
殻	-10.9214
貴	-10.9214
合っている	-10.9214
出かけ	-10.9215
実用性	-10.9216
きつかった	-10.9216
のせいで	-10.9218
飲み始めて	-10.9218
持ち歩く	-10.9224
したのは	-10.9224
真夏	-10.9229
大喜びでした	-10.923
他の方も	-10.9233
擦れ	-10.9234
サイズが小さい	-10.9237
薄すぎ	-10.9238
まい	-10.9239
を確認して	-10.9243
はまって	-10.9244
驚	-10.9245
▁T	-10.9249
700	-10.9252
といわれ	-10.9253
応	-10.9254
二度と買わない	-10.9254
顔を	-10.9255
を飲んで	-10.9259
うちの子は	-10.9259
目的で	-10.9264
見事に	-10.9265
良い買い物でした	-10.9265
少なかった	-10.9266
リピはありません	-10.9267
ブルーを購入しました	-10.9267
???,	-10.9267
数字	-10.9268
おいた	-10.9269
ユニ	-10.927
たしかに	-10.927
とゆう	-10.9271
座った	-10.9272
発送の連絡	-10.9273
を取る	-10.9275
真ん中の	-10.9279
した所	-10.9281
袋に入って	-10.9281
サイズもぴったり	-10.9283
二個	-10.9284
の中でも	-10.9288
ワクワク	-10.9289
着ています	-10.9289
掛かる	-10.929
好き嫌い	-10.9291
皆さんの	-10.9294
お安くて	-10.9298
口の中	-10.9299
説明書に	-10.9299
総	-10.9301
待った	-10.9302
食べます	-10.9304
1500	-10.9305
えた	-10.931
ar	-10.9311
シミが	-10.9311
おかず	-10.9312
ディー	-10.9315
に混ぜて	-10.9317
バッグに	-10.9317
いないのですが	-10.9318
務	-10.9318
閉	-10.9319
部屋で	-10.9319
ことが出来ました	-10.9326
きいて	-10.9326
栓	-10.9327
スティック	-10.9327
響	-10.9327
徐々に	-10.9327
限界	-10.9327
僕	-10.9327
裁縫	-10.9328
別途	-10.9328
頼む	-10.933
足りなかった	-10.9332
ma	-10.9335
こんなものかな	-10.9335
その日に	-10.9335
デザインはかわいい	-10.934
おお	-10.9343
落ちた	-10.9345
フィットする	-10.9347
私の場合	-10.9349
続	-10.9354
伸ばして	-10.9358
出ない	-10.9359
is	-10.9363
最後	-10.9363
負	-10.9364
ブレーキ	-10.9365
殺	-10.9365
ハンド	-10.9366
(≧∇≦)	-10.9366
むくみ	-10.9366
困難	-10.9366
るために	-10.937
安いので仕方ない	-10.937
という感じで	-10.9371
これからの	-10.9371
らせて	-10.9373
その旨	-10.9373
蓋を	-10.9376
体を	-10.9376
回しか	-10.9377
同じサイズ	-10.9381
★★	-10.9381
SD	-10.9383
台所	-10.9384
替えて	-10.9384
折り目	-10.9385
よかったかも	-10.9389
の厚み	-10.9396
茶色の	-10.9397
値段通り	-10.9399
集め	-10.94
ことが多い	-10.9403
スキニー	-10.9404
ピカピカ	-10.9404
弟	-10.9404
株	-10.9404
撥水	-10.9404
パターン	-10.9404
キムチ	-10.9404
沸	-10.9404
欲を言えば	-10.9404
失敗です	-10.9404
デビュー	-10.9404
2.5	-10.9407
を通す	-10.9408
と同時に	-10.9409
音量	-10.9411
付属品	-10.9412
が入った	-10.9416
ほうが良い	-10.942
なってしまい	-10.9422
と一緒に購入	-10.9425
とても素敵な	-10.9427
をかける	-10.9429
かからない	-10.9432
ことがあります	-10.9434
出来ないので	-10.9434
浅く	-10.9436
所で	-10.9436
補充	-10.9438
使えそうな	-10.9438
世界	-10.9441
おかしく	-10.9442
業務用	-10.9442
お粗末	-10.9442
!!!!	-10.9444
難しかった	-10.9444
地域	-10.9445
ホームページ	-10.9446
どっち	-10.9446
気に入ったようです	-10.9451
返し	-10.9451
国内	-10.9451
がかった	-10.9451
気泡	-10.9452
単品で	-10.9455
私ですが	-10.9455
収納でき	-10.9457
r	-10.9461
ユー	-10.9461
167	-10.9462
無しで	-10.9464
祝いに	-10.9465
確認してから	-10.9465
も無い	-10.9467
オシャレな	-10.9472
の商品で	-10.9473
楽しみにしていた	-10.9473
ひび割れ	-10.9479
自己	-10.948
可もなく不可もなく	-10.9482
安心感	-10.9482
エンジン	-10.9482
花束	-10.9483
買って正解でした	-10.9485
お腹の	-10.9486
お盆	-10.9487
思いを	-10.9488
以前使っていた	-10.949
デブ	-10.9493
注意が必要です	-10.9494
タレ	-10.9494
だめでした	-10.9501
ジョ	-10.9502
初期	-10.9503
ばら	-10.9505
覚え	-10.9507
ありそう	-10.9507
ふわふわで	-10.9507
を試して	-10.9507
大変満足	-10.9508
いいと思いました	-10.951
同封	-10.951
きれいでした	-10.9511
均の	-10.9513
踏	-10.9513
のだろう	-10.9514
参	-10.9515
好評です	-10.9516
房	-10.9519
尿	-10.952
街	-10.952
迫	-10.952
ピリピリ	-10.9521
ささ	-10.9523
かかとの	-10.9524
くなった	-10.9525
154	-10.9525
に惹かれて購入しました	-10.9525
いたけど	-10.9527
ラッキー	-10.9529
センチくらい	-10.953
総合的に	-10.953
なぁと思いました	-10.953
希望の	-10.9543
まだ届かない	-10.9545
の組み合わせ	-10.9551
あるし	-10.9555
使用したら	-10.9557
王	-10.9558
モコモコ	-10.9558
活躍してくれそうです	-10.9559
保護フィルム	-10.956
十分に	-10.9561
フォン	-10.9561
音質	-10.9562
されているので	-10.9563
わずか	-10.9566
手に入り	-10.9567
ってしまい	-10.9568
代金	-10.957
同封されて	-10.957
ブック	-10.957
選べて	-10.9571
なるほど	-10.9578
申し訳ありません	-10.958
なのと	-10.9583
日以上	-10.9583
実用	-10.9584
なりますが	-10.9586
売り切れて	-10.9589
ときも	-10.9591
上着	-10.9591
初めから	-10.9595
気にしない	-10.9595
ポリエステル	-10.9597
買わなきゃよかった	-10.9598
お願いしたいです	-10.9598
すのこ	-10.9599
仕方ないですが	-10.96
に入った	-10.96
ワイド	-10.9601
筋肉	-10.9601
カラーの	-10.9601
小学	-10.9601
になるし	-10.9602
商品が到着し	-10.9602
致します	-10.9603
着れそう	-10.9604
送られてきました	-10.9605
スパ	-10.9605
折れました	-10.9606
真ん中に	-10.9614
ページに	-10.9614
モデルさんが	-10.9615
いるのが	-10.9618
落ちません	-10.9618
写真の通り	-10.9618
父に	-10.9618
ちょうど良いです	-10.9618
来年も	-10.9621
歩きやすい	-10.9624
他のお店で	-10.9625
レベルです	-10.9627
は分かりませんが	-10.9631
頼りない	-10.9633
遅	-10.9634
避け	-10.9634
径	-10.9635
キャラクター	-10.9637
指摘	-10.9637
竹	-10.9637
アーモンド	-10.9637
気に入ってくれました	-10.9638
不備	-10.9639
どう見ても	-10.964
着ない	-10.964
小柄な	-10.964
安定して	-10.964
レビュー通り	-10.964
ホン	-10.9642
ないまま	-10.9643
無しです	-10.9644
たくて購入しました	-10.9644
商品の到着	-10.9644
お高い	-10.9645
ほしく	-10.9645
脂身	-10.9645
続いて	-10.9646
家族が	-10.9646
le	-10.9648
使ってた	-10.9649
周りに	-10.9649
の感想です	-10.9653
買い物ができました	-10.9653
2、3	-10.9656
確か	-10.9656
の状態で	-10.9658
受け付け	-10.9658
にくいし	-10.9662
カ所	-10.9662
年前	-10.9663
大きすぎました	-10.9664
取付け	-10.9665
自然に	-10.9667
抜	-10.9669
ねー	-10.9671
友人へ	-10.9671
円でも	-10.9673
持ち運びに	-10.9674
近所で	-10.9674
ニュー	-10.9674
量が多い	-10.9675
作りもしっかりして	-10.9675
以来	-10.9675
舌	-10.9675
遣	-10.9675
高価	-10.9676
づらかった	-10.9677
予定日	-10.9677
片手で	-10.9679
金具の	-10.968
のメールを	-10.9681
デカイ	-10.9683
なってきて	-10.9683
残った	-10.9684
首に	-10.9685
も良いし	-10.9685
回って	-10.9688
交換する	-10.9688
をさがして	-10.9693
寝ている	-10.9693
はないでしょう	-10.9696
たか	-10.9697
脚が	-10.9698
他は	-10.9699
のラインが	-10.9699
まん	-10.9701
引いて	-10.9703
飾る	-10.9708
もあるし	-10.9709
ジャージ	-10.971
量が少ない	-10.9711
マジック	-10.9713
呼	-10.9715
受注	-10.9715
維持	-10.9716
支障	-10.9716
オモチャ	-10.9716
彼氏	-10.9716
チャコール	-10.9716
穴が空いて	-10.9717
和室	-10.9718
同等	-10.9719
キャン	-10.972
日時	-10.9721
大きさです	-10.9722
指定した	-10.9725
いいんですが	-10.9725
手書き	-10.9727
を購入してみました	-10.9729
梅干し	-10.9731
触	-10.9734
なんでしょう	-10.9737
厚みも	-10.9738
ーブ	-10.9739
書類	-10.9741
かと思った	-10.9741
画像で	-10.9742
使い分け	-10.9745
うつ	-10.9746
秋冬	-10.9747
とともに	-10.9749
買い物が出来ました	-10.975
ように感じました	-10.9755
キツい	-10.9756
ばっかり	-10.9756
いかず	-10.9759
曲げ	-10.976
苦笑	-10.9765
かどうかは	-10.9765
入っていたので	-10.9768
入れると	-10.9769
せいなのか	-10.9771
みえます	-10.9773
お値段の割に	-10.9773
長期	-10.9773
難あり	-10.9774
縦に	-10.9774
書かれていた	-10.9774
またリピートします	-10.9775
間に合いました	-10.9777
カワイイです	-10.9782
植物	-10.9784
顔の	-10.979
*\	-10.9791
っていたので	-10.9793
使おうと思って	-10.9794
伝票	-10.9795
おしっこ	-10.9795
トレーニング	-10.9796
落とす	-10.9797
と記載されて	-10.9798
四角	-10.9799
当たって	-10.98
多めに	-10.98
かぶって	-10.9806
母は	-10.9807
大人の	-10.9808
を切って	-10.9813
測って	-10.9813
炒め	-10.9813
エアー	-10.9815
手紙	-10.9819
..\	-10.982
も入って	-10.9823
断念	-10.9824
感じがして	-10.9824
乗せる	-10.9825
たほうが	-10.9828
外国	-10.9831
包み	-10.9832
AC	-10.9833
端子	-10.9835
オフィス	-10.9835
ダメージ	-10.9835
履き口	-10.9835
佐川急便	-10.9835
ぎりぎり	-10.9835
ファンデーション	-10.9835
二本	-10.9836
とても綺麗な	-10.9837
と言えば	-10.984
つま先が	-10.984
オススメしません	-10.9843
緑色	-10.9844
弾力	-10.9844
するとき	-10.9851
合計	-10.9851
って書いて	-10.9852
食べても	-10.9852
ーっと	-10.9854
高さも	-10.9856
願	-10.9856
隠	-10.986
首周り	-10.9862
無かったです	-10.9864
正常	-10.9866
大正解でした	-10.9866
XS	-10.987
皆さんが	-10.9871
挿	-10.9875
留める	-10.9875
祈	-10.9875
うっかり	-10.9875
こだわり	-10.9875
一目ぼれ	-10.9876
有効	-10.9876
美容液	-10.9877
が目立ち	-10.988
いい感じでした	-10.9882
発送しました	-10.9882
感度	-10.9885
少し高い	-10.9887
張る	-10.9889
厚みがある	-10.9889
持ち手が	-10.9891
キツく	-10.9891
を注文した	-10.9892
午前中	-10.9893
違う商品	-10.9893
見せて	-10.9894
固まり	-10.9895
もらいたい	-10.9896
気になり	-10.9898
ることもなく	-10.9898
開けた瞬間	-10.9899
したとき	-10.99
連絡なし	-10.9902
除け	-10.9904
ラッキーでした	-10.9907
*)	-10.9907
安く購入でき	-10.9909
短いです	-10.9909
足も	-10.9913
購入時に	-10.9913
安いですが	-10.9913
入園	-10.9914
ウレタン	-10.9916
テカテカ	-10.9916
くれたら	-10.9916
かゆみ	-10.9916
思いのほか	-10.9916
本体を	-10.9916
たくなりました	-10.9917
コーナー	-10.9917
引き出しの	-10.9917
辛さ	-10.9919
ショップの方	-10.9919
気になりましたが	-10.9919
入学式	-10.9919
を付ける	-10.9922
自分でも	-10.9922
使いません	-10.9926
中学生	-10.9928
ループ	-10.9929
幅も	-10.9931
使おう	-10.9932
雑です	-10.9932
入れられ	-10.9933
出てきました	-10.9934
使っていましたが	-10.9938
てしまいそう	-10.994
はなさそうです	-10.9945
よいのですが	-10.9945
と言ってました	-10.9948
が欲しくて購入しました	-10.9952
が付いている	-10.9952
滴	-10.9953
ホーム	-10.9954
防止に	-10.9955
また購入します	-10.9955
してもらいたい	-10.9956
空き	-10.9956
〇	-10.9956
徳	-10.9956
楽天ブックス	-10.9956
リットル	-10.9956
貼	-10.9956
味噌汁	-10.9957
りんご	-10.9957
数珠	-10.9958
使っていない	-10.9959
するまで	-10.996
散々	-10.996
週間後	-10.996
フレ	-10.9962
オススメできません	-10.9963
厚めの	-10.9965
両手	-10.9966
費	-10.9967
台無し	-10.9967
楽しいです	-10.997
右側	-10.997
商品を見て	-10.9972
縫製が雑	-10.9973
にびっくり	-10.9974
箱の中	-10.9978
丁度良かったです	-10.9978
日から	-10.9979
自宅に	-10.9979
良いと思いました	-10.9983
特に問題	-10.9985
不良品だった	-10.9986
隠し	-10.9988
段差	-10.9988
中には	-10.9991
最低です	-10.9995
劇	-10.9997
同僚	-10.9997
貝	-10.9997
りませんでした	-10.9997
商売	-10.9997
直径	-10.9998
リンゴ	-11
ホールド	-11
確かめ	-11.0002
よりかなり	-11.0003
使うのが	-11.0004
割れていました	-11.0005
サラ	-11.0007
とれる	-11.001
気も	-11.0011
とても残念	-11.0012
フォー	-11.0012
配送も早く	-11.0013
に見えた	-11.0016
早かったので	-11.0017
キャラ	-11.0018
清潔	-11.0019
すぎました	-11.0019
カナ	-11.0022
わけでもない	-11.0024
ボア	-11.0024
ウェア	-11.0027
短いので	-11.0028
3.	-11.0029
したまま	-11.003
にくくて	-11.0031
のを見て	-11.0031
やわらかくて	-11.0031
を信じて	-11.0034
素材感	-11.0034
帳	-11.0035
囲	-11.0038
七五三	-11.0038
催促	-11.0038
もらえました	-11.0038
ッツ	-11.0039
痒み	-11.0041
のではないか	-11.0044
三つ	-11.0046
即購入	-11.0047
年前に	-11.0047
感謝しています	-11.0048
分厚く	-11.0048
付かない	-11.0054
拭く	-11.0057
しているのですが	-11.0057
クレ	-11.006
耐えられ	-11.0064
返って	-11.0065
購入したんですが	-11.0067
ストン	-11.0068
いつもより	-11.0072
ヘタ	-11.0074
商品ページに	-11.0078
オリーブ	-11.0078
数年	-11.0078
師	-11.0078
バニラ	-11.0079
謎	-11.0079
土曜日	-11.008
デザイン的に	-11.0083
仕方ないかな	-11.009
写真を見て	-11.009
買っています	-11.0091
浮か	-11.0091
母へのプレゼント	-11.0092
しすぎて	-11.0092
らなかった	-11.0093
為に購入しました	-11.0094
白髪	-11.0095
おススメです	-11.0096
イメージ通りで	-11.0098
あげよう	-11.01
いいと思う	-11.0102
同様の	-11.0103
こんな事	-11.0105
ちゃって	-11.0106
返品不可	-11.0108
薄かったです	-11.0109
制限	-11.0118
溜	-11.0119
寝返り	-11.012
混ざって	-11.012
おまかせ	-11.012
帰省	-11.012
高齢	-11.012
シッカリ	-11.012
が壊れたので	-11.012
ワンシーズン	-11.0121
正しい	-11.0121
写真通りの	-11.0122
to	-11.0123
気にならず	-11.0126
タル	-11.0127
ナイト	-11.0127
くっつき	-11.0129
売り切れで	-11.013
吐き	-11.0131
ゲル	-11.0131
手触りも	-11.0133
ミー	-11.0136
リピートする	-11.0136
つもりが	-11.0137
この価格は	-11.0138
内容量	-11.0139
はいけない	-11.0142
割って	-11.0143
出ません	-11.0147
マルチ	-11.0149
白っぽい	-11.0151
ないうちに	-11.0152
でこの価格は	-11.0152
小学生	-11.0154
面倒で	-11.0155
リピートしています	-11.0158
歳の子供	-11.0158
半信半疑	-11.0161
とも思いましたが	-11.0161
電車	-11.0162
してもらえる	-11.0162
前面	-11.0162
バル	-11.0162
試し履き	-11.0164
使えた	-11.0164
結果は	-11.0165
実際には	-11.0165
残念でなりません	-11.0166
が増えて	-11.0166
どうにも	-11.0168
何の問題も	-11.0168
生えて	-11.0169
電池が	-11.017
上がった	-11.0171
淡	-11.0171
キレイです	-11.0173
代引き	-11.0173
つめ	-11.0173
をお願いした	-11.0177
US	-11.0178
昔の	-11.0178
半袖	-11.0179
今回購入した	-11.018
良いですよ	-11.0182
とても楽しみです	-11.0183
低め	-11.0183
お知らせ	-11.0183
割れました	-11.0184
合いません	-11.0188
前回購入した	-11.019
私だけ	-11.019
しっかりしてて	-11.019
どこが	-11.019
は無いです	-11.0192
早いし	-11.0194
するつもりです	-11.0195
破損して	-11.0197
が大きいので	-11.0197
塗	-11.0198
なってしまう	-11.0199
苦味	-11.0202
久	-11.0202
主人は	-11.0204
肌荒れ	-11.0204
おいしくない	-11.0205
刺身	-11.0206
ボールペン	-11.0206
させて頂いて	-11.0206
くれています	-11.0206
破けて	-11.0207
何にでも	-11.0207
対応していただき	-11.0207
結構な	-11.0208
考え中です	-11.0209
同じく	-11.0211
al	-11.0214
ふく	-11.0214
捨てた	-11.0214
えない	-11.0216
冷め	-11.0216
それにしても	-11.0218
確認したら	-11.022
ピンクゴールド	-11.0221
信じて	-11.0224
一方	-11.0224
気になっていました	-11.0226
だね	-11.0226
∀	-11.0227
履いてみると	-11.0227
分かりやすく	-11.0234
情	-11.0235
少し小さい	-11.0236
も良いので	-11.0237
ばかりの	-11.0238
コスパは	-11.0238
を外して	-11.0239
赤ちゃんの	-11.0242
ダイニング	-11.0243
漂	-11.0244
size	-11.0245
とどきました	-11.0245
他の方の	-11.0245
早急に	-11.0245
新たに	-11.0246
先方	-11.0246
消費者	-11.0246
不在	-11.0246
実物を	-11.0247
買いたいと思います	-11.0247
だからか	-11.025
は使えません	-11.0255
商品として	-11.026
PS	-11.0261
こちらのショップは	-11.0261
抜ける	-11.0263
パーカー	-11.0265
を聞いて	-11.0268
に対応して	-11.0268
悪くないです	-11.0268
していただける	-11.0268
想	-11.0268
とは思う	-11.0271
電源が	-11.0272
扱	-11.0272
をはいて	-11.0275
なくていい	-11.0278
想像と	-11.0281
平ら	-11.0281
順	-11.0282
外観	-11.0283
を見ながら	-11.0284
のでしょうね	-11.0284
規	-11.0284
七	-11.0286
ドリンク	-11.0286
ほんの少し	-11.0286
SHOP	-11.0286
ハロウィン	-11.0286
緩く	-11.0287
飛び出	-11.0288
のもので	-11.0289
縫	-11.0289
差し込み	-11.0289
過ぎた	-11.0291
に当たる	-11.0291
縫製は	-11.0291
▁;	-11.0292
を考えたら	-11.0293
ブラウンを購入	-11.0294
ソープ	-11.0295
動かない	-11.0295
引っかかり	-11.0295
可愛	-11.0297
日目で	-11.0299
だして	-11.03
シーン	-11.03
家族も	-11.0303
通学	-11.0305
乾いて	-11.0308
速い	-11.0309
別の商品	-11.031
紐を	-11.0312
悪かった	-11.0313
また買います	-11.0315
うま	-11.0315
あた	-11.0317
使いたいです	-11.0321
喜んでもらえた	-11.0323
利用して	-11.0325
旅	-11.0327
デジカメ	-11.0328
導	-11.0328
エプロン	-11.0328
脂肪	-11.0328
仏壇	-11.0328
沖縄	-11.0328
チュニック	-11.0329
も大丈夫	-11.033
157	-11.0331
押入れ	-11.0331
続けられ	-11.0333
受信	-11.0336
残念な結果	-11.0336
伸ばし	-11.0337
台目	-11.0339
使用方法	-11.0342
とメール	-11.0343
解決	-11.0345
していただいた	-11.0345
素晴らしいです	-11.0346
使ってみたら	-11.0347
肘	-11.0347
着たい	-11.0348
してきました	-11.0351
にはならない	-11.0352
かわいかった	-11.0352
再入荷	-11.0354
取れず	-11.0356
お花が	-11.0357
となると	-11.0358
仕方ないので	-11.0358
が悪くて	-11.0359
が有る	-11.0359
載	-11.0362
透明感	-11.0364
画面が	-11.0366
病気	-11.0367
ro	-11.0368
取り出す	-11.0369
足裏	-11.037
とても綺麗で	-11.037
案の定	-11.037
させられ	-11.0372
病院で	-11.0373
つば	-11.0375
お店の対応が	-11.0376
使えないので	-11.0377
他の物	-11.0377
お世話になり	-11.0381
ーーー	-11.0381
蒸し	-11.0383
〜♪	-11.0383
生地です	-11.0387
素材なので	-11.0388
ながらも	-11.0389
週間くらい	-11.039
洗え	-11.039
遅いです	-11.0392
わりには	-11.0392
旅行用に	-11.0397
滑って	-11.0398
使いますが	-11.0399
と思えば	-11.0404
食べている	-11.0404
潤	-11.0405
テープで	-11.0409
舞	-11.0411
まっ	-11.0412
交	-11.0412
キチンと	-11.0413
失礼	-11.0413
登録	-11.0413
めちゃめちゃ	-11.0413
かわいさ	-11.0413
反射	-11.0413
履こう	-11.0413
いこうと思います	-11.0413
を増や	-11.0413
入院	-11.0413
柔軟剤	-11.0413
家族全員	-11.0414
きつかったです	-11.0414
ヶ月以上	-11.0414
メッセージカード	-11.0414
まとまり	-11.0415
と思ってしまいました	-11.0415
勇気	-11.0416
おろ	-11.0416
変えて	-11.0417
デン	-11.0418
付近	-11.0418
しょぼ	-11.0419
全身	-11.0421
進め	-11.0422
頼	-11.0422
調度	-11.0426
OS	-11.0427
店頭	-11.0427
年ほど	-11.0428
友達にも	-11.043
答え	-11.0434
ために購入	-11.0435
シリ	-11.0435
とのことです	-11.0436
非常に残念	-11.0436
そこに	-11.0436
グレーを購入しました	-11.0438
気持ち悪く	-11.0441
荒い	-11.0448
程度です	-11.0448
価格的に	-11.045
売る	-11.0452
ブラックと	-11.0453
領収書	-11.0455
スナップ	-11.0456
テロテロ	-11.0456
短時間	-11.0456
激しく	-11.0457
以下の	-11.0458
すごくいいです	-11.046
入れました	-11.046
したいと思っています	-11.0463
今回のは	-11.0464
するように	-11.0466
余裕があり	-11.0466
黒色	-11.0466
るのを	-11.0469
バッ	-11.047
忘れた	-11.047
ものではない	-11.0471
干す	-11.0473
毎日使う	-11.0473
入力	-11.0474
が出ます	-11.0475
ゴツ	-11.0479
こんなもんかな	-11.0479
刻	-11.048
付いていました	-11.0482
備考欄に	-11.0482
言われて	-11.0483
穿	-11.0483
横から	-11.0485
処	-11.0486
棚板	-11.0486
暑さ	-11.0489
とれました	-11.0494
と感じます	-11.0495
トレー	-11.0495
自分が悪い	-11.0497
狙	-11.0498
禁	-11.0498
湿疹	-11.0498
軟	-11.0498
鉛筆	-11.0498
の強い	-11.05
履きたい	-11.05
豆乳	-11.05
はき心地	-11.05
の場合は	-11.05
包んで	-11.0501
おりません	-11.0505
日に届きました	-11.0506
重さも	-11.0506
どちらか	-11.0507
パーマ	-11.0508
多め	-11.0517
使うのは	-11.0519
はげて	-11.0523
枯れて	-11.0524
土日	-11.0524
面倒くさい	-11.0526
わたしは	-11.0527
買	-11.0528
べた	-11.0529
アプリ	-11.0535
輸入	-11.0535
の割には	-11.0536
おち	-11.0536
士	-11.0539
グローブ	-11.0541
下さり	-11.0541
タイマー	-11.0542
頼まれて購入しました	-11.0543
も考えましたが	-11.0544
高いと思います	-11.0545
捨てて	-11.0547
お安く購入でき	-11.0548
のはずが	-11.0548
リピート購入です	-11.0549
外せ	-11.0549
日付	-11.0551
仕方ないのかな	-11.0551
使	-11.0551
効果はまだ	-11.0552
せん	-11.0556
昼間	-11.0556
一品	-11.0556
ばかりなので	-11.0557
痛くない	-11.0558
とも思います	-11.0559
走り	-11.0561
スタイ	-11.0562
歳になる	-11.0563
いいなぁ	-11.0563
無くなる	-11.0566
やせ	-11.0568
誕生	-11.057
終	-11.0571
ご連絡	-11.0573
香水	-11.0577
まとめ買いしました	-11.0577
大丈夫そうです	-11.0579
コーン	-11.0581
たくさん入って	-11.0581
お返し	-11.0581
復活	-11.0584
偏	-11.0584
他のお店	-11.0584
サクサク	-11.0584
不信感	-11.0584
ヘルメット	-11.0584
回目の購入	-11.059
いい加減	-11.059
荷	-11.0592
分かります	-11.0595
座布団	-11.0595
この品質	-11.0596
着きました	-11.0598
リピートしたいと思います	-11.0599
小さめでした	-11.0601
が多かったので	-11.0602
期待していたので	-11.0603
交換をお願い	-11.0605
ちょうどいい感じ	-11.0606
送料対策	-11.0608
に向けて	-11.0608
中途半端な	-11.0609
出てきて	-11.0609
になると思います	-11.0609
友	-11.0613
こんで	-11.0614
可能な	-11.0615
めちゃ	-11.0615
小指	-11.0615
のお祝いに	-11.0616
買うなら	-11.0616
すごくいい	-11.062
本棚	-11.062
華奢	-11.062
到着も早く	-11.0621
破れました	-11.0625
唇	-11.0627
硬化	-11.0627
食卓	-11.0627
チワワ	-11.0627
佐川	-11.0628
&#1285	-11.0628
片方の	-11.0628
施工	-11.0628
止まって	-11.0628
喜ぶ	-11.0629
毛羽	-11.0629
底に	-11.063
無くなって	-11.063
景品	-11.0632
サロン	-11.0632
画質	-11.0635
の表記	-11.0644
着てみると	-11.0645
ニック	-11.0645
箱を開けて	-11.0646
販売している	-11.0648
当日に	-11.065
最終的に	-11.065
悪くはない	-11.065
交換しました	-11.0651
理由は	-11.0652
作れる	-11.0653
数年前	-11.0655
つや	-11.0656
日くらい	-11.0656
に興味	-11.0656
余って	-11.0662
部分だけ	-11.0662
離れて	-11.0664
とっても可愛い	-11.0665
期待しましたが	-11.0667
はいいけど	-11.0669
勤	-11.067
蛍光	-11.0671
バナナ	-11.0671
ペンダント	-11.0671
姪っ子	-11.0671
楽ちん	-11.0671
アクア	-11.0671
がっちり	-11.0671
〜〜〜	-11.0673
脱ぐ	-11.0674
タンクトップ	-11.0675
均一	-11.0679
はるかに	-11.068
しないし	-11.0681
中身の	-11.0683
ピッタリで	-11.0688
るうちに	-11.0692
室内で	-11.0702
とは思います	-11.0703
穴に	-11.0704
真っ	-11.0704
マス	-11.0706
柔らかいので	-11.0706
ことになり	-11.0708
購入して良かった	-11.0713
ちょうどいい大きさ	-11.0714
カサカサ	-11.0715
八	-11.0715
おにぎり	-11.0715
届くのか	-11.0715
もいいかな	-11.0715
かみ	-11.0716
生理	-11.0718
親子	-11.0722
この量	-11.0726
履かない	-11.0726
おいしくて	-11.0727
届いていません	-11.0728
赤み	-11.073
の影響	-11.0732
頂ける	-11.0733
何でも	-11.0733
自由	-11.0734
模様が	-11.0736
見つかり	-11.0737
青い	-11.074
人工	-11.074
粗悪	-11.0742
ついに	-11.0742
あきらめました	-11.0743
te	-11.0746
センチですが	-11.0749
よかったのに	-11.0749
目立って	-11.0749
イヤー	-11.0752
175	-11.0752
が大好きなので	-11.0752
会社に	-11.0754
ウォー	-11.0757
ヒリヒリ	-11.0758
ムートン	-11.0758
生姜	-11.0758
酸っぱい	-11.0759
よろこんで	-11.0759
なめらか	-11.0759
在庫あり	-11.0759
困っていた	-11.076
かばん	-11.076
有料	-11.076
加えて	-11.076
オーバー	-11.076
馴染む	-11.0761
私の場合は	-11.0763
^_^;	-11.0764
価格の割に	-11.0766
面白かった	-11.0766
二週間	-11.0767
んですかね	-11.0769
封	-11.077
友人の結婚式	-11.0771
気に入っているので	-11.0778
利用しない	-11.078
どのくらい	-11.0788
楽になりました	-11.0791
あいて	-11.0792
詰	-11.0796
連続	-11.0797
暖かそう	-11.0798
嬉	-11.08
みたけど	-11.08
酷	-11.08
ショッピング	-11.0801
25.5	-11.0802
特徴	-11.0802
不器用な	-11.0802
小さ目	-11.0803
南	-11.0803
だとおもいます	-11.0803
サングラス	-11.0804
長男	-11.0806
こちらに決めました	-11.0806
別売り	-11.0808
面白く	-11.0808
あくまで	-11.0809
負け	-11.081
ローション	-11.0818
使いやすいと思います	-11.0819
中古品	-11.0821
..,	-11.0821
する時	-11.0821
を使うと	-11.0821
いつまでも	-11.0822
と思わ	-11.0823
子どもに	-11.0823
下げて	-11.0824
上げる	-11.0825
トーン	-11.0826
不評でした	-11.0827
使っているので	-11.0827
チェ	-11.0829
明るくて	-11.0829
締	-11.0831
盛	-11.0831
疑い	-11.0832
なってる	-11.0832
梱包されて	-11.0834
間違いなし	-11.0834
SS	-11.0835
するときに	-11.0836
上の子	-11.0838
皆様	-11.0841
サイズもピッタリ	-11.0841
の値段で	-11.0844
リクライニング	-11.0845
組み立ても簡単で	-11.0846
z	-11.0846
検討中	-11.0846
兄	-11.0846
矯正	-11.0847
紫外線	-11.0847
ごわごわ	-11.0847
BOX	-11.0847
帰宅	-11.0847
糊	-11.0847
エナメル	-11.0847
圧縮	-11.0848
着け心地	-11.0848
送り返	-11.085
値段が安かったので	-11.0851
安くなっていたので	-11.0852
お友達に	-11.0852
横幅が	-11.0852
再度購入	-11.0854
セルフ	-11.0855
ムリ	-11.0856
大きかったので	-11.0857
6000	-11.0858
外側の	-11.0858
スポ	-11.0859
購入すればよかった	-11.086
と思って購入しました	-11.086
驚いて	-11.086
迅速な対応ありがとうございました	-11.0861
サイズ選び	-11.0862
商品発送	-11.0864
本物の	-11.0865
予感	-11.0866
足目	-11.0866
写真も	-11.0869
の幅が	-11.0869
のではないかと思います	-11.087
結婚式で	-11.0871
海外旅行	-11.0873
おススメ	-11.0873
星一つ	-11.0875
いらっしゃる	-11.0877
値段もお手頃	-11.0878
・`)	-11.0879
代用	-11.0879
しっかりしており	-11.088
の部分も	-11.0882
傷がありました	-11.0886
振込	-11.0889
一緒に買った	-11.089
朱	-11.0891
イニシャル	-11.0891
キャンペーン	-11.0891
裁断	-11.0891
ざんねん	-11.0891
浸透	-11.0891
ネットショッピング	-11.0892
遊ぶ	-11.0893
保冷	-11.0893
泣き	-11.0893
目隠し	-11.0894
ゼリー	-11.0895
ではないですが	-11.0896
中止	-11.0899
インド	-11.0901
るのかな	-11.0906
あまり期待	-11.0909
いたします	-11.0909
偽	-11.091
さび	-11.091
セル	-11.091
おいしさ	-11.0912
返品しました	-11.0913
個人差	-11.0914
どれだけ	-11.0914
入荷待ち	-11.0916
入れたら	-11.0924
大好評	-11.0925
変形	-11.0927
妻が	-11.0928
コネクタ	-11.0928
だか	-11.093
かなと思って	-11.0931
!?,	-11.0933
早々に	-11.0933
謝	-11.0933
管	-11.0934
局	-11.0935
雑貨	-11.0935
オーブン	-11.0936
バッチリです	-11.0937
卒業式	-11.0938
粉末	-11.0938
終わりました	-11.0939
切れない	-11.0942
お誕生日	-11.0943
おいしそう	-11.0943
クラブ	-11.0943
食欲	-11.0945
元気に	-11.0946
今の時期	-11.0948
もらえて	-11.0948
価	-11.0949
サビ	-11.095
一目惚れして	-11.095
透け感	-11.095
本体と	-11.0951
好みです	-11.0951
届いて早速	-11.0952
食べたら	-11.0956
驚きです	-11.0956
衛生	-11.0957
あったのに	-11.0959
っぽいです	-11.0959
だったかな	-11.096
213	-11.0965
爽やかな	-11.0967
を変え	-11.097
を飲む	-11.0973
そうだったので	-11.0974
きつすぎ	-11.0974
裂け	-11.0976
表示され	-11.0976
したかったのですが	-11.0977
だったんですが	-11.0978
これくらい	-11.0978
成功	-11.098
大事な	-11.098
ノイズ	-11.0981
ストーリー	-11.0981
意識	-11.0981
予算	-11.0981
あきらめて	-11.0981
とてもかわいくて	-11.0981
入っておらず	-11.0983
人参	-11.0985
無駄な	-11.0985
この夏	-11.0985
明るいです	-11.0988
お尻の	-11.099
したような	-11.0992
頃から	-11.0993
妊娠中	-11.0994
入っています	-11.0994
頂く	-11.0994
立てて	-11.0996
東京	-11.0998
ものばかり	-11.0998
大体	-11.0998
履いてます	-11.0998
出てきた	-11.1004
ほどけて	-11.1005
履いていて	-11.1005
が折れて	-11.1006
持ち手の	-11.1007
ラバー	-11.1013
とのことですが	-11.1015
使いたかったので	-11.1015
ぬる	-11.1018
悪かったです	-11.102
午前中に	-11.102
錆	-11.1024
遅すぎる	-11.1024
胴	-11.1025
コサージュ	-11.1026
農	-11.1026
ヽ	-11.1026
提供	-11.1026
開梱	-11.1026
うちの子	-11.1026
消える	-11.1026
似合う	-11.1028
願います	-11.1028
ょう	-11.1029
言えない	-11.103
強め	-11.103
いきたいです	-11.1032
釣り	-11.1032
丈が短い	-11.1034
溶けて	-11.1036
なってしまいます	-11.1039
妹に	-11.104
黄色い	-11.1041
との連絡	-11.1046
たまりません	-11.1047
回目です	-11.1047
くれませんでした	-11.1048
たいので	-11.1048
期待して購入しましたが	-11.1049
子供部屋	-11.105
もらいます	-11.1052
105	-11.1055
やたら	-11.1057
お花の	-11.1058
旦那に	-11.1063
えません	-11.1065
初めての購入	-11.1067
プレゼントとして購入しました	-11.1069
母へ	-11.107
焼酎	-11.1071
ひどかった	-11.1071
留守	-11.1071
リピしたいです	-11.1073
ケージ	-11.1074
済む	-11.1075
壁紙	-11.1075
注文したいと思います	-11.1077
貧弱	-11.1078
全面	-11.1078
まつ毛	-11.108
お安く買えて	-11.1091
嫌いな	-11.1091
飲み物	-11.1091
慣れれば	-11.1092
飲んでいる	-11.1093
も豊富で	-11.1094
安っぽくなく	-11.1094
動かし	-11.1095
過ぎます	-11.1097
しなくなりました	-11.1098
への誕生日プレゼント	-11.11
と比較して	-11.1102
錆び	-11.1103
のほうは	-11.1103
たくなります	-11.1104
不安でした	-11.1105
全く同じ	-11.1106
届くのは	-11.1109
景	-11.1111
歯磨き	-11.1115
叩	-11.1116
する時に	-11.1116
練	-11.1116
イヤホン	-11.1117
おきます	-11.1118
小さめです	-11.1118
可愛いくて	-11.1118
がほしくて	-11.1119
ベビーカー	-11.112
聞かれ	-11.112
磨き	-11.112
一晩	-11.1123
保証書	-11.1124
入れられる	-11.1125
色合いは	-11.1127
作りもしっかりしていて	-11.113
入ってない	-11.1131
送ってくれ	-11.1132
は無かった	-11.1135
なかったため	-11.1135
co	-11.1136
してるので	-11.1137
濃い目	-11.1138
使いづらいです	-11.1144
購入を検討	-11.1147
うえに	-11.1147
数分	-11.1148
生まれ	-11.1148
まります	-11.1149
近くに	-11.1149
お安く購入できて	-11.115
につける	-11.1152
思い出	-11.1156
∀`)	-11.1159
画像とは	-11.116
亀裂	-11.1162
なじんで	-11.1162
どういう	-11.1163
と感じる	-11.1163
化学	-11.1163
があっても	-11.1165
グッド	-11.1166
何処	-11.1168
価格も安く	-11.1168
ありえません	-11.117
に問題がある	-11.1172
頼み	-11.1173
始める	-11.1175
ch	-11.1175
したかった	-11.1175
爽やか	-11.1176
気に入っていたので	-11.1177
書いている	-11.1178
もついていて	-11.118
首元	-11.1181
大きくなって	-11.1182
めくれ	-11.1182
なかったのが	-11.1182
での使用	-11.1183
巻く	-11.1186
しまったり	-11.1186
と書いてありましたが	-11.1186
少し不安	-11.1187
するのですが	-11.1188
の大きさが	-11.1189
壊れてしまい	-11.119
大正解	-11.119
足の甲	-11.119
メールで問い合わせ	-11.1191
わけではないので	-11.1192
させた	-11.1199
グレーを購入	-11.1203
半日	-11.1204
購入出来て	-11.1206
時など	-11.1207
アジャスター	-11.1208
ゴージャス	-11.1208
欠かせない	-11.1208
ガサガサ	-11.1208
甥っ子	-11.1208
おばさん	-11.1208
イチゴ	-11.1208
という点	-11.1209
器具	-11.121
気持ち良く	-11.1211
円なら	-11.1212
他の方	-11.1213
着やすい	-11.1216
こん	-11.1221
着圧	-11.1222
合わなくて	-11.1222
新しいもの	-11.1222
誕生日プレゼントに購入しました	-11.1224
を愛用して	-11.1224
どんなに	-11.1225
位置に	-11.1225
水玉	-11.1227
贈る	-11.1229
可愛いデザイン	-11.123
再生	-11.123
使用できません	-11.1237
えっ	-11.1238
不向き	-11.1238
冷たく	-11.1242
悲し	-11.1243
怒り	-11.1244
商品レビュー	-11.1244
削れ	-11.1244
固さ	-11.1246
ないのでしょうか	-11.1249
きめ	-11.125
息子用に	-11.1251
日曜日	-11.1253
数ヶ月	-11.1254
さわやか	-11.1254
足りず	-11.1254
縫われて	-11.1254
信じられない	-11.1255
夏場は	-11.1255
潰	-11.1257
ノリ	-11.126
購入致しました	-11.126
乾燥して	-11.1261
アクセ	-11.1261
気配	-11.1262
人目	-11.1262
もう少し大きい	-11.1264
目安	-11.1265
嬉しいですね	-11.1265
ことになりました	-11.1267
ッとした	-11.1269
オール	-11.1272
見ました	-11.1277
ないとダメ	-11.1279
日々	-11.1281
できるのは	-11.1282
隠せ	-11.1282
並べ	-11.1285
尻	-11.1286
カバー力	-11.1288
205	-11.1291
飛	-11.1291
くん	-11.1293
支	-11.1295
第一	-11.1295
公	-11.1297
とおもって	-11.1297
が酷く	-11.1299
省	-11.13
ジョイント	-11.13
リニューアル	-11.13
スケスケ	-11.1301
堂	-11.1301
を覚え	-11.1301
補助	-11.1301
何となく	-11.1302
お値段以上の	-11.1302
ゲット	-11.1303
屋外	-11.1303
そっち	-11.1304
2012	-11.1305
の為に購入	-11.1305
水筒	-11.1305
父の日に	-11.1305
左側	-11.1305
これはこれで	-11.131
持っていて	-11.1312
絶	-11.1312
ものすごい	-11.1312
テスト	-11.1313
▁1,,"	-11.1314
経った	-11.1316
削り	-11.1316
そうだし	-11.132
値段も安いし	-11.1321
食べさせ	-11.1321
飼い	-11.1323
考えます	-11.1325
に当たって	-11.1325
ォ	-11.1327
取られ	-11.1328
痛くなります	-11.1331
つきません	-11.1333
残念なことに	-11.1333
擦れて	-11.1334
落ち着いた色で	-11.1335
付着	-11.1335
届いてみたら	-11.1335
消耗品なので	-11.134
いけなかった	-11.1342
色味は	-11.1343
注文時に	-11.1346
原材料	-11.1347
スチーム	-11.1347
安く購入出来て	-11.1347
思ってた以上に	-11.1348
プリンター	-11.1349
家族にも	-11.1349
いまひとつ	-11.1349
いつの間にか	-11.1349
に出会いました	-11.1349
かわり	-11.1352
気付いた	-11.1353
どうやら	-11.1353
つまり	-11.1354
出かける	-11.1355
ウール	-11.1356
危	-11.1356
トゥ	-11.1357
知りました	-11.1358
食べ物	-11.1361
だよ	-11.1362
食パン	-11.1363
したのか	-11.1367
ヶ月ほど	-11.1368
収納できる	-11.1369
ふち	-11.1369
できるし	-11.137
づけ	-11.1381
長持ちする	-11.1381
運送	-11.1381
商品の発送	-11.1382
完	-11.1385
付けると	-11.1387
炭	-11.1393
尾	-11.1393
旬	-11.1393
アンテナ	-11.1394
芝	-11.1394
レッスン	-11.1394
さりげなく	-11.1394
救	-11.1394
宜しくお願いします	-11.1394
サイズ交換	-11.1394
と考えています	-11.1394
店舗に	-11.1397
手放せません	-11.1397
押せ	-11.1398
切りました	-11.1398
ガードル	-11.1399
他の方のレビューで	-11.14
ずれる	-11.14
かからず	-11.14
だと感じました	-11.1401
とれません	-11.1402
困った	-11.1403
間に合わない	-11.1403
ショップの対応も	-11.1405
Kg	-11.1405
そのような	-11.1409
思っていた通り	-11.1411
部分から	-11.1413
色目	-11.1415
付いてる	-11.1415
みかん	-11.1417
ありますね	-11.1423
タイプのもの	-11.1426
コース	-11.1429
ロリ	-11.1431
送られて来	-11.1432
だっただけに	-11.1432
いきました	-11.1433
腫れ	-11.1435
のが嫌	-11.1438
した際	-11.1438
害	-11.144
体験	-11.144
遅延	-11.144
終わる	-11.144
折り畳み	-11.1441
確保	-11.1441
ウェスト	-11.1442
差し込む	-11.1442
シワシワ	-11.1443
来るの	-11.1443
緩め	-11.1444
面倒な	-11.1447
にも使える	-11.1448
もしかして	-11.145
次も	-11.1451
デザインが気に入って	-11.1453
のがいいですね	-11.1453
水漏れ	-11.1454
届いたのですが	-11.1454
になってました	-11.1456
つまみ	-11.1457
(^^;)	-11.1458
使う事	-11.1458
最終	-11.1463
コシ	-11.1466
みえる	-11.1466
方へ	-11.1469
東	-11.1469
買わなくて	-11.1469
吹	-11.1469
他店より	-11.1471
年くらい	-11.1472
同じ物	-11.1474
こちらの商品を購入しました	-11.1483
届くのに	-11.1484
着替え	-11.1485
持続	-11.1486
があったのですが	-11.1486
>_<	-11.1487
庫	-11.1487
減らしました	-11.1487
食べない	-11.1488
確定	-11.1488
もっちり	-11.1488
というところ	-11.1491
くすんで	-11.1491
っぽさ	-11.1492
モード	-11.1494
次の日には	-11.1495
ブランドの	-11.1496
柔らかすぎ	-11.1498
チェックして	-11.1498
ドル	-11.1498
と言うので	-11.1498
曲がり	-11.1501
数日で	-11.1503
石油	-11.1506
出来そうです	-11.1507
くらいなら	-11.1509
et	-11.1511
を探す	-11.1512
になれば	-11.1513
怖いです	-11.1513
ものだと	-11.1516
紹介されて	-11.1522
受け取りました	-11.1522
欲しいな	-11.1528
予定でしたが	-11.1531
塊	-11.1535
Good	-11.1535
ハウス	-11.1535
ネクタイ	-11.1535
ワンデー	-11.1535
ハーブ	-11.1536
すんなり	-11.1536
試してみました	-11.1536
こまめに	-11.1536
使い物になりませんでした	-11.1537
はないかと	-11.1538
結果的に	-11.1539
頂	-11.1543
作られて	-11.1543
使うのに	-11.1544
使っているうちに	-11.1544
寄	-11.1544
に合わせる	-11.1546
急な	-11.1551
が悪かったのか	-11.1552
二回	-11.1552
この安さ	-11.1554
する際に	-11.1555
安かったから	-11.1556
ことがある	-11.1561
しようと思っています	-11.1562
しましょう	-11.1562
どこにも	-11.1563
ッパー	-11.1564
ネイビーを購入しました	-11.1567
在庫がない	-11.1568
値段も手ごろ	-11.1568
食べさせて	-11.1569
だと思うので	-11.1574
お値段もお手頃	-11.1579
手触りが	-11.158
使いたかった	-11.1582
桃	-11.1583
漢字	-11.1583
掴	-11.1583
絶妙	-11.1583
演	-11.1583
ちょうどいいサイズ	-11.1584
良い買い物をしました	-11.1584
にもなる	-11.1585
繊維が	-11.1586
できたら	-11.1587
くれない	-11.1587
履かせ	-11.1589
○○	-11.1589
どれくらい	-11.159
足先	-11.1591
洗い上がり	-11.1591
うすい	-11.1593
こんな感じ	-11.1593
冷蔵庫に	-11.1594
工夫して	-11.1595
のバランスが	-11.1598
たちますが	-11.1605
確認したところ	-11.1605
子供には	-11.1607
縫え	-11.1613
リピしてます	-11.1613
このセット	-11.1614
納得です	-11.1615
ずっと欲しかった	-11.1616
ダル	-11.1621
を間違えて	-11.1623
こちらのお店は	-11.1624
このお値段でこの	-11.1625
怪我	-11.163
花びら	-11.163
コルク	-11.163
昆布	-11.1631
カウンター	-11.1631
パステル	-11.1631
∇	-11.1631
どうなのか	-11.1632
ほうがいいです	-11.1633
へこみ	-11.1634
探す	-11.1634
止める	-11.1634
機器	-11.1634
並み	-11.1637
デザインは良い	-11.1637
敷き布団	-11.1638
濡れた	-11.1638
となっていた	-11.1638
気もしますが	-11.1641
できるように	-11.1641
初購入	-11.1643
言えません	-11.1647
隠れて	-11.1652
キツイです	-11.1653
履きます	-11.1655
ドライブ	-11.1656
期待しすぎ	-11.1656
とても美味しいです	-11.1658
コール	-11.166
日本人	-11.1668
安いのは	-11.1668
いただけた	-11.1669
状態で届きました	-11.1672
使用してみて	-11.1673
使い勝手がいい	-11.1675
においも	-11.1676
分ほど	-11.1677
着たら	-11.1677
露	-11.1678
熨斗	-11.1679
計算	-11.168
小ささ	-11.1682
あたたかい	-11.1682
早くて助かりました	-11.1682
にはなりません	-11.1682
モデルさんのように	-11.1683
個購入しました	-11.1683
まさかの	-11.1684
許	-11.1685
経っても	-11.1686
土台	-11.1687
と言うことで	-11.1688
探しましたが	-11.1688
恐	-11.169
とても丁寧で	-11.1691
安く買えたので	-11.1691
傷み	-11.1693
晩	-11.1694
ずーっと	-11.1695
検品を	-11.1698
撮り	-11.1698
サイズ表記	-11.1699
心配しましたが	-11.17
する為に	-11.1701
買うより	-11.1704
要注意です	-11.1706
染まり	-11.1706
5%	-11.1708
探しました	-11.1709
スコ	-11.1712
太り	-11.1719
許せ	-11.172
はじめは	-11.1725
プレゼントに購入しました	-11.1726
膨らみ	-11.1727
宮	-11.1727
記憶	-11.1727
アウター	-11.1727
トータル	-11.1727
滑る	-11.1727
BB	-11.1728
不能	-11.1728
但し	-11.1728
過ぎました	-11.1729
誤差	-11.1729
夜間	-11.173
とても喜んでいました	-11.1732
!!!!!!	-11.1733
を使っていて	-11.1733
美味しくいただきました	-11.1735
入らなく	-11.1736
思ってたよりも	-11.1737
帰	-11.1737
違っていて	-11.1738
あう	-11.174
遊んでいます	-11.1741
どー	-11.1742
が無かった	-11.1745
回目で	-11.1745
硬すぎ	-11.1746
調整できる	-11.1748
中国産	-11.1748
その間	-11.1749
ぐり	-11.1749
確	-11.1751
友人へのプレゼント	-11.1754
薬品	-11.1758
安くていい	-11.176
っきり	-11.1766
お香	-11.1772
洗うと	-11.1772
誕生日プレゼントとして	-11.1773
こんなものか	-11.1774
算	-11.1774
儀	-11.1775
そろえ	-11.1776
タンス	-11.1777
暖か	-11.1777
邪魔にならない	-11.1778
してほしかったです	-11.1781
また利用させていただきます	-11.1786
大事	-11.1788
不便です	-11.1791
ワンサイズ大きめ	-11.1793
を見る	-11.1794
慣れるまで	-11.1794
干せ	-11.1795
枚購入	-11.1797
かぶり	-11.1798
くっつけ	-11.1798
ER	-11.1802
元気な	-11.1804
しっとりして	-11.1806
誰も	-11.1806
画像で見るより	-11.1811
手ごろな	-11.1813
最高でした	-11.1813
気にいってます	-11.1814
しなくても	-11.1814
想像以上	-11.1815
度目の購入	-11.182
円位	-11.182
#	-11.1823
贈答用	-11.1824
クレジット	-11.1824
外反母趾	-11.1824
欠かせません	-11.1824
泣き寝入り	-11.1825
フォーマル	-11.1825
規格	-11.1825
期間限定	-11.1826
点滅	-11.1826
エルゴ	-11.1826
入れられて	-11.1828
でも大丈夫	-11.1828
キーボード	-11.1828
数日後	-11.1828
変に	-11.1829
連絡があり	-11.183
No	-11.183
あわない	-11.1833
お湯で	-11.1834
品物でした	-11.1836
送料も無料	-11.1838
とってもかわいい	-11.184
方々	-11.1843
する前に	-11.1844
同じ色	-11.1845
そこから	-11.1847
残っている	-11.1847
発送した	-11.185
何よりも	-11.1853
できている	-11.1854
じゃん	-11.1854
経ちましたが	-11.1855
効果あり	-11.1855
着ける	-11.1855
してませんが	-11.1857
満足している	-11.1858
まくって	-11.1862
言うことなし	-11.1862
相手に	-11.1863
とは言えない	-11.1863
手前	-11.1864
のあるもの	-11.1865
センチほど	-11.1866
あす楽対応	-11.1866
フリース	-11.1869
厚手で	-11.1871
焦	-11.1871
基本的に	-11.1871
お安かったので	-11.1872
レインブーツ	-11.1874
はいいですが	-11.1874
学習	-11.1874
普段使いには	-11.1874
新聞	-11.1874
ソーラー	-11.1874
購入すれば良かった	-11.1877
探していて	-11.1881
大喜びです	-11.1882
161	-11.1883
www	-11.1884
大根	-11.1888
いるだけで	-11.1889
痛くなりました	-11.189
続く	-11.189
くれるので	-11.1894
信じ	-11.1898
ベージュを購入	-11.1899
良くないです	-11.1901
友人が	-11.1904
が少ないので	-11.1905
いいね	-11.1906
板に	-11.1906
くず	-11.1906
座り心地は	-11.1907
初めて購入	-11.1913
思っています	-11.1918
お話	-11.1919
気泡が	-11.192
バリエーション	-11.1921
泥	-11.1923
ヨレヨレ	-11.1923
歯ごたえ	-11.1923
値下げ	-11.1924
試してみよう	-11.1928
愛用してます	-11.1929
取れます	-11.193
喜んでもらえる	-11.193
終え	-11.1931
することにしました	-11.1931
も含めて	-11.1931
おける	-11.1932
欠	-11.1935
サイズが合わず	-11.1936
手帳型	-11.1936
にも合う	-11.1936
残念な気持ち	-11.1937
少量で	-11.194
イメージと違いました	-11.194
as	-11.1941
利用させていただきました	-11.1942
股上が	-11.1948
される方	-11.195
クマ	-11.195
問題なかったです	-11.1952
高かったので	-11.1967
を知り	-11.1968
使用していない	-11.1968
浴	-11.1969
するために購入しました	-11.197
建	-11.1972
幾	-11.1972
セーター	-11.1972
過ごせ	-11.1972
宿	-11.1972
皺	-11.1972
ボコボコ	-11.1972
欲しがって	-11.1972
ちいさ	-11.1974
注文したので	-11.1974
服装	-11.1975
ココア	-11.1978
また機会がありましたら	-11.1979
th	-11.1979
華奢な	-11.1981
を作りました	-11.1982
落ち着いていて	-11.1982
されておらず	-11.1983
SH	-11.1985
か心配でしたが	-11.1988
曇	-11.199
か分からない	-11.1992
良い買い物が出来ました	-11.1993
即購入しました	-11.1996
リピートはないです	-11.1996
大好きなので	-11.1997
が発生し	-11.1999
いるようで	-11.2
つけたら	-11.2001
毛足	-11.2001
本品	-11.2003
個別	-11.2003
安いなり	-11.2004
カットして	-11.2005
餅	-11.2005
わけではありません	-11.2005
色味も	-11.2008
個入り	-11.201
みたいなのが	-11.2011
字体	-11.2014
が良かっただけに	-11.2014
となります	-11.2014
についている	-11.2015
があるのは	-11.2016
買物	-11.2016
友人から	-11.2017
敬老の日	-11.2022
お任せ	-11.2022
ダサい	-11.2022
パツパツ	-11.2022
地震	-11.2022
指に	-11.2023
美しく	-11.2024
値上げ	-11.2025
とても喜ばれました	-11.2026
わけでもなく	-11.203
したほうがいい	-11.2031
ホコリが	-11.2032
送られて	-11.2032
作り方	-11.2033
昔から	-11.2034
まともに	-11.2035
購入していた	-11.2038
必須です	-11.2039
継続して	-11.204
試す	-11.2043
考	-11.2045
クター	-11.2045
私としては	-11.2046
として使う	-11.2046
人それぞれ	-11.2046
良さそうなので	-11.205
ぺらぺら	-11.2052
中身も	-11.2053
おいしかったので	-11.2055
今一	-11.2057
商品としては	-11.2066
する際	-11.2066
駄目でした	-11.2069
家庭用	-11.2069
売り切れだったので	-11.207
使い勝手が良い	-11.2071
楽でした	-11.2071
肥	-11.2071
暴	-11.2071
ぼろぼろ	-11.2072
ステッカー	-11.2072
鮮やかで	-11.2073
ような感じです	-11.2074
暮らし	-11.2076
概ね	-11.2076
する必要	-11.2076
待て	-11.2076
密着	-11.2079
本人は	-11.208
わんこ	-11.2081
ではないのですが	-11.2083
一品です	-11.2089
迷ったのですが	-11.2091
とは違いました	-11.2092
差し上げ	-11.2092
フット	-11.2092
この製品	-11.2092
お薦めです	-11.2092
かといって	-11.2093
分かりにくい	-11.2094
付きます	-11.2094
06-0	-11.2095
しておきます	-11.2096
袖丈	-11.2098
止まり	-11.2098
レンチ	-11.2098
つなぎ目	-11.2101
を求める	-11.2102
健康に	-11.2102
小さいもの	-11.2105
とても助かります	-11.2105
大差	-11.2108
フライ	-11.211
辛いです	-11.211
着ます	-11.2112
付着して	-11.2113
気付か	-11.2115
----------------	-11.2115
わけで	-11.2115
工場	-11.2115
オート	-11.2117
早いので	-11.212
◯	-11.2122
嗅	-11.2122
結論	-11.2123
だったようです	-11.2124
動かす	-11.2124
荒	-11.2124
案外	-11.2124
空け	-11.2125
並んで	-11.2126
抱き	-11.2126
ーンと	-11.2127
台座	-11.2127
こま	-11.2131
思いをしました	-11.2136
楽々	-11.2137
メモリ	-11.2138
が残ります	-11.2139
を機に	-11.2147
するのか	-11.2152
沈み	-11.2155
わず	-11.216
普通でした	-11.2161
でも十分	-11.2161
対応が早く	-11.2168
とても良いと思います	-11.2169
見やすく	-11.2169
ホイール	-11.2171
典	-11.2172
ブラウス	-11.2173
思ったとおり	-11.2176
置ける	-11.2177
外から	-11.2182
か心配	-11.2183
して欲しかったです	-11.2184
大きすぎず	-11.2185
調節できる	-11.2185
あす楽で	-11.2186
それより	-11.2187
単品	-11.2187
致	-11.219
使用しない	-11.2191
トリー	-11.2192
正月	-11.2192
とても親切	-11.2194
後半	-11.2195
ってくれる	-11.2196
細いので	-11.2197
しまうこと	-11.2198
コイン	-11.2198
内容でした	-11.22
だろうな	-11.2201
慣れる	-11.2201
発送が遅い	-11.2203
基	-11.2203
交換品	-11.2203
パッと見	-11.2205
映り	-11.2206
安さに	-11.2206
時間がかかります	-11.2206
にいれて	-11.2209
ドロ	-11.2211
あくまでも	-11.2216
.8	-11.2219
もスムーズで	-11.2219
スーパーセール	-11.2219
ww	-11.222
の購入でしたが	-11.2221
音がします	-11.2221
マタニティ	-11.2223
妥協	-11.2223
偶然	-11.2223
オプション	-11.2223
刈	-11.2224
効果を感じ	-11.2226
番組	-11.2227
高い買い物でした	-11.2228
208	-11.2234
が良くない	-11.2234
すてき	-11.2238
みれば	-11.224
余計な	-11.2243
重量感	-11.2244
有難いです	-11.2245
いい商品だと思います	-11.2245
に耐え	-11.2247
心配していましたが	-11.2247
使う予定	-11.2248
両親に	-11.2251
外には	-11.2251
が出てきて	-11.2254
そのままでは	-11.2258
ようになった	-11.226
ようと思って	-11.226
いたんですが	-11.2262
シア	-11.2266
楽しみにしていましたが	-11.2271
象	-11.2273
人形	-11.2273
使うもの	-11.2273
挽	-11.2274
お願いしたのですが	-11.2274
診	-11.2274
パリパリ	-11.2274
蝶	-11.2274
姪	-11.2274
マンゴー	-11.2274
サプライズ	-11.2274
モチーフ	-11.2275
くたびれ	-11.2275
少し大きかった	-11.2277
傷がついて	-11.2278
用として購入しました	-11.2279
仕方ないですね	-11.228
女子	-11.228
感じられず	-11.2281
ピザ	-11.2282
ヶ月の娘	-11.2283
らしさ	-11.2284
好みの問題	-11.2284
かと思いきや	-11.2287
めくれて	-11.2287
使いやすかった	-11.2288
キープ	-11.2288
送料込で	-11.2291
のようでした	-11.2296
なだけに	-11.2299
ワーク	-11.23
を検討	-11.2301
再販	-11.2303
おそ	-11.2307
ぐら	-11.2307
またリピ	-11.2308
こぼし	-11.2309
イイです	-11.231
強すぎ	-11.2314
営	-11.2315
買いなおし	-11.2316
を開けると	-11.2316
デザインが気に入り	-11.2318
気温	-11.2319
つくので	-11.232
要らない	-11.2322
またお願いします	-11.2323
半分くらい	-11.2323
義父	-11.2323
はちみつ	-11.2326
詳しい	-11.2326
(*_*)	-11.2326
門	-11.2326
造	-11.2326
連休	-11.2326
当たった	-11.2327
ブロック	-11.2328
剥がす	-11.2328
値上がり	-11.2329
糸がほつれて	-11.2329
飛ば	-11.2329
値段も安いので	-11.233
なので星	-11.2332
操作性	-11.2333
変化なし	-11.2334
プラグ	-11.2337
飲み続け	-11.2338
いつまで	-11.234
主人と	-11.2341
制服	-11.2341
写真で見る	-11.2343
すぐに発送	-11.2343
届いた時に	-11.2345
裂けて	-11.2345
-201412	-11.2347
ウチ	-11.2347
喜んでいただけました	-11.2349
車内	-11.2353
が付いていて	-11.2355
つ目	-11.2356
152	-11.2357
たくさんある	-11.2358
ネット購入	-11.2362
なんだけど	-11.2367
には最適	-11.2367
アダプタ	-11.2368
使おうか	-11.2369
縮み	-11.2369
同様に	-11.2371
届いてみて	-11.2372
写真で見た	-11.2375
試しに購入	-11.2376
離乳食	-11.2377
お通じ	-11.2377
日焼け止め	-11.2378
自立	-11.2379
折角	-11.238
父親	-11.238
半額で	-11.2381
利用します	-11.2382
いい買い物でした	-11.2382
仲間	-11.2383
気に入ってくれた	-11.2385
にして正解でした	-11.2389
白を購入しました	-11.2391
年中	-11.2392
歳の娘に	-11.2393
問題ないのですが	-11.2394
とれない	-11.2395
電子	-11.2408
毛が抜け	-11.2409
繋	-11.2416
が入ってる	-11.2417
娘用に	-11.2419
ことをお勧めします	-11.2422
派手な	-11.2424
贈り	-11.2424
念のため	-11.2424
余裕があります	-11.2425
を探していたのですが	-11.2426
生地が薄くて	-11.2427
られていて	-11.2428
知識	-11.2429
じっくり	-11.2429
丼	-11.2429
ガイド	-11.2429
否めません	-11.2429
月上旬	-11.2429
バルーン	-11.243
ナンバー	-11.243
適度に	-11.2431
キーホルダー	-11.2431
分丈	-11.2433
事故	-11.2435
良い商品でした	-11.244
再び	-11.2441
と聞き	-11.2442
を履いている	-11.2442
量販店で	-11.2443
をいれて	-11.2443
追記します	-11.2444
過ごし	-11.2448
もっと安い	-11.2452
金色	-11.2454
使えると思います	-11.2463
使用していて	-11.2466
大活躍です	-11.2468
すぐに届いて	-11.2469
を通して	-11.2472
書体	-11.2473
ペース	-11.2473
閉める	-11.2473
ことはないです	-11.2474
調べた	-11.2475
排	-11.2476
雨の日に	-11.2476
定期	-11.2477
股上	-11.2477
見たい	-11.2478
治療	-11.248
出会い	-11.2481
経済的	-11.2481
マスカラ	-11.2481
溶接	-11.2481
レビューにあった	-11.2481
義理	-11.2482
悔しい	-11.2482
なんといっても	-11.2482
ウエスト部分	-11.2483
時間がかかった	-11.2485
ハゲ	-11.2485
と書いてありますが	-11.2487
寝る前に	-11.2488
記事	-11.249
歳半	-11.2492
大判	-11.2493
袋を開け	-11.2494
遠い	-11.2497
を使っていたのですが	-11.2497
確認すると	-11.2506
パーティ	-11.2507
イメージしていた	-11.2507
吸水	-11.251
が出ました	-11.2511
キツくて	-11.2513
ココ	-11.2515
応え	-11.2517
持っていく	-11.252
このクオリティ	-11.2522
することができました	-11.2526
洗濯後	-11.2531
様々な	-11.2533
著者	-11.2533
ドラマ	-11.2533
ボレロ	-11.2533
対処	-11.2534
楽しみにしていたので	-11.2534
これだと	-11.2534
気にならなかった	-11.2535
下駄	-11.2536
がついているので	-11.2538
グルー	-11.2539
事情	-11.2542
大丈夫か	-11.2542
を入れたら	-11.2543
お昼	-11.2544
しっかりしているし	-11.2544
思いっきり	-11.2544
運べ	-11.2545
きれない	-11.2546
買い直しました	-11.2549
兼用	-11.255
着よう	-11.2551
ベリー	-11.2552
こず	-11.2553
してくれるので	-11.2553
なら大丈夫	-11.2553
大きい方	-11.2554
229	-11.2554
らせ	-11.2561
薄い生地	-11.2563
遅くなり	-11.2564
の所が	-11.2566
たくさん入る	-11.2568
便利でした	-11.2571
適当	-11.2572
古く	-11.2573
鮮度	-11.2574
本セット	-11.2575
ウチの	-11.2578
検討して	-11.2579
磁	-11.2581
アレ	-11.2582
なくなりそう	-11.2583
安く購入できました	-11.2584
母にプレゼント	-11.2584
察	-11.2585
いたのか	-11.2585
告	-11.2585
なった気がします	-11.2586
こりゃ	-11.2586
ビジュー	-11.2586
研	-11.2586
ひっくり返	-11.2586
蜜	-11.2586
頑張り	-11.2587
助かる	-11.2587
すぎない	-11.2588
使用できます	-11.259
ことができます	-11.2593
防音	-11.2593
羽目に	-11.2595
痛くなって	-11.2606
外箱	-11.2607
を頼みましたが	-11.2613
空間	-11.2613
になっており	-11.2613
不安になりました	-11.2615
しっとり感	-11.2615
230	-11.2615
値段相応かな	-11.262
不思議です	-11.2621
値段のわりには	-11.2625
そこだけ	-11.2632
ワインレッド	-11.2634
ホッ	-11.2634
悲しいです	-11.2635
遮	-11.2638
上半身	-11.2638
軍	-11.2638
恐らく	-11.2639
引っ張って	-11.2639
券	-11.2639
館	-11.2639
懐かしい	-11.2639
思っていた通りの	-11.2639
ではないと思います	-11.264
ディング	-11.264
ジップ	-11.2643
安く買えました	-11.2644
買いたいです	-11.2652
us	-11.2654
デザインも良く	-11.2656
要注意	-11.2657
感じがする	-11.2658
感じられない	-11.2659
したんですが	-11.2665
はいらない	-11.2666
二度目	-11.2667
EX	-11.2668
ハズレでした	-11.2668
ために買いました	-11.2668
あきらめ	-11.2668
為か	-11.2671
焼いた	-11.2672
この商品を見つけ	-11.2674
弁当	-11.2675
挟ま	-11.2678
しまっている	-11.2682
イメージ通りの	-11.2683
とても素敵です	-11.2684
効いている	-11.2685
されていたので	-11.2687
全色	-11.2689
言われました	-11.2691
報	-11.2691
驚くほど	-11.2692
リキッド	-11.2692
ラウンド	-11.2692
というわけで	-11.2692
調味料	-11.2692
ガッチリ	-11.2692
気にいりました	-11.2692
退職	-11.2692
翌々日	-11.2693
更新	-11.2693
こみ	-11.2694
ところどころ	-11.2694
縫い合わせ	-11.2695
馴染	-11.2696
着やすいです	-11.2698
履いただけで	-11.2698
に取り付けました	-11.2699
新居の	-11.27
だった為	-11.2701
サンド	-11.2705
確認不足	-11.2705
キュー	-11.2707
商品について	-11.2714
に挑戦	-11.2717
開かない	-11.2719
一冊	-11.2721
値段も安くて	-11.2729
違ったので	-11.2731
上質	-11.2731
予想外	-11.2731
あるのか	-11.2732
レビューにも	-11.2733
見ていたら	-11.2734
わたしには	-11.2735
むけ	-11.2736
IH	-11.274
提	-11.274
喜	-11.274
ベロ	-11.2742
傷や	-11.2743
普通体型	-11.2744
ごたえ	-11.2745
菌	-11.2745
ミネラル	-11.2745
養	-11.2746
花粉症	-11.2746
ツヤツヤ	-11.2746
ウォーター	-11.2747
注文から到着まで	-11.2747
知人に	-11.2749
小さかったので	-11.2752
良かったんですが	-11.2753
この値段なので	-11.2753
太くて	-11.2755
作者	-11.2756
訳ではない	-11.2758
説明文	-11.2758
また利用します	-11.2759
らしいので	-11.276
お手頃な	-11.2761
起きて	-11.2761
パンダ	-11.2763
しているのか	-11.2764
ポート	-11.2766
が強くて	-11.277
見た瞬間	-11.277
勝手	-11.2772
肌触りも良く	-11.2774
自由に	-11.2776
ハサミで	-11.2778
しておりました	-11.2778
価格帯	-11.2779
塩味	-11.2781
な印象	-11.2782
お掃除	-11.2783
縫い方	-11.2783
ボンドで	-11.2783
戻り	-11.2785
いったい	-11.2787
ナン	-11.2789
垂	-11.279
引き締め	-11.2794
格安で	-11.2795
みたり	-11.2796
構	-11.2798
存	-11.2798
柱	-11.2799
楽しそう	-11.2799
おばあちゃん	-11.2799
吊	-11.2799
煎	-11.2799
コーディネート	-11.2799
明太子	-11.2799
カリカリ	-11.28
ココナッツ	-11.28
速攻	-11.28
挟む	-11.28
ステップ	-11.28
3〜4	-11.2801
出産内祝い	-11.2801
第一印象	-11.2803
高いもの	-11.2804
ゼン	-11.2805
朝食	-11.2813
一粒	-11.2814
充電して	-11.2814
期待大	-11.2816
良かったら	-11.2818
感がある	-11.2818
渋い	-11.2819
が出ない	-11.282
魅力です	-11.2821
購入した方が	-11.2821
倒れて	-11.2824
元に戻	-11.2825
常時	-11.2829
頼ま	-11.283
を買えばよかった	-11.283
した方が良い	-11.283
気になったので	-11.2831
余計	-11.2836
に入れると	-11.2838
マッチして	-11.284
増やして	-11.2842
インナーとして	-11.2842
いただいています	-11.2844
薄すぎて	-11.2851
弁	-11.2852
逃	-11.2852
ございます	-11.2853
きっかけ	-11.2853
我が子	-11.2853
ホルモン	-11.2853
ラジオ	-11.2853
クリスタル	-11.2854
境	-11.2854
コラーゲン	-11.2854
襟ぐり	-11.2854
挟んで	-11.2854
いつでも	-11.2854
安かったし	-11.2856
くださり	-11.2856
写真と違い	-11.2856
というレビュー	-11.2857
ワンポイント	-11.2861
イイ感じ	-11.2862
だと思った	-11.2862
226	-11.2865
快く	-11.2866
お客さん	-11.2868
手に取って	-11.2871
肌が弱い	-11.2872
高級感があります	-11.2877
分かりました	-11.2879
だと思うのですが	-11.2879
には見えません	-11.2879
ことはないと思います	-11.288
出来なかった	-11.288
かと思っていましたが	-11.288
目立たなく	-11.2882
多かった	-11.2884
ふさ	-11.289
▁2,,[	-11.2891
丸く	-11.2896
味見	-11.2896
意味ない	-11.2897
便利だ	-11.2898
使えるように	-11.2899
お安いです	-11.2899
折れた	-11.29
安ければ	-11.2905
登	-11.2905
吸引力	-11.2908
歴	-11.2908
安かろう	-11.2908
しょっぱい	-11.2908
戴	-11.2908
うるさく	-11.2908
(__)	-11.2908
⌒	-11.2908
あわなかった	-11.2909
ランニング	-11.2909
リンス	-11.2909
こういうもの	-11.2909
男女	-11.2909
小型犬	-11.291
こんなものなの	-11.2911
にもよる	-11.2912
安く買えた	-11.2913
できるのが	-11.2915
があるため	-11.2915
最低な	-11.2918
大きすぎた	-11.2918
羽毛	-11.2919
はみ出て	-11.2919
使っていきたい	-11.2919
14-0	-11.2921
遅くなる	-11.2927
全然違いました	-11.293
生地は薄い	-11.293
供	-11.2932
洗濯すると	-11.2932
以外にも	-11.2935
であろう	-11.2935
手違い	-11.2939
だなと思いました	-11.2942
まんま	-11.2942
教室	-11.2943
多くて	-11.2947
痛かった	-11.2947
送信	-11.2947
他の人のレビュー	-11.2949
飛び出して	-11.295
持ち歩き	-11.2957
ちょっと大きい	-11.2958
かたい	-11.2958
試着した	-11.296
妙	-11.2962
剃	-11.2962
そうな感じ	-11.2962
(-_-	-11.2962
スエード	-11.2962
まだ届いてませんが	-11.2963
就寝	-11.2963
サプリメント	-11.2963
周囲	-11.2963
まな板	-11.2963
ペダル	-11.2963
迅速に対応して	-11.2964
外れてしまい	-11.2964
がよくて	-11.2966
両面	-11.2967
他の方のレビューを見て	-11.2969
食材	-11.297
級品	-11.297
無事届きました	-11.2974
試しに購入してみました	-11.2975
at	-11.2975
に最適です	-11.2975
丁度よく	-11.2977
画像よりも	-11.298
なりそう	-11.2983
る部分	-11.2983
広がる	-11.2984
損した	-11.2986
物自体は	-11.2989
贈り物として	-11.2995
一点	-11.2996
いえば	-11.2996
を買ったので	-11.2997
見つけられ	-11.2997
ついていない	-11.2997
触れる	-11.2999
崩	-11.3
食べれる	-11.3005
食べたこと	-11.3007
思えない	-11.3011
早くて良かったです	-11.3014
安いだけあって	-11.3014
お供え	-11.3017
ぐちゃぐちゃ	-11.3017
茶色い	-11.3018
プラセンタ	-11.3018
気にならなくなりました	-11.3018
勧められ	-11.3018
接触不良	-11.3019
ランキング	-11.3019
メールが来ました	-11.3019
を注文したのですが	-11.3019
サドル	-11.3019
間に合わず	-11.302
ポップ	-11.302
チーズケーキ	-11.302
合格	-11.3021
買わせ	-11.3021
お願いしたいと思います	-11.3022
印字	-11.3022
家電	-11.3022
ちっちゃ	-11.3022
どういうこと	-11.3023
一見	-11.3023
買ったんですが	-11.3023
キャミ	-11.3023
スキー	-11.3024
車種	-11.3025
運んで	-11.3025
ジャストフィット	-11.3025
受け取った	-11.3025
母の誕生日	-11.3027
お水	-11.3027
ひび	-11.3034
開けてみたら	-11.304
頼り	-11.3041
説明書き	-11.3041
つなぎ	-11.3042
とても使いやすい	-11.3043
値段以下	-11.3044
していただいて	-11.3046
お札	-11.3047
遅かったです	-11.3048
記載されている	-11.3056
使ったこと	-11.3057
は無理です	-11.3058
ようとすると	-11.3059
するつもり	-11.3063
入浴	-11.3064
腐って	-11.3064
事態	-11.3068
ネル	-11.3068
寒さ	-11.3069
入るし	-11.3071
往復	-11.3072
噴	-11.3072
仰	-11.3072
添加物	-11.3073
手のひら	-11.3073
ノーマル	-11.3073
に問題あり	-11.3076
ひっかけ	-11.3078
チキン	-11.3078
108	-11.3082
箱を開けた	-11.3083
リブ	-11.3085
サイズ的には	-11.3088
起	-11.309
肉厚	-11.3093
両方とも	-11.3094
自分用に購入しました	-11.3098
ことがあり	-11.3098
入ってて	-11.3101
んだと思います	-11.3102
甘かった	-11.3103
破れた	-11.3104
ことができませんでした	-11.3107
るようになって	-11.3108
あげたい	-11.3109
着けた	-11.3111
書いてあったので	-11.3111
見たとき	-11.3114
午前	-11.3116
一時	-11.3119
ir	-11.312
くださる	-11.312
熱い	-11.312
組み立ても簡単	-11.3121
AR	-11.3122
復	-11.3123
サイズが合わない	-11.3125
店頭に	-11.3127
従	-11.3127
藤	-11.3128
着られる	-11.3128
書かれた	-11.3128
勿体ない	-11.3128
腸	-11.3128
見えた	-11.3129
感謝しております	-11.313
広め	-11.313
買っちゃ	-11.3132
を買おう	-11.3132
ちょうど良い大きさ	-11.3134
ハンコ	-11.3137
買えました	-11.3138
安心して使えます	-11.314
私には合わない	-11.314
スケ	-11.3141
三角	-11.3142
間違った	-11.3144
少し重い	-11.3145
-201406	-11.3147
大変喜ばれました	-11.3147
透明な	-11.3151
を感じて	-11.3151
現品	-11.3155
やり取り	-11.316
大きいもの	-11.3162
ケチ	-11.3168
確実	-11.3169
フレア	-11.3169
勧められて	-11.3171
リッチ	-11.3171
ビュー	-11.3172
円は高い	-11.3173
作られている	-11.3177
みたいなもの	-11.3178
シンク	-11.3183
常識	-11.3183
TO	-11.3184
退	-11.3184
ウサギ	-11.3184
マキシ	-11.3184
レディース	-11.3184
むき出し	-11.3184
ファッション	-11.3184
ディズニー	-11.3184
おもしろい	-11.3184
問わず	-11.3184
担当者	-11.3184
クルクル	-11.3185
凹んで	-11.3185
延長	-11.3186
中華	-11.3186
かぶせ	-11.3187
ok	-11.3189
通知	-11.3191
近づ	-11.3197
買えば	-11.3198
代物	-11.3201
抜いて	-11.3202
母から	-11.3207
好きには	-11.3207
あー	-11.3209
願い	-11.3209
専門	-11.321
とは違って	-11.3211
違っていた	-11.3211
いいのかも	-11.3212
一つ一つ	-11.3212
グリーンを購入	-11.3213
届きます	-11.3215
家用	-11.3216
大粒	-11.3219
一日中	-11.322
吐	-11.3225
物が届きました	-11.3227
172	-11.3229
した方がいい	-11.3231
時間ほど	-11.3232
にとって	-11.3232
丁寧に対応	-11.3233
昨	-11.3234
ぇ	-11.3236
アドバイス	-11.324
焚	-11.324
涼しげ	-11.324
うっすら	-11.324
衝動買い	-11.324
飛び出て	-11.3241
サポーター	-11.3242
って事	-11.3243
ダックス	-11.3244
能力	-11.3244
法事	-11.3244
ジャム	-11.3246
洗車	-11.3246
くださって	-11.3246
越し	-11.3247
きてしまいました	-11.3248
無事に届きました	-11.3251
ちゃちい	-11.3252
んじゃないかな	-11.3254
気にいっています	-11.3258
半分以上	-11.3258
都	-11.3261
小さい方	-11.3262
ボディー	-11.3265
タイル	-11.3271
買おうと思います	-11.3273
なくなるので	-11.3274
借り	-11.3279
手頃で	-11.328
リュー	-11.328
くま	-11.328
取り付けも簡単	-11.328
一度洗濯	-11.3281
お散歩	-11.3282
みたいでした	-11.3284
気づきました	-11.3288
大手	-11.3289
こんなもんか	-11.3289
お世話になります	-11.3289
楽しみにしていただけに	-11.3291
このフード	-11.3292
お勧めします	-11.3293
9/	-11.3295
保障	-11.3296
濁	-11.3296
継ぎ目	-11.3297
↑	-11.3297
メートル	-11.3297
使い心地も	-11.3297
防災	-11.3297
加湿	-11.3297
追跡	-11.3298
引っかかる	-11.3299
カラーボックス	-11.3302
久しぶり	-11.3303
人向け	-11.3303
お箸	-11.3306
しているのに	-11.3306
はめる	-11.3306
写り	-11.3307
ショップレビュー	-11.3308
こわれ	-11.3312
もあったので	-11.3313
台紙	-11.3319
手にとって	-11.3319
足の裏	-11.3319
スーパーセールで	-11.332
美容院で	-11.332
ハマ	-11.3321
シンプルなので	-11.3323
不思議な	-11.3323
使用できませんでした	-11.3325
増えて	-11.3325
しようと思った	-11.3326
女性でも	-11.3328
良さそうな	-11.3329
初めての購入です	-11.333
してもらって	-11.3331
良いかと思います	-11.3333
書いてありましたが	-11.3338
肌色	-11.3339
ピング	-11.334
傷があり	-11.3341
使用できない	-11.3341
併用	-11.3341
残念なのは	-11.3342
ますよね	-11.3343
貧	-11.3345
減った	-11.3346
こんな商品	-11.3346
我が家に	-11.3347
になるのか	-11.3348
下部	-11.3352
あたたか	-11.3352
すみ	-11.3353
裸	-11.3353
陶器	-11.3353
まろやか	-11.3354
メンテナンス	-11.3354
無洗米	-11.3354
応対	-11.3354
スピーカー	-11.3354
表札	-11.3356
約束	-11.3356
ハワイ	-11.3356
裾上げ	-11.3356
枕カバー	-11.3356
ラインストーン	-11.3356
チャチ	-11.3357
一苦労	-11.3357
の早さ	-11.3359
;&#	-11.336
渡せ	-11.3363
言え	-11.3372
つけている	-11.3373
問題無く	-11.3374
全く効果	-11.3379
じゃないですか	-11.338
こちらを選びました	-11.3381
思ったより小さかった	-11.3382
ばかりでした	-11.3384
エイ	-11.3385
円で売って	-11.3386
座り心地も	-11.3386
人分	-11.339
好みではありませんでした	-11.3395
人前	-11.3395
下の子	-11.3395
より安く	-11.3395
すればよかった	-11.3396
166	-11.3398
するのが楽しみです	-11.3403
毛玉ができ	-11.3404
日以内	-11.3405
一か月	-11.3405
っぽかった	-11.3406
的なもの	-11.3406
考えています	-11.3408
ギャ	-11.341
拡	-11.341
!!!!!	-11.341
眼科	-11.341
も丁寧で	-11.3411
了承	-11.3411
玉ねぎ	-11.3411
お子さん	-11.3411
ちょうど良いサイズ	-11.3411
お返事	-11.3413
支払	-11.3414
が無かったので	-11.3415
離れ	-11.3416
ヒット	-11.3416
物凄く	-11.3416
豆腐	-11.3416
イラ	-11.3418
買おうかな	-11.3418
今まで使用していた	-11.3418
楽しみにしてます	-11.3422
百均	-11.3423
大変満足しております	-11.3423
堅い	-11.3424
痛んで	-11.3425
産地	-11.3431
簡単にできました	-11.3436
思われ	-11.3436
回す	-11.3437
迅速でした	-11.3438
何年	-11.3439
場面	-11.3441
必要になり	-11.3448
二度と購入しません	-11.3449
無くなりました	-11.3451
店長	-11.3451
待っていました	-11.3454
といいなぁ	-11.3454
返品できない	-11.3455
こちらのショップさん	-11.3462
取れてしまい	-11.3463
頼みません	-11.3466
を切る	-11.3466
いつも使っている	-11.3467
⇒	-11.3467
HID	-11.3468
モチモチ	-11.3468
ヶ月の息子	-11.3468
ピアノ	-11.3468
おそろい	-11.3468
変色して	-11.3468
便利だと思います	-11.3469
暇	-11.3469
↓↓	-11.3469
買い換えました	-11.3469
切れます	-11.3469
ユニクロ	-11.3469
金属アレルギー	-11.347
ぐらつき	-11.3471
それ以外	-11.3472
を送る	-11.3472
巾着	-11.3473
新鮮な	-11.3474
しておいて	-11.3478
欠点	-11.3479
RE	-11.348
の中で一番	-11.348
痒	-11.348
トナー	-11.3481
を思い出し	-11.3483
頭痛	-11.3484
家内	-11.3485
使えています	-11.3488
気持ち良いです	-11.3489
中間	-11.3491
カツ	-11.3491
製作	-11.3492
包まれて	-11.3494
ひいて	-11.3495
くるくる	-11.3496
201504	-11.3497
本当にありがとうございました	-11.3499
呆れ	-11.35
るのが大変	-11.3501
発送前に	-11.3502
お料理	-11.3504
着せて	-11.3504
体温	-11.3505
手軽で	-11.3506
無難な	-11.3508
意味がありません	-11.3509
ic	-11.3512
良いと思う	-11.3517
遊	-11.3518
兼ね	-11.352
ホワイトを購入	-11.352
サイズ表	-11.3522
ついています	-11.3524
霧	-11.3525
技	-11.3526
リサイクル	-11.3526
談	-11.3526
企画	-11.3526
仏	-11.3526
味わえ	-11.3527
マジ	-11.3528
メロン	-11.3532
早速使ってみました	-11.3537
イメージ通りでした	-11.3538
わかった	-11.3551
とても嬉しいです	-11.3554
食べてくれます	-11.3555
分からなかった	-11.3555
いい商品です	-11.3556
組み立ては簡単	-11.3559
安く購入出来	-11.3561
覚悟はして	-11.3563
これほど	-11.3565
480	-11.3567
音がする	-11.3569
書かれていました	-11.357
握	-11.3573
調整して	-11.3573
1980	-11.3574
なくなってしまい	-11.3578
留めて	-11.3579
延	-11.3581
喜んでます	-11.3581
だまされた	-11.3583
持たせ	-11.3583
胡	-11.3584
書籍	-11.3584
コンディショナー	-11.3584
飲ませ	-11.3585
母乳	-11.3585
適当に	-11.3587
入ってなかった	-11.3588
を取り付ける	-11.3591
こちらのほうが	-11.3593
ra	-11.3595
にあたって	-11.3595
届いてびっくり	-11.3596
円以下	-11.3596
やり直し	-11.3596
込まれて	-11.3599
商品が届かない	-11.3602
茶葉	-11.3606
扱っている	-11.3606
休日	-11.3607
清潔感	-11.3611
残念な買い物でした	-11.3611
履きやすくて	-11.3612
水洗い	-11.3614
衛生的	-11.3615
喜んでもらえて	-11.3615
ことを考えると	-11.3619
遠目	-11.3624
いつも通り	-11.3625
足袋	-11.3626
いただいてます	-11.3627
備え	-11.3629
反対	-11.3629
あたし	-11.3631
良くなる	-11.3633
他の方も書いて	-11.3633
好きな方	-11.3634
埋め	-11.3635
丸み	-11.3635
生後	-11.3635
試しに買ってみました	-11.364
肌触りもよく	-11.3642
ずっしり	-11.3643
フェルト	-11.3643
戸惑	-11.3643
|	-11.3643
&#65039;	-11.3643
震災	-11.3643
にくさ	-11.3643
加湿器	-11.3643
ふりかけ	-11.3644
逃げ	-11.3644
期待してましたが	-11.3647
先ほど	-11.3647
歩きやすいです	-11.3648
購入される	-11.365
お品物	-11.365
起毛	-11.3651
やぶれ	-11.3652
気に入る	-11.3654
ピタッと	-11.3655
照	-11.3655
行こう	-11.3655
あったり	-11.3656
出ず	-11.3658
ないのかな	-11.3658
はさみ	-11.3661
濃くて	-11.3662
だけなのに	-11.3662
商品については	-11.3664
身幅	-11.3665
ステキな	-11.3666
切れてしまいました	-11.3667
手頃	-11.3672
専門店	-11.3673
全く問題ありません	-11.3677
分かりやすい	-11.3678
開けた時	-11.368
裏返	-11.368
同色	-11.368
光って	-11.3684
追加購入しました	-11.3685
していただきたいです	-11.3685
頻度	-11.3689
待ってました	-11.3695
悔	-11.3696
歩いた	-11.3697
拭	-11.3699
凍	-11.3699
ァ	-11.37
ようになる	-11.37
無理矢理	-11.3701
縛	-11.3701
ふわっと	-11.3701
岡	-11.3701
ゲージ	-11.3701
領	-11.3701
蛍光灯	-11.3702
引っ張る	-11.3702
参加	-11.3702
噛んで	-11.3703
がま口	-11.3704
実店舗で	-11.3705
バレエ	-11.3705
小さ過ぎ	-11.3705
水滴	-11.3707
白を購入	-11.3708
ゲン	-11.371
着た感じ	-11.3712
をイメージして	-11.3715
仕立て	-11.3715
セイ	-11.3716
オス	-11.3717
お洒落な	-11.3717
擦	-11.372
方が良いです	-11.3721
デザイン性	-11.3721
みたいですね	-11.3721
してくださり	-11.3723
グレード	-11.3725
st	-11.3726
デザインもシンプルで	-11.3726
工事	-11.3728
GB	-11.3728
伸びるので	-11.3728
今使っている	-11.3732
hi	-11.3735
写真の色	-11.3738
かせて	-11.3739
ゴマ	-11.3739
本当に助かりました	-11.3745
ほどではない	-11.375
いいなと思います	-11.3751
分かりませんでした	-11.3753
良くなった	-11.3754
たまらない	-11.3757
思えます	-11.3759
ガラ	-11.376
ケル	-11.376
ヴィ	-11.376
キャラメル	-11.3761
干渉	-11.3761
毛羽立ち	-11.3761
家の中で	-11.3761
キッ	-11.3762
残念な買い物	-11.3763
ひき	-11.3764
針金	-11.3765
返品したいです	-11.3767
扱う	-11.3768
4000	-11.3768
ここのお店	-11.377
つけたくない	-11.3771
近所のスーパーで	-11.3774
ボトム	-11.3777
とても使いやすく	-11.3778
不満はありません	-11.3781
リード	-11.3782
連絡もなく	-11.3784
日差し	-11.3786
かぶる	-11.3789
同じ商品を	-11.3789
明日楽	-11.3791
ブルーを購入	-11.3797
安く買える	-11.3799
お願いする	-11.3802
していたのに	-11.3806
あっ	-11.3807
にして良かったです	-11.3811
サッと	-11.3814
注文した翌日に	-11.3814
が送られてきました	-11.3817
麦	-11.3817
酷すぎ	-11.3818
翌日に届きました	-11.3819
駆	-11.3819
爪先	-11.382
論	-11.382
九州	-11.382
因みに	-11.382
リネン	-11.382
がんばって	-11.382
気長に	-11.382
フレッシュ	-11.3821
補給	-11.3821
売られている	-11.3821
切りっぱなし	-11.3824
見つかって	-11.3831
ed	-11.3831
ri	-11.3836
黄緑	-11.3837
だけではなく	-11.3839
楽しんでいます	-11.3839
輝	-11.384
作ろう	-11.3842
みようかな	-11.3848
すぐに届き	-11.3848
ものを探して	-11.3849
雑な作り	-11.3851
というもの	-11.3853
糸が出て	-11.3856
ーーーー	-11.386
お試しセット	-11.3863
到着が楽しみです	-11.3864
のが嬉しいです	-11.3865
うちの猫	-11.3868
比	-11.3871
使用したいと思います	-11.3872
ほどよい	-11.3873
安く買えて良かったです	-11.3874
パフ	-11.3874
星二つ	-11.3875
継	-11.3879
普段のサイズ	-11.3879
臨	-11.3879
よろしく	-11.3879
マスタード	-11.388
セミダブル	-11.388
摂取	-11.388
ハンバーグ	-11.388
飴	-11.388
サイズが大きい	-11.3881
メール便対応	-11.3881
他の方のレビューにもありましたが	-11.3881
節約	-11.3882
には見えない	-11.3882
持続性	-11.3882
かわいいデザイン	-11.3883
を選択しました	-11.3883
合成	-11.3883
実印	-11.3885
今の所	-11.3886
そういった	-11.3887
積み	-11.3888
重いもの	-11.3889
冷え性	-11.389
出汁	-11.3891
いらなかった	-11.3893
コンロ	-11.3897
出席	-11.3898
錆びて	-11.39
整え	-11.39
メント	-11.3906
部屋の中	-11.3914
日に発送	-11.3915
驚いた	-11.3916
おすすめ度	-11.3918
書いてあります	-11.3924
商品が届くまで	-11.3924
届いたのが	-11.3925
ho	-11.3931
巾	-11.3934
-201408	-11.3935
追	-11.3938
ネタ	-11.3938
△	-11.3939
井	-11.394
魔	-11.394
視界	-11.394
かわいらしく	-11.394
季	-11.394
カパカパ	-11.394
閉まらない	-11.3941
解説	-11.3941
単価	-11.3941
計測	-11.3942
新居に	-11.3944
着れます	-11.3945
腕時計	-11.3947
白っぽく	-11.3949
それよりも	-11.395
両サイド	-11.3952
使用頻度	-11.3954
アナ	-11.3957
渡して	-11.3959
タイムセールで	-11.3959
紫色	-11.396
ll	-11.3961
が目立って	-11.3961
とても早かったです	-11.3961
締める	-11.3965
炊いて	-11.3968
連絡が来	-11.3972
曇り	-11.3978
159	-11.3979
持ってる	-11.3981
に近い色	-11.3982
il	-11.3984
弱すぎ	-11.3985
できています	-11.3986
のだろうか	-11.3987
一生	-11.3989
見えてしまう	-11.3992
と思いきや	-11.3995
のではないかと	-11.3997
左足	-11.3998
頬	-11.4001
凹凸	-11.4001
高反発	-11.4001
爆	-11.4001
ホワイトデー	-11.4001
あきらかに	-11.4001
スピーディ	-11.4001
ジューシー	-11.4001
キツかった	-11.4001
明細書	-11.4002
同士	-11.4003
派手すぎず	-11.4003
歳の誕生日	-11.4005
ローラー	-11.4005
連絡したら	-11.4006
注意が必要	-11.4006
がちな	-11.4007
7.5	-11.4007
以前使用していた	-11.4009
方が悪いのか	-11.4009
苦い	-11.4009
良くなりました	-11.4012
購入してよかった	-11.4013
またリピしたいと思います	-11.4014
IC	-11.4014
薄い色	-11.4014
カム	-11.4015
しまっていました	-11.4015
作りたい	-11.4017
内祝	-11.4017
翌	-11.4018
を変える	-11.4018
と併用	-11.4019
レース部分	-11.4019
またリピしたいです	-11.4019
いる部分	-11.4021
と言っています	-11.4021
思ってたのと	-11.4022
迅速丁寧	-11.4023
ないといけません	-11.4024
噛	-11.4028
処分しました	-11.4031
入っていなかった	-11.4032
トレイ	-11.4035
聞	-11.4035
欄に	-11.4036
があること	-11.4036
この価格でこの	-11.4039
使用したい	-11.4042
予想以上	-11.4042
飾	-11.4043
問題無い	-11.4047
ささくれ	-11.4048
常温	-11.405
乗れ	-11.4051
ダマ	-11.4052
いらっしゃ	-11.4052
書きましたが	-11.4053
じわ	-11.4056
芸	-11.4059
リーズナブルな	-11.4059
19-0	-11.4059
ずらく	-11.406
迎	-11.4061
支柱	-11.4062
ドリル	-11.4062
モーター	-11.4062
色移り	-11.4062
セクシー	-11.4062
悩む	-11.4062
申し分ありません	-11.4062
録画	-11.4062
香料	-11.4063
仕上がって	-11.4063
止まる	-11.4064
24.0	-11.4064
引っ張り	-11.4064
何個か	-11.4064
端っこ	-11.4064
外見	-11.4066
出費	-11.4067
ポスター	-11.4067
を入れるのに	-11.4069
ダイヤル	-11.4071
早々	-11.4071
出先で	-11.4072
減りました	-11.4072
ランチ	-11.4073
変わりました	-11.4075
はけません	-11.4075
来月	-11.4078
営業日	-11.4079
寄って	-11.4079
楽しみにしていたのですが	-11.4081
浮気	-11.4082
解り	-11.4083
今ひとつ	-11.4086
ハサミ	-11.4086
付け方	-11.4087
抜く	-11.4089
猫砂	-11.409
郵送	-11.409
集中	-11.4093
してみようと思います	-11.4095
ついており	-11.4096
いくつも	-11.4098
高校	-11.41
信頼できる	-11.41
では無く	-11.4101
パッと	-11.4102
送れ	-11.4103
ことがないので	-11.4105
っぽい感じ	-11.4111
改	-11.4111
つもりだった	-11.4116
上がります	-11.4117
折って	-11.4123
←	-11.4123
騒	-11.4123
只	-11.4123
英	-11.4123
メリット	-11.4123
どちらかというと	-11.4123
ホールド感	-11.4124
含まれて	-11.4124
言える	-11.4124
引っ掛かり	-11.4124
見ていませんが	-11.4125
連結	-11.4126
メニュー	-11.4126
気をつけてください	-11.4126
配合	-11.4127
サテン	-11.4127
リフォーム	-11.4127
直送	-11.413
値段の安さ	-11.4131
十分だと思います	-11.4132
部屋の雰囲気	-11.4132
しないといけない	-11.4132
気にならない程度	-11.4132
触ると	-11.4134
換	-11.4134
これからの時期	-11.4142
メールが来た	-11.4147
痛かったです	-11.4149
見えず	-11.4149
だわ	-11.415
不評	-11.4153
-201407	-11.4154
クラス	-11.4173
おすすめします	-11.4174
幅が広い	-11.4175
イオン	-11.4176
取扱	-11.4177
つけよう	-11.4178
必	-11.418
の割りに	-11.4181
展	-11.4184
基準	-11.4184
買わなきゃ良かった	-11.4185
サルエル	-11.4185
よろしくお願いいたします	-11.4185
ウォーキング	-11.4185
一向に	-11.4185
チャイ	-11.4185
努力	-11.4185
カットソー	-11.4187
乳液	-11.4187
強化	-11.419
集めて	-11.4191
地味な	-11.4191
可愛くて気に入りました	-11.4193
彫り	-11.4193
注文してすぐに届きました	-11.4194
入手	-11.4195
気に入ってもらえました	-11.4196
ショー	-11.4198
-201506	-11.4199
悩みました	-11.4201
痩せ型	-11.4206
認	-11.4207
お値段的に	-11.4208
前日に	-11.4213
あがって	-11.4215
やっと届いた	-11.4218
面倒だし	-11.422
超え	-11.422
がっかりした	-11.4221
先方に	-11.4223
この冬	-11.4225
回くらい	-11.4228
税込	-11.4231
半月	-11.4233
ヶ月くらい	-11.4236
書かれているように	-11.4238
ひどすぎ	-11.4244
こんな物	-11.4246
技術	-11.4247
キツキツ	-11.4247
幼	-11.4247
釘	-11.4247
264548-201	-11.4247
陰	-11.4247
楽しむ	-11.4247
幼児	-11.4247
浄化	-11.4247
投函	-11.4247
かさばる	-11.4248
谷間	-11.4248
を迎え	-11.4248
購入を考え	-11.4248
ニャン	-11.4249
引っかかって	-11.4249
ナイフ	-11.425
見た目より	-11.4252
通信	-11.4253
事務	-11.4254
高品質	-11.4257
家事	-11.4259
フィン	-11.426
気にならなく	-11.4272
満足感	-11.4272
旨い	-11.4278
祖父	-11.4283
始ま	-11.4288
なくてはならない	-11.4289
どころ	-11.4289
ダメだ	-11.429
付属して	-11.4291
待	-11.4297
購入するより	-11.4298
をもって	-11.4302
だとは思いますが	-11.4305
利用させていただきます	-11.4306
買って正解	-11.4306
留め金	-11.4307
我	-11.4309
手提げ	-11.4309
二次会	-11.4309
さわり心地	-11.431
恋	-11.431
起動	-11.431
アウトドア	-11.431
乗り心地	-11.4311
ジョン	-11.4312
が付いているので	-11.4315
ネットショップ	-11.4315
つらい	-11.4316
寝るとき	-11.4316
美味しく頂きました	-11.4317
拝見	-11.4318
詰まり	-11.4319
男性用	-11.4326
似合い	-11.4327
断念しました	-11.4328
しましました	-11.4331
使ってみようと思います	-11.4333
答	-11.4336
喜ばれる	-11.4336
食べ過ぎ	-11.4338
リピート買い	-11.4344
たほうがいい	-11.4347
おつまみ	-11.4349
税	-11.4349
乾かす	-11.4349
薄型	-11.4349
アップル	-11.4353
解凍して	-11.4355
私の髪	-11.4356
って思います	-11.4365
リーフ	-11.4371
ワンサイズ大きい	-11.4372
金曜日	-11.4372
フェイス	-11.4372
ガバガバ	-11.4372
睡眠	-11.4372
本格的な	-11.4372
さを感じ	-11.4373
いちご	-11.4373
ツメ	-11.4373
▁_)	-11.4373
まともな	-11.4373
何枚か	-11.4373
宅配業者	-11.4374
酸化	-11.4374
しわしわ	-11.4374
混入	-11.4375
店側	-11.4376
きれず	-11.4376
楽しめました	-11.438
かも知れない	-11.438
書かない	-11.4381
は無いと思います	-11.4381
そうにありません	-11.4391
当分	-11.4393
かわいかったので	-11.4393
ることにしました	-11.4394
にひかれ	-11.4395
もうすこし	-11.44
返品しようか	-11.4401
ことができて	-11.4405
まじ	-11.4411
お直し	-11.4411
外に出	-11.4414
貼られて	-11.4415
とは言えません	-11.4416
って言って	-11.4416
ツル	-11.4417
被って	-11.442
これだったら	-11.4421
飲んでみました	-11.4428
取れませんでした	-11.4428
使う予定です	-11.443
枚入り	-11.4434
上手	-11.4434
彩	-11.4435
お店側	-11.4435
太陽	-11.4435
拾	-11.4435
ワゴン	-11.4435
スイーツ	-11.4436
腿	-11.4436
枚セット	-11.4436
ぐっすり	-11.4436
岩	-11.4436
どなたか	-11.4436
重厚感	-11.4436
サッパリ	-11.4436
警	-11.4436
糸のほつれ	-11.4436
来週	-11.4437
に応じて	-11.4438
まだ使ってませんが	-11.4438
使えるもの	-11.4439
遊べ	-11.4439
とてもよかったので	-11.4441
プレーン	-11.4441
送られてくる	-11.4452
人もいる	-11.4452
ダラ	-11.4453
とてもかわいく	-11.4457
明るくなりました	-11.4457
割れる	-11.4458
見えてしまいます	-11.4459
メールにて	-11.446
貼りました	-11.4461
穴を開け	-11.4461
感じたので	-11.4465
マイク	-11.4465
触り	-11.4466
買えません	-11.4466
リピなし	-11.4468
って言う	-11.4468
いいなと思いました	-11.447
行きたい	-11.4471
まらなかった	-11.4475
日頃	-11.448
の一部が	-11.4481
重たく	-11.4485
春夏	-11.4486
ということもあり	-11.4493
緩衝材	-11.4498
資	-11.4499
◆	-11.4499
ちょっぴり	-11.4499
使う分には	-11.4499
苦情	-11.4499
デジタル	-11.4499
富	-11.4499
蓄	-11.4499
蜂蜜	-11.45
災害	-11.45
ジェルネイル	-11.4501
他のメーカーの	-11.4502
すけ	-11.4502
売っていないので	-11.4502
悪化	-11.4504
何日か	-11.4505
シックな	-11.4505
ウエストのゴム	-11.4506
新調	-11.4507
そうな感じです	-11.4511
173	-11.4511
単なる	-11.4512
GW	-11.4512
問い合わせたら	-11.4515
とにかく安い	-11.4516
優先	-11.4516
一目で	-11.4517
へたって	-11.4518
画像の色	-11.4521
下の方	-11.4521
をチョイス	-11.4525
様子をみ	-11.4525
感があって	-11.4527
141	-11.4531
に住んで	-11.4533
下まで	-11.4537
果物	-11.4538
解りません	-11.454
小さすぎる	-11.4541
縫い付けて	-11.4544
当時	-11.4548
食べられない	-11.4549
変形して	-11.4552
生まれて	-11.4554
追い	-11.4555
その通り	-11.4558
ミスト	-11.4561
鶏	-11.4562
協	-11.4563
破棄	-11.4563
合えば	-11.4564
まみれ	-11.4564
にんにく	-11.4564
ワンタッチ	-11.4564
最低限	-11.4565
チェスト	-11.4565
タートル	-11.4565
どうなるか	-11.4567
音声	-11.4569
ドリップ	-11.4569
出っ張	-11.4569
部屋中	-11.457
到着時	-11.4571
他店で購入した	-11.4572
安定性	-11.4574
履けます	-11.4578
買って後悔	-11.458
お弁当箱	-11.4583
うけ	-11.4585
載っている	-11.4587
すっきりしました	-11.4589
他の方も書かれて	-11.459
花粉	-11.4591
大豆	-11.4592
簡単に取り付け	-11.4595
上段	-11.4599
を止める	-11.4603
経ちました	-11.4604
エレ	-11.4604
る事ができ	-11.4605
方がいいかも	-11.4605
同時購入しました	-11.4607
同じ物を	-11.4625
術	-11.4625
フランス	-11.4627
射	-11.4628
選択肢	-11.4628
尖	-11.4628
入れ物	-11.4628
引っ張った	-11.4628
ごごち	-11.4628
また機会があったら	-11.4628
懐	-11.4628
除去	-11.4628
冷蔵	-11.4629
タッチペン	-11.463
手術	-11.463
今更	-11.463
商品紹介	-11.4632
首輪	-11.4632
es	-11.4632
:23	-11.4634
角質	-11.4634
信じられません	-11.4637
イメージより	-11.4637
硬	-11.4638
残量	-11.4639
2011	-11.464
開封後	-11.4641
とても綺麗です	-11.4642
の子に	-11.4645
デイ	-11.4648
色も形も	-11.4649
観て	-11.4652
飲み続けて	-11.4657
期待していなかった	-11.4661
セラ	-11.4663
お願いしたところ	-11.4666
大失敗でした	-11.4668
壊れてしまった	-11.4671
枚重ね	-11.4672
リピしています	-11.4673
じゃありません	-11.4674
ずり落ち	-11.4674
期待したのですが	-11.4674
女性には	-11.4679
行きます	-11.4679
通勤用に	-11.4679
ヒビが入って	-11.4682
選べない	-11.4684
良いお買い物	-11.4686
代替品	-11.4693
いわゆる	-11.4693
優れもの	-11.4693
スライス	-11.4693
伸ばす	-11.4693
効果のほどは	-11.4693
オープン	-11.4693
シャンパン	-11.4693
敏感な	-11.4693
暖房	-11.4694
皮膚科	-11.4694
冷房	-11.4694
正直な感想	-11.4694
いい買い物をしました	-11.4694
注文から発送まで	-11.4695
ソケット	-11.4696
靴下を履いて	-11.4699
ちょっと大きめ	-11.4699
皆さんのレビューを見て	-11.47
234	-11.47
el	-11.4701
モール	-11.4704
レア	-11.4707
星ひとつ	-11.4707
少なくとも	-11.4707
なっちゃいました	-11.4712
買っちゃいました	-11.4713
試してみます	-11.4713
面積	-11.4713
どうなんでしょう	-11.4714
比べると	-11.4716
おきました	-11.4716
あったけど	-11.4721
利用させていただきたい	-11.4721
安心できる	-11.4721
ティング	-11.4722
ヘナ	-11.4725
グレイ	-11.4727
折れてしまいました	-11.4729
購入するのは	-11.4731
一週間以上	-11.4735
通学用に	-11.4735
つきやすい	-11.4736
地方	-11.4738
こともある	-11.4738
購入する事	-11.4744
必要だったので	-11.4746
外れました	-11.4753
迷いました	-11.4755
解消され	-11.4757
昇	-11.4758
褒められ	-11.4758
君	-11.4758
踊	-11.4758
たのしみです	-11.4758
安い買い物	-11.476
透けて見え	-11.476
小説	-11.476
設置しました	-11.476
浴室	-11.476
歳児	-11.476
固定され	-11.476
手芸	-11.4761
入園式	-11.4761
明るすぎ	-11.4762
しまうのが	-11.4762
長く使えそう	-11.4763
プラスチック製	-11.4766
取り付けやすさ	-11.4769
大活躍しそうです	-11.4769
お世話になっている	-11.4771
騙されました	-11.4771
旨味	-11.4772
ネイビーを購入	-11.4773
マンガ	-11.4775
有った	-11.4775
着こなし	-11.4778
決まり	-11.4781
臭かった	-11.4784
実家の母	-11.4784
あるため	-11.4788
実際の商品	-11.479
このまま使います	-11.4793
居る	-11.4796
買いに行く	-11.4797
音沙汰	-11.4807
問題なさそうです	-11.4809
乾燥する	-11.4809
様子を見	-11.4812
合っていない	-11.4815
帰る	-11.4816
商	-11.4817
抑えられ	-11.4818
ポーター	-11.482
バチ	-11.4821
画像のように	-11.4821
送り先	-11.4822
寝ています	-11.4822
宝	-11.4823
掃	-11.4823
却	-11.4824
マイクロファイバー	-11.4824
履けそう	-11.4824
mini	-11.4824
ヒドイ	-11.4824
償	-11.4824
森	-11.4825
突起	-11.4825
大きなサイズ	-11.4826
タイプを購入しました	-11.4827
慣れない	-11.4827
試しに購入しました	-11.4829
乾いた	-11.4829
商品到着しました	-11.4829
日時指定	-11.4829
くずれ	-11.4829
-201507	-11.483
女性一人で	-11.483
腰回り	-11.4831
新米	-11.4832
使用するため	-11.4833
湿度	-11.4833
他人	-11.4834
ギター	-11.4835
細かな	-11.4835
思ったより小さい	-11.4835
色柄	-11.4838
ツリー	-11.4842
たとたん	-11.4844
合わないのか	-11.4848
外れた	-11.4849
いいお買い物	-11.4854
続けてみます	-11.4855
クリーム色	-11.4856
重かった	-11.4857
春先	-11.4857
ラブ	-11.4859
ざら	-11.4865
中学	-11.4865
RO	-11.4865
不快な	-11.4867
こともない	-11.4868
越え	-11.4869
大丈夫だと思います	-11.487
入荷予定	-11.4872
た方がいい	-11.4872
右足	-11.4873
考えたら	-11.4878
きたり	-11.4881
割れてしまいました	-11.4883
値段は安い	-11.4887
感じられる	-11.4888
効いてる	-11.4888
ディスク	-11.489
蔵	-11.489
覗	-11.489
ノズル	-11.489
寂しい	-11.489
ざるを得	-11.489
優秀	-11.489
プレミアム	-11.489
貧相	-11.4891
つやつや	-11.4891
防犯	-11.4891
苦戦	-11.4891
ダボダボ	-11.4891
及び	-11.4892
放置して	-11.4892
個性的	-11.4892
収まる	-11.4894
わるい	-11.4894
丸まって	-11.4895
ガムテープ	-11.4897
サイズ調整	-11.4897
輸入品	-11.49
だろ	-11.49
締めて	-11.4901
素晴らしく	-11.4901
高級感があって	-11.4902
Wi	-11.4903
高校生	-11.4904
▁in	-11.4909
ような気がしました	-11.491
取り付けられ	-11.491
ステー	-11.4912
遅くなって	-11.4915
見た目は可愛い	-11.4919
いい加減な	-11.4922
様子を見て	-11.4928
と思ったのに	-11.4929
しばらくすると	-11.4931
いいんだけど	-11.4932
画像のような	-11.4934
飲めます	-11.4935
4.5	-11.4935
ベン	-11.4936
荒く	-11.4937
配色	-11.4938
ショップに連絡	-11.494
ネットで買う	-11.4941
前に買った	-11.4942
かなりお得	-11.4943
永	-11.4949
したくて購入しました	-11.495
が悪くなり	-11.4951
間に合い	-11.4951
探してた	-11.4953
魅	-11.4953
途	-11.4955
研究	-11.4956
田舎	-11.4956
痕	-11.4957
ゴールデン	-11.4957
エッジ	-11.4957
スリーブ	-11.4957
レーズン	-11.4957
期待をこめて	-11.4957
真空パック	-11.4958
入浴剤	-11.4958
そろって	-11.4958
しなやか	-11.4958
メタル	-11.4959
手順	-11.4961
防げ	-11.4961
冷やして	-11.4961
おいしくいただきました	-11.4962
自分的には	-11.4964
平日	-11.4965
似合わない	-11.4965
イヤリング	-11.4969
溢れ	-11.4969
マリン	-11.4973
濃厚な	-11.4975
冬用	-11.4975
入ってた	-11.4976
食べられます	-11.4977
しかしながら	-11.4978
だろうと思い	-11.4979
使われている	-11.4979
期待していただけに残念です	-11.4979
歩きにくい	-11.4983
伝えて	-11.4983
透けない	-11.4984
サーモン	-11.4987
た途端	-11.4988
品揃え	-11.4989
ピース	-11.4993
真っ直ぐ	-11.4993
飲まない	-11.4994
期待ハズレ	-11.4997
注文時	-11.4997
クズ	-11.5003
数枚	-11.5005
カチカチ	-11.5006
実寸	-11.5009
早すぎ	-11.5009
お腹周り	-11.501
楽しみにしてた	-11.5011
思わなかった	-11.5011
起きた	-11.5012
梱包も丁寧	-11.5013
涼	-11.5013
リピートしてます	-11.5015
早い発送	-11.5016
好感	-11.5016
固すぎ	-11.5021
院	-11.5022
30-0	-11.5022
担当	-11.5023
ェ	-11.5023
廊下	-11.5024
静音性	-11.5024
べたべた	-11.5024
じゅう	-11.5024
度と買いません	-11.5024
躊躇して	-11.5024
銘	-11.5024
勿体無い	-11.5024
ゞ	-11.5024
兄弟	-11.5024
雑穀	-11.5024
混じって	-11.5024
スパッツ	-11.5024
雑巾	-11.5025
280	-11.5029
レビューを書き	-11.503
の多さ	-11.503
写真のイメージ	-11.5031
リピしたいと思います	-11.5031
テント	-11.5032
メールが来て	-11.5033
サラッと	-11.5034
画像を見て	-11.5035
に対し	-11.5036
入金確認	-11.5037
我慢します	-11.5037
梱包も丁寧でした	-11.504
削って	-11.5041
と言う感じ	-11.5041
合いました	-11.5044
傾いて	-11.5047
遅くて	-11.5047
とほぼ同じ	-11.5048
ダブ	-11.5052
販売店	-11.5053
を変えた	-11.5054
うちの子には	-11.5055
に期待します	-11.5055
メーカーさん	-11.5058
とは思いません	-11.506
問題なく使えています	-11.5062
子猫	-11.5066
デザインはいい	-11.5067
購入予定です	-11.5068
時間くらい	-11.5069
織り	-11.507
ピンク系	-11.5072
切り落とし	-11.5084
<)	-11.5084
写って	-11.5084
フィー	-11.5086
ウェット	-11.5087
は満足ですが	-11.5087
蕾	-11.5091
北	-11.5092
NO	-11.5092
屑	-11.5092
汗をかく	-11.5092
刀	-11.5092
ボルドー	-11.5092
ぬいぐるみ	-11.5092
関節	-11.5092
結露	-11.5092
脱いだ	-11.5093
いびつ	-11.5093
低刺激	-11.5094
ボタンホール	-11.5094
光り	-11.5094
問題無し	-11.5095
履いた感じ	-11.5095
毛糸	-11.5095
手書きのメッセージ	-11.5095
拭いた	-11.5095
レトロ	-11.5097
シェル	-11.5098
使われて	-11.5099
写真どおり	-11.5104
握り	-11.5106
チタン	-11.5107
日現在	-11.5108
207	-11.5108
適当な	-11.5109
絶対買わない	-11.511
四つ	-11.5113
お餅	-11.5114
もう二度と買いません	-11.5115
アウトレット品	-11.5115
あまり良くない	-11.5117
咲いて	-11.5117
コミック	-11.5119
青色	-11.5119
てっきり	-11.5119
奥まで	-11.5122
どうかと思います	-11.5122
ケン	-11.5123
26.5	-11.5125
出てきます	-11.5131
水切り	-11.5131
デザインも可愛い	-11.5133
靴を履いて	-11.5134
必要ない	-11.5135
購入したほうが	-11.5136
手に入る	-11.5137
ゆったりめ	-11.5142
とお揃いで	-11.5145
ようになったので	-11.515
レビューの評価	-11.5152
保温性	-11.5153
消臭効果	-11.5158
お値段のわりに	-11.5158
倉庫	-11.5159
食洗機	-11.5159
投げ	-11.5159
淵	-11.516
絹	-11.516
アンパンマン	-11.516
遜色	-11.516
爽快	-11.516
納豆	-11.5161
掛かって	-11.5161
温かさ	-11.5162
配置	-11.5162
持ちやすい	-11.5162
バンパー	-11.5162
表情	-11.5162
私にとって	-11.5162
明細	-11.5162
間隔	-11.5163
液漏れ	-11.5163
価格が安い	-11.5163
加熱	-11.5165
持ち歩いて	-11.5169
気づき	-11.517
気に入らない	-11.517
履けば	-11.5172
必要なもの	-11.5174
価格が安いので	-11.5175
締まり	-11.5175
走って	-11.5177
数値	-11.518
and	-11.5184
を選んだのですが	-11.5189
電話対応	-11.519
置いておく	-11.5193
購入して正解でした	-11.5194
見つかりました	-11.5194
おいしくなかった	-11.5196
朝晩	-11.5197
レビューがよかったので	-11.52
上品な感じ	-11.5204
倍以上	-11.5205
ずり落ちて	-11.5205
外れてしまいました	-11.5205
贈って	-11.5206
増えた	-11.5212
肌着	-11.5214
主人用に	-11.522
してもらう	-11.5221
直せ	-11.5221
気に入っていました	-11.5222
bo	-11.5222
ボウル	-11.5228
格段に	-11.5228
思案中	-11.5228
扇風機	-11.5228
エステ	-11.5228
珍しく	-11.5229
気に入ったようで	-11.5229
リピ決定です	-11.5229
お世話になっています	-11.5229
発芽	-11.5229
判明	-11.523
予定通り	-11.5231
ワンサイズ下	-11.5232
との回答	-11.5233
コミ	-11.5235
横向き	-11.5235
となっていますが	-11.5237
買ってしまい	-11.5238
温め	-11.5239
連絡したところ	-11.524
にはなりませんでした	-11.524
部屋着として	-11.5242
リスク	-11.5242
コロン	-11.5242
用で購入しました	-11.5243
購入できて良かったです	-11.5245
リピはしません	-11.5248
たら買わなかった	-11.5253
押し入れ	-11.5256
手元	-11.5258
気持ちがいいです	-11.5259
回の使用で	-11.526
人にあげ	-11.526
チビ	-11.5264
現物を見て	-11.5267
悪くなりました	-11.5268
粗い	-11.5268
去	-11.5269
日経っても	-11.5269
底板	-11.527
アジ	-11.5272
私好み	-11.5273
別の色	-11.5273
明記して	-11.5273
故	-11.5284
汚れが落ち	-11.5285
ぱっと見	-11.5285
カンジ	-11.5291
説明書通りに	-11.5291
購入できてよかったです	-11.5292
仕方ないのかもしれませんが	-11.5294
満足いく	-11.5295
が増える	-11.5296
影	-11.5296
わくわく	-11.5296
豪華な	-11.5297
巡	-11.5297
挙句	-11.5297
宛	-11.5297
投入	-11.5297
蕎麦	-11.5297
主婦	-11.5297
密閉	-11.5298
登山	-11.5298
除菌	-11.5298
オリーブオイル	-11.5299
クロックス	-11.5299
毛玉だらけ	-11.53
ヒールの高さ	-11.5302
グレージュ	-11.5302
車輪	-11.5304
8000	-11.5305
癒し	-11.5307
酷く	-11.5308
パッチ	-11.5309
厚みのある	-11.531
名前入り	-11.5312
キーケース	-11.5314
出ていて	-11.5315
貼ってある	-11.5316
ひじ	-11.5318
ハマって	-11.5322
膝下	-11.5325
植	-11.5327
ることができる	-11.5328
使ってみよう	-11.5328
輸送	-11.533
接続部分	-11.5332
個人差がある	-11.5334
楽しみにしていました	-11.5336
待っていた	-11.5337
開封したら	-11.5337
植え替え	-11.5337
毛質	-11.5338
週間程	-11.5346
細部	-11.5352
ついていたので	-11.5352
人生	-11.5364
ものではありません	-11.5364
今年の夏	-11.5365
ヴァ	-11.5366
滲	-11.5366
竿	-11.5366
披露宴	-11.5366
レイアウト	-11.5367
百貨店	-11.5367
トイプードル	-11.5367
レヴュー	-11.5367
重宝する	-11.5367
薄味	-11.5368
お値段が安いので	-11.5368
お昼寝	-11.5368
ついてました	-11.5369
内ポケット	-11.5369
迷う	-11.5369
二つ折り	-11.537
保護シート	-11.5372
無ければ	-11.5374
下段	-11.5375
穿き	-11.5376
自然な感じ	-11.5376
333	-11.5376
知らせ	-11.5377
破れてしまいました	-11.5383
まだ未使用	-11.5385
4〜5	-11.5391
塗れ	-11.5394
枚ずつ	-11.5395
届いた物は	-11.5396
大変気に入っています	-11.5397
ふたつ	-11.5398
ちょうどよかった	-11.5399
方がよい	-11.54
取らない	-11.5405
思えません	-11.5405
入れています	-11.5406
両端	-11.5414
まだ届いていません	-11.5415
当たり外れがある	-11.5422
と言っていたので	-11.5424
茶碗	-11.5426
キャベツ	-11.5436
インスタント	-11.5437
お母さん	-11.5437
過剰	-11.5437
クーラー	-11.5437
体操	-11.5437
j	-11.5437
使わせていただきます	-11.5437
年末年始	-11.5437
良しとします	-11.5437
寿司	-11.5437
イタリア	-11.5437
変換	-11.5437
完売	-11.5437
従来	-11.5437
使うことにしました	-11.5438
野球	-11.5438
求めていた	-11.5438
分量	-11.5438
が豊富で	-11.5439
モダン	-11.544
次回からは	-11.5442
注文してから届くまで	-11.5442
前提	-11.5443
配送会社	-11.5452
在庫がなく	-11.5453
通話	-11.5453
アニメ	-11.5453
粉々	-11.5455
利用させてもら	-11.5455
になってしまって	-11.5456
近くのホームセンター	-11.5459
080	-11.5461
夢	-11.5467
特に問題なく	-11.5479
いけます	-11.5479
レビュー見て	-11.548
食べるのが	-11.5481
気に入っていたのですが	-11.5483
当てて	-11.5486
ついてくる	-11.5488
ing	-11.5491
あげく	-11.5494
広げる	-11.5495
まだ使用していないので	-11.5496
しておけば	-11.5497
座っている	-11.5499
暮	-11.5501
お取り寄せ	-11.5502
カラフルな	-11.5504
ビット	-11.5504
句	-11.5505
スムース	-11.5507
天日干し	-11.5507
ビデオ	-11.5507
レギュラー	-11.5507
湾	-11.5507
おもったより	-11.5507
カーネーション	-11.5507
桐	-11.5507
関東	-11.5507
続けたい	-11.5507
銀行印	-11.5508
ふとん	-11.5509
当たらない	-11.551
気にいった	-11.5511
間に合いませんでした	-11.5514
下がる	-11.5515
安いからしょうがない	-11.5517
ような気がする	-11.5519
求められ	-11.5524
レビューを見ると	-11.5524
手動	-11.5524
ライナー	-11.5524
っちゃう	-11.5524
音沙汰なし	-11.5525
飲みたい	-11.5526
昨日届きました	-11.5533
量が少なく	-11.5535
オーク	-11.5541
脱げる	-11.5543
10%	-11.5544
与えています	-11.5547
配達され	-11.5547
への贈り物	-11.5548
燃	-11.5548
レイン	-11.5549
安っぽく見えます	-11.5553
最新	-11.5555
ほうがよい	-11.5556
こちらで購入した	-11.5561
録	-11.5568
寒くなる	-11.5569
珠	-11.5574
好きな色	-11.5575
樹	-11.5577
膜	-11.5577
おっしゃって	-11.5577
プラチナ	-11.5578
ダウニー	-11.5578
秒針	-11.5579
割り切って	-11.558
今の季節	-11.558
人気商品	-11.558
(><)	-11.5581
テカリ	-11.5582
浮く	-11.5582
私の肌には	-11.5583
1/3	-11.5584
すすめ	-11.5584
もう少し安ければ	-11.5586
事実	-11.5586
くださった	-11.5588
☆−1	-11.5591
ない限り	-11.5592
甘すぎず	-11.5596
また買いたいです	-11.5596
当たり外れ	-11.5598
信用して	-11.5598
襟元	-11.56
聴いて	-11.5603
以前の問題	-11.5604
大きくなる	-11.5606
装着感	-11.5612
着れました	-11.5619
日傘	-11.5624
濃かった	-11.5628
着用しています	-11.5632
広げ	-11.5635
服用	-11.5636
貰った	-11.5643
違ってました	-11.5649
釈	-11.5649
念願の	-11.5649
狂	-11.5649
トッピング	-11.5649
伝わって	-11.5649
紛らわしい	-11.5649
視認性	-11.5649
q	-11.5649
介護	-11.5649
消毒	-11.565
せんべい	-11.565
履けました	-11.565
応じ	-11.565
区別	-11.565
また利用させて	-11.5651
伝票番号	-11.5651
パパ	-11.5651
まーす	-11.5652
今から楽しみです	-11.5655
簡易包装	-11.5655
送料がかかる	-11.5656
リピは無いです	-11.5656
スウェット	-11.5657
拭き取り	-11.5658
苦労して	-11.5658
ーーーーーーー	-11.5664
長い間	-11.5666
ほかの方のレビュー	-11.5667
安すぎ	-11.5667
あまりよくない	-11.5668
くっつく	-11.567
リース	-11.5672
放送	-11.5672
CO	-11.5672
容	-11.5672
亡くな	-11.5673
絞り	-11.5674
夕	-11.5674
安く買えてよかったです	-11.5677
と思っていたところ	-11.5682
採	-11.5684
ハードケース	-11.5688
するしかない	-11.5689
あると便利	-11.5689
スタッフの対応	-11.5691
厚すぎ	-11.5692
よい買い物	-11.5693
ものが多い	-11.5696
こちらを購入してみました	-11.5698
大人用	-11.5703
甲の部分	-11.5704
心地よい	-11.5705
気のせい	-11.5712
手放せない	-11.5714
繊細な	-11.5716
頑	-11.5719
覧	-11.5721
独特な	-11.5721
氏	-11.5721
フェイク	-11.5721
ちょこっと	-11.5721
温泉	-11.5721
すべすべ	-11.5722
返却	-11.5722
トレーナー	-11.5722
全員	-11.5723
膨らま	-11.5723
食べ応え	-11.5725
無さそう	-11.5725
EN	-11.5725
来ず	-11.5726
少なすぎ	-11.5726
排水	-11.5727
当店	-11.5728
息子へ	-11.5728
の処理が	-11.5728
猫ちゃん	-11.5728
時間がかかって	-11.5728
ここのショップ	-11.5729
ピーチ	-11.5731
送料が無料	-11.5733
商品の説明	-11.5734
ちょうど良かった	-11.5734
んじゃないでしょうか	-11.5736
ぽく	-11.5736
寝れ	-11.574
好きな香り	-11.574
保湿力	-11.5742
厚みがあって	-11.5744
早く届き	-11.5745
置いています	-11.5747
丈が短く	-11.5748
抱	-11.5751
感激しました	-11.576
履いてみて	-11.5767
作りはしっかりして	-11.577
自分好み	-11.5771
以前のもの	-11.5772
のお返しに	-11.5776
満足していました	-11.5779
鮮やか	-11.578
書けません	-11.5781
消耗	-11.5785
評	-11.5789
販売されて	-11.5791
ゆるめ	-11.5791
貯	-11.5793
撃	-11.5793
恥	-11.5794
shop	-11.5794
お出掛け	-11.5794
坂	-11.5794
よろしい	-11.5794
無駄遣い	-11.5796
測定	-11.5796
おさまり	-11.5796
ばらつき	-11.5796
送ってくる	-11.5799
直前	-11.5799
果たして	-11.58
毎度	-11.5801
花火	-11.5805
喜んでくれたので	-11.5807
こちらを見つけました	-11.5809
水草	-11.5811
手元に届きました	-11.5813
無視され	-11.5814
おもちゃみたい	-11.5818
着られません	-11.5819
羽織る	-11.5819
予約商品	-11.582
此方	-11.5821
欄	-11.5824
写メ	-11.5827
させてもらいます	-11.5829
見かけない	-11.5831
?????	-11.5833
1,000	-11.5836
を作るのに	-11.5837
滑ら	-11.5842
不良品なのか	-11.5842
混ぜる	-11.5845
生地感	-11.5846
をとる	-11.5849
照ら	-11.585
案	-11.5857
嫌がる	-11.5863
電話で問い合わせ	-11.5863
酷かった	-11.5864
手頃な価格	-11.5865
痛くならない	-11.5865
フォルム	-11.5866
伊	-11.5866
合わせやすく	-11.5866
強烈な	-11.5866
シャープ	-11.5867
パーフェクト	-11.5867
眉	-11.5867
修学旅行	-11.5867
炊飯器	-11.5867
呑	-11.5867
3.5	-11.5867
羽根	-11.5868
精米	-11.5869
可動	-11.5869
ぐらぐら	-11.587
ろうと思います	-11.5871
運び	-11.5872
オレンジを購入しました	-11.5874
お風呂場	-11.5874
近々	-11.5876
どうぞ	-11.5877
死着	-11.5877
なければいけない	-11.5878
-201505	-11.5882
なおす	-11.5882
ことを期待して	-11.5885
ゆえ	-11.5885
お客	-11.5885
ガム	-11.5886
ウニ	-11.5887
ショボ	-11.589
イメージと違った	-11.5896
膝上	-11.59
失敗だった	-11.5901
履かせて	-11.5905
してほしかった	-11.5911
感じられます	-11.5914
出来ている	-11.5915
好みではなかった	-11.5917
年近く	-11.5918
気になるところ	-11.5918
普段履き	-11.5919
ていきたい	-11.5922
テク	-11.5924
*****	-11.5926
必要があります	-11.5927
って思う	-11.5927
座れ	-11.5927
la	-11.5927
外出時	-11.5929
経ち	-11.5929
年保証	-11.5931
渡した	-11.5934
メーカー品	-11.5934
書かれていますが	-11.5938
裏切られ	-11.5939
任	-11.594
無農薬	-11.594
マニュアル	-11.594
乏	-11.594
羊	-11.594
基礎	-11.594
グレープフルーツ	-11.594
カプセル	-11.594
泣く泣く	-11.594
スワロ	-11.594
あわてて	-11.594
グラデーション	-11.594
迷彩	-11.594
ディスプレイ	-11.594
周辺	-11.5941
真珠	-11.5941
上司	-11.5941
折り曲げ	-11.5941
いくら安くても	-11.5942
ポイント消化	-11.5942
丈が長い	-11.5945
二度目の購入です	-11.5945
半額以下	-11.5946
断線	-11.5946
天気	-11.5946
ライム	-11.595
ネギ	-11.5953
辞め	-11.5953
しっかりとしていて	-11.5955
送ってきた	-11.5955
申	-11.5958
如何	-11.596
スタッフの方	-11.5961
添	-11.5962
ゆとりがあり	-11.5962
見落とし	-11.5967
予想していた	-11.5967
知っている	-11.5967
して頂ける	-11.5967
得意	-11.5968
夢中	-11.5982
なんですかね	-11.5983
暗い色	-11.5984
費用	-11.5985
と同じくらい	-11.5988
礼	-11.5994
人家族	-11.6003
住	-11.6004
開けられ	-11.6005
蚊	-11.6014
スプリング	-11.6014
気に入ってくれて	-11.6014
労	-11.6014
目覚め	-11.6014
定形外	-11.6014
バケツ	-11.6014
ギシギシ	-11.6014
姫	-11.6015
期待していませんでしたが	-11.6015
ご注意を	-11.6015
何とも言えない	-11.6015
とうとう	-11.6015
書かせて	-11.6015
組み合わせて	-11.6016
バイザー	-11.6016
ニャ	-11.6016
急いでいたので	-11.6016
こちらにたどり着きました	-11.6016
糖質	-11.6017
マイクロ	-11.6018
死んで	-11.6018
出ています	-11.6019
肩ひも	-11.6019
華やかな	-11.6021
造花	-11.6021
フォーク	-11.6021
子どもたち	-11.6021
素敵な商品	-11.6025
ヘン	-11.6025
ヨレ	-11.6025
文句無し	-11.6028
シャン	-11.6033
厚手の靴下	-11.6039
使い方が悪いのか	-11.6042
選ばない	-11.6046
しておりません	-11.605
値段を考えれば	-11.6051
306	-11.6051
温めて	-11.6053
苦労します	-11.6053
漬	-11.6054
へ行く	-11.6055
浮いた	-11.6056
別のお店で	-11.6059
:22	-11.6064
蒸気	-11.6068
壊れやすい	-11.607
そんな事	-11.6077
彫	-11.6078
付けている	-11.608
みたくて	-11.6081
届いてビックリ	-11.6082
鮮	-11.6082
家の中	-11.6083
いつものサイズ	-11.6085
と言われる	-11.6086
鯛	-11.6088
鑑	-11.6088
標	-11.6089
コタツ	-11.6089
キレイな色	-11.6089
つぼみ	-11.6089
コントロール	-11.6089
コスメ	-11.6089
月曜日	-11.6089
安いとはいえ	-11.6089
糞	-11.6089
怪しい	-11.6089
云々	-11.609
発想	-11.609
サークル	-11.6091
団子	-11.6092
未開封	-11.6092
ことができません	-11.6094
聞け	-11.6095
点検	-11.6096
値引き	-11.6096
することなく	-11.6097
天然石	-11.6101
いいのかもしれません	-11.6107
購入履歴	-11.6109
試してみて	-11.6111
借りて	-11.6117
甘い香り	-11.6119
利用してます	-11.6119
に負担が	-11.6127
ものではありませんでした	-11.614
一回目	-11.6144
嫁さん	-11.6148
余った	-11.615
辞	-11.6151
高級感もあり	-11.6153
消えません	-11.6153
大丈夫そう	-11.6155
me	-11.6158
見にくい	-11.6159
ザイ	-11.6159
こすれ	-11.6163
否	-11.6163
ヴ	-11.6164
発泡スチロール	-11.6164
土踏まず	-11.6164
栽培	-11.6164
なじむ	-11.6164
占	-11.6164
フォーム	-11.6164
効率	-11.6165
挙げ	-11.6165
同時に購入した	-11.6165
決まって	-11.6166
丁寧に梱包されて	-11.6167
散らか	-11.6167
靴のサイズ	-11.6168
毎月	-11.6173
購入される方は	-11.6176
(^-^)/	-11.6178
使い続ける	-11.6178
別のショップで	-11.6178
出てる	-11.6181
受け取って	-11.6183
コーム	-11.6184
一段	-11.6184
履か	-11.6185
なっちゃう	-11.6187
着てみたら	-11.6188
は良いけど	-11.6189
困り	-11.6191
リピートしたい	-11.6191
ゆず	-11.6195
サイズはぴったり	-11.6196
期待していたのに	-11.6196
気に入っております	-11.62
を考慮して	-11.6202
電子レンジ	-11.6207
つけてみると	-11.6209
ベンチ	-11.6209
包装されて	-11.6216
っちゃいました	-11.6217
入り口	-11.622
また利用したい	-11.6229
の調整が	-11.6229
のもいいですね	-11.6231
底面	-11.6235
辛かった	-11.6237
事はない	-11.6239
アマゾン	-11.624
いちばん	-11.624
ポカポカ	-11.624
シャフト	-11.624
獣	-11.624
シロップ	-11.624
&#13213;	-11.624
サッカー	-11.624
卒園式	-11.624
引っ張られ	-11.624
搬	-11.624
膨らんで	-11.624
公園	-11.624
主人公	-11.6241
入園準備	-11.6241
ユーザー	-11.6241
負荷	-11.6241
期待を裏切	-11.6242
切断	-11.6244
何種類か	-11.6244
女性用	-11.6245
日の午前中に	-11.6246
ve	-11.6247
脱毛	-11.6248
他社製品	-11.625
チェンジ	-11.6253
だろうと思って	-11.6258
ヨー	-11.6259
持たない	-11.6259
子供がいるので	-11.6268
滑らない	-11.6269
履いてみたら	-11.6274
電池交換	-11.6276
人によって	-11.6276
ブロー	-11.6279
敷いた	-11.628
対応して頂き	-11.6281
母に頼まれて	-11.6282
ロード	-11.6282
迅速に対応していただき	-11.6282
間もない	-11.6283
認め	-11.6285
っちゃった	-11.6287
ひっかかり	-11.629
販売されている	-11.6292
させていただいています	-11.6293
頼みたい	-11.6293
-201510	-11.6296
あきらめます	-11.6301
届か	-11.6302
ほうがよかった	-11.6303
うちでは	-11.6314
肝心な	-11.6316
斑	-11.6316
カチッと	-11.6316
М	-11.6316
心遣い	-11.6316
こだわって	-11.6316
在住	-11.6316
とてもじゃないけど	-11.6317
風呂敷	-11.6317
出せる	-11.6317
はともかく	-11.6318
思いきって	-11.6318
細工	-11.6318
期待が大きかった	-11.6319
発送も迅速で	-11.6319
銀行	-11.6319
お買いもの	-11.632
かわいそう	-11.6321
全く違います	-11.6322
知らなかった	-11.6323
ガラスフィルム	-11.6323
重ね付け	-11.6323
ap	-11.6325
;`)	-11.6325
脱ぎ着	-11.6328
鳴り	-11.6329
結ぶ	-11.6329
部活	-11.633
近所のスーパー	-11.6331
立った	-11.6331
ヶ月半	-11.6332
滑	-11.6333
歩きやすく	-11.6339
取扱説明書	-11.634
お店に連絡	-11.6341
してくれない	-11.6341
307	-11.6343
避けて	-11.6344
台風	-11.6345
関係ない	-11.6345
実物の方が	-11.6348
面倒くさ	-11.6349
使用不可	-11.6353
続けてみようと思います	-11.6355
が強すぎて	-11.6356
サーモンピンク	-11.6361
pe	-11.6368
気もします	-11.6369
ためしに	-11.637
盆	-11.6381
期待をして	-11.6384
目立ちません	-11.6384
詰め替え用	-11.6385
.....	-11.6385
ずらかった	-11.6386
友達にプレゼント	-11.6388
卒業	-11.639
新生児	-11.6393
ビミョー	-11.6393
ToT	-11.6393
アパート	-11.6393
迅速な発送	-11.6393
鼻緒	-11.6393
毎晩	-11.6393
大阪	-11.6395
食器棚	-11.6396
屋根	-11.6396
ひどすぎる	-11.6397
蛇口	-11.64
永く	-11.6402
外装	-11.6403
&#8226;	-11.6404
取り扱って	-11.6405
汚れていました	-11.6407
部位	-11.6413
切れてしまい	-11.6415
脱ぎ	-11.6417
複雑	-11.6418
あげています	-11.642
生地がしっかりしていて	-11.6422
を選ば	-11.6426
納得できる	-11.6427
使いたくて	-11.6429
ように思いました	-11.6436
~~	-11.6437
ついてて	-11.6438
重ねる	-11.6442
見た時	-11.6446
-----	-11.6448
量販店	-11.645
心配していた	-11.6452
通常価格	-11.6456
くれている	-11.6458
たくさん入っていて	-11.646
父へ	-11.6463
べたつき	-11.6468
惑	-11.647
スゴく	-11.647
レコーダー	-11.647
脆	-11.647
しょっちゅう	-11.6471
前々から	-11.6471
と比較すると	-11.6471
びっくりするくらい	-11.6471
葬	-11.6471
返品するのも面倒	-11.6471
肌触りがよく	-11.6472
麦茶	-11.6472
デイリー	-11.6472
色あせ	-11.6472
海老	-11.6473
読書	-11.6473
次男	-11.6473
何枚も	-11.6474
精油	-11.6474
振り込み	-11.6475
ワンちゃん	-11.6475
回復	-11.6476
速達	-11.6476
許容範囲内	-11.6477
両側	-11.6479
品質管理	-11.6481
とおもう	-11.6483
残っています	-11.6486
ネットに入れて	-11.6486
(^^;;	-11.6488
円程度	-11.6491
確認のメール	-11.6495
こともありません	-11.6506
ゆとりがある	-11.6511
レッドを購入しました	-11.6519
炭酸水	-11.652
付いていない	-11.6528
知った	-11.6531
--------------	-11.6534
期日	-11.6535
裏表	-11.6535
騙され	-11.6536
子供用に購入しました	-11.6536
これで十分	-11.6539
遠方	-11.6544
帽	-11.6545
町	-11.6548
浮腫	-11.6548
草履	-11.6549
スムージー	-11.6549
火曜日	-11.6549
コスプレ	-11.6549
略	-11.6549
試供品	-11.6549
刊	-11.6549
かさばらない	-11.6549
ミッキー	-11.6549
DIY	-11.6549
がっくり	-11.6549
消化	-11.6549
電動ドライバー	-11.655
転倒	-11.655
バリバリ	-11.655
フレンチ	-11.6552
穴の位置が	-11.6552
現状	-11.6553
ようがありません	-11.6553
大きさもちょうどよく	-11.6553
(^^♪	-11.6553
模様替え	-11.6553
ジャック	-11.6554
バスマット	-11.6556
言われた	-11.6557
試してみる	-11.6558
剥け	-11.6561
使いずらい	-11.6563
段々	-11.6565
擦り	-11.657
出来そう	-11.6575
届いた時点で	-11.6576
違いますね	-11.6583
ようがない	-11.659
食べてくれる	-11.6592
使い勝手が悪い	-11.6594
lo	-11.6601
気に入っていただけに	-11.6605
生まれた	-11.6606
レビューにもありましたが	-11.6609
和風	-11.6609
楽しみにしてたのに	-11.6618
手元に届いて	-11.6619
欲しいもの	-11.6622
がたくさんあり	-11.6625
二人目	-11.6626
船	-11.6626
婚	-11.6626
肝	-11.6627
類似品	-11.6627
手土産	-11.6627
アイデア	-11.6627
西川	-11.6628
コイル	-11.6628
充満	-11.6628
耳たぶ	-11.6628
フロア	-11.6628
隙間ができ	-11.6628
アジアン	-11.6629
忙しく	-11.6629
以前から気になっていた	-11.6629
フェイスタオル	-11.663
ワイシャツ	-11.6631
申し込み	-11.6631
洗えば	-11.6634
読みたい	-11.6635
置き場	-11.6635
自作	-11.6637
埋	-11.6638
はけない	-11.6638
安定感があり	-11.6642
だということ	-11.6646
変えられる	-11.6648
乗った	-11.6649
寝る時	-11.6651
デュ	-11.6652
交換していただきました	-11.6652
小物入れ	-11.6655
吸収力	-11.6658
安く売って	-11.6663
持って行く	-11.6667
ネット通販	-11.6667
使い切り	-11.6667
地毛	-11.6674
と思っていたのに	-11.6677
ポイ	-11.6683
向かない	-11.6685
二段	-11.6685
解け	-11.6691
どのように	-11.6694
上履き	-11.6695
ギア	-11.6698
概	-11.67
参考までに	-11.6702
多頭飼い	-11.6706
互換	-11.6707
役に立ちません	-11.6707
気休め	-11.6707
尽	-11.6707
マイルド	-11.6707
仔	-11.6707
持参	-11.6707
夕食	-11.6708
四隅	-11.6708
至急	-11.6708
の割合	-11.6708
跳ね	-11.6709
クール便	-11.6709
子供も喜んで	-11.671
陰干し	-11.671
購入することにしました	-11.671
やりとり	-11.6711
購入しなかった	-11.6711
下さる	-11.6712
取れそう	-11.6713
には向きません	-11.6714
ように見えます	-11.6715
ブーツイン	-11.672
不快感	-11.6722
水圧	-11.6726
メールで連絡	-11.673
更	-11.6731
という言葉	-11.6732
こんなことなら	-11.6734
柔らかめ	-11.6735
甘め	-11.6737
ハズレだった	-11.674
わけではなく	-11.6741
まだ使っていないので	-11.6742
地肌	-11.6742
立たない	-11.6743
晴れ	-11.6755
交換してもらう	-11.6761
温まり	-11.6764
履きやすそう	-11.6768
その際	-11.6773
再送	-11.6777
感じられました	-11.6778
丁度よい	-11.678
限られ	-11.6785
希	-11.6786
闘	-11.6786
殊	-11.6787
神経	-11.6787
ベトベト	-11.6787
待ちに待った	-11.6787
気になれません	-11.6787
ロイヤル	-11.6787
椒	-11.6787
鋭	-11.6787
安っぽすぎ	-11.6787
先輩	-11.6788
くらべ	-11.6788
お願いいたします	-11.6788
パワーストーン	-11.6788
ハンドクリーム	-11.679
XXL	-11.679
こんなもんでしょう	-11.6792
へこんで	-11.6792
入れにくい	-11.6793
納車	-11.6793
長女	-11.6794
ごく普通	-11.6794
ニーズ	-11.6795
縫う	-11.6795
足幅	-11.6796
木材	-11.6797
頼め	-11.6797
姉妹	-11.6799
コネクター	-11.6802
リピートはしない	-11.6805
新車	-11.6808
リピートはありません	-11.6816
〜〜〜〜	-11.6819
歪	-11.6829
様子見	-11.6831
突き	-11.6833
ないのでわかりませんが	-11.6835
交換依頼	-11.6837
思い通り	-11.6837
安く購入できたので	-11.6846
合わせやすそう	-11.6855
にもあるように	-11.6857
口臭	-11.6859
味は普通	-11.6863
あるのかな	-11.6867
臓	-11.6867
ちくちく	-11.6867
坊	-11.6867
候	-11.6867
お値段も手頃	-11.6867
きらきら	-11.6868
▁the	-11.6868
吉	-11.6868
有り難いです	-11.6868
ハマり	-11.6868
ギャザー	-11.6868
登場	-11.6868
友人の出産祝いに	-11.6869
真空	-11.687
チェリー	-11.687
使っていくうちに	-11.687
伝線	-11.6872
:26	-11.6873
送料が高い	-11.6874
立たず	-11.6875
目立たず	-11.6879
申し訳	-11.688
項目	-11.688
安心できます	-11.6888
無くなった	-11.6889
はんこ	-11.6889
落ちてしまいます	-11.689
思ってた通り	-11.6891
身につけ	-11.6893
ずれている	-11.6897
総合	-11.6903
みたものの	-11.6904
をのせ	-11.6907
ジワ	-11.691
全然違って	-11.691
あるのでしょうか	-11.6911
調節でき	-11.6911
実家へ	-11.6916
転がって	-11.6917
なければなりません	-11.6917
閉まり	-11.692
勢	-11.6922
華やかさ	-11.6922
は全くありません	-11.6923
返信なし	-11.6923
注文したもの	-11.6924
掲載されている	-11.6925
旅行に行く	-11.6925
込まれ	-11.6928
のも嬉しいです	-11.6933
レジ	-11.6935
満載	-11.6939
サイズはピッタリ	-11.6941
かかと部分	-11.6943
固定されて	-11.6944
迄	-11.6945
透	-11.6945
効果があるのか	-11.6946
企業	-11.6948
態	-11.6949
そっくり	-11.6949
を拝見し	-11.6949
パナソニック	-11.6949
コンサート	-11.6949
お食い初め	-11.6949
見つからなかった	-11.6949
剛	-11.6949
装飾	-11.6949
酔	-11.6949
石けん	-11.6949
ならまだしも	-11.6949
発酵	-11.695
こげ茶	-11.695
つっぱり	-11.695
不味く	-11.695
万が一	-11.6952
びっくりするほど	-11.6952
焼肉	-11.6952
擦り傷	-11.6955
に関する	-11.6957
パイル	-11.696
伝えた	-11.696
残念な商品でした	-11.696
2-2014	-11.6963
コーデ	-11.6964
イライラします	-11.6969
ひろ	-11.6969
23.0	-11.6969
分割	-11.6994
走る	-11.6997
に行か	-11.7002
ボトムス	-11.7008
とおもった	-11.7009
肌触りが良く	-11.7012
思えました	-11.7016
にはもってこい	-11.7017
をいれる	-11.7019
届けられ	-11.7023
ものを探していて	-11.7024
広げた	-11.7025
著	-11.703
麹	-11.703
疲労	-11.703
スチール	-11.7031
MAX	-11.7031
スモーク	-11.7031
被害	-11.7031
ヤスリ	-11.7031
まだ使用してませんが	-11.7031
黒ずみ	-11.7031
双子	-11.7032
シェード	-11.7032
指示	-11.7034
お店の方の対応も	-11.7035
楽しかった	-11.7038
チュール	-11.7042
厚紙	-11.7042
参考になる	-11.7047
メールが届きました	-11.7048
濃さ	-11.7049
反応しません	-11.7055
利用させていただ	-11.7061
でかすぎ	-11.7062
わかりづらい	-11.707
聴き	-11.7079
ゴムの部分	-11.7081
耐久	-11.7083
ベア	-11.7089
期待したほど	-11.7097
受け取れ	-11.7101
寒い時期	-11.7102
やすくなりました	-11.7104
寒くなって	-11.7106
プロテイン	-11.7113
ごちゃごちゃ	-11.7113
駅	-11.7113
リフト	-11.7113
吹き出物	-11.7113
お奨め	-11.7114
ざらざら	-11.7114
所詮	-11.7114
併せて	-11.7114
≧	-11.7114
久々の	-11.7114
ユルユル	-11.7114
西濃運輸	-11.7114
お子様	-11.7114
民	-11.7114
ごぼう	-11.7114
参考になれば	-11.7115
カーボン	-11.7116
リピすると思います	-11.7117
落とせ	-11.7121
ほっと	-11.7124
こともあります	-11.7126
リピはないかな	-11.7128
曲がった	-11.7129
穿いて	-11.7131
どこよりも	-11.7133
スペア	-11.7133
慣れている	-11.7144
絡	-11.7145
***	-11.7146
定期購入	-11.7146
可能性がある	-11.7147
みつけました	-11.7149
それ以下	-11.7149
もらえない	-11.7154
期待しすぎて	-11.7154
問題なく使えます	-11.7157
1/2	-11.716
ct	-11.7161
意外	-11.7164
おきたい	-11.7166
韓国製	-11.7167
ムレ	-11.7169
23.5〜24	-11.7169
メーカーのもの	-11.717
サラッとして	-11.7179
仲	-11.7187
お陰で	-11.7192
挙	-11.7194
ビーフ	-11.7195
鈴	-11.7195
奥行	-11.7196
纏	-11.7196
落ち着く	-11.7196
毒	-11.7197
捜	-11.7197
崎	-11.7197
ペチコート	-11.7197
大好物	-11.7197
曰く	-11.7197
請	-11.7197
育児	-11.7197
ディーラー	-11.7198
挿入	-11.7198
トースター	-11.7198
食い込み	-11.7201
発送していただき	-11.7201
青汁	-11.7202
日の朝	-11.7204
リピしたい	-11.7204
寝具	-11.7204
金魚	-11.7206
モップ	-11.7206
グリル	-11.7206
眠って	-11.7212
嫌がって	-11.7214
実質	-11.7216
自転車に乗	-11.7217
夏休み	-11.7217
着ていく	-11.7217
落ちてくる	-11.722
撮れ	-11.7221
日たっても	-11.7228
お世話になる	-11.7238
サイズを注文しました	-11.7241
悩んでいた	-11.7245
美容院	-11.7246
充電できません	-11.7248
靴の中	-11.7251
利き	-11.7258
娘のために	-11.7261
エンジ	-11.7261
OP	-11.7273
齢	-11.7276
修	-11.7279
◇	-11.728
黒ずんで	-11.7281
嵐	-11.7281
ほんとうに	-11.7281
おっしゃる	-11.7281
ふだん	-11.7281
期待はしていませんでしたが	-11.7281
推	-11.7281
(^-^;	-11.7281
気付きました	-11.7281
クロネコ	-11.7282
[...]
