<unk>	0
<s>	0
</s>	0
、	-2.96704
。	-3.06955
n	-3.23404
。\	-3.68587
の	-4.3027
が	-4.3786
,	-4.43987
\	-4.71192
▁1,	-4.7154
は	-4.72265
で	-4.77313
▁2,	-4.79691
に	-4.95304
も	-5.00179
と	-5.08433
を	-5.19958
です	-5.29713
▁2,,	-5.42899
▁	-5.5112
▁1,,	-5.61273
!	-5.69873
1	-5.90021
ので	-5.90693
い	-5.97977
2	-5.98788
し	-5.98855
(	-6.01808
?	-6.09442
でした	-6.11915
から	-6.19749
なので	-6.24741
...	-6.28805
でも	-6.36277
)	-6.36452
や	-6.41195
!\	-6.46839
ですが	-6.48465
とても	-6.50219
。,	-6.50252
な	-6.52096
3	-6.52979
て	-6.58281
か	-6.6001
!,	-6.65767
ます	-6.65775
ました	-6.68522
この	-6.71202
して	-6.71356
また	-6.74212
購入	-6.74877
、\	-6.75786
・・・	-6.79007
には	-6.81325
少し	-6.8428
「	-6.92096
購入しました	-6.93622
」	-6.95948
かなり	-6.96222
ちょっと	-6.96532
・	-6.96636
かな	-7.0168
る	-7.02228
ただ	-7.03536
4	-7.07248
まだ	-7.07771
〜	-7.08449
と思います	-7.10759
って	-7.12079
5	-7.14035
商品	-7.14927
のですが	-7.15278
残念です	-7.15963
cm	-7.16123
なら	-7.19246
けど	-7.23818
残念	-7.24775
た	-7.25495
お	-7.27233
サイズ	-7.28026
】	-7.28737
ない	-7.29364
した	-7.29418
より	-7.32622
もう	-7.34315
良かったです	-7.34966
ですね	-7.37367
すぐに	-7.37594
10	-7.38576
!!	-7.39643
...\	-7.39825
【	-7.39934
もう少し	-7.40776
しました	-7.42429
満足です	-7.42728
L	-7.43096
あまり	-7.43451
ら	-7.43563
する	-7.46007
り	-7.46251
ね	-7.46992
だったので	-7.47472
)\	-7.48413
にも	-7.48438
など	-7.48446
つ	-7.48569
本当に	-7.50205
まで	-7.5022
色	-7.52099
良い	-7.52454
だと	-7.52809
M	-7.53806
ー	-7.55478
...,	-7.56281
では	-7.56772
♪	-7.57664
いて	-7.58688
やはり	-7.58796
日	-7.59702
私は	-7.59731
のに	-7.63288
という	-7.64225
・・・,	-7.64249
本	-7.64254
すぐ	-7.64418
すごく	-7.64541
なく	-7.64569
これは	-7.64677
商品は	-7.65342
用	-7.68077
として	-7.68379
もっと	-7.69139
よかったです	-7.69344
いつも	-7.69622
いい	-7.69635
他の	-7.69836
のは	-7.69916
だけ	-7.7004
します	-7.70245
今回は	-7.70749
ありがとうございました	-7.71246
笑	-7.7153
よく	-7.7207
よ	-7.74973
かも	-7.75299
用に	-7.75327
6	-7.75967
ん	-7.77157
可愛い	-7.78759
安い	-7.80103
物	-7.80547
円	-7.81142
やっぱり	-7.81211
その	-7.8127
デザイン	-7.81638
だと思います	-7.82629
とか	-7.83254
います	-7.83819
今回	-7.83956
ません	-7.84002
のか	-7.84188
でしたが	-7.85587
全く	-7.85655
かわいい	-7.86189
あと	-7.86454
☆	-7.87148
購入しましたが	-7.87833
・・・\	-7.88631
く	-7.90036
なかなか	-7.90275
とっても	-7.90548
ため	-7.91674
こちらの	-7.92146
!!\	-7.92312
しかし	-7.92399
だし	-7.93288
小さい	-7.9331
時に	-7.93317
いました	-7.93446
色が	-7.93772
分	-7.94309
T	-7.94488
残念でした	-7.94601
大変	-7.95932
を購入しました	-7.9609
う	-7.96175
使用	-7.9653
のが	-7.96856
普段	-7.9689
いる	-7.97042
を購入	-7.97736
S	-7.98153
月	-7.98412
注文	-7.98438
しか	-7.9905
あり	-7.99879
感じ	-8.0014
大満足です	-8.00266
さ	-8.00308
これ	-8.00962
もの	-8.01035
部分が	-8.01674
?,	-8.02628
しかも	-8.02885
思ったより	-8.03516
センチ	-8.03631
ある	-8.03933
届きました	-8.04007
結局	-8.04465
個	-8.04821
ように	-8.04925
ましたが	-8.05124
だった	-8.05286
になりました	-8.05605
同じ	-8.06256
たら	-8.06343
ないので	-8.065
くらい	-8.06842
私の	-8.07433
特に	-8.07512
と思いました	-8.07532
の方が	-8.07755
発送	-8.08003
初めて	-8.08036
なのに	-8.08364
ず	-8.08458
す	-8.08515
ような	-8.08904
そうです	-8.09137
美味しい	-8.095
7	-8.0953
今まで	-8.09713
があり	-8.09729
良いです	-8.10103
色も	-8.10609
いいです	-8.11186
普通の	-8.12916
いた	-8.12966
枚	-8.13138
一	-8.13668
き	-8.13898
ス	-8.14123
私には	-8.1413
満足	-8.14508
対応	-8.14902
プレゼント	-8.14967
。。。	-8.15867
結構	-8.16625
中	-8.16763
気に入りました	-8.17105
色は	-8.17178
自分で	-8.17243
受注番号	-8.17739
と思い	-8.18208
以前	-8.1832
...。	-8.18641
足	-8.18785
買って	-8.18864
レビュー	-8.19038
もなく	-8.1908
交換	-8.19307
白	-8.19534
全然	-8.19973
・・	-8.20298
黒	-8.2039
早速	-8.20805
100	-8.21702
大	-8.22528
前に	-8.22825
しています	-8.22915
こと	-8.23365
毎日	-8.23467
ほど	-8.23512
セット	-8.24092
着	-8.2453
非常に	-8.24706
そう	-8.2476
時	-8.24998
ようです	-8.25144
だ	-8.25393
回	-8.25489
-	-8.25665
良かった	-8.26018
したら	-8.26258
♪\	-8.26309
o	-8.26878
ずっと	-8.26914
8	-8.27021
になる	-8.28581
購入して	-8.28855
とにかく	-8.28924
ではなく	-8.29064
しっかり	-8.29219
そのまま	-8.29322
年	-8.29364
だから	-8.30322
満足しています	-8.30383
これから	-8.30397
ちゃんと	-8.3128
買いました	-8.31818
味	-8.31954
薄い	-8.32106
生地が	-8.32113
早く	-8.32459
サイズが	-8.32471
返品	-8.33419
しましたが	-8.3385
何	-8.33957
商品が	-8.34369
へ	-8.34501
正直	-8.35195
届いた	-8.35457
にしました	-8.36335
人	-8.36704
これで	-8.36779
見	-8.37227
違う	-8.37648
そして	-8.37761
後	-8.37836
がある	-8.37844
なくて	-8.3915
!!,	-8.39264
水	-8.40034
だけで	-8.40105
み	-8.40206
すると	-8.40556
配送	-8.40818
届いて	-8.4089
20	-8.41381
なのか	-8.4147
使って	-8.41546
9	-8.41792
一度	-8.41955
大きい	-8.42014
わ	-8.42554
している	-8.42679
商品の	-8.42714
サイズは	-8.42833
良く	-8.42978
っ	-8.43153
ると	-8.43178
・・・。	-8.43286
よかった	-8.44023
点	-8.44363
タイプ	-8.44414
ま	-8.44603
ピンク	-8.45327
助かりました	-8.45547
なんて	-8.45934
価格	-8.4613
用に購入しました	-8.46403
高い	-8.46453
るので	-8.46498
ば	-8.46728
のような	-8.46772
まず	-8.46826
カバー	-8.46861
前	-8.47204
になります	-8.47888
ますが	-8.48207
ク	-8.48213
一番	-8.48548
こんな	-8.48593
とは	-8.48779
上	-8.48892
こんなに	-8.49026
kg	-8.49164
♪,	-8.494
うーん	-8.49491
★	-8.50156
なかった	-8.50216
可愛いです	-8.50244
12	-8.50359
いたので	-8.50461
30	-8.5048
品	-8.5084
こ	-8.51008
安くて	-8.51067
方が	-8.51779
度	-8.5193
よりも	-8.51953
デザインは	-8.52235
使い	-8.52379
等	-8.5244
自分の	-8.52444
最悪	-8.52452
確かに	-8.52745
身長	-8.52764
簡単に	-8.53795
方	-8.54085
いるので	-8.54267
残念ながら	-8.54447
しまいました	-8.5498
星	-8.55229
になり	-8.5529
よい	-8.5549
▁́	-8.55629
たので	-8.55666
:	-8.55708
購入した	-8.55929
用の	-8.56266
できる	-8.56482
注文しました	-8.56643
事	-8.57218
った	-8.58168
いましたが	-8.5819
確認	-8.58328
かわいいです	-8.58789
としては	-8.58866
だけど	-8.59346
不良品	-8.59648
&	-8.60034
ませんでした	-8.60133
11	-8.60371
中の	-8.60542
ところ	-8.60607
手	-8.60643
24	-8.60764
ご	-8.61614
ケース	-8.61716
おいしい	-8.61906
臭い	-8.62216
商品を	-8.62266
め	-8.6238
と思って	-8.62415
子供の	-8.62422
がっかり	-8.62599
思っていたより	-8.62604
なし	-8.62646
為	-8.63116
ようで	-8.63197
しまい	-8.63239
感	-8.63896
A	-8.63915
きちんと	-8.64115
あ	-8.64676
取り付け	-8.64753
おり	-8.64769
気に入っています	-8.64778
っと	-8.64845
今	-8.64909
時間	-8.65136
ル	-8.65231
んですが	-8.65537
赤	-8.65629
軽くて	-8.65956
感じです	-8.66066
普通に	-8.66229
使う	-8.66918
リ	-8.67106
ト	-8.67124
のでしょうか	-8.6729
組み立て	-8.67474
小	-8.67601
出	-8.67646
こちらで	-8.6774
大きく	-8.67812
ア	-8.68126
送料	-8.68143
充電	-8.68392
形	-8.68418
やっと	-8.68701
外	-8.68837
たくさん	-8.68839
目	-8.69029
連絡	-8.6941
ヶ月	-8.69414
買った	-8.69463
使いやすいです	-8.695
ブラック	-8.69799
値段	-8.69842
数	-8.70012
になって	-8.70103
なんか	-8.70119
商品も	-8.70199
付き	-8.70332
袋	-8.70525
凄く	-8.70558
まったく	-8.70673
みたいです	-8.7078
嬉しいです	-8.70869
まぁ	-8.71024
何か	-8.71143
しても	-8.71334
なかったので	-8.71486
かもしれません	-8.7155
コ	-8.71561
しない	-8.71608
れば	-8.71774
収納	-8.72024
していて	-8.72469
日に	-8.72569
すぎて	-8.72638
見て	-8.72672
安っぽい	-8.72761
注文して	-8.72822
と思う	-8.73226
こちらは	-8.73277
使えない	-8.73345
全部	-8.73584
リピート	-8.73837
安く	-8.73929
ッ	-8.73988
使いやすい	-8.74413
15	-8.74491
助かります	-8.74546
ということで	-8.74599
カ	-8.74722
でしょうか	-8.74929
若干	-8.75565
柄	-8.75693
見た目は	-8.75906
ありません	-8.75935
ぐらい	-8.76148
購入したのですが	-8.76176
写真	-8.76316
g	-8.76409
週間	-8.76562
良いと思います	-8.76605
使える	-8.76723
けれど	-8.76862
ときに	-8.76904
/	-8.77036
状態	-8.77059
でしょう	-8.7712
子供が	-8.77246
色々	-8.77254
.	-8.77315
ありがとうございます	-8.77415
デザインも	-8.77424
味は	-8.77784
履いて	-8.77814
長く	-8.77874
マ	-8.78177
なのですが	-8.78221
入れ	-8.78255
大きな	-8.78462
ではない	-8.78474
にして	-8.78837
送料無料	-8.78885
便利です	-8.78945
のも	-8.79272
やすい	-8.79473
のため	-8.79535
のかな	-8.79821
安いので	-8.80346
『	-8.80603
汚れ	-8.80605
傷	-8.80695
いいと思います	-8.80795
ベージュ	-8.80831
グレー	-8.81158
よう	-8.8129
中に	-8.81294
もあり	-8.8144
ショップ	-8.8164
ものを	-8.81751
』	-8.81856
安心して	-8.82434
とりあえず	-8.82619
ポイント	-8.82651
ものが	-8.82761
私が	-8.831
があって	-8.83279
効果	-8.83306
実際	-8.83313
~	-8.83408
品質	-8.8344
^^	-8.83617
なり	-8.83784
m	-8.8404
ノ	-8.84047
位	-8.84228
のある	-8.84445
食べ	-8.84481
キロ	-8.84496
たり	-8.84626
タ	-8.8477
ネットで	-8.84817
サイズも	-8.84993
付け	-8.85108
使っています	-8.85137
梱包	-8.85378
商品です	-8.85388
ほとんど	-8.85439
これを	-8.85746
便利	-8.86068
靴	-8.8621
ホワイト	-8.86426
さらに	-8.86517
きました	-8.8654
取り	-8.86819
できない	-8.86988
された	-8.87686
評価	-8.87699
あって	-8.87741
失敗	-8.88085
ブルー	-8.88108
下	-8.88415
気に入ってます	-8.88717
別の	-8.88786
きて	-8.88789
利用	-8.88857
作り	-8.88997
があるので	-8.89047
いまいち	-8.89115
500	-8.89119
バック	-8.89226
着用	-8.89289
ながら	-8.89325
カラー	-8.89355
箱	-8.89485
必要	-8.89491
到着	-8.89512
二	-8.89643
それ	-8.89791
リピ	-8.89955
使用して	-8.89966
がなく	-8.89979
追記	-8.90029
を探していました	-8.90131
??	-8.90235
というか	-8.90374
☆\	-8.90839
入り	-8.90852
ないです	-8.90915
-20	-8.91038
キ	-8.91059
B	-8.91081
結果	-8.91125
みたい	-8.91144
所	-8.91284
綺麗に	-8.91307
気	-8.91344
がっかりです	-8.9136
mm	-8.91401
みると	-8.91511
軽い	-8.91575
になった	-8.91581
美味しいです	-8.91628
楽しみです	-8.91675
いたら	-8.91736
大満足	-8.91759
食	-8.91796
気がします	-8.91883
を購入しましたが	-8.92099
何度も	-8.92103
白い	-8.92151
−	-8.92153
前回	-8.92533
無い	-8.92618
☆,	-8.92758
C	-8.92792
そんなに	-8.92951
一つ	-8.9296
生地も	-8.92994
小さく	-8.93131
香り	-8.93151
性	-8.93264
さん	-8.93297
のと	-8.93487
できました	-8.93931
商品自体は	-8.94003
心配	-8.94037
上に	-8.9409
のみ	-8.94316
私	-8.94584
生地	-8.94664
量	-8.94668
シ	-8.94706
最悪です	-8.94713
ラ	-8.9472
感じで	-8.94728
かと	-8.94848
いろいろ	-8.94934
欲しい	-8.95039
たい	-8.95082
洗濯	-8.9523
を見て	-8.95266
ゴム	-8.95418
味が	-8.9543
実際に	-8.95487
まあ	-8.95612
かなぁ	-8.9582
メール	-8.95932
しばらく	-8.9602
あります	-8.96404
ド	-8.96474
いますが	-8.96481
デザインが	-8.9656
約	-8.96804
大きくて	-8.96874
のほうが	-8.96999
問題	-8.97037
少々	-8.97231
見た目	-8.97234
生地は	-8.97264
がありました	-8.97273
方は	-8.97331
効果は	-8.9746
んで	-8.97698
タオル	-8.97724
素材	-8.9773
ないと	-8.97751
25	-8.97767
やや	-8.97777
50	-8.97948
w	-8.97954
味も	-8.98246
大きさ	-8.98876
三	-8.9896
レ	-8.98977
普通	-8.99072
最近	-8.99117
×	-8.99273
可愛くて	-8.99306
だったら	-8.99428
買いましたが	-8.99444
お店	-8.99447
買い	-8.99787
部分の	-8.99799
型	-8.99811
買う	-9.00021
いない	-9.00042
の部分が	-9.0017
してます	-9.00181
え	-9.00188
今は	-9.00228
ち	-9.00269
程	-9.0029
シンプルで	-9.00361
生	-9.00425
つけて	-9.00541
時は	-9.00573
短い	-9.00602
店	-9.00691
全体的に	-9.00757
ところが	-9.00839
イ	-9.00868
画像	-9.00871
台	-9.01305
1000	-9.01329
小さくて	-9.01388
E	-9.0139
;	-9.01396
への	-9.01423
サイズで	-9.01595
この商品は	-9.018
通り	-9.02365
表示	-9.02392
カット	-9.02432
種類	-9.02532
おすすめです	-9.02655
用に購入	-9.02696
多少	-9.02722
最初は	-9.02782
きれいに	-9.02859
つけ	-9.02882
これなら	-9.03021
ぴったり	-9.0332
オ	-9.03432
ブラウン	-9.03486
綺麗な	-9.03525
気に入って	-9.03597
、「	-9.03625
されて	-9.04042
ナ	-9.04049
好きな	-9.04102
あるので	-9.04275
のように	-9.04381
んだ	-9.04442
しまいます	-9.04668
23	-9.0468
注文した	-9.04798
機能	-9.0495
今日	-9.04964
みたいな	-9.05137
にくい	-9.05193
いい感じです	-9.05219
グリーン	-9.05426
すれば	-9.05438
悪い	-9.05728
購入し	-9.06007
気持ち	-9.06021
ライト	-9.06053
足が	-9.06084
みて	-9.06169
リピートです	-9.06396
があれば	-9.06402
かもしれませんが	-9.0671
サイズを	-9.06715
購入してみました	-9.06981
ありました	-9.07012
時の	-9.07049
があります	-9.07126
む	-9.07405
安かったので	-9.07645
出来る	-9.07734
ミ	-9.07762
いたのですが	-9.078
見た目も	-9.07935
ちょうど	-9.08222
全て	-9.08328
きた	-9.0839
バッグ	-9.08419
歳	-9.08759
なぁ	-9.08905
記載	-9.08978
あった	-9.09125
部分	-9.09225
メール便	-9.09238
できます	-9.0955
いいですね	-9.09552
じゃない	-9.09554
物が	-9.09587
しまった	-9.09589
サイズの	-9.09735
装着	-9.09785
お値段	-9.09982
と思いましたが	-9.10062
小さな	-9.10168
→	-9.10213
毎回	-9.10218
長い	-9.10234
レビューを見て	-9.1032
グ	-9.10396
バ	-9.10479
ピッタリ	-9.10684
じ	-9.10707
私も	-9.10908
安心	-9.10908
(^	-9.11014
値段相応	-9.11016
その他	-9.11063
娘の	-9.11082
くる	-9.11145
買い物	-9.11263
(^^)	-9.11306
・・・・	-9.11393
期待	-9.11587
イマイチ	-9.11613
○	-9.11682
オレンジ	-9.11975
メーカー	-9.12039
40	-9.12119
D	-9.1215
OK	-9.12195
と一緒に	-9.12203
大きさも	-9.12224
入れて	-9.12277
したので	-9.12317
ラッピング	-9.12651
今度は	-9.12758
みたら	-9.12791
+	-9.12796
匂いが	-9.13021
パンツ	-9.13066
ものは	-9.13268
軽く	-9.13317
とも	-9.13357
せいか	-9.13573
匂い	-9.13588
ちなみに	-9.1365
G	-9.14004
。。。,	-9.14095
持ち	-9.14144
青	-9.14378
前の	-9.14401
飲み	-9.14476
がない	-9.14557
薄く	-9.1466
毛	-9.14701
自体は	-9.14707
それでも	-9.14737
微妙	-9.14832
かと思います	-9.14839
きます	-9.1487
ム	-9.14954
美味しかったです	-9.15195
木	-9.15231
耐久性	-9.15273
なんとか	-9.15426
タイプの	-9.15472
と同じ	-9.15632
と思っています	-9.15751
問い合わせ	-9.15761
_	-9.15852
製品	-9.15883
ロ	-9.15944
シャツ	-9.16198
力	-9.16381
ネット	-9.16463
素敵な	-9.16512
を買いました	-9.16568
沢山	-9.16691
配達	-9.16873
号	-9.16885
れ	-9.17085
うまく	-9.17228
最高	-9.17274
]	-9.17309
されている	-9.17633
ショック	-9.17645
とても気に入りました	-9.17721
物は	-9.17749
汗	-9.17852
!!!	-9.17931
一緒に	-9.18099
しまう	-9.18172
なければ	-9.1824
感が	-9.18278
手に	-9.18341
ガッカリ	-9.18436
説明	-9.18485
キャンセル	-9.18533
パ	-9.1869
が悪い	-9.18728
もちろん	-9.18886
パン	-9.18889
夏	-9.18899
口	-9.18902
ウ	-9.18916
ほぼ	-9.19188
うちの	-9.1929
乾燥	-9.19368
どう	-9.1954
販売	-9.19815
子	-9.19861
違い	-9.1989
代	-9.19907
あまりにも	-9.19953
以上	-9.19998
っぽい	-9.19998
なんだか	-9.20018
つき	-9.20119
オススメです	-9.20156
しません	-9.20178
そうな	-9.20182
商品でした	-9.20346
のもの	-9.20366
だったのですが	-9.20455
注文番号	-9.20507
普段は	-9.20557
すごい	-9.20584
音	-9.20607
臭いが	-9.20652
薄くて	-9.20725
さんの	-9.20736
系	-9.20858
コーヒー	-9.20942
作業	-9.2099
この商品	-9.21052
香りが	-9.21096
物を	-9.21124
これが	-9.2126
無	-9.21351
チ	-9.21436
何も	-9.21616
その後	-9.21694
ズ	-9.21756
美味しく	-9.22232
着て	-9.22274
ないし	-9.22387
なる	-9.226
お試し	-9.22604
しっかりしていて	-9.2263
を入れて	-9.22733
クリーム	-9.22764
茶	-9.22815
ダメ	-9.22913
s	-9.22969
18	-9.23048
パック	-9.23058
14	-9.23098
値段も	-9.23107
最高です	-9.23163
せず	-9.23342
やすく	-9.23376
安いし	-9.23496
びっくり	-9.23521
などの	-9.23541
P	-9.23542
痛い	-9.23683
重い	-9.23751
絶対	-9.23862
喜んで	-9.24078
メ	-9.24103
なかったです	-9.24344
何度か	-9.2442
良かったので	-9.24512
とのこと	-9.24551
したところ	-9.24729
無く	-9.24772
みたいで	-9.24787
iPhone	-9.24846
人は	-9.24882
こちら	-9.24927
ひどい	-9.24965
花	-9.24991
シャンプー	-9.25189
W	-9.25247
イメージ	-9.25377
細い	-9.2573
幅	-9.25765
長さ	-9.25904
はありません	-9.25998
るし	-9.26063
とき	-9.26067
状態で	-9.26071
色の	-9.26249
下に	-9.26305
早い	-9.26422
なりました	-9.26456
するので	-9.26599
他	-9.26599
先	-9.26624
たっぷり	-9.2675
調整	-9.26807
60	-9.26828
ゴールド	-9.2694
黒い	-9.27029
ても	-9.27074
なくなりました	-9.27107
超	-9.27148
食べて	-9.27192
夜	-9.27228
13	-9.27259
金	-9.27305
ポケット	-9.27342
伸び	-9.27371
になってしまいました	-9.27396
枕	-9.27515
食べる	-9.2753
ことが	-9.27621
電話	-9.27646
がっかりしました	-9.27762
希望	-9.27868
LL	-9.27913
しまって	-9.27979
現在	-9.27996
無し	-9.28126
部分に	-9.28226
番	-9.28296
同	-9.28391
再度	-9.28401
倍	-9.28408
初めての	-9.2842
使えません	-9.28444
問題なく	-9.28534
マット	-9.28626
不満	-9.28755
びっくりしました	-9.28811
内容	-9.28828
どうしても	-9.29067
の為	-9.29111
リピです	-9.29365
次は	-9.29532
高	-9.29543
だけに	-9.29601
があったので	-9.29686
固定	-9.29745
つです	-9.29754
いいのですが	-9.29761
良かったのですが	-9.29923
体重	-9.29936
などは	-9.29956
すぎる	-9.30039
携帯	-9.30089
オイル	-9.30108
ベッド	-9.30122
と思いますが	-9.30153
肌に	-9.30259
人には	-9.3026
改善	-9.30267
ですし	-9.30377
ン	-9.3048
どんな	-9.30588
合わない	-9.3059
好み	-9.30612
カード	-9.30613
アップ	-9.30671
的に	-9.30688
あれば	-9.30885
どれも	-9.31012
嬉しい	-9.31025
お気に入りです	-9.31098
ビ	-9.31098
包装	-9.31214
注文してから	-9.31502
朝	-9.31597
すべて	-9.31828
色で	-9.31986
してる	-9.32016
とても残念です	-9.32191
”	-9.32253
わからない	-9.32295
そんな	-9.32462
使用しています	-9.32524
気になる	-9.32531
名	-9.32548
風	-9.32603
これからも	-9.32635
車	-9.32676
驚きました	-9.32678
新しい	-9.32704
使ってます	-9.32791
こちらを	-9.32814
履き	-9.3283
試しに	-9.3285
ω	-9.32925
着る	-9.32999
ほしい	-9.33002
ネ	-9.33017
自分	-9.33046
寝	-9.33099
個人的には	-9.33119
いっぱい	-9.33119
横	-9.33205
今のところ	-9.33278
この値段で	-9.33307
別	-9.33444
使えます	-9.33543
設置	-9.3363
過ぎて	-9.33716
LED	-9.33772
スマホ	-9.33821
付けて	-9.33898
方には	-9.34015
石	-9.3404
[	-9.34237
ネジ	-9.3427
しないと	-9.34298
思い	-9.34488
くて	-9.34554
紙	-9.34558
ゴミ	-9.3469
でしたので	-9.34702
ばかり	-9.34773
マイナス	-9.34801
26	-9.34858
ボ	-9.35033
ものの	-9.35178
だいぶ	-9.35223
していた	-9.35292
買ってよかったです	-9.35293
16	-9.3531
まま	-9.35597
直	-9.35674
け	-9.35675
ガ	-9.35783
布団	-9.36003
にしましたが	-9.36056
ブ	-9.36171
なります	-9.36214
できません	-9.36259
十分	-9.36285
雨	-9.36392
ビニール	-9.3641
お気に入り	-9.36421
ものでした	-9.36539
遅い	-9.36676
ている	-9.36697
簡単	-9.36733
ずに	-9.36749
届く	-9.36934
かけ	-9.36944
ビックリ	-9.36962
さっそく	-9.37008
エ	-9.37009
なって	-9.37037
前から	-9.37134
つく	-9.37144
ウエスト	-9.37148
ジ	-9.3715
モノ	-9.37186
重	-9.37227
チェック	-9.37263
服	-9.37332
出来ない	-9.37341
欲しかった	-9.37389
カップ	-9.37392
ベルト	-9.3749
金額	-9.37516
が届きました	-9.37523
a	-9.37574
ことを	-9.37586
逆に	-9.37588
切り	-9.37747
の方は	-9.37759
心	-9.37837
期待して	-9.37912
おすすめ	-9.37967
無理	-9.37986
90	-9.37989
リング	-9.38053
って感じです	-9.38058
ツ	-9.38077
音が	-9.38077
々	-9.38093
していました	-9.38116
部分は	-9.38229
書いて	-9.38293
サ	-9.38382
ときは	-9.38429
フ	-9.38443
いません	-9.38479
トイレ	-9.38681
してしまいました	-9.38685
本日	-9.38712
どの	-9.38715
的な	-9.38886
意外と	-9.38897
可愛く	-9.38906
150	-9.38978
ブラ	-9.39147
される	-9.39167
すぎ	-9.39237
気分	-9.39258
について	-9.39337
ど	-9.39349
者	-9.39389
と言う	-9.39403
日で	-9.39448
できて	-9.39451
綿	-9.39659
財布	-9.39668
又	-9.39714
色々な	-9.39766
値段が	-9.39773
みましたが	-9.39806
スカート	-9.39995
ネイビー	-9.40121
も良く	-9.40146
今後	-9.40244
ひとつ	-9.40262
完全に	-9.40303
ミス	-9.40423
メールで	-9.4046
楽しみ	-9.40512
不	-9.40514
ニ	-9.40561
22	-9.40563
かった	-9.40587
ふ	-9.40601
あんまり	-9.40708
したのですが	-9.40728
持って	-9.40755
更に	-9.40761
柔らかい	-9.40766
ボタン	-9.40793
O	-9.40808
粉	-9.40825
K	-9.40847
女性	-9.40955
柔らかく	-9.41117
PC	-9.41241
注文しましたが	-9.41283
仕事	-9.41297
らしく	-9.41351
シルバー	-9.41354
油	-9.41373
かかる	-9.41428
切れ	-9.41465
買って良かったです	-9.41555
式	-9.41574
ピアス	-9.41856
我が家の	-9.41925
箇所	-9.41977
濃い	-9.42003
70	-9.42054
使います	-9.42092
好き	-9.42189
に合わせて	-9.42245
じゃ	-9.42353
,"	-9.42394
高さ	-9.42461
色違いで	-9.42465
目が	-9.42534
目に	-9.42553
19	-9.42555
オススメ	-9.42637
縫製	-9.4269
冷凍	-9.42723
込み	-9.42786
そうで	-9.42854
テーブル	-9.43046
F	-9.43047
入る	-9.43137
せ	-9.43163
家族	-9.43192
合わせ	-9.43194
最初から	-9.43225
ワイン	-9.43361
茶色	-9.43386
いろんな	-9.43465
もよく	-9.43574
があった	-9.43821
きつい	-9.43839
ています	-9.43892
ことは	-9.43982
ボリューム	-9.44032
半分	-9.44088
のために	-9.44096
され	-9.44128
時計	-9.44155
何とか	-9.44241
硬い	-9.44262
止め	-9.44292
見える	-9.44373
匹	-9.44399
通常	-9.44483
はず	-9.44487
そ	-9.44518
なった	-9.44545
0	-9.44598
モ	-9.44619
布	-9.44626
掃除	-9.44709
後に	-9.44765
即	-9.44807
粒	-9.44833
形が	-9.44861
長	-9.44873
お店で	-9.44887
しっかりした	-9.45024
出来	-9.45059
ですので	-9.45083
届き	-9.45185
きっと	-9.45197
焼き	-9.45236
糸	-9.45275
実物は	-9.4541
時間が	-9.45417
読んで	-9.45479
シート	-9.45553
何より	-9.45691
しっとり	-9.4587
ダメでした	-9.45925
初	-9.45936
翌日	-9.45966
細かい	-9.46022
ドレス	-9.46081
が多く	-9.46166
とのことで	-9.4619
顔	-9.46197
変更	-9.46251
直ぐに	-9.46311
不安	-9.46357
間	-9.46426
の商品	-9.46452
届かない	-9.46463
効果が	-9.4651
入らない	-9.46522
子供	-9.4653
したい	-9.46568
。"	-9.46595
プレゼントに	-9.46771
ストラップ	-9.47019
柄が	-9.47024
きれいな	-9.47025
ブーツ	-9.47116
が多い	-9.47119
付属の	-9.47329
品物	-9.47381
腰	-9.47464
をして	-9.47495
せっかく	-9.4752
が少し	-9.47577
のかもしれませんが	-9.47611
レッド	-9.47767
それに	-9.47782
肉	-9.47785
ショックです	-9.47832
ですよ	-9.47859
本体	-9.47891
思った以上に	-9.47939
壊れました	-9.47965
説明書	-9.48006
明らかに	-9.48025
お買い得	-9.48139
写真と	-9.48162
内	-9.48202
靴下	-9.48275
購入する	-9.48352
なお	-9.48382
いないので	-9.48398
◎	-9.48448
素敵です	-9.48504
なんで	-9.48587
円で	-9.48587
ください	-9.48627
穴が	-9.48778
おいしいです	-9.48808
たまたま	-9.48865
27	-9.48877
によって	-9.48995
か月	-9.4912
ありませんでした	-9.49158
暖かい	-9.49185
こういう	-9.49198
飲んで	-9.4935
ではありません	-9.49361
お勧めです	-9.49362
嬉しかったです	-9.49414
続けて	-9.49489
ぐ	-9.49586
変な	-9.49704
落ち	-9.49836
質	-9.49837
体	-9.49925
を買って	-9.50115
一回	-9.50145
(>_<)	-9.50231
ナチュラル	-9.50279
に入れて	-9.50387
購入したので	-9.50393
られる	-9.50395
DVD	-9.50443
向き	-9.50472
び	-9.50698
程度	-9.50761
加工	-9.50803
プ	-9.50862
まあまあ	-9.5089
製	-9.51151
黄色	-9.51217
を購入して	-9.51246
したいと思います	-9.51318
気に入った	-9.51375
綺麗	-9.51431
素材が	-9.51521
いく	-9.51551
(*^^*)	-9.51555
最初	-9.51581
下の	-9.5162
目立つ	-9.51642
面	-9.51699
ポ	-9.51749
冬	-9.51804
合う	-9.51814
肌	-9.52052
があると	-9.52063
チョコ	-9.52069
お得	-9.5207
満足してます	-9.52117
ぎ	-9.52128
やって	-9.5214
ゴムが	-9.52212
を使って	-9.52321
有り	-9.52364
履く	-9.52444
なぜ	-9.52484
かわいくて	-9.526
思ったよりも	-9.526
のない	-9.52608
泣	-9.5261
させて	-9.52628
使えませんでした	-9.52684
ちょうどいい	-9.52687
自転車	-9.52712
生地の	-9.52727
スッキリ	-9.52784
がないので	-9.52787
としても	-9.52935
^	-9.52942
ダ	-9.52975
テ	-9.52995
難しい	-9.53031
,2	-9.53059
多分	-9.53111
..	-9.5316
とはいえ	-9.53169
ガラス	-9.53559
???	-9.53575
質感	-9.53578
肩	-9.53672
仕様	-9.53716
設定	-9.53758
新	-9.53806
楽	-9.53814
足の	-9.53945
段	-9.54087
だと思いました	-9.54119
地	-9.54216
80	-9.54368
てしまいました	-9.54376
しながら	-9.54448
安心です	-9.54461
作って	-9.54762
!?	-9.55008
レンズ	-9.55021
あとは	-9.55116
追加	-9.55141
玉	-9.55193
200	-9.55215
すでに	-9.55224
明るい	-9.55239
来て	-9.55277
シール	-9.5528
というより	-9.55288
いい感じ	-9.55399
甘い	-9.55459
会社	-9.55558
ありますが	-9.55634
安いから	-9.55774
穴	-9.55775
V	-9.5584
とおもいます	-9.55844
みました	-9.55905
気が	-9.55951
いたり	-9.5604
レース	-9.56109
ゆったり	-9.56135
もともと	-9.56184
ぁ	-9.56501
曲	-9.5651
返信	-9.5651
引き	-9.56526
様	-9.56539
先日	-9.56569
雰囲気	-9.56692
手間	-9.56743
の時に	-9.56749
クッション	-9.56781
他に	-9.56921
レビューで	-9.56931
洗い	-9.56979
イン	-9.5702
光	-9.57049
はとても	-9.57205
在庫	-9.57257
ミニ	-9.57265
お茶	-9.57355
たのですが	-9.57407
ことに	-9.57573
大丈夫	-9.57662
楽天	-9.57666
素敵	-9.57678
の物	-9.57734
様に	-9.57739
直接	-9.5777
ここまで	-9.57892
今回も	-9.58093
純正	-9.58199
23.5	-9.5835
すっきり	-9.58369
書	-9.58424
ケーキ	-9.5846
大好きな	-9.58514
ついて	-9.58546
入って	-9.58554
レベル	-9.58574
新品	-9.58611
よかったのですが	-9.58619
仕方ない	-9.58689
処理	-9.58733
丁寧に	-9.58809
せめて	-9.58915
話	-9.58949
おもちゃ	-9.58956
糸が	-9.5911
はない	-9.59137
の上に	-9.5919
場所	-9.59195
コレ	-9.59203
替え	-9.59214
頭	-9.59401
ダイエット	-9.59443
ではないので	-9.59631
くらいの	-9.59643
それほど	-9.59671
メール便で	-9.59737
でき	-9.5974
が一番	-9.59796
入荷	-9.59807
胸	-9.59827
あれ	-9.59834
XL	-9.59836
良いのですが	-9.59838
ボタンが	-9.59877
17	-9.59912
で購入	-9.59924
ですよね	-9.59955
とても良かったです	-9.59959
印象	-9.5996
汚れが	-9.59999
塩	-9.60048
v	-9.60068
とても良いです	-9.60073
大人	-9.60075
野菜	-9.6009
で購入しました	-9.60095
ヤ	-9.6018
よいです	-9.60192
息子の	-9.60217
一部	-9.60262
薄	-9.60298
と感じました	-9.60312
ほんとに	-9.60395
R	-9.6041
商品に	-9.60556
という感じです	-9.60557
お店の	-9.60587
それが	-9.60652
買ったのですが	-9.60862
しまったので	-9.6088
くらいです	-9.60897
実際は	-9.60911
はじめて	-9.60954
大きめ	-9.60978
使えそうです	-9.61055
読み	-9.61069
が必要	-9.61096
送って	-9.61152
られて	-9.61173
納得	-9.6131
れる	-9.6134
間違い	-9.61341
形は	-9.61356
しっかりと	-9.61425
自分用	-9.61454
こちらも	-9.61618
出荷	-9.61624
是非	-9.61672
ために	-9.6168
できず	-9.61779
わかりません	-9.61792
してから	-9.618
キズ	-9.61811
まとめ買い	-9.61819
ショップで	-9.61863
見えます	-9.61951
28	-9.61979
革	-9.62024
二つ	-9.62039
ろ	-9.6204
接続	-9.62132
ような気がします	-9.62162
ワ	-9.62239
を探していて	-9.62309
弱	-9.6231
んです	-9.62328
ほうが	-9.62383
もありません	-9.62435
対策	-9.62498
春	-9.62524
お勧め	-9.62593
中で	-9.62629
使用する	-9.62651
ませんが	-9.6268
そうなので	-9.62784
にくく	-9.62796
ちゃん	-9.62804
会	-9.6281
自分用に	-9.62856
指定	-9.62887
娘が	-9.62904
先に	-9.62922
らず	-9.62943
予約	-9.63109
とても良い	-9.63123
ぶ	-9.63188
ほつれ	-9.63198
表記	-9.63205
思っていたよりも	-9.63246
らない	-9.633
ひ	-9.63313
リボン	-9.63324
産	-9.63355
ということ	-9.63379
タイツ	-9.63382
酷い	-9.63439
たいと思います	-9.63458
印刷	-9.63492
いつ	-9.6351
09	-9.63536
うれしいです	-9.6367
この値段	-9.63749
からの	-9.6375
反応	-9.63807
ほかの	-9.63903
買ってみました	-9.63923
作りが	-9.63971
ショックでした	-9.63992
が出て	-9.64221
バッテリー	-9.64234
目の	-9.64242
普段使い	-9.64294
などで	-9.64296
長時間	-9.64335
短く	-9.64408
今回の	-9.64412
こう	-9.64497
......	-9.64579
いくら	-9.64587
強く	-9.64715
感じでした	-9.64724
がとても	-9.64816
イエロー	-9.64828
人で	-9.64893
もある	-9.64917
が悪く	-9.65054
になっている	-9.65059
コンパクトで	-9.65069
ともに	-9.6511
文字	-9.65142
それと	-9.65165
感じがします	-9.65285
強い	-9.6529
子供に	-9.65378
素晴らしい	-9.6541
再	-9.65445
巻き	-9.65489
ファン	-9.6558
巻	-9.65642
脚	-9.65691
発	-9.65755
が欲しくて	-9.65757
だが	-9.65914
塗り	-9.6592
店舗	-9.65955
シンプルな	-9.65957
一枚	-9.65983
捨てました	-9.65992
はかなり	-9.66001
として購入しました	-9.66012
届いたのは	-9.66013
したり	-9.66063
しますが	-9.66077
タグ	-9.66091
ファスナー	-9.66095
部屋に	-9.66097
出して	-9.66131
I	-9.66142
U	-9.66201
21	-9.66226
らしい	-9.66232
検品	-9.66245
ちょっとした	-9.66256
おまけの	-9.66314
日本製	-9.66314
e	-9.66344
子供も	-9.66359
バー	-9.66366
自分が	-9.66389
試着	-9.66399
ワンピース	-9.66501
失敗しました	-9.66674
大丈夫でした	-9.66776
張り	-9.66779
付	-9.66804
黒の	-9.66822
を入れる	-9.66922
については	-9.66946
はなく	-9.66956
注文から	-9.6701
家	-9.67065
サービス	-9.67072
保存	-9.67074
にしては	-9.67136
裏	-9.67177
猫	-9.67186
ありがたいです	-9.67192
フード	-9.67201
ロック	-9.67215
後の	-9.6722
残り	-9.67245
i	-9.67252
に対して	-9.67257
パープル	-9.67384
しているので	-9.67444
電池	-9.67445
(*	-9.67465
福袋	-9.67631
書き	-9.6764
注意	-9.67723
このまま	-9.67795
美味しかった	-9.6781
皮	-9.67922
問題なし	-9.67941
二度と	-9.67963
購入後	-9.67999
゚	-9.6812
ストレッチ	-9.6814
リー	-9.68149
状況	-9.68166
カメラ	-9.68211
デ	-9.68306
旅行	-9.68327
行	-9.68444
板	-9.68461
丈	-9.6851
が無い	-9.68522
飲む	-9.68545
飾り	-9.68569
なくても	-9.68605
割れ	-9.68635
インナー	-9.68672
になるので	-9.6873
しっかりしています	-9.68775
商品が届きました	-9.68801
火	-9.68811
な感じ	-9.68819
このお値段で	-9.68829
もうちょっと	-9.68839
使えて	-9.68842
山	-9.68892
すぐに届きました	-9.68895
なのでしょうか	-9.68939
画面	-9.68943
置き	-9.68945
安物	-9.6896
古い	-9.68988
160	-9.69061
思ってたより	-9.69078
上の	-9.69096
ピン	-9.69117
過ぎ	-9.69198
外れ	-9.69323
多い	-9.69339
頼んで	-9.69439
置いて	-9.69449
ライン	-9.6948
と思い購入しました	-9.69669
数回	-9.69732
昨日	-9.69963
使いやすく	-9.69979
悪く	-9.70003
テレビ	-9.70095
ハ	-9.70126
バラ	-9.70185
豆	-9.70208
鍋	-9.7023
押し	-9.70232
帯	-9.70234
ボール	-9.70238
通	-9.70317
コート	-9.70363
考え	-9.70405
床	-9.70409
送料が	-9.70462
きつく	-9.70494
がいい	-9.705
300	-9.70523
売って	-9.70602
はあまり	-9.707
扱い	-9.70743
お安く	-9.70794
想像以上に	-9.70818
・・\	-9.70823
していましたが	-9.70834
器	-9.70853
わかる	-9.70898
中身が	-9.70901
値段の割に	-9.71001
ティ	-9.71053
弱い	-9.71078
大きさは	-9.71082
出て	-9.71104
雑	-9.7112
使わない	-9.71132
一本	-9.71165
ゴ	-9.71521
差	-9.71555
に購入しました	-9.71584
られた	-9.71621
おしゃれ	-9.71645
クリア	-9.71661
買い替え	-9.71841
コスパ	-9.71864
なんですが	-9.71883
!」	-9.71933
人に	-9.71953
重宝しています	-9.71997
これまで	-9.72005
気になりません	-9.72028
可能	-9.72057
肌が	-9.72087
予定	-9.7216
と思ったのですが	-9.72164
店で	-9.72184
ものすごく	-9.7219
と言って	-9.72259
プラスチック	-9.72308
ミリ	-9.72349
もし	-9.7243
ロング	-9.72451
に近い	-9.72464
購入したのに	-9.72527
を購入し	-9.72574
ガッカリです	-9.72652
掛け	-9.72751
色合い	-9.72762
中国製	-9.72771
名前	-9.72784
価格も	-9.7283
シンプル	-9.72831
少ない	-9.72893
すら	-9.72901
お値段も	-9.73014
を買いましたが	-9.73042
到着しました	-9.73046
を購入したのですが	-9.73071
作品	-9.73094
娘も	-9.73184
感じが	-9.732
開けて	-9.73237
気に	-9.73279
おいしかったです	-9.73293
スプレー	-9.73298
いても	-9.73343
ボロボロ	-9.7338
ですかね	-9.73395
カビ	-9.73405
とてもいいです	-9.73416
涙	-9.73444
45	-9.73514
値段は	-9.73699
ギリギリ	-9.73703
写真より	-9.73808
いろいろな	-9.73876
間違って	-9.73933
んだけど	-9.73943
土	-9.74029
時期	-9.74101
ただの	-9.74101
開き	-9.74127
場合	-9.74164
訳あり	-9.74209
家で	-9.7432
チェーン	-9.74344
どちらも	-9.74352
熱	-9.74353
^^;	-9.74416
って感じ	-9.74416
るのが	-9.74423
マットレス	-9.74465
・・,	-9.74505
部品	-9.74514
食べた	-9.74531
るのに	-9.74537
思います	-9.74589
小さめ	-9.7464
不足	-9.74708
専用	-9.7478
?」	-9.74782
身	-9.748
以前から	-9.74825
部	-9.74836
ネックレス	-9.74849
の中に	-9.74883
体型	-9.74923
を探して	-9.74961
下着	-9.75013
重さ	-9.75018
使っている	-9.75069
別に	-9.75107
ボトル	-9.75119
米	-9.75126
N	-9.75128
だったのに	-9.75222
下さい	-9.75304
違いました	-9.75313
ジェル	-9.75324
▁̄	-9.75362
に関しては	-9.75404
H	-9.75515
みます	-9.756
ぼ	-9.75638
キラキラ	-9.75682
と思った	-9.75685
化	-9.75718
使いやすさ	-9.75798
p	-9.75925
丸	-9.7595
履き心地	-9.75998
欲しいです	-9.7601
調節	-9.76012
出来て	-9.76019
かけて	-9.76117
出し	-9.76238
字	-9.76255
不良	-9.76267
込んで	-9.76508
が楽しみです	-9.76544
必ず	-9.76561
機	-9.76571
たまに	-9.76574
してくれる	-9.76577
さすがに	-9.76578
合わず	-9.76607
と思っていましたが	-9.76646
部屋	-9.76769
椅子	-9.76771
保管	-9.76784
料理	-9.76808
たぶん	-9.76836
問題ない	-9.76849
である	-9.76946
は全く	-9.76995
こちらの商品は	-9.76996
見ると	-9.77044
優しい	-9.77117
かっこいい	-9.77172
一週間	-9.77253
あたり	-9.77288
シャ	-9.77296
シリーズ	-9.77298
違和感	-9.77371
形も	-9.77433
これでは	-9.77447
するのに	-9.77478
これだけ	-9.77501
縫い	-9.77651
気になります	-9.77736
の方	-9.77741
良さそうです	-9.77772
動き	-9.77822
太い	-9.77871
なくなる	-9.77873
にしても	-9.77926
デザインで	-9.77942
スーツ	-9.77979
ッと	-9.7799
落ちて	-9.78045
修理	-9.78046
他店で	-9.78052
アレルギー	-9.78094
邪魔	-9.78101
セ	-9.78162
組立	-9.78165
まとめて	-9.78189
肌触り	-9.78225
失敗でした	-9.78229
ページ	-9.78234
の香り	-9.78288
と思うので	-9.78311
待ち	-9.78313
ですか	-9.78343
上手く	-9.78359
にならない	-9.78488
パソコン	-9.78492
ふわふわ	-9.78503
を選びました	-9.78567
両方	-9.78586
ネジが	-9.78624
毎年	-9.78744
近所の	-9.78782
しまうので	-9.78791
とこ	-9.78805
家の	-9.78816
d	-9.78874
香りも	-9.78918
スープ	-9.78941
であれば	-9.78976
ること	-9.78982
ビックリしました	-9.7907
共に	-9.79125
柄も	-9.79224
(^-^)	-9.79297
コンパクト	-9.79334
破損	-9.79411
よりは	-9.7943
けっこう	-9.7943
送りました	-9.79507
くれる	-9.79511
楽天で	-9.79523
半	-9.7957
とても満足しています	-9.79578
仕上がり	-9.79675
予定です	-9.79695
元々	-9.79704
なくなり	-9.79742
付いて	-9.79753
っている	-9.79926
色でした	-9.79941
届くのが楽しみです	-9.79982
見え	-9.79984
ものです	-9.80021
帽子	-9.80055
洗って	-9.80059
一日	-9.80255
できるので	-9.80305
あまりに	-9.80307
なのかな	-9.80325
娘	-9.8034
男性	-9.80345
がよく	-9.8041
探して	-9.80418
お尻	-9.80423
合	-9.80426
送料無料で	-9.80489
りました	-9.80498
シーツ	-9.80506
ギ	-9.80588
リュック	-9.80641
後は	-9.80649
当たり	-9.80665
*	-9.80701
毛が	-9.8072
木の	-9.8075
最初に	-9.80781
好きです	-9.80856
ようなので	-9.80983
のかもしれません	-9.81031
分からない	-9.81055
事が	-9.81071
種	-9.81079
イイ	-9.8111
残念な	-9.81181
以前は	-9.81201
高く	-9.81226
プリント	-9.81227
ソ	-9.81294
最悪でした	-9.81322
と思ったら	-9.81348
`)	-9.81367
プレゼントしました	-9.81409
狭い	-9.81435
おいしく	-9.81447
版	-9.81461
ケ	-9.81518
手が	-9.81555
サラサラ	-9.81673
この値段なら	-9.8168
"	-9.81851
しやすい	-9.81926
荷物	-9.81973
壊れた	-9.81977
かどうか	-9.81982
注文後	-9.81984
ではありませんでした	-9.82013
は少し	-9.82066
さすが	-9.82073
気にならない	-9.82105
操作	-9.82134
やら	-9.82193
大きいサイズ	-9.82237
においが	-9.8231
センチの	-9.82329
練習	-9.82379
髪が	-9.82468
安いです	-9.82489
頑張って	-9.82554
なかったのですが	-9.82659
同じような	-9.82706
を注文しました	-9.82717
ちょっと残念	-9.82732
選択	-9.82843
なぜか	-9.82857
安っぽいです	-9.82871
達	-9.82962
首	-9.8308
使用した	-9.83129
そこまで	-9.83143
んですけど	-9.83169
,【	-9.8322
昨年	-9.83311
ヒール	-9.83347
ザ	-9.8335
小さいので	-9.83374
具合	-9.83389
スムーズに	-9.83426
仕方なく	-9.83446
失敗した	-9.83472
写真の	-9.83502
k	-9.83529
紫	-9.83534
最初の	-9.83581
写真では	-9.83617
届かず	-9.83648
娘に	-9.83674
おまけ	-9.83677
100%	-9.83686
問題ありません	-9.83726
使ってみて	-9.83746
対応は	-9.83768
インク	-9.83781
本当は	-9.83818
が良く	-9.83822
剥がれ	-9.83848
この商品を	-9.83848
あったので	-9.83849
使った	-9.83909
いませんが	-9.83924
出来ました	-9.83949
ピンクの	-9.84015
早くて	-9.84028
のまま	-9.84054
いいかな	-9.84125
u	-9.84163
毛玉	-9.84196
サン	-9.84215
次回は	-9.84257
となりました	-9.84261
プロ	-9.84299
ぜひ	-9.84379
それも	-9.84392
このような	-9.84514
母に	-9.84569
ケーブル	-9.84683
高級感	-9.84711
こちらの商品	-9.84797
石鹸	-9.84798
最低	-9.84799
お安い	-9.84801
使い勝手	-9.84817
;)	-9.84818
プラス	-9.84846
に比べて	-9.84868
ほう	-9.84941
キー	-9.84993
そこそこ	-9.85116
不具合	-9.8512
洗剤	-9.85219
になりそうです	-9.85223
ハズレ	-9.85303
使い始めて	-9.8539
今までは	-9.85503
点灯	-9.85504
際に	-9.85552
小物	-9.85603
うちに	-9.85625
残念ですが	-9.85676
ほしいです	-9.85711
棚	-9.85725
落ち着いた	-9.85892
シワ	-9.85926
色んな	-9.85934
開いて	-9.85946
アイロン	-9.85954
ペン	-9.85957
それは	-9.85962
の中で	-9.86063
一応	-9.86077
薬	-9.86093
歯	-9.86124
指	-9.86145
耳	-9.86191
出る	-9.86233
感動	-9.86241
キツイ	-9.86247
抜け	-9.86348
魚	-9.86409
の色が	-9.86474
がありません	-9.86516
げ	-9.86563
かかって	-9.86566
使用しましたが	-9.86586
ピ	-9.86604
使いましたが	-9.86605
セール	-9.86606
角	-9.86627
当然	-9.86635
パッド	-9.86665
上下	-9.86669
購入して良かったです	-9.86677
できませんでした	-9.86771
シューズ	-9.86791
固い	-9.86821
65	-9.86845
カー	-9.86852
レビューを	-9.86854
ペラペラ	-9.86875
いれば	-9.86876
の問題	-9.86881
買ってよかった	-9.8692
見た目が	-9.86935
ります	-9.86951
大変満足しています	-9.86992
ット	-9.87001
引き出し	-9.87006
と比べると	-9.87036
がかなり	-9.87043
化粧水	-9.87052
余り	-9.8707
届きません	-9.87084
感じました	-9.87137
受け	-9.87148
充分	-9.87167
他にも	-9.87173
通販	-9.87239
袖	-9.87272
類	-9.87282
作	-9.87293
ないのに	-9.87302
ぴったりでした	-9.87314
していない	-9.87315
体に	-9.87323
多く	-9.87324
骨	-9.8734
お値段が	-9.87411
やすいです	-9.87422
万	-9.87453
主人の	-9.87457
サンダル	-9.87539
犬	-9.87557
発送も早く	-9.87588
円の	-9.87644
ズレ	-9.87688
アイボリー	-9.87713
気に入ったので	-9.87726
剤	-9.8779
こちらに	-9.87882
だろう	-9.87888
移動	-9.87894
コン	-9.87896
線	-9.87901
人が	-9.87911
売り	-9.87961
されました	-9.87988
ブラシ	-9.88001
親	-9.88007
120	-9.88011
この価格で	-9.88024
お願い	-9.88027
次	-9.88131
という感じ	-9.88161
できれば	-9.88235
千円	-9.88241
お得です	-9.88244
ディ	-9.88282
人の	-9.88294
たいです	-9.88415
葉	-9.88421
頼んだ	-9.88438
少しでも	-9.88449
がっかりでした	-9.88459
系の	-9.88496
防水	-9.88601
だけの	-9.88616
カバーを	-9.88682
シミ	-9.8873
もない	-9.88757
安っぽく	-9.88817
スタイル	-9.88847
余裕	-9.8886
方法	-9.88934
どんどん	-9.88982
横に	-9.88997
ローズ	-9.89005
サンプル	-9.89007
落ちる	-9.89061
ついた	-9.89074
実	-9.89076
ペ	-9.89106
遊び	-9.89116
砂	-9.89147
玄関	-9.8915
対応が	-9.89186
75	-9.89193
緑	-9.89207
使いにくい	-9.89247
パーツ	-9.89257
タイヤ	-9.89322
さが	-9.89334
段ボール	-9.89368
国産	-9.89386
きれい	-9.894
と思ってます	-9.89418
サイズを購入	-9.89458
ソファー	-9.89478
皆さん	-9.89502
届いた商品は	-9.89535
の味	-9.89589
考えて	-9.89693
にもかかわらず	-9.89703
ストレス	-9.89709
かなと思います	-9.89756
あの	-9.89781
も無く	-9.89833
みた	-9.8988
割	-9.89911
ミシン	-9.89936
まして	-9.89946
滑り止め	-9.90022
おります	-9.90076
やり	-9.90084
ひと	-9.90103
カーテン	-9.90105
表	-9.90139
るのは	-9.9016
入	-9.9019
元	-9.90195
いると	-9.90269
事を	-9.90296
に行く	-9.90318
後悔	-9.90357
あっという間に	-9.90401
厚み	-9.90436
楽しく	-9.90466
ご飯	-9.90516
可愛いし	-9.90522
の色	-9.90527
半年	-9.90534
缶	-9.90546
使用感	-9.90628
済み	-9.90697
もあって	-9.90789
外出	-9.90828
ロー	-9.9086
こちらを購入しました	-9.90881
取れる	-9.90889
梱包も	-9.90965
と言われました	-9.90971
ショップの	-9.90976
髪	-9.90989
月に	-9.90996
とした	-9.9101
以下	-9.91014
までは	-9.91024
値段の割には	-9.91036
柔らかくて	-9.91047
電源	-9.91061
このお値段	-9.91074
期待はずれ	-9.91077
無料	-9.91103
みんな	-9.91154
窓	-9.91183
はありますが	-9.91268
用途	-9.91312
^)	-9.91312
ないように	-9.91428
組み立ては	-9.91448
そういう	-9.91476
流	-9.9152
迷いましたが	-9.91559
カバーが	-9.91584
大変でした	-9.91654
カ月	-9.91673
塗装	-9.91696
みたいに	-9.91706
季節	-9.91767
なの	-9.91797
変わらない	-9.91848
ピッタリでした	-9.91849
を買う	-9.91891
ハンガー	-9.91894
決めました	-9.91924
つで	-9.91945
勝手に	-9.9197
対応も	-9.9198
洋服	-9.91998
購入を決めました	-9.92008
開け	-9.92029
あげ	-9.92099
海外	-9.92208
まるで	-9.92254
明るさ	-9.92285
価格が	-9.92292
切って	-9.92362
していますが	-9.92392
左	-9.92457
時には	-9.9247
小さかった	-9.92527
心配でしたが	-9.92602
もう一つ	-9.92603
ようやく	-9.92676
腕	-9.92798
模様	-9.92809
お金	-9.92875
紐	-9.9288
いつもは	-9.92887
わざわざ	-9.9289
もう一度	-9.93037
既に	-9.93047
見えない	-9.93086
側	-9.93099
はずれ	-9.93113
手で	-9.93125
頃	-9.93135
聞いて	-9.93153
なのは	-9.93161
,3	-9.93197
強度	-9.93212
おらず	-9.93266
したのに	-9.93296
不安でしたが	-9.93365
による	-9.93412
良いですね	-9.93423
幅広	-9.93494
文句	-9.935
使い方	-9.93541
短	-9.93563
TV	-9.93563
勉強	-9.93613
入れる	-9.93641
もあるので	-9.93647
と言われ	-9.9374
キレイに	-9.93743
してください	-9.93765
テープ	-9.93791
がありましたが	-9.9382
たくて	-9.93851
セットで	-9.93868
スポンジ	-9.939
綺麗です	-9.9395
痛み	-9.93969
モデル	-9.94113
途中で	-9.94168
今年は	-9.94188
とても気に入っています	-9.94194
がありますが	-9.94214
明るく	-9.94247
スーパー	-9.94251
相当	-9.94286
ブランド	-9.94349
たところ	-9.94417
金具	-9.94534
可愛かったです	-9.94611
いいかも	-9.94612
縫製が	-9.9467
2〜3	-9.94721
ファスナーが	-9.94751
ありえない	-9.94761
ここで	-9.94791
到着して	-9.948
フィット感	-9.94873
等の	-9.94875
24.5	-9.9495
なー	-9.94994
色落ち	-9.95035
CD	-9.95097
を考えて	-9.95116
フィルム	-9.95157
思っていた	-9.95255
口に	-9.95292
大好き	-9.95293
キッチン	-9.95311
ベ	-9.95358
さえ	-9.95366
プレート	-9.95438
はありませんでした	-9.95439
貼って	-9.9544
可愛いので	-9.95478
来た	-9.95479
実感	-9.95501
だと思って	-9.95512
レギンス	-9.95529
麺	-9.95547
本体の	-9.95562
痛いです	-9.95562
してほしい	-9.95623
すこし	-9.95666
届いたので	-9.95686
計	-9.9571
〜,	-9.95738
もったいない	-9.95743
が良い	-9.95765
的	-9.95776
手持ちの	-9.95794
底	-9.95833
違った	-9.95848
55	-9.95966
歩き	-9.95974
29	-9.95976
したが	-9.9598
立て	-9.96021
商品到着	-9.96033
結婚式	-9.96049
ちょうど良い	-9.96072
本物	-9.96083
的には	-9.96096
疲れ	-9.96097
,1	-9.96105
が欲しい	-9.9612
回り	-9.96181
が好きなので	-9.96206
ずれて	-9.96227
説明書が	-9.96227
店頭で	-9.96379
取付	-9.96424
暗い	-9.96457
場合は	-9.96491
不安です	-9.96492
市販の	-9.96496
海	-9.96501
おまけに	-9.96509
ml	-9.96511
b	-9.9652
誕生日	-9.96522
ことも	-9.96535
をつけて	-9.9655
の様な	-9.96604
通常の	-9.9667
のものを	-9.96724
ソフト	-9.96731
パッケージ	-9.96782
購入したいと思います	-9.96797
厚さ	-9.9681
使用しました	-9.96811
届くまで	-9.96819
パール	-9.96875
もありますが	-9.96966
マスク	-9.97012
かったです	-9.97031
使いたい	-9.9704
容量	-9.97148
お気に入りの	-9.97154
楽です	-9.97188
ヒ	-9.97196
変	-9.97221
X	-9.97261
それを	-9.97323
重く	-9.97344
わけ	-9.97464
違います	-9.97512
家具	-9.97523
もので	-9.97545
取れ	-9.97553
煮	-9.97566
回目	-9.9759
ならば	-9.97612
ハイ	-9.97623
喜んでもらえました	-9.9772
梅	-9.97731
ダウン	-9.97763
細く	-9.97767
時点で	-9.97788
ように思います	-9.97801
幅が	-9.97819
08	-9.97868
かかり	-9.97878
わかりませんが	-9.97917
水が	-9.97917
クリスマス	-9.97932
かわいく	-9.97972
使っていた	-9.98013
まだ届きません	-9.9803
いくつか	-9.98078
ツルツル	-9.98079
それなりに	-9.98154
買って良かった	-9.98161
良し	-9.98219
つける	-9.98224
サイズを購入しました	-9.98244
カワイイ	-9.98261
予想以上に	-9.9829
素材も	-9.98334
痛くて	-9.98351
他の商品	-9.98385
ポーチ	-9.9839
探していました	-9.98395
Y	-9.98433
きたので	-9.98441
水着	-9.98468
寒い	-9.98482
数日	-9.98484
友人の	-9.98497
癖	-9.98563
入っていて	-9.9862
ある程度	-9.98633
壁	-9.98634
食事	-9.98634
同梱	-9.98661
左右	-9.98669
丁度	-9.98749
苗	-9.98774
得	-9.98775
が入っている	-9.98803
締め	-9.98876
分の	-9.98905
貼り	-9.9895
?)	-9.98955
れて	-9.98988
バランス	-9.99035
着心地	-9.99063
お肉	-9.99103
行き	-9.99107
探し	-9.99164
柄は	-9.99168
買わない	-9.99243
売り切れ	-9.9925
もち	-9.99359
始め	-9.9937
これも	-9.99372
健康	-9.9941
今までの	-9.99412
なんとなく	-9.99423
48	-9.99439
蓋が	-9.99448
歳の	-9.99472
某	-9.99482
様な	-9.99526
めっちゃ	-9.99535
しかない	-9.99635
が多いので	-9.99644
母	-9.9965
お菓子	-9.99716
になっていて	-9.9976
商品が届いて	-9.99761
とてもいい	-9.99796
てしまい	-9.99808
いざ	-9.9986
・・・・・	-9.99889
トップ	-9.99934
防止	-9.99939
ベビー	-9.9998
道	-9.9998
y	-10.0003
ならない	-10.0006
漏れ	-10.0009
の為に	-10.0014
自然	-10.003
購入します	-10.0032
Д	-10.0037
ガッカリしました	-10.0039
多	-10.0046
良かったと思います	-10.0046
着物	-10.0049
ベスト	-10.0054
縦	-10.0055
抜群	-10.0055
気になって	-10.0056
寝て	-10.0057
になったので	-10.0057
ック	-10.0057
商品で	-10.0057
が欲しかったので	-10.0061
買ったのに	-10.0063
手軽に	-10.0065
鏡	-10.0067
凄い	-10.0067
絶対に	-10.0076
大きかった	-10.0078
マッサージ	-10.0086
ずつ	-10.0092
させていただきます	-10.0092
五	-10.0103
何回か	-10.0104
息子	-10.0108
をする	-10.0111
成分	-10.0111
脂	-10.0113
の下に	-10.0115
が悪いのか	-10.0117
f	-10.0119
肝心の	-10.0119
マグネット	-10.0121
などに	-10.0128
面倒	-10.0132
詐欺	-10.0134
見えて	-10.0134
いただき	-10.0135
生活	-10.0135
つくり	-10.0141
ここ	-10.0151
からは	-10.0158
しようと	-10.0158
取れて	-10.0164
悩んで	-10.0173
よかったので	-10.0178
手作り	-10.0185
部分も	-10.0187
なん	-10.0189
際	-10.019
場	-10.0191
とは思いますが	-10.0192
いいもの	-10.0194
購入したいです	-10.0195
と比べて	-10.0195
せて	-10.0206
棒	-10.0219
ダンボール	-10.0221
確認して	-10.0227
記入	-10.0228
まだまだ	-10.0233
位置	-10.0234
カレー	-10.0235
辛い	-10.0237
購入です	-10.0237
していたので	-10.0238
我慢	-10.0239
したいです	-10.0242
感じます	-10.0243
商品だと思います	-10.0248
大きめの	-10.025
●	-10.0252
チーズ	-10.0253
細	-10.0259
想像	-10.026
不可	-10.0262
着れない	-10.0262
お店の対応は	-10.0264
お花	-10.0267
リピします	-10.0269
2000	-10.0269
トリートメント	-10.027
赤い	-10.0272
ありましたが	-10.0273
言う	-10.0276
になると	-10.0279
家に	-10.0284
ようですが	-10.0287
とても可愛いです	-10.0288
かなと	-10.0297
とても満足です	-10.0298
入ります	-10.0299
スプーン	-10.0304
以外は	-10.031
出来ません	-10.0311
持っている	-10.0315
解	-10.0317
どおり	-10.0317
だけでなく	-10.0325
絵	-10.0329
迷って	-10.033
ニット	-10.0334
(^_^;)	-10.0343
かかりました	-10.0346
しょうがない	-10.0347
かた	-10.035
大きいです	-10.0353
ダブル	-10.0358
日本	-10.0364
されていて	-10.0365
傘	-10.037
プラ	-10.037
だらけ	-10.0371
スイッチ	-10.0374
膝	-10.0375
見る	-10.0378
は無い	-10.0383
雪	-10.0384
使いました	-10.0386
コンタクト	-10.0387
クロ	-10.0389
ところで	-10.039
方も	-10.0395
だな	-10.0397
使うと	-10.04
派手	-10.04
治	-10.0402
パワー	-10.0406
去年	-10.0406
暖かく	-10.0407
早かったです	-10.0412
素材は	-10.0417
半額	-10.0422
何度	-10.0424
艶	-10.0435
切れて	-10.0436
見たら	-10.0441
めちゃくちゃ	-10.0441
させていただきました	-10.0443
、、、,	-10.0444
入っている	-10.0447
干し	-10.0447
送られてきた	-10.0452
塗って	-10.0453
かと思いましたが	-10.0454
かつ	-10.0457
持ち運び	-10.0458
使い勝手は	-10.0464
低い	-10.0465
綺麗で	-10.0469
USB	-10.0476
ますね	-10.0478
管理	-10.0478
なんと	-10.0483
接着	-10.0486
スタンド	-10.0493
仕事で	-10.0495
シリコン	-10.0496
箱に	-10.0497
HP	-10.0497
文	-10.0498
蓋	-10.0501
泡	-10.0502
伸縮性	-10.0504
お願いします	-10.0504
紐が	-10.0507
大きかったです	-10.051
気軽に	-10.051
調	-10.0514
なども	-10.0517
せる	-10.0518
近く	-10.0518
カン	-10.052
ドア	-10.0522
内側の	-10.0522
パンプス	-10.0523
印鑑	-10.0525
ホ	-10.0527
容器	-10.0529
チャック	-10.053
後ろ	-10.0536
重量	-10.0537
小さいです	-10.0538
クロス	-10.0549
以前に	-10.0557
上げ	-10.056
性能	-10.0561
ので購入しました	-10.0563
のお	-10.0566
はないです	-10.0567
間違えて	-10.0572
写真を	-10.0572
見た	-10.0572
センチで	-10.0575
を作る	-10.0576
コストパフォーマンス	-10.0581
してました	-10.0586
しませんでした	-10.0586
ジャケット	-10.0587
たのに	-10.059
使いたいと思います	-10.059
のが残念です	-10.0591
和	-10.0592
キャップ	-10.0595
ぞ	-10.0595
一切	-10.0596
急いで	-10.0601
なのが	-10.0601
程度の	-10.0602
マン	-10.0603
お店に	-10.0604
られない	-10.0608
保護	-10.0612
ハンドル	-10.0615
贈り物	-10.0616
返品交換	-10.0617
期間	-10.0618
レビューが	-10.0619
持つ	-10.0623
してしまい	-10.0624
安全	-10.0625
だと思いますが	-10.0629
こちらを購入	-10.0632
安	-10.0632
喜んでくれました	-10.0642
になっています	-10.0643
が違う	-10.0646
鉢	-10.0649
などを	-10.065
安いのに	-10.0657
お腹	-10.0658
生地で	-10.0659
はいて	-10.0667
長さが	-10.067
分かりません	-10.0671
140	-10.0679
裏地	-10.0681
☆2	-10.0683
刺激	-10.0684
入っていました	-10.069
にも関わらず	-10.0691
かなりの	-10.0693
すること	-10.0695
真	-10.0699
暑い	-10.0701
座って	-10.0702
訳	-10.071
印	-10.071
ばかりで	-10.0711
様子	-10.0712
液	-10.0712
毛布	-10.0713
側の	-10.0715
正規品	-10.0723
色違い	-10.0723
のようです	-10.0725
足に	-10.0727
取れました	-10.0727
感想	-10.0733
キレイ	-10.0736
におい	-10.0741
良い感じです	-10.0747
傷が	-10.0752
伸びて	-10.0752
良いもの	-10.0754
問題ないです	-10.0758
近くの	-10.076
口コミ	-10.0762
高め	-10.0762
他社の	-10.0763
バリ	-10.0763
中身は	-10.0772
御	-10.0774
ただし	-10.0777
色を	-10.0788
アン	-10.0788
運動	-10.079
スポーツ	-10.079
ヒップ	-10.0791
無事	-10.0791
おかしい	-10.0792
るように	-10.0795
悩みましたが	-10.0797
良さそう	-10.0803
水を	-10.0805
カーキ	-10.0805
解凍	-10.0806
安かろう悪かろう	-10.0808
金具が	-10.0813
),	-10.0818
サイド	-10.0818
ティー	-10.082
もいい	-10.082
筆	-10.0825
バンド	-10.0828
上から	-10.0829
香	-10.0837
友人に	-10.0839
ところに	-10.0839
期待しています	-10.0841
っぽく	-10.0847
オーダー	-10.085
ランプ	-10.0852
会社の	-10.0855
ター	-10.086
リモコン	-10.0862
大好きです	-10.0865
空気	-10.0872
お米	-10.0876
くらいで	-10.0878
心地	-10.0879
届いたら	-10.0881
よね	-10.0882
始めて	-10.0886
一度も	-10.0894
右	-10.0897
箱が	-10.0898
何回も	-10.0907
してほしいです	-10.091
自分は	-10.0912
>	-10.0913
あると	-10.0913
待って	-10.0914
香りは	-10.0915
色々と	-10.0916
主人が	-10.0917
クリップ	-10.0918
合いませんでした	-10.0922
お安いので	-10.0926
用に買いました	-10.0928
の私には	-10.093
アレンジ	-10.0935
が出る	-10.0937
安定感	-10.0941
まさか	-10.0941
具	-10.0943
秋	-10.0947
パット	-10.0949
貼る	-10.095
全	-10.0957
大きすぎて	-10.0958
安さ	-10.096
ここの	-10.0961
コメント	-10.0963
書いてある	-10.0966
べ	-10.0967
選びました	-10.0968
部屋着	-10.0969
もらって	-10.097
※	-10.0971
ゎ	-10.0971
〓	-10.0971
それぞれ	-10.0977
刺繍	-10.0981
んー	-10.0989
思った	-10.0992
フック	-10.0993
履きやすい	-10.0999
ほどの	-10.0999
臭	-10.1011
地味	-10.1013
てる	-10.1018
品物は	-10.1023
返金	-10.1025
使っていますが	-10.1026
〜\	-10.1028
面白い	-10.1031
無駄	-10.1031
仕上げ	-10.1039
履き心地は	-10.104
四	-10.1041
購入しています	-10.1046
使用している	-10.1049
喜んでいました	-10.106
くれて	-10.1065
分かる	-10.1066
のために購入しました	-10.1066
だめ	-10.1071
目立ちます	-10.1072
大きいので	-10.1073
履ける	-10.1076
今度	-10.1077
いつもの	-10.1078
天	-10.108
によっては	-10.1082
だと思う	-10.1083
大量に	-10.109
出す	-10.1091
我が家では	-10.1092
家族で	-10.1094
小さかったです	-10.1107
負担	-10.1111
楽に	-10.1114
折れ	-10.1117
元気	-10.1118
スト	-10.112
おいて	-10.112
送った	-10.1126
んですね	-10.113
ものより	-10.113
硬くて	-10.1131
今から	-10.1134
もう買いません	-10.1141
分かりませんが	-10.1145
状態でした	-10.1147
を使っていましたが	-10.1147
3000	-10.1156
っています	-10.1157
上品な	-10.1158
ものと	-10.1158
サプリ	-10.1159
大切に	-10.1161
安心しました	-10.1164
すぐ届きました	-10.1169
スーパーで	-10.1169
メッシュ	-10.1172
うれしい	-10.1176
純正品	-10.1184
平	-10.1186
商品説明	-10.1188
食べました	-10.1191
駄目	-10.1192
との事	-10.1194
材	-10.1194
以前の	-10.1201
重宝しそうです	-10.1204
今後も	-10.1204
行く	-10.1204
工夫	-10.1208
卵	-10.1208
デニム	-10.1209
の購入	-10.1211
せずに	-10.1218
気持ちいいです	-10.1221
なくなった	-10.1226
母が	-10.1232
かなー	-10.1237
ガーゼ	-10.1237
にて	-10.1239
大きさが	-10.1243
転	-10.1245
丈も	-10.1245
お店の対応も	-10.1249
送料込みで	-10.125
ミルク	-10.1253
たびに	-10.1256
やつ	-10.1259
実物	-10.1261
丁寧で	-10.1264
レビューを参考に	-10.1271
日間	-10.1272
十分です	-10.1272
薄いです	-10.1276
オフ	-10.1278
ないと思います	-10.128
部分を	-10.128
胸が	-10.1284
電話で	-10.1292
手を	-10.1293
着れる	-10.1295
機種	-10.1302
たって	-10.1302
当	-10.1304
髪の毛	-10.1304
を持って	-10.1307
細身	-10.131
後日	-10.1313
限り	-10.1317
たけど	-10.1318
回転	-10.1323
感は	-10.133
安かった	-10.1338
意味	-10.1347
を見ると	-10.1348
感じがしました	-10.135
取れない	-10.1351
にくいです	-10.1353
一ヶ月	-10.1357
透明	-10.1358
ショーツ	-10.1359
日目	-10.1363
紹介	-10.1364
バター	-10.1367
いただきました	-10.1373
たち	-10.1376
いるのですが	-10.1376
子どもの	-10.1376
x	-10.1384
軽いので	-10.1388
歩く	-10.1393
汚い	-10.1396
ショップに	-10.1398
だけに残念です	-10.1399
お品	-10.1399
思わず	-10.1402
t	-10.1403
が無く	-10.1404
使用後	-10.1409
ジュース	-10.1415
んでしょうか	-10.1419
方の	-10.142
入っていた	-10.1421
クオリティ	-10.1422
違って	-10.1424
動作	-10.1427
いらない	-10.1433
トラブル	-10.1434
各	-10.1437
がついて	-10.1439
成	-10.1439
ぬ	-10.1441
終わり	-10.1442
微妙に	-10.1452
変わり	-10.1452
ですから	-10.1453
グラム	-10.1454
110	-10.1456
購入させていただきました	-10.1456
リピーターです	-10.1457
番号	-10.1461
子供は	-10.1462
壊れ	-10.1469
になってしまい	-10.1472
フィルター	-10.1472
甘さ	-10.1475
気に入り	-10.1475
かわいいけど	-10.1477
悪	-10.1477
期待を込めて	-10.148
非常に残念です	-10.1484
とおり	-10.1488
ったり	-10.1491
言って	-10.1497
女の子	-10.151
すみません	-10.151
前回は	-10.1513
自分には	-10.1514
その分	-10.1515
仕方がない	-10.1517
当方	-10.1519
きません	-10.152
自	-10.1521
ホントに	-10.1521
息子が	-10.1522
ギフト	-10.1526
ていました	-10.1532
保証	-10.1535
が少ない	-10.1536
詰め	-10.1536
かわいいので	-10.1536
材質	-10.1537
縫い目が	-10.1538
かわいいし	-10.154
合わなかった	-10.1541
試して	-10.1545
安価で	-10.1546
のかも	-10.1548
調子	-10.1548
久しぶりに	-10.1551
必要な	-10.1553
発送も	-10.1555
参考に	-10.1558
日の	-10.1562
輪	-10.1566
新しく	-10.1569
ケア	-10.157
便	-10.1572
それから	-10.1572
逆	-10.1573
内側に	-10.1578
はめ	-10.1581
ボックス	-10.1584
細かく	-10.1588
=	-10.1588
機会	-10.1592
用に購入しましたが	-10.1593
発売	-10.1595
なあ	-10.1599
着けて	-10.1603
あっても	-10.1604
来る	-10.161
ほんと	-10.1615
作る	-10.162
気味	-10.1623
車の	-10.1624
コード	-10.1625
外に	-10.1626
使いやすそうです	-10.1627
バラバラ	-10.1628
色と	-10.1636
変化	-10.1638
電球	-10.1644
ふんわり	-10.165
させる	-10.1655
購入したが	-10.1656
母の日	-10.1656
つかない	-10.1657
の味が	-10.1658
プレゼント用に	-10.1661
ねじ	-10.1661
部屋の	-10.1665
のでしょう	-10.1667
難	-10.1669
私的には	-10.1671
飲みやすい	-10.1675
込む	-10.1676
ロゴ	-10.1679
草	-10.1681
こちらが	-10.1688
状態です	-10.1689
使い捨て	-10.1696
まぁまぁ	-10.1704
クレーム	-10.1704
ベタベタ	-10.1705
よさそうです	-10.1706
硬さ	-10.1709
(;	-10.1709
アイ	-10.171
というのは	-10.1717
使用感は	-10.1717
商品届きました	-10.1717
自体が	-10.1722
そのうち	-10.1726
取り付けて	-10.1728
破れて	-10.173
できた	-10.1731
評判	-10.1732
一人で	-10.1732
人気	-10.1734
飲んでいます	-10.1735
シーズン	-10.1741
食品	-10.1745
つい	-10.1747
すぎず	-10.1754
それで	-10.1755
贈りました	-10.1756
気持ちよく	-10.1758
時間も	-10.1763
へのプレゼント	-10.178
スペース	-10.1782
むしろ	-10.1783
自宅で	-10.1784
メーカーの	-10.1784
ヶ月で	-10.1786
送る	-10.1789
しております	-10.179
まし	-10.1799
片	-10.18
38	-10.1803
レビューに	-10.1803
明日	-10.1804
きつくて	-10.1808
ソックス	-10.1814
リピはないです	-10.1817
きれいです	-10.1819
メガネ	-10.1822
というのが	-10.1822
こちらの方が	-10.1823
に見えます	-10.183
パー	-10.183
買ったけど	-10.1832
硬く	-10.1833
息子に	-10.1834
範囲	-10.1837
とてもよかったです	-10.1838
☆4	-10.184
決して	-10.1841
付いている	-10.1843
ないのですが	-10.1847
37	-10.1852
腰痛	-10.1854
といった	-10.1857
使えるので	-10.1857
簡単な	-10.1858
まる	-10.1862
品質は	-10.1863
するのが	-10.1868
湯	-10.187
悪いです	-10.187
太もも	-10.1875
理解	-10.1877
快適です	-10.1882
ようになりました	-10.1885
目立たない	-10.1885
今まで使っていた	-10.1889
割高	-10.1891
機能性	-10.1894
こちらで購入しました	-10.1899
中身	-10.1903
畳	-10.1911
価格で	-10.1912
組	-10.1916
れた	-10.1919
丁寧な	-10.1922
娘は	-10.1923
初心者	-10.1924
夏の	-10.1931
回答	-10.1934
電気	-10.1937
匂いも	-10.1944
可愛さ	-10.1945
取り寄せ	-10.1949
購入してみましたが	-10.1959
ほ	-10.1962
方に	-10.1965
てしまう	-10.1967
不便	-10.1967
次回	-10.1968
胸の	-10.197
開閉	-10.1972
筋	-10.1974
ファー	-10.1975
のみで	-10.198
為に	-10.1982
するのは	-10.1983
なしで	-10.1983
を使う	-10.1984
好きの	-10.1987
ければ	-10.1989
ネック	-10.1989
購入してよかったです	-10.1989
づらい	-10.1992
画像と	-10.1992
過ぎる	-10.2003
と一緒に購入しました	-10.2008
だけなので	-10.2008
何の	-10.2011
匂いは	-10.2014
&#8252;	-10.2015
と思うのですが	-10.2022
お酒	-10.2023
等で	-10.2024
-04	-10.2029
サイズに	-10.2029
ついでに	-10.2043
合わせて	-10.2043
腹	-10.2043
シー	-10.2044
薄いので	-10.2045
発色	-10.2046
取り外し	-10.2056
が付いて	-10.2057
><	-10.2062
内容は	-10.2063
音は	-10.2064
完了	-10.2068
36	-10.207
運	-10.2076
配	-10.2076
店舗で	-10.2077
きり	-10.2077
オマケ	-10.2079
目的	-10.2083
オシャレ	-10.2084
水色	-10.2086
さっぱり	-10.2088
の量	-10.2089
でしょ	-10.2089
来	-10.2089
どころか	-10.2094
つにしました	-10.2096
わかり	-10.2097
フレーム	-10.2098
少しずつ	-10.2103
買ったので	-10.2103
お弁当	-10.2107
深い	-10.2107
買える	-10.2109
フル	-10.2111
国	-10.2112
厚い	-10.212
られ	-10.2125
古	-10.2127
中々	-10.2129
かんじ	-10.213
大丈夫です	-10.2133
作りも	-10.2135
愛用	-10.214
温度	-10.2143
こない	-10.2145
まさに	-10.2146
思う	-10.2148
しみ	-10.2149
可愛いけど	-10.2151
鼻	-10.2151
簡単で	-10.2156
履けない	-10.2159
35	-10.216
クーポン	-10.216
組み立てて	-10.2162
行って	-10.2163
パイプ	-10.2163
試	-10.2163
ベース	-10.2164
こちらのお店で	-10.2165
美味しくて	-10.2167
イマイチでした	-10.2173
が好きで	-10.2174
書いた	-10.2175
だけでも	-10.2181
要	-10.2181
入らず	-10.2182
思って	-10.2189
にします	-10.219
今年	-10.2191
なくなって	-10.2192
れない	-10.2196
ソファ	-10.2199
到着した	-10.22
おいしかった	-10.2201
入りました	-10.2203
丈は	-10.2204
した感じ	-10.2204
ベット	-10.2205
出産	-10.2205
c	-10.2208
キャメル	-10.2208
入りません	-10.2214
思い切って	-10.2215
いいのに	-10.2216
に比べると	-10.2217
良いので	-10.2217
ワン	-10.2221
ほつれて	-10.2222
到着後	-10.2225
迅速な対応	-10.2226
長さも	-10.2228
・・・。,	-10.223
母の	-10.2231
白の	-10.2236
当日	-10.2239
を考えると	-10.224
使い心地	-10.224
のでしょうが	-10.2242
感じは	-10.225
いいので	-10.2251
とは思えない	-10.2254
暖かいです	-10.2254
ものなので	-10.2257
を探していたので	-10.2262
に見える	-10.2263
殆ど	-10.2266
思っていた以上に	-10.2266
いいけど	-10.2267
画像の	-10.2273
妊娠	-10.2273
アウトレット	-10.2281
いまいちでした	-10.2288
(?)	-10.229
用として	-10.2291
昔	-10.2292
滑り	-10.2295
03	-10.2298
ステンレス	-10.2306
メイク	-10.2307
故障	-10.2307
かもしれない	-10.2308
針	-10.231
困りました	-10.2313
チャ	-10.2318
かかった	-10.232
したくて	-10.232
今日届きました	-10.2321
画像より	-10.2322
な感じです	-10.2322
乾き	-10.2324
はまだ	-10.2327
主人に	-10.2328
田	-10.2328
ないけど	-10.2329
依頼	-10.2329
変わらず	-10.2332
はちょっと	-10.2332
と合わせて	-10.2334
出来ます	-10.2334
初期不良	-10.2335
床に	-10.2344
立ち	-10.2351
49	-10.2352
開封	-10.2356
私には合いませんでした	-10.2374
-01	-10.2378
ショップさん	-10.2378
170	-10.2378
ポケットが	-10.238
小分け	-10.238
履くと	-10.2381
他店	-10.2383
ケースが	-10.2383
ズボン	-10.2387
42	-10.239
普段使いに	-10.2391
追加で	-10.2391
本当	-10.2392
使用します	-10.2393
サイト	-10.2395
高さが	-10.2396
手元に	-10.2398
本日届きました	-10.2402
つは	-10.2408
素材の	-10.241
たく	-10.2413
合って	-10.2415
になっていました	-10.2422
愛用しています	-10.2423
足りない	-10.2425
丈夫で	-10.2427
瓶	-10.2431
周りの	-10.2431
07	-10.2435
使い道	-10.2435
抹茶	-10.2438
充電器	-10.2438
短め	-10.244
カバン	-10.2441
られます	-10.2445
のせいか	-10.2445
安価	-10.2447
パジャマ	-10.2453
コーティング	-10.2453
返品したい	-10.2457
レシピ	-10.246
大事に	-10.2462
良い商品	-10.2464
マジックテープ	-10.2472
大変満足です	-10.2472
ごめんなさい	-10.2474
注文したのですが	-10.2477
ぃ	-10.2477
有	-10.2479
色味	-10.2484
思いました	-10.2492
食べたい	-10.2492
柄の	-10.2492
返事	-10.2494
安いけど	-10.2495
.\	-10.2496
安いから仕方ない	-10.2496
ちゃう	-10.2506
ちょうどいいです	-10.2507
残	-10.2509
二度と買いません	-10.2511
なと思いました	-10.2511
の長さ	-10.2517
やすさ	-10.2518
をしました	-10.2523
レザー	-10.2525
の良い	-10.2529
くれました	-10.253
オー	-10.253
お値打ち	-10.2532
金属	-10.2533
居	-10.2537
おそらく	-10.2538
GOOD	-10.2538
それなり	-10.2541
花が	-10.2546
04	-10.2549
もらいました	-10.255
ごと	-10.2552
薄め	-10.2556
■	-10.2558
期待していましたが	-10.2558
頻繁に	-10.2559
もあります	-10.2561
少し大きめ	-10.2562
判断	-10.2562
固く	-10.2567
っていう	-10.2575
喜ばれました	-10.2575
32	-10.2576
感じる	-10.2579
お試しで	-10.2583
-05	-10.2584
を買った	-10.2585
子どもが	-10.2586
調べて	-10.2593
端	-10.2596
悪くない	-10.2597
期待外れ	-10.2599
頭が	-10.2602
ミラー	-10.2603
スニーカー	-10.2607
初めて購入しました	-10.2608
全然違う	-10.2608
未だ	-10.261
しゃ	-10.2611
気持ちいい	-10.2618
壁に	-10.2619
改良	-10.2621
髪に	-10.2622
以外	-10.2624
活躍	-10.2624
浮いて	-10.2625
製造	-10.2627
甘み	-10.2635
虫	-10.2636
シルク	-10.2644
雨の日	-10.2646
さらさら	-10.2646
くれます	-10.2646
ことで	-10.2652
中敷き	-10.2653
始末	-10.2665
広く	-10.2667
ラン	-10.2668
られました	-10.2672
折	-10.2677
抜き	-10.2679
と思っていたのですが	-10.2681
一気に	-10.2684
ざ	-10.2689
バイク	-10.2691
忘れ	-10.2691
取って	-10.2691
まって	-10.2693
▽	-10.2694
からか	-10.2695
ガス	-10.2697
かと思い	-10.2698
不良品でした	-10.27
誕生日プレゼント	-10.2701
58	-10.2702
強	-10.2703
こっち	-10.2707
ネイル	-10.2708
子ども	-10.2709
クッキー	-10.2709
頂きました	-10.2716
認識	-10.2717
とあったので	-10.2718
実は	-10.272
使うのが楽しみです	-10.2721
検索	-10.2721
予想	-10.2729
お得な	-10.273
丈が	-10.2731
はっきり言って	-10.2731
期待していた	-10.2738
拭き	-10.2739
との事で	-10.2739
次の	-10.2741
だけが	-10.2743
47	-10.2745
裾	-10.2746
手袋	-10.275
機会があれば	-10.275
ぜんぜん	-10.2752
後ろの	-10.2754
足首	-10.276
同時に	-10.2763
を探してました	-10.2763
事は	-10.2765
31	-10.2765
面倒なので	-10.2765
物足りない	-10.2766
と違う	-10.2766
固くて	-10.2767
切れる	-10.2768
してしまった	-10.2772
たった	-10.2773
とありますが	-10.2775
ヘア	-10.2777
喜んでいます	-10.2779
さんで	-10.2781
来ない	-10.2782
みたところ	-10.2783
角が	-10.2784
注文したのに	-10.2786
発送が	-10.2787
甲	-10.2789
るのか	-10.2791
-03	-10.2792
も一緒に	-10.2795
ボーダー	-10.2796
代わりに	-10.2798
を注文しましたが	-10.2798
ラック	-10.2802
通勤	-10.2806
観	-10.2809
バン	-10.2811
必需品	-10.2811
てます	-10.2811
本は	-10.2812
おしゃれで	-10.2813
すべき	-10.2814
近	-10.2819
直し	-10.2826
高いので	-10.2826
瞬間	-10.2831
しっかりしている	-10.2836
いきなり	-10.2841
で良かったです	-10.2843
とてもかわいいです	-10.2844
評価は	-10.2844
ティッシュ	-10.2849
...(	-10.2854
粗悪品	-10.2855
食べています	-10.2857
ウィッグ	-10.2861
ゆ	-10.2863
楽しい	-10.2866
っこ	-10.2868
お手入れ	-10.287
口が	-10.287
値	-10.287
最近は	-10.287
130	-10.2872
等は	-10.288
しよう	-10.2881
★2	-10.2882
ダークブラウン	-10.2893
ちょっと残念でした	-10.2897
さほど	-10.2901
悩み	-10.2903
できそうです	-10.2904
皿	-10.2906
上がって	-10.2906
切	-10.2909
球	-10.2909
赤ちゃん	-10.2911
・・。	-10.2911
着用して	-10.2913
ホームセンターで	-10.2917
表面が	-10.2922
夏に	-10.2922
リア	-10.2923
意外に	-10.2925
送料込み	-10.2926
39	-10.2928
を作って	-10.2931
欲しかったです	-10.2938
まずい	-10.2941
購入を	-10.2942
色合いも	-10.2944
ヘッド	-10.2944
でないと	-10.2945
飛び	-10.2947
かって	-10.2951
折り	-10.2951
他の方のレビュー	-10.2955
プレゼント用	-10.2956
の際に	-10.2958
通販で	-10.2959
効果がある	-10.296
放置	-10.2961
以外の	-10.2963
お得感	-10.2965
破れ	-10.2972
最後まで	-10.2973
体が	-10.2975
これからは	-10.2975
ゆとり	-10.2984
ドライ	-10.2989
届いてから	-10.299
丁度良い	-10.2992
46	-10.2994
して欲しいです	-10.2997
と書いてあったので	-10.2998
しにくい	-10.2998
ワンピ	-10.2999
選べる	-10.3
付く	-10.3002
食器	-10.3002
ずれ	-10.3005
内に	-10.3006
だったため	-10.3012
嫌	-10.3014
くっついて	-10.3016
いか	-10.3018
おしゃれな	-10.3019
うちは	-10.3019
画像では	-10.3026
つきます	-10.303
お買い物	-10.3033
役	-10.3033
もっと早く	-10.3036
はある	-10.3037
開封して	-10.3037
そもそも	-10.3038
こちらのショップで	-10.3038
ストッキング	-10.3038
時々	-10.3041
空	-10.3042
おやつ	-10.3044
根	-10.3047
22.5	-10.3048
先が	-10.3051
締め付け	-10.3056
サポート	-10.3057
次回も	-10.3061
しようと思います	-10.3061
(^_^)	-10.3062
してみましたが	-10.3063
なにより	-10.3063
ウエストが	-10.3064
ツヤ	-10.3065
吸収	-10.3076
の時	-10.3078
の大きさ	-10.3078
小さいサイズ	-10.3082
位の	-10.3082
改めて	-10.3082
間に	-10.3082
Z	-10.3083
砂糖	-10.3083
リピートしました	-10.309
使おうと思います	-10.3091
-06	-10.3097
血	-10.3098
グラス	-10.3098
料金	-10.31
姿	-10.3105
小銭入れ	-10.3107
長財布	-10.3109
名入れ	-10.311
もらった	-10.311
机	-10.311
フライパン	-10.3111
肌の	-10.3112
時も	-10.3115
まずは	-10.3116
洗濯したら	-10.312
図	-10.3127
パウダー	-10.3127
買います	-10.3128
内側	-10.313
諦めて	-10.3131
一年	-10.3136
学	-10.3139
の購入です	-10.3143
構造	-10.3143
力が	-10.3144
こちらの商品を	-10.3144
マーク	-10.3145
つけた	-10.3147
社	-10.3147
期	-10.3147
ちゃ	-10.3149
と違い	-10.3149
-02	-10.315
皮が	-10.3152
鍵	-10.3157
プラスチックの	-10.3164
▁^	-10.3165
!!!,	-10.3166
作りは	-10.3167
タン	-10.3168
05	-10.3173
素材で	-10.3179
物も	-10.3184
割れて	-10.3186
未	-10.3186
敷いて	-10.3187
しなくて	-10.3191
に置いて	-10.3192
ボディ	-10.3192
アイテム	-10.3194
率	-10.3195
早	-10.3195
カジュアル	-10.32
それ以外は	-10.3202
向け	-10.3206
と迷いましたが	-10.3206
年以上	-10.3206
不明	-10.321
引っ越し	-10.321
割引	-10.3214
あす楽	-10.3216
関係	-10.3216
安っぽさ	-10.3218
期待はずれでした	-10.3218
調理	-10.3218
タイプで	-10.3219
発注	-10.3219
中が	-10.3222
とありましたが	-10.3223
使っていません	-10.3226
花柄	-10.3231
なったので	-10.3232
のだが	-10.3233
アンダー	-10.3238
女	-10.3238
ブレスレット	-10.3241
安定	-10.3243
難しく	-10.3243
出し入れ	-10.3244
程よい	-10.3244
と書いて	-10.3244
クリスマスプレゼント	-10.3245
頂き	-10.325
インチ	-10.3252
使ったら	-10.3252
のかなぁ	-10.3256
の良さ	-10.326
キャッチ	-10.3263
プチプチ	-10.3264
このお値段なら	-10.3264
壊れて	-10.3271
▁゚	-10.3272
二枚	-10.3277
写真は	-10.3278
ために購入しました	-10.3278
何故か	-10.3279
活用	-10.3282
とても残念でした	-10.3285
ロン	-10.3287
ボード	-10.3288
予備	-10.3288
800	-10.3289
当て	-10.3289
友達の	-10.3298
ようと	-10.3299
情報	-10.3301
取	-10.3304
をみて	-10.3304
限定	-10.3308
素	-10.3309
乗り	-10.3311
白く	-10.3313
そば	-10.3315
選んで	-10.3316
ジャ	-10.3317
爪	-10.3318
やすくて	-10.3319
知	-10.3319
使ってみました	-10.3321
とても便利です	-10.3321
また利用したいと思います	-10.3323
冊	-10.3324
冬は	-10.3328
送料も	-10.3329
お皿	-10.333
届くのが	-10.3335
個人的に	-10.3336
上がり	-10.3342
週間で	-10.3345
95	-10.335
割と	-10.3351
トン	-10.3355
けて	-10.3356
袋に	-10.3357
ありがたい	-10.3359
165	-10.3359
本体が	-10.336
実物を見て	-10.3361
キロの	-10.3361
が少なく	-10.3365
また機会があれば	-10.3366
使うので	-10.3368
いう	-10.337
にぴったり	-10.3372
もうすぐ	-10.3373
期待していたのですが	-10.3385
みる	-10.3385
特別	-10.3385
てしまいます	-10.3387
翌日に	-10.3387
問題ありませんでした	-10.3387
理由	-10.3389
足を	-10.3391
軽さ	-10.3393
ゴミ箱	-10.3394
こちらで購入	-10.3397
手触り	-10.34
我が家は	-10.3402
はがれ	-10.3404
続き	-10.3407
諦め	-10.3409
こちらから	-10.3409
年齢	-10.3415
造り	-10.3423
もしっかり	-10.3425
組み立てる	-10.3427
★4	-10.3427
所が	-10.3428
中です	-10.3428
長年	-10.343
感覚	-10.3431
ラッピングも	-10.3432
好評でした	-10.3435
ラーメン	-10.3435
心配です	-10.3437
ビス	-10.3443
いるのに	-10.3447
クセ	-10.3448
を見	-10.345
かわ	-10.3453
ちょうど良かったです	-10.3454
快適	-10.3456
一人	-10.3456
均	-10.3458
までに	-10.346
送り	-10.3461
があったら	-10.3461
使用していた	-10.3464
のであれば	-10.3464
かかと	-10.3466
こんなもの	-10.3468
以上に	-10.3468
水槽	-10.3476
ワイヤー	-10.3477
ミックス	-10.3481
☆5	-10.3481
バス	-10.3483
誕生日に	-10.3484
いただいて	-10.3486
中古	-10.3487
付いた	-10.3487
形状	-10.3489
コットン	-10.3491
経験	-10.3494
微妙です	-10.3494
未だに	-10.3496
助かっています	-10.3499
直して	-10.3504
圧	-10.3507
経って	-10.3508
襟	-10.351
近い	-10.3513
額	-10.3515
発見	-10.3516
軽いし	-10.3517
と思い購入しましたが	-10.3518
フローリング	-10.3521
男の子	-10.3526
状	-10.3527
もらえる	-10.3528
靴は	-10.353
量が	-10.3532
価値	-10.3533
飲んだ	-10.3537
多少の	-10.3539
ゆるい	-10.354
ホルダー	-10.354
だけあって	-10.3541
のメール	-10.3546
収納力	-10.3546
ッシュ	-10.3549
授乳	-10.3551
な感じで	-10.3552
-07	-10.3558
複数	-10.356
レビューが良かったので	-10.3564
アクセサリー	-10.3565
をした	-10.3569
全体に	-10.3574
人間	-10.3578
洗える	-10.3578
しており	-10.3581
自分に	-10.3583
なさそうです	-10.3584
ムラ	-10.3585
まった	-10.3586
急遽	-10.3588
シングル	-10.3588
により	-10.3595
断然	-10.3601
しっかりした作りで	-10.3603
ヨ	-10.3604
していただき	-10.3607
グリップ	-10.3612
整理	-10.3614
万円	-10.3614
うち	-10.3615
53	-10.3615
共	-10.3616
諦めました	-10.362
損	-10.3621
ついている	-10.3622
ではなかった	-10.3626
わかって	-10.3629
重たい	-10.3633
に変更	-10.3639
01	-10.3642
比較	-10.3644
こんなの	-10.3648
今年の	-10.365
買いません	-10.365
のが残念	-10.3654
型の	-10.3657
はありませんが	-10.3658
ラー	-10.3658
良い物	-10.3659
コンセント	-10.3659
カラコン	-10.3659
色です	-10.366
158	-10.366
着れません	-10.3661
信頼	-10.3661
色合いが	-10.3664
興味	-10.3668
はほとんど	-10.3672
ドット	-10.3678
編み	-10.3681
¥	-10.3682
英語	-10.3682
雑誌	-10.3684
室内	-10.3688
おかげで	-10.3688
溶け	-10.3695
メールを	-10.3696
愛	-10.3703
プール	-10.3705
一個	-10.3706
広い	-10.3707
用意	-10.3707
バスタオル	-10.3712
ペット	-10.3713
法	-10.3716
度と	-10.3716
夏は	-10.3716
回目の購入です	-10.3718
準備	-10.3721
なるので	-10.3723
を選んで	-10.3724
してて	-10.3727
&#8252;&#65038;	-10.373
高くても	-10.3731
自体	-10.3733
合皮	-10.3736
しないので	-10.3736
で購入しましたが	-10.3738
定	-10.3743
痛	-10.3744
屋	-10.3746
結婚式に	-10.3748
いま	-10.3751
内容が	-10.3752
はなかなか	-10.3756
ことができました	-10.3759
使ってみましたが	-10.376
この価格	-10.376
気になりませんでした	-10.3762
歩いて	-10.3763
ふた	-10.3764
フリー	-10.3765
のが残念でした	-10.3765
ビーズ	-10.3766
またリピします	-10.3767
してくれて	-10.3769
何だか	-10.3769
脇	-10.3771
値段で	-10.3771
実際の	-10.3771
事前に	-10.3773
安いもの	-10.3774
いなかった	-10.3775
とても助かりました	-10.3776
だんだん	-10.3778
いや	-10.378
....	-10.3784
嫌な	-10.3789
返答	-10.379
鉄	-10.3797
どうかな	-10.3801
これに	-10.3804
レモン	-10.3804
今回初めて	-10.3805
入りませんでした	-10.3805
湿気	-10.3806
いるのか	-10.3809
そのもの	-10.3811
使い勝手が	-10.3814
肌触りも	-10.3815
底が	-10.3819
掃除機	-10.382
ちゃいました	-10.3821
なもの	-10.3823
ラベル	-10.3823
出来るので	-10.3823
スーツケース	-10.3824
ひも	-10.3825
ガタガタ	-10.3826
д	-10.3826
日本語	-10.3826
配線	-10.3827
手配	-10.3828
うどん	-10.383
とても可愛い	-10.3832
は初めてです	-10.3834
だと思い	-10.3835
同じものを	-10.3839
中は	-10.384
シュ	-10.3841
という事	-10.3844
高いです	-10.3847
ぽ	-10.3848
化粧	-10.385
作った	-10.3853
はっきり	-10.3853
重宝してます	-10.3855
してみました	-10.3856
☆1	-10.3857
J	-10.3862
ピー	-10.3867
にしたら	-10.3873
相談	-10.3875
になりますが	-10.3875
ポット	-10.3882
到着まで	-10.3885
付きで	-10.3886
使いづらい	-10.3886
されていない	-10.3888
選んだ	-10.3893
お風呂	-10.3893
が高い	-10.3895
泊	-10.3896
キャスター	-10.3897
歌	-10.3898
微妙な	-10.3898
本の	-10.3899
デスク	-10.39
ねぇ	-10.3901
させて頂きます	-10.3901
やすかったです	-10.3904
にある	-10.3906
完成	-10.3908
といい	-10.391
利用しました	-10.3911
撮影	-10.3913
に購入	-10.3918
旅行に	-10.3918
寸法	-10.3918
付ける	-10.3919
続け	-10.3921
事に	-10.3921
厚	-10.3921
浅い	-10.3922
引越し	-10.3923
使用していますが	-10.3925
太	-10.3929
つに	-10.393
ラメ	-10.393
高かった	-10.3935
巻いて	-10.3935
少なく	-10.3935
サイズ購入	-10.3936
今後は	-10.3936
漬け	-10.3942
付きの	-10.3943
`	-10.3944
枠	-10.3946
ナイロン	-10.3948
洗っても	-10.3948
物で	-10.3949
入った	-10.3951
の靴	-10.3952
度に	-10.3953
次の日	-10.3956
みなさん	-10.3956
なさそう	-10.3958
物に	-10.3959
なんでしょうか	-10.3962
と思い購入	-10.3962
お洒落	-10.3963
しっかりとした	-10.3965
と思っていたので	-10.3966
定価	-10.3967
今の	-10.3971
ブル	-10.3973
顔に	-10.3974
辺り	-10.3976
検討中です	-10.3976
迅速で	-10.3978
として購入	-10.3978
敏感肌	-10.3985
動	-10.3989
良くない	-10.3993
美味しかったので	-10.3995
ころ	-10.3996
この値段は	-10.3998
部屋が	-10.3998
▁2	-10.3999
背	-10.3999
値段も安く	-10.4
のなら	-10.4003
立	-10.4011
焼いて	-10.4011
他で	-10.4015
980	-10.4017
ちゃんとした	-10.4017
賞味期限が	-10.4018
ものも	-10.402
ハンカチ	-10.4021
タイト	-10.4023
価格は	-10.4023
曲がって	-10.4029
乳	-10.4031
つか	-10.4033
来ました	-10.4041
されてる	-10.4042
大き目	-10.4042
400	-10.4045
顔が	-10.4045
スリッパ	-10.4046
ベルトが	-10.4046
鞄	-10.4049
泡立ち	-10.4051
の香りが	-10.4051
商品が届き	-10.4052
以上の	-10.4054
びっくりです	-10.4055
★,	-10.4056
るような	-10.4057
中敷	-10.4061
これからの季節	-10.4061
気がしました	-10.4065
とり	-10.4067
使い方が	-10.4069
使いやすくて	-10.4069
雑な	-10.407
ていて	-10.407
購入してから	-10.4071
良いですが	-10.4077
極	-10.4079
まくり	-10.4084
つの	-10.4088
常に	-10.409
いいですよ	-10.4094
シルエット	-10.4094
割り	-10.4096
モニター	-10.4096
質問	-10.4096
壊れる	-10.4097
売っている	-10.4098
られません	-10.4104
相手	-10.4106
所に	-10.4112
リピしました	-10.4113
かい	-10.4113
焦げ	-10.4116
確実に	-10.412
紅茶	-10.4121
が欲しかったのですが	-10.4123
不満です	-10.4126
おく	-10.4127
43	-10.4127
ダー	-10.4129
ふかふか	-10.413
用で	-10.4132
かかとが	-10.4134
本革	-10.4136
開く	-10.4138
アルミ	-10.4139
の上	-10.4139
最安値	-10.4144
切れ味	-10.4145
荷物が	-10.4147
おりました	-10.4151
64	-10.4154
購入者	-10.4155
連	-10.4157
吸い	-10.4158
はじめ	-10.4171
比較的	-10.4174
一言	-10.4182
真っ黒	-10.4183
お得だと思います	-10.4184
正解でした	-10.4196
トップス	-10.4197
隙間	-10.4198
慌てて	-10.42
ちょうどよかったです	-10.4203
種類の	-10.4203
何故	-10.4204
(*^_^*)	-10.4205
また購入したいと思います	-10.4205
無かった	-10.4205
こともなく	-10.4206
母も	-10.4208
カール	-10.4209
次に	-10.4209
600	-10.4213
見本	-10.4215
本体に	-10.4215
無事に	-10.4217
それだけ	-10.4217
スリム	-10.4217
急に	-10.4217
外で	-10.422
環境	-10.422
ゴルフ	-10.4225
を選びましたが	-10.4226
履いた	-10.4228
に使用	-10.4229
また利用したいです	-10.423
マー	-10.4231
彼	-10.4233
こちらのお店	-10.4237
きれいで	-10.4238
なんだ	-10.4241
も同じ	-10.4244
でかい	-10.4245
は無理	-10.4246
どうも	-10.4246
が悪かった	-10.4248
使え	-10.4253
お腹が	-10.4253
程度で	-10.4254
バッチリ	-10.4255
信用	-10.4259
もないので	-10.426
カバーの	-10.426
場所に	-10.4261
伸びる	-10.4263
袋が	-10.4263
打	-10.4264
もらい	-10.4266
捨てる	-10.4266
皆	-10.4274
2015	-10.4275
が全く	-10.4276
5000	-10.4278
芯	-10.4279
立派な	-10.4281
いままで	-10.4282
友達に	-10.4283
前後	-10.4287
意見	-10.4287
いたのに	-10.4288
味付け	-10.4289
汁	-10.4291
無地	-10.4292
が好きな	-10.4293
驚き	-10.4294
ストレート	-10.4295
ホース	-10.4296
打ち	-10.4296
・・・・,	-10.4298
さま	-10.4299
かなと思いました	-10.43
ではないでしょうか	-10.4301
着け	-10.4302
ゼロ	-10.4302
★5	-10.4303
部品が	-10.4307
良い感じ	-10.4307
感触	-10.4308
隙間が	-10.4309
カニ	-10.4309
頂いて	-10.4312
全く違う	-10.4314
注文する	-10.4317
冷え	-10.4317
だったり	-10.4317
かったので	-10.4318
取り扱い	-10.432
オリジナル	-10.4321
醤油	-10.4321
がなかったので	-10.4322
できないので	-10.4325
いかにも	-10.4325
アリ	-10.4326
今では	-10.4327
の使用	-10.4331
テレビで	-10.4332
迅速	-10.4334
満足しております	-10.4335
液晶	-10.4337
つつ	-10.4339
ベルトの	-10.4343
も良い	-10.4343
べき	-10.4344
ポンプ	-10.4347
スタンプ	-10.4347
注文し	-10.4347
原	-10.4348
いなかったので	-10.435
肌触りが	-10.4353
あげて	-10.4354
ート	-10.4356
いませんでした	-10.4356
キレイな	-10.4362
と記載	-10.4363
かっこいいです	-10.4364
ときの	-10.4364
発生	-10.4365
を注文	-10.4368
ショルダー	-10.4369
肌触りは	-10.437
すっごく	-10.4372
コスト	-10.4375
息子も	-10.4376
かわいかったです	-10.4376
くさい	-10.4377
甘く	-10.4378
を購入した	-10.438
長さは	-10.4381
検討	-10.4381
じゃなかった	-10.4382
変わった	-10.4382
刃	-10.4386
動く	-10.4389
っぱ	-10.4394
タイプは	-10.4396
チョコレート	-10.4397
物でした	-10.4397
とれて	-10.4412
思ったほど	-10.4412
食感	-10.4413
パーティー	-10.4422
出来上がり	-10.4423
少量	-10.4429
円以上	-10.4433
出来ませんでした	-10.4434
また購入したいです	-10.4435
学校	-10.4435
はわかりませんが	-10.4439
やわらかい	-10.444
チャーム	-10.4442
が入っていて	-10.4446
北海道	-10.4446
ないか	-10.4447
ダンス	-10.4453
分厚い	-10.4454
革の	-10.4454
...。,	-10.4456
落ちます	-10.4458
は良い	-10.446
来年	-10.4462
感じの	-10.4462
チャックが	-10.4466
ビー	-10.4467
だけは	-10.4468
1.	-10.447
崩れ	-10.4473
表面	-10.4473
を発見	-10.4474
長持ち	-10.4476
のサイズ	-10.4484
上品で	-10.4485
〜〜	-10.449
剥がれて	-10.4492
正解	-10.4492
産後	-10.4493
取る	-10.4494
言葉	-10.4494
そうですが	-10.4496
しわ	-10.4496
カロリー	-10.4499
“	-10.45
ボルト	-10.45
アルバム	-10.45
の方に	-10.45
ペットボトル	-10.4501
疑問	-10.4502
処分	-10.4506
を入れ	-10.4509
モカ	-10.4509
試し	-10.4509
ビール	-10.4509
あったら	-10.4514
子供用	-10.4517
困る	-10.4519
ラグ	-10.4522
アロマ	-10.4522
▁2,,2	-10.4523
羽	-10.4523
カーペット	-10.4527
低	-10.453
が多くて	-10.4531
ズレて	-10.4533
我慢して	-10.4533
欠品	-10.4537
色や	-10.4538
表紙	-10.4538
大失敗	-10.454
買ってしまいました	-10.4541
お財布	-10.4545
動いて	-10.4547
好きなので	-10.4549
じゃないと	-10.4551
パネル	-10.4552
時間がかかる	-10.4554
やめました	-10.4555
落とし	-10.4556
厳しい	-10.4557
お出かけ	-10.4562
ほしかった	-10.4563
もないし	-10.4566
フタ	-10.4568
様です	-10.4574
ようになり	-10.4576
購入してしまいました	-10.4577
がたくさん	-10.4578
ついていて	-10.4581
が欲しかった	-10.4583
梱包が	-10.4586
のが楽しみです	-10.4587
&#9825;	-10.4588
迅速な対応で	-10.459
生地が薄い	-10.4592
届いたものは	-10.4594
甘くて	-10.4594
ったら	-10.4598
縫い目	-10.4602
ゆっくり	-10.4604
good	-10.4604
珍しい	-10.4604
捨て	-10.4604
掲載	-10.4607
ではないです	-10.4607
裾が	-10.4607
存在感	-10.4608
やすいので	-10.4613
が入って	-10.4613
角度	-10.4613
マシ	-10.4617
片付け	-10.4619
こんなこと	-10.4623
値段が安いので	-10.4626
秒	-10.4627
お届け	-10.4627
値段なり	-10.4629
ところは	-10.463
切る	-10.463
ストック	-10.463
いただいた	-10.4631
奥	-10.4638
でなく	-10.464
はしません	-10.4645
耐久性は	-10.4645
裏の	-10.4646
-1	-10.4647
写真で	-10.4648
股	-10.4654
<	-10.4655
工具	-10.4656
と思うと	-10.4656
激安	-10.4656
この手の	-10.4659
真っ白	-10.4664
ことなく	-10.4664
パサパサ	-10.4667
背中	-10.4671
使用してます	-10.4673
染み	-10.4674
屋さん	-10.4674
りと	-10.4679
日で届きました	-10.4679
ヨーグルト	-10.4681
玄米	-10.4682
経過	-10.4682
厚手の	-10.4683
UV	-10.4684
56	-10.4688
髪の	-10.469
納期	-10.4694
に合う	-10.4695
温かい	-10.47
ラベンダー	-10.4702
光沢	-10.4703
後悔しています	-10.4703
便秘	-10.4708
目を	-10.4709
十分な	-10.4714
などが	-10.4715
を入れると	-10.4715
持ち手	-10.4716
活躍しそうです	-10.4719
指が	-10.4721
しっかりしているので	-10.4721
もかなり	-10.4722
れません	-10.4722
軽	-10.4722
留め	-10.4723
るのも	-10.4723
フロント	-10.4735
詳細	-10.4735
欠け	-10.4736
ニオイ	-10.4737
,5	-10.4738
ゴワゴワ	-10.4739
最	-10.4746
の匂い	-10.4747
??,	-10.4748
'	-10.4751
発送まで	-10.4754
商品なので	-10.4754
ぐらいの	-10.4756
送付	-10.4759
には不向き	-10.4759
請求	-10.4761
星は	-10.4767
の際	-10.4768
皆さんのレビュー	-10.4768
ふくらはぎ	-10.4771
ないから	-10.4772
袖が	-10.4774
でない	-10.4775
感謝	-10.4776
温	-10.4776
ザー	-10.4781
なってしまいました	-10.4782
ライ	-10.4785
重いです	-10.4786
の間	-10.4786
商品と	-10.4786
システム	-10.4787
でしょうが	-10.4788
ありがとう	-10.4788
メッセージ	-10.4789
体調	-10.4789
抜けて	-10.4791
よし	-10.4791
が大変	-10.4793
?!	-10.4793
素敵でした	-10.4794
じゃなくて	-10.4796
靴の	-10.4798
頂いた	-10.4799
いい香り	-10.4801
これって	-10.4802
お尻が	-10.4804
調べ	-10.4806
感激	-10.4806
のではないでしょうか	-10.4806
とても使いやすいです	-10.4807
と言っていました	-10.481
していたのですが	-10.4811
リピートします	-10.4812
85	-10.4813
選び	-10.4813
外れて	-10.4814
無添加	-10.4814
データ	-10.4817
,[	-10.4818
通りの	-10.4818
ので星	-10.4822
で使用	-10.4823
成長	-10.4828
味の	-10.4829
57	-10.4829
と違って	-10.4829
洗顔	-10.4829
が気になり	-10.483
期待した	-10.483
まずまず	-10.483
一緒	-10.4834
週間以上	-10.4837
でこの値段は	-10.4838
考えると	-10.4839
責任	-10.4839
リボンが	-10.484
手帳	-10.4841
定番	-10.4843
ようと思います	-10.4844
ができ	-10.4846
ができて	-10.4848
腕が	-10.4848
基本	-10.485
されていました	-10.485
格安	-10.4852
幼稚園	-10.4856
食いつき	-10.4858
客	-10.4858
低反発	-10.4867
前は	-10.4872
ないですが	-10.4872
なくなってしまいました	-10.4873
猫の	-10.4873
つもりです	-10.4873
ていた	-10.4875
太く	-10.4879
きましたが	-10.4879
ペラペラで	-10.4885
ゴムの	-10.4885
ブカブカ	-10.4885
すぎます	-10.4886
いき	-10.4888
買い物でした	-10.4889
カバーは	-10.4893
凹み	-10.4894
思ってた	-10.4894
有難うございました	-10.4895
無いので	-10.4905
それなりの	-10.4905
洗濯して	-10.491
自宅	-10.4914
マイ	-10.4916
楽しみにしています	-10.4918
花の	-10.4919
臭み	-10.492
はいって	-10.492
がひどく	-10.4924
ショート	-10.4929
天板	-10.4931
期待していただけに	-10.4932
という事で	-10.4933
の商品です	-10.4938
飲んでます	-10.4948
姿勢	-10.495
2014	-10.4951
扉	-10.4955
02	-10.4958
履けません	-10.4959
ホント	-10.4961
入ってる	-10.4962
デザインと	-10.4965
バスト	-10.4975
ができる	-10.4976
年間	-10.4978
主人	-10.4979
大活躍	-10.4984
連絡を	-10.4985
見つけて	-10.4995
可愛らしい	-10.4996
しっかりしてます	-10.4996
大丈夫かな	-10.5
品です	-10.5001
二人	-10.5001
照明	-10.5002
すっぽり	-10.5003
のに残念です	-10.5003
使い物になりません	-10.5004
カゴ	-10.5008
を考え	-10.5009
両	-10.501
男	-10.5014
濃い色	-10.5016
遅く	-10.5018
しなかった	-10.5022
買えばよかった	-10.5022
中心	-10.5022
でよかったです	-10.5022
楽しみに	-10.5023
杯	-10.5023
普段の	-10.5025
なくなります	-10.5027
どうか	-10.503
振り	-10.5031
もらう	-10.5031
安物買いの銭失い	-10.5032
電	-10.5035
家族に	-10.5043
あて	-10.505
しい	-10.505
にかけて	-10.505
づらく	-10.5055
上がる	-10.5056
謝罪	-10.5057
浴衣	-10.5057
は初めて	-10.5058
作りが雑	-10.5059
あげる	-10.5059
白色	-10.5062
余計に	-10.5062
ラインが	-10.5062
履いたら	-10.5064
リン	-10.5064
レール	-10.5066
違う色	-10.5067
姉	-10.5069
上手に	-10.5074
大きすぎる	-10.5079
保育園	-10.508
ゲーム	-10.5084
ポール	-10.5086
パスタ	-10.5086
配送業者	-10.5087
いいかもしれません	-10.509
だそうです	-10.5091
少し残念でした	-10.5104
180	-10.5105
が出来て	-10.511
の高い	-10.511
写真通り	-10.5111
野	-10.5112
デカ	-10.5112
,4	-10.5113
わりと	-10.5115
軽いです	-10.5115
灯	-10.5122
セールで	-10.5122
だったけど	-10.5123
独特の	-10.5124
写真のように	-10.5125
履き心地も	-10.5126
透け	-10.5127
薄さ	-10.5131
他のもの	-10.5132
業者	-10.5133
に使う	-10.5133
文句なし	-10.5135
遅かった	-10.5135
形の	-10.5136
消費	-10.5137
衝撃	-10.5138
を付けて	-10.5139
突然	-10.5139
サラダ	-10.5139
きっちり	-10.5141
センス	-10.5143
もあまり	-10.5143
点は	-10.5143
を使用して	-10.5145
日後	-10.5145
が強い	-10.5145
困ります	-10.5145
お買い得です	-10.5149
快適に	-10.515
デザインの	-10.5156
気分です	-10.5157
保湿	-10.5162
ハート	-10.5163
れました	-10.5165
ならず	-10.5165
をかけて	-10.5165
良品	-10.5165
表面の	-10.5166
お湯	-10.5168
値段のわりに	-10.517
しっかりして	-10.517
頼まれて	-10.5172
サー	-10.5173
決めて	-10.5174
わかりやすく	-10.5175
店の	-10.5179
手続き	-10.5179
出来ず	-10.5182
対策に	-10.5184
配送も	-10.519
そのため	-10.5192
可	-10.5193
声	-10.5197
表面に	-10.52
ドライバー	-10.5201
書き込み	-10.5203
の部分	-10.5206
が大きく	-10.5207
ると思います	-10.5208
とのことでした	-10.5214
質感も	-10.5214
酒	-10.5215
輝き	-10.5218
丈夫	-10.5219
こちらにしました	-10.522
の違い	-10.5221
サイ	-10.5222
使えなかった	-10.5222
終了	-10.5222
54	-10.5223
こんなもん	-10.5223
使用し	-10.5225
時間を	-10.5227
たかったので	-10.5231
出産祝い	-10.5233
さんに	-10.5236
量も	-10.5236
風味	-10.5237
透けます	-10.5237
写真が	-10.5237
良い買い物ができました	-10.5239
そろそろ	-10.525
嘘	-10.525
上で	-10.5251
洗う	-10.5252
試した	-10.5252
に行って	-10.5253
言い	-10.5253
る事	-10.5253
苦労しました	-10.5253
77	-10.5254
ところも	-10.5257
枚で	-10.5257
いいのか	-10.5258
59	-10.5261
大容量	-10.5261
想像より	-10.5261
円は	-10.5263
長め	-10.5275
組み立ても	-10.5276
ものを探していました	-10.5278
配送が	-10.5278
読む	-10.5279
サイズですが	-10.5284
いいですが	-10.5286
キャ	-10.5287
返品は	-10.5293
68	-10.5294
実家に	-10.5299
52	-10.5299
で購入した	-10.5303
遅れ	-10.5304
を見つけ	-10.5305
知って	-10.5305
トマト	-10.5305
あっさり	-10.5306
そこが	-10.5307
たいへん	-10.5307
他のショップで	-10.5307
板が	-10.5309
インソール	-10.531
旦那	-10.5312
重くて	-10.5313
イス	-10.5315
並べて	-10.5316
愛犬	-10.5317
よろしくお願いします	-10.5321
紺	-10.5322
父	-10.5322
返送	-10.5328
してしまう	-10.5328
もいいし	-10.5332
ハード	-10.5333
縫製も	-10.5333
だけでした	-10.5335
って感じでした	-10.5336
分かって	-10.5337
下地	-10.5341
早かった	-10.5344
まわり	-10.5345
履け	-10.5346
スライド	-10.535
だけでは	-10.5351
のものが	-10.5355
少しだけ	-10.5356
もありました	-10.5356
条件	-10.5362
配慮	-10.5362
込んだ	-10.5362
が気になる	-10.5362
が良かったので	-10.5364
タイプなので	-10.5366
潰れて	-10.5367
交換して	-10.5368
意味がない	-10.5368
丸い	-10.5369
宅配	-10.5371
小さすぎて	-10.5374
品切れ	-10.5375
ホコリ	-10.5375
印象です	-10.5376
良かったのに	-10.5378
せっかくの	-10.5379
斜めに	-10.538
お買い得でした	-10.5382
直す	-10.5386
袋を	-10.5387
あるのに	-10.5388
グッズ	-10.539
させ	-10.539
んだろう	-10.539
かと思いました	-10.5391
して欲しい	-10.5392
安っぽくて	-10.5393
どうしよう	-10.5394
見せ	-10.5394
どうして	-10.54
枚目	-10.5405
いです	-10.5409
特	-10.541
分け	-10.5412
ぴったりです	-10.5412
散	-10.5415
いれ	-10.5417
問い合わせたところ	-10.5419
の状態	-10.5419
訂正	-10.542
こちらのショップ	-10.5421
毛玉が	-10.5422
この商品の	-10.5422
に感じました	-10.5422
どれ	-10.5424
して下さい	-10.5425
厚みが	-10.5426
になっても	-10.5427
式の	-10.5432
思	-10.5432
丈夫な	-10.5434
用品	-10.5434
99	-10.5436
お金を	-10.5438
機能は	-10.5438
162	-10.5438
炭酸	-10.5439
値段の割りに	-10.5441
受付	-10.5441
他の色も	-10.5442
服に	-10.5443
購入したけど	-10.5444
タイトル	-10.5446
取説	-10.5446
まり	-10.5447
エアコン	-10.5447
センサー	-10.5449
イベント	-10.5452
44	-10.5456
下げ	-10.5457
良かったかな	-10.5457
になっているので	-10.5459
良	-10.546
使い心地は	-10.5461
仕事用	-10.5462
レンジ	-10.5465
してくれました	-10.5466
エコ	-10.5466
ィ	-10.5466
痩せ	-10.5467
と思ったけど	-10.5467
オン	-10.5468
臭いは	-10.5468
病院	-10.547
当たる	-10.5473
はがれて	-10.5473
カラーは	-10.5473
包丁	-10.5474
飽き	-10.5475
大変気に入りました	-10.5475
おき	-10.5476
利用する	-10.5477
普通です	-10.548
広がり	-10.5482
丁度いい	-10.5482
ホームセンター	-10.5484
していただきました	-10.5486
洗濯しても	-10.5487
自然な	-10.5489
液体	-10.549
物の	-10.5491
美	-10.5492
水で	-10.5492
味噌	-10.5495
不可能	-10.5496
155	-10.5497
薄手の	-10.5497
が出	-10.5497
妻	-10.5501
の間に	-10.5503
からも	-10.551
味で	-10.5515
06	-10.5517
翌日には	-10.5517
がすごく	-10.5517
そちら	-10.5522
安くても	-10.5522
母の日に	-10.5524
そんなこと	-10.5526
着ると	-10.5529
ストライプ	-10.5532
音も	-10.5535
抜群です	-10.5538
感覚で	-10.5542
量は	-10.5543
合い	-10.5543
ボンド	-10.5548
に比べ	-10.5555
のようで	-10.5556
通りに	-10.5558
二重	-10.5559
63	-10.5559
左右の	-10.5561
ソース	-10.5562
跡	-10.5565
早く届きました	-10.5565
閉じ	-10.5565
用です	-10.5566
&#	-10.5567
気になりました	-10.5567
満足できる	-10.5569
と変わらない	-10.5569
良いかも	-10.5574
件	-10.5576
買ってみましたが	-10.5577
76	-10.5578
のは初めてです	-10.5578
買わなかった	-10.5579
渡す	-10.5579
部の	-10.5581
早めに	-10.5584
言えば	-10.5585
1〜2	-10.5585
するか	-10.5586
はしない	-10.5587
らしいです	-10.5587
周り	-10.5587
刻印	-10.5589
ヵ月	-10.5589
映画	-10.5589
不親切	-10.5593
予想通り	-10.5598
生地もしっかりしていて	-10.5598
添付	-10.5598
チップ	-10.56
美味しくない	-10.5602
私でも	-10.5603
この時期	-10.5604
美味しさ	-10.5607
くれ	-10.5609
度目	-10.5615
は本当に	-10.5616
連絡が	-10.5618
ヘビロテ	-10.5618
タブレット	-10.5618
OFF	-10.5618
開	-10.5625
移	-10.5628
使えました	-10.5628
タイプを	-10.5628
よいと思います	-10.5635
埃	-10.5638
クリーニング	-10.5641
明	-10.5642
ポケットに	-10.5644
取り出し	-10.5645
変わって	-10.5646
餌	-10.5647
ブレンド	-10.5647
味わい	-10.5647
分かり	-10.5648
安全性	-10.5649
""	-10.565
趣味	-10.5651
ピンクと	-10.5652
編	-10.5652
頼まれ	-10.5653
解消	-10.5655
出てくる	-10.5656
想像していた	-10.5656
首が	-10.5661
易い	-10.5662
%	-10.5663
感じた	-10.5664
に使っています	-10.5665
毎朝	-10.567
くれた	-10.5672
★1	-10.5673
お手頃	-10.5673
期待通り	-10.5674
の商品でした	-10.5675
深	-10.5679
使いにくいです	-10.5679
フィ	-10.568
ファスナーの	-10.5684
中国	-10.5685
されていた	-10.5686
慣れて	-10.5687
取れません	-10.5689
と思われる	-10.5691
もん	-10.5691
お客様	-10.5691
を選んだ	-10.5695
お願いしました	-10.5695
にした	-10.5697
ちょっと残念です	-10.5698
あちこち	-10.5699
家族の	-10.5703
言	-10.5704
オムツ	-10.5704
ジーンズ	-10.5705
歩くと	-10.5705
効果なし	-10.5707
しないで	-10.5708
ヌ	-10.5713
おなか	-10.5716
敷布団	-10.5717
韓国	-10.5717
かえ	-10.5724
形で	-10.5725
便利な	-10.5728
進	-10.5731
の連絡	-10.5733
プレゼント用に購入しました	-10.5733
そこで	-10.5735
大満足でした	-10.574
のうち	-10.5746
甲高	-10.5748
78	-10.5752
モデルさん	-10.5752
を探していたところ	-10.5759
食べられる	-10.5761
探していた	-10.5762
つるつる	-10.5763
してくれます	-10.5765
賞味期限	-10.5765
レビューの	-10.5766
分も	-10.5766
するため	-10.5767
キロで	-10.5767
コク	-10.5769
忘れて	-10.5772
壊れてしまいました	-10.5775
付けた	-10.5775
で買った	-10.5788
買えて	-10.5789
牛乳	-10.5793
一目惚れ	-10.5793
...?	-10.5794
はき	-10.5799
最後の	-10.58
となり	-10.5801
お祝い	-10.5801
が入る	-10.5801
ミント	-10.5804
かもです	-10.5805
前髪	-10.5808
なりません	-10.5809
気をつけて	-10.581
怒	-10.5811
枚数	-10.5811
レンタル	-10.5813
豚	-10.5816
線が	-10.5817
生地に	-10.582
お値段以上	-10.5821
適度な	-10.5822
なってきたので	-10.5825
ほんのり	-10.5829
つかって	-10.583
したけど	-10.5832
細め	-10.5834
個目	-10.5839
良くて	-10.584
煙	-10.5841
厚く	-10.5841
商品には	-10.5842
リビング	-10.5845
聞き	-10.5845
食べましたが	-10.5845
裏地が	-10.5847
初めてです	-10.5851
命	-10.5852
と思える	-10.5852
しまえば	-10.5852
臭いも	-10.5854
ついていた	-10.5855
切った	-10.5856
手入れ	-10.5856
潤い	-10.5859
意	-10.5864
落ちない	-10.5865
過	-10.5868
をしている	-10.5869
なのも	-10.587
ファ	-10.5873
たまま	-10.5873
にピッタリ	-10.5876
ケースに	-10.5876
に惹かれて	-10.5879
パッキン	-10.588
木目	-10.5881
表現	-10.5881
アトピー	-10.5881
枝	-10.5881
ではありませんが	-10.5883
当たり前	-10.5884
73	-10.5885
かなと思いましたが	-10.5886
はもちろん	-10.5887
まだ使用していませんが	-10.5889
届いてすぐに	-10.5889
気がする	-10.5892
が必要です	-10.5899
軽量	-10.59
甘	-10.59
満足度	-10.5902
標準	-10.5902
を使った	-10.5903
暖かくて	-10.5903
いける	-10.5904
を選択	-10.5906
の為に購入しました	-10.5908
あえて	-10.5912
ガッカリでした	-10.5926
の長さが	-10.5927
1.5	-10.5928
1-0	-10.5932
餃子	-10.5941
磁石	-10.5942
出ている	-10.5942
お得でした	-10.5943
くるので	-10.5945
住所	-10.5945
恥ずかしい	-10.5946
チェーンが	-10.5947
異なる	-10.5948
デス	-10.5949
ストーン	-10.595
かえって	-10.5955
締め付け感	-10.5956
乗って	-10.5956
いきます	-10.5964
なさ	-10.5966
ベル	-10.5966
風に	-10.5967
とても可愛くて	-10.5968
フルーツ	-10.597
良かったですが	-10.5971
プレゼントで	-10.5972
タイ	-10.5972
よくある	-10.5973
教えて	-10.5974
↓	-10.5974
弱く	-10.5975
長靴	-10.5976
が足りない	-10.598
インテリア	-10.5983
ブリ	-10.5983
とは違う	-10.5985
しっくり	-10.5991
ニキビ	-10.5992
h	-10.5992
最後に	-10.5998
裏起毛	-10.6001
作成	-10.6001
随分	-10.6001
97	-10.6003
縁	-10.6003
重ね着	-10.6003
肩幅	-10.6003
どうにか	-10.6004
ようでした	-10.6005
試しましたが	-10.6008
これからの季節に	-10.6013
ろう	-10.6013
163	-10.6014
馴染んで	-10.6015
何を	-10.6015
さんが	-10.6019
素人	-10.6019
小学校	-10.602
ワンサイズ	-10.6021
ピンクを購入しました	-10.6024
といいな	-10.6025
布が	-10.6026
車に	-10.6026
折りたたみ	-10.6029
運転	-10.603
カード入れ	-10.603
CM	-10.603
ずいぶん	-10.603
すっかり	-10.6031
濃く	-10.6033
納品	-10.6038
不要	-10.604
喜んでました	-10.604
見つけました	-10.6043
どこに	-10.6046
例	-10.6047
箸	-10.6047
がでて	-10.6048
なれば	-10.6049
使うには	-10.6049
無くなったら	-10.605
癒されます	-10.6051
ヘ	-10.6051
酸味	-10.6054
期待してます	-10.6054
のかと	-10.6055
乾く	-10.6057
投稿	-10.6058
ジュ	-10.606
間違え	-10.606
で気に入りました	-10.6062
もしくは	-10.6063
そこは	-10.6063
なか	-10.6064
お買い得だと思います	-10.6068
ナッツ	-10.6071
簡単でした	-10.6071
無視	-10.6071
写真よりも	-10.6072
フィットして	-10.6073
以降	-10.6078
にしてみました	-10.6078
お値段は	-10.6078
厚手	-10.6082
0.5	-10.6083
ガー	-10.6084
サイズです	-10.6084
ポケットの	-10.6084
が入っていました	-10.6085
妹	-10.6086
満	-10.6089
°	-10.6091
しろ	-10.6092
嫁	-10.6096
開ける	-10.6097
化粧品	-10.6097
テン	-10.61
いたしました	-10.61
文字が	-10.6105
接着剤	-10.6107
出来れば	-10.6108
を購入したので	-10.6111
重ねて	-10.6116
チン	-10.6119
麻	-10.6121
チョット	-10.6122
非	-10.6123
洗濯機	-10.6123
買うと	-10.6124
先の	-10.6125
専用の	-10.6127
昼	-10.6129
ゲ	-10.6129
期待外れでした	-10.613
一体	-10.6133
防	-10.6134
外れる	-10.6137
楽しめる	-10.6137
ックス	-10.6142
写真とは	-10.6144
頭の	-10.6145
仕切り	-10.6148
ダイヤ	-10.6149
ないもの	-10.6149
映像	-10.6152
要望	-10.6152
肩こり	-10.6152
フィット	-10.6156
ができました	-10.6156
味でした	-10.6156
両面テープ	-10.6158
きつめ	-10.6159
高い買い物	-10.6159
両親	-10.6163
やわらかく	-10.6163
にしたのですが	-10.6163
67	-10.6165
うまい	-10.6166
づつ	-10.6167
天然	-10.6169
真ん中	-10.6172
切れました	-10.6175
安価な	-10.6178
の表示	-10.6178
粘着	-10.6183
コロコロ	-10.6184
着いて	-10.6186
原因	-10.6189
よく見ると	-10.6191
日後に	-10.6192
はずなのに	-10.6194
倒れ	-10.6194
後で	-10.6202
の写真	-10.6202
の説明	-10.6204
さに	-10.6205
だけです	-10.6207
と思って購入しましたが	-10.6208
しやすいです	-10.6208
69	-10.6209
使ってる	-10.6209
質が	-10.6213
いちいち	-10.6213
漫画	-10.6213
もうひとつ	-10.6214
在庫切れ	-10.6215
ぅ	-10.6217
購入させて頂きました	-10.6217
魅力	-10.6219
すと	-10.6222
染め	-10.6227
よさそう	-10.6227
接触	-10.6231
周りが	-10.6232
好きで	-10.6235
入ってました	-10.6237
問題なしです	-10.624
ユ	-10.6242
材料	-10.6245
も全く	-10.6245
遅れる	-10.6245
折れて	-10.6247
冷	-10.6248
なんとも	-10.625
夕方	-10.6252
父の日	-10.6254
高くて	-10.6255
牛	-10.6255
取れた	-10.6256
ナシ	-10.6258
受け取り	-10.626
のおかげで	-10.6261
クリ	-10.6262
ワンサイズ上	-10.6262
変色	-10.6265
透ける	-10.6266
外側	-10.6269
88	-10.6269
発送は	-10.627
包装も	-10.627
しなければ	-10.627
がありませんでした	-10.627
が大きい	-10.6271
いけない	-10.6273
ぷ	-10.6274
んですよね	-10.628
とても喜んでくれました	-10.6281
小さめの	-10.6282
見えません	-10.6283
劣化	-10.6287
購入できて	-10.6292
傷だらけ	-10.6292
▁)	-10.6293
選べ	-10.6295
ジェ	-10.6299
だったから	-10.63
自体も	-10.63
つけると	-10.63
の部分は	-10.6301
みようと思います	-10.6304
と思われます	-10.6304
日本の	-10.6305
ランドセル	-10.6305
使えば	-10.6307
の通り	-10.6309
のび	-10.6309
したもの	-10.6309
問題ないと思います	-10.6312
安く買えて	-10.6312
軽減	-10.6313
翌朝	-10.6317
時間は	-10.6322
包装紙	-10.6327
って感じで	-10.6328
楽天の	-10.633
させて頂きました	-10.6333
エビ	-10.6334
ブレス	-10.6335
暫く	-10.6336
助かってます	-10.6336
作動	-10.6336
のセット	-10.6337
るもの	-10.6337
髪を	-10.6338
分で	-10.6345
いって	-10.6346
しく	-10.6348
変え	-10.6349
2.	-10.6356
座	-10.6357
塗った	-10.6358
無理やり	-10.6363
座面	-10.6363
と思っていた	-10.6365
こういった	-10.6367
バージョン	-10.6367
るだけで	-10.6368
カス	-10.6369
経	-10.6372
かと思いますが	-10.6373
あまりの	-10.6375
味に	-10.6376
歳の娘	-10.6376
たくない	-10.6376
頭に	-10.6377
を購入する	-10.6379
使ってません	-10.6383
諦めます	-10.6383
石が	-10.6385
いるし	-10.6386
出番	-10.6387
ますよ	-10.6388
おまけも	-10.6389
うれしかったです	-10.6393
事も	-10.6393
好	-10.6394
子供用に	-10.6394
落として	-10.6395
太め	-10.6396
に関して	-10.6396
好みの	-10.6397
海苔	-10.6398
わからず	-10.64
ピッタリです	-10.6401
を見つけて	-10.6401
レビューも	-10.6406
わない	-10.6406
届きましたが	-10.6408
とても可愛く	-10.6409
あい	-10.6411
長く使えそうです	-10.6412
ではなかったです	-10.6413
詳しく	-10.6418
苦	-10.6418
肩が	-10.6419
使えそう	-10.642
の無い	-10.6423
の中では	-10.6424
主人も	-10.6426
はあります	-10.6427
とくに	-10.6427
スター	-10.6428
もありましたが	-10.6429
やっと届きました	-10.643
イラスト	-10.643
ケースの	-10.643
やさしい	-10.643
の中	-10.6433
取れてしまいました	-10.6434
道具	-10.6435
を感じました	-10.6436
を見つけました	-10.6437
その点	-10.6437
と思っていました	-10.6439
ポスト	-10.644
元の	-10.6448
96	-10.6448
にすると	-10.6458
かり	-10.646
片方	-10.6463
どうり	-10.6465
会社で	-10.6466
出張	-10.6466
になってしまいます	-10.6468
ストール	-10.6469
レン	-10.6469
ブラック購入	-10.647
とても気に入ってます	-10.6474
着た	-10.6475
たて	-10.6477
ことはありません	-10.6478
ちょい	-10.648
ラク	-10.648
商品到着後	-10.6481
辺	-10.6481
いなくて	-10.6486
店に	-10.6487
結婚	-10.6488
理	-10.6488
自動	-10.6492
が非常に	-10.6497
返品も	-10.6497
もって	-10.6501
買うの	-10.6503
掛け布団	-10.6506
みても	-10.6506
濡れて	-10.6507
貼り付け	-10.6508
がほとんど	-10.651
気をつけ	-10.651
乾燥肌	-10.6511
はありましたが	-10.6513
本で	-10.6513
怖い	-10.6514
早く届いて	-10.6514
大変です	-10.6516
のものは	-10.6521
取り付けました	-10.6524
唯一	-10.6524
自宅用	-10.6526
されない	-10.6532
出ます	-10.6536
が強く	-10.6537
の記載	-10.6538
使えず	-10.6541
腰が	-10.6542
クッションが	-10.6544
ないため	-10.6546
組み合わせ	-10.6547
を感じます	-10.6552
シールが	-10.6553
変わる	-10.6554
レビューを書いて	-10.6555
骨盤	-10.6555
たの	-10.6556
いないのに	-10.6558
細くて	-10.656
他社	-10.6562
一緒に購入した	-10.6562
わかりやすい	-10.6563
このお値段は	-10.6564
誕生日プレゼントに	-10.6564
大分	-10.6565
の娘に	-10.6567
盛り	-10.6567
高級	-10.6567
長袖	-10.6569
丁寧	-10.6569
タンク	-10.657
みたいなので	-10.657
が届いた	-10.657
冷蔵庫	-10.6572
背中の	-10.6573
とは思いませんでした	-10.6573
早いです	-10.6575
^_^	-10.6576
になっていた	-10.6578
つもり	-10.6579
ないかな	-10.6583
ニー	-10.6585
手数料	-10.6587
立って	-10.659
」「	-10.659
というのも	-10.659
届いてみると	-10.6592
してしまいます	-10.6592
固め	-10.6593
夫婦	-10.6594
がついている	-10.6596
ものに	-10.6596
こともあり	-10.6598
で満足です	-10.6598
ありがたかったです	-10.6601
きついです	-10.6602
後から	-10.6605
がなくて	-10.6605
イメージが	-10.6607
小ぶり	-10.6608
動画	-10.6617
なっている	-10.6618
暖かさ	-10.6618
洗浄	-10.6619
天井	-10.6619
補修	-10.6619
日に注文して	-10.662
利	-10.6621
クッション性	-10.6621
ごみ	-10.6625
シワが	-10.6625
るか	-10.6625
仕事用に	-10.6626
にする	-10.6629
多数	-10.6629
無理でした	-10.663
ないのか	-10.6631
87	-10.6632
っぱなし	-10.6633
アクセント	-10.6634
時代	-10.6637
起こ	-10.6638
着脱	-10.664
足元	-10.6641
をよく	-10.6641
使ってみると	-10.6642
乗せ	-10.6642
ネコ	-10.6645
度目の購入です	-10.6645
満足しました	-10.6646
ガード	-10.6651
戦	-10.6651
になってしまった	-10.6654
偽物	-10.6657
るべき	-10.6662
安っぽい感じ	-10.6662
嫌い	-10.6663
なりそうです	-10.6664
もついて	-10.6666
丁寧な対応	-10.6667
付属	-10.667
めて	-10.6671
モン	-10.6676
私にとっては	-10.6677
iPad	-10.6683
靴擦れ	-10.6684
つぶれ	-10.6685
の仕方	-10.669
153	-10.669
サイズを購入しましたが	-10.6696
エア	-10.6696
の位置	-10.6702
の注文	-10.6705
もう買わない	-10.6706
交換は	-10.6707
購入いたしました	-10.6708
でとても	-10.6711
していたら	-10.6712
思った通り	-10.6714
列	-10.6715
アンティーク	-10.6715
少	-10.6715
高評価	-10.6719
噛み	-10.6723
方向	-10.6724
ればいい	-10.6724
悲しい	-10.6726
冷たい	-10.6727
梱包は	-10.6727
バカ	-10.6728
靴を	-10.6732
探してました	-10.6733
下がって	-10.6733
ソール	-10.6734
目で	-10.6735
ほしかったです	-10.6736
大きいの	-10.6736
遅れて	-10.6738
大きめで	-10.6741
る感じ	-10.6743
キレイで	-10.6744
簡易	-10.6745
カタログ	-10.6747
つも	-10.6747
修正	-10.6747
画像を	-10.6748
フリル	-10.6748
わたし	-10.6748
太さ	-10.6749
収まり	-10.6751
日も	-10.6753
集	-10.6753
なくなったら	-10.6755
少し残念です	-10.6761
のカバー	-10.6763
りません	-10.6766
満足でした	-10.6767
片側	-10.6769
皮の	-10.6773
安いと思います	-10.6774
落ち着いて	-10.6775
無駄に	-10.6776
履きやすいです	-10.6776
ませ	-10.6777
されており	-10.6778
83	-10.6779
広告	-10.678
蟹	-10.678
たような	-10.6784
開いた	-10.6784
って思いました	-10.6785
部が	-10.6787
日が	-10.6788
ないのが	-10.6789
本人も	-10.6789
重宝します	-10.679
送	-10.6791
した後	-10.6792
ましょう	-10.6794
札	-10.6796
高級感があり	-10.6799
するために	-10.6799
34	-10.6803
抵抗	-10.6809
階	-10.6809
同じ商品	-10.6812
もしかしたら	-10.6813
デザインや	-10.6814
しま	-10.6816
経ちますが	-10.6818
を参考に	-10.6818
いまだに	-10.6823
初めは	-10.6827
箱の	-10.6828
出来た	-10.683
ード	-10.683
かわいいのですが	-10.6831
切り替え	-10.6831
本目	-10.6833
脱	-10.6834
色味が	-10.6834
チープ	-10.6836
デコ	-10.6836
主	-10.6841
売	-10.6842
スピード	-10.6845
キャンプ	-10.6845
るけど	-10.6845
暗く	-10.6846
美しい	-10.6848
よかったと思います	-10.6849
一般的な	-10.6849
直ぐ	-10.685
探していたところ	-10.6851
の方には	-10.6851
消臭	-10.6852
つけました	-10.6855
メイン	-10.6856
消耗品	-10.6857
値段と	-10.6858
までの	-10.6858
間違いなく	-10.6858
あわせ	-10.686
ール	-10.6861
微妙でした	-10.6863
友人	-10.6864
サイズより	-10.6865
よくて	-10.6866
大喜び	-10.6867
少し大きい	-10.6868
張って	-10.6869
168	-10.6869
開けたら	-10.6872
紙袋	-10.6872
下が	-10.6873
カル	-10.6874
保	-10.6876
が大好きで	-10.6876
臭いです	-10.6877
美味しそう	-10.6879
断	-10.6884
背もたれ	-10.6888
爪が	-10.6888
と思っていたら	-10.6889
長いので	-10.6889
判	-10.6893
耐久性が	-10.6897
甘味	-10.6898
使ってみます	-10.6902
写真で見るより	-10.6903
89	-10.6903
を選ぶ	-10.6904
とおもいました	-10.6905
してみると	-10.6906
を取り	-10.6907
のこと	-10.6908
カートリッジ	-10.691
ごはん	-10.6912
アル	-10.6912
全体の	-10.6914
フェ	-10.6916
使わせて	-10.6921
重み	-10.6922
あげました	-10.6922
可愛いのですが	-10.6924
わりに	-10.6925
トロ	-10.6926
お値段相応	-10.693
消えて	-10.6932
してある	-10.694
歳の息子	-10.6942
装着して	-10.6942
うさぎ	-10.6943
怖くて	-10.6944
浮き	-10.6944
ナー	-10.6944
すく	-10.6948
恥ずかしくて	-10.6949
痛くなる	-10.6949
もいいです	-10.6951
できなかった	-10.6955
ダーク	-10.6957
飾って	-10.6962
値段が安い	-10.6963
失	-10.6963
というので	-10.6964
質感は	-10.6965
をしましたが	-10.6966
欲しかったので	-10.6966
ダメです	-10.697
正	-10.6971
かぶれ	-10.6975
を感じる	-10.6975
連絡も	-10.6975
慎重に	-10.6976
iphone	-10.6976
飲みやすいです	-10.6978
圧迫感	-10.698
気に入ったのですが	-10.698
辛口	-10.6981
もったいないので	-10.6983
マチ	-10.6983
ボタンを	-10.6986
を買ったのですが	-10.6986
方が良い	-10.699
を変えて	-10.6991
の位置が	-10.6994
よかったかな	-10.6994
した方が	-10.6995
久々に	-10.6996
簡単です	-10.6996
絵本	-10.7001
っけ	-10.7004
とのことでしたが	-10.7007
づ	-10.7008
補正	-10.7009
旨	-10.7009
静電気	-10.7009
の対応	-10.701
ベランダ	-10.7011
ベルトを	-10.7011
に入って	-10.7013
汚	-10.7014
にならず	-10.7014
ブラックを購入	-10.7014
手洗い	-10.7015
おまけで	-10.7016
してますが	-10.7016
プレ	-10.7021
質感が	-10.7023
テンション	-10.7023
使ってますが	-10.7024
も少なく	-10.7024
しまうと	-10.7024
ピンク色	-10.7026
もしっかりしていて	-10.7029
とても良かったので	-10.703
最高に	-10.7031
使っていて	-10.7031
と共に	-10.7035
かかります	-10.7036
とても美味しかったです	-10.7036
網	-10.704
電波	-10.7041
値段の	-10.7042
クレンジング	-10.7042
スカスカ	-10.7042
ホテル	-10.7043
お店の対応	-10.7044
良かったけど	-10.7044
つけ心地	-10.7045
届いてすぐ	-10.7048
横の	-10.705
の高さ	-10.7051
親切	-10.7052
やすかった	-10.7053
交換も	-10.7054
のほう	-10.7055
^)\	-10.7055
しっかりした作り	-10.7056
試着して	-10.7056
説明書も	-10.7057
病	-10.7059
見つけた	-10.7064
に行った	-10.7067
感想は	-10.7067
だったのか	-10.7068
わかります	-10.7069
高すぎ	-10.707
の多い	-10.7071
チェア	-10.7071
なんの	-10.7071
してみます	-10.7072
知らない	-10.7073
他店の	-10.7074
ますし	-10.7075
どちら	-10.7075
点が	-10.7076
ふっくら	-10.7076
水晶	-10.7076
衣類	-10.7077
使わ	-10.7078
を出す	-10.708
寝る	-10.7081
使用すると	-10.7081
ブラックを購入しました	-10.7084
お色	-10.7084
キュ	-10.7085
感謝です	-10.7086
になってる	-10.7086
まっすぐ	-10.7087
重いので	-10.7091
良い香り	-10.7094
アイス	-10.7097
かん	-10.7098
ところです	-10.7101
ように感じます	-10.7103
つぶれて	-10.7103
他の色	-10.7104
深く	-10.7106
室	-10.7107
普段から	-10.7109
ペーパー	-10.7109
コンビニ	-10.7109
まだ届いていませんが	-10.7109
使い物にならない	-10.7109
ワックス	-10.711
に対する	-10.711
子供と	-10.711
が難しい	-10.7116
本体は	-10.7117
本来の	-10.712
送料を	-10.712
かご	-10.7121
前回の	-10.7121
良い商品です	-10.7124
ノン	-10.7125
を感じ	-10.7125
薄手	-10.7128
自分も	-10.7129
いるようです	-10.7133
ぱ	-10.7135
しやすく	-10.7135
あったかい	-10.7136
ぶん	-10.7136
で使う	-10.7136
級	-10.714
渋	-10.7142
文章	-10.7143
込め	-10.7145
re	-10.7147
歯ブラシ	-10.7147
書かれて	-10.7148
一袋	-10.7149
せい	-10.7153
水分	-10.7157
品質が	-10.7162
ことにしました	-10.7162
と思ったので	-10.7163
良い買い物	-10.7164
ヶ所	-10.7166
危険	-10.7172
このショップ	-10.7173
特典	-10.7174
ゴロゴロ	-10.7176
穴があいて	-10.7177
もありませんでした	-10.7179
ON	-10.7181
ママ	-10.7184
頂け	-10.7186
使い勝手も	-10.7187
イメージと	-10.7188
なしです	-10.719
濡れ	-10.7192
ごとに	-10.7193
繊維	-10.7193
くらいに	-10.7195
面倒です	-10.7196
ジッパー	-10.7197
髪質	-10.7197
送料込	-10.7198
酢	-10.7201
短くて	-10.7201
品質も	-10.7203
痛く	-10.7206
わかりにくい	-10.7207
感動しました	-10.7208
遅すぎ	-10.721
色に	-10.7211
なと思います	-10.7214
入るので	-10.7214
もう二度と	-10.7216
とても気に入って	-10.7216
孫	-10.7217
で届きました	-10.7219
中身を	-10.722
週間ほど	-10.7221
完全	-10.7223
かと思って	-10.7224
が弱い	-10.7224
いい買い物	-10.7228
発送メール	-10.7228
出ない	-10.7229
今後の	-10.723
歪んで	-10.7232
歩	-10.7232
冬の	-10.7234
使用できる	-10.7236
さっと	-10.7238
出した	-10.7239
で十分	-10.724
のレビュー	-10.724
が悪いです	-10.7243
毛穴	-10.7243
バレンタイン	-10.7244
しかたない	-10.7246
と言われて	-10.7247
おすすめできません	-10.7248
所々	-10.7249
高すぎる	-10.725
ひどく	-10.7252
少し残念	-10.7255
身が	-10.7256
便利で	-10.7257
外して	-10.7257
回目の	-10.726
センター	-10.7263
バネ	-10.7267
が無いので	-10.7269
ーー	-10.7269
いかない	-10.7269
散歩	-10.7273
注文したら	-10.7274
箱も	-10.7275
マフラー	-10.7278
ガンガン	-10.7278
エラー	-10.7278
ので助かります	-10.7279
っか	-10.7281
たりして	-10.7281
になってます	-10.7283
使えなくなりました	-10.7284
未使用	-10.7284
余裕で	-10.7284
単	-10.7289
写真のような	-10.7291
届くの	-10.7297
するには	-10.73
たかった	-10.7306
サイトで	-10.7309
以外に	-10.7309
梱包も丁寧で	-10.7311
とっても可愛いです	-10.7311
といって	-10.7311
炎	-10.7312
フラット	-10.7312
パカパカ	-10.7312
寝心地	-10.7314
ナット	-10.7315
乗	-10.7319
コツ	-10.7319
慣れ	-10.7321
敷く	-10.7321
を使用していましたが	-10.7325
93	-10.7325
期限	-10.7326
明るい色	-10.7328
やっぱ	-10.7329
お店です	-10.7329
猫が	-10.7332
首の	-10.7332
視	-10.7334
シルエットが	-10.7336
臭くて	-10.7336
サイドの	-10.7337
換え	-10.7341
側に	-10.7342
ショップです	-10.7344
至	-10.7346
溝	-10.7347
と後悔	-10.7348
グラ	-10.7349
気にいって	-10.7349
可能性	-10.735
楽で	-10.735
うるさい	-10.7351
高価な	-10.7351
日焼け	-10.7352
がいいです	-10.7358
ちゃいます	-10.7358
も良いです	-10.7359
レビューをみて	-10.736
時間指定	-10.7371
ブラックの	-10.7372
幼稚園の	-10.7377
のようなものが	-10.7377
穴が開いて	-10.7379
ジャストサイズ	-10.7381
桜	-10.7381
いいな	-10.7384
ッチ	-10.7385
羽毛布団	-10.7385
ピチピチ	-10.7386
のところが	-10.7386
不思議	-10.7386
とてもかわいい	-10.7387
に入れる	-10.7388
参考	-10.739
良い商品だと思います	-10.739
ひんやり	-10.7391
さは	-10.7391
使い続けて	-10.7392
色違いを	-10.7395
買えば良かった	-10.7396
裾の	-10.7398
ケースを	-10.7399
自宅用に	-10.7399
お勧めできません	-10.7401
くらいでした	-10.7401
料	-10.7404
NG	-10.7409
のために購入	-10.741
以前より	-10.7413
に届きました	-10.7413
友達	-10.7414
彼女	-10.7415
注意書き	-10.7416
階段	-10.7416
ついてる	-10.7419
キング	-10.7419
ちゃち	-10.7419
等に	-10.742
待つ	-10.742
外す	-10.7421
ロット	-10.7427
チューブ	-10.7427
お値段なり	-10.7427
以前購入した	-10.7428
他のショップ	-10.743
小型	-10.743
使おうと	-10.7433
だろうと	-10.7435
味を	-10.7436
ぐらいで	-10.7436
水に	-10.7436
購入前に	-10.7444
大型	-10.7444
ぴ	-10.7444
綺麗でした	-10.7446
ではありますが	-10.7447
音楽	-10.7448
はなかったです	-10.7448
機械	-10.745
酵素	-10.745
ファイル	-10.745
メールが	-10.745
息子は	-10.745
出産祝いに	-10.7451
私自身	-10.7451
素早く	-10.7451
無理です	-10.7456
選ぶ	-10.7456
汚れも	-10.7457
身体に	-10.7457
体の	-10.7457
祝	-10.7457
ていません	-10.7461
ちょうどよい	-10.7461
して頂き	-10.7463
利用しています	-10.7463
勘違い	-10.7464
っていて	-10.7467
焼け	-10.7468
ゆる	-10.7469
バイ	-10.7471
食べてます	-10.7477
レビューを読んで	-10.7481
苦手な	-10.7483
なるべく	-10.7485
か所	-10.7486
植え	-10.7488
につけて	-10.7489
見かけ	-10.7489
を読んで	-10.7491
対応も早く	-10.7495
混ぜ	-10.75
貼った	-10.7502
カラ	-10.7502
900	-10.7504
ボタンの	-10.7507
渡	-10.7508
相応	-10.7509
のり	-10.7509
楽しみにして	-10.751
ですけど	-10.7512
たん	-10.7514
を出して	-10.7515
二人で	-10.7515
という感じでした	-10.7516
勉強になりました	-10.7517
ますので	-10.7517
使いやすそう	-10.7518
と思いつつ	-10.7518
蒸れ	-10.7518
ピンクで	-10.752
程の	-10.7522
あら	-10.7523
味です	-10.7524
お友達	-10.7526
なかったら	-10.7528
えて	-10.7528
に注文して	-10.7531
イメージ通り	-10.7534
だったのが	-10.7534
豪華	-10.7535
十	-10.7536
生地が薄く	-10.7537
バックル	-10.7539
用と	-10.7539
継続	-10.7543
気になった	-10.7544
も多く	-10.7545
だって	-10.7547
もとても	-10.755
初回	-10.7552
他の方の	-10.7553
剥げて	-10.7555
その上	-10.7556
色が違う	-10.756
最悪な	-10.756
れます	-10.7561
詰め替え	-10.7562
蓋の	-10.7564
の買い物	-10.7564
飲める	-10.7566
250	-10.7567
84	-10.757
(^^;	-10.7572
届けて	-10.7574
とは言え	-10.7575
職場の	-10.7576
似たような	-10.7577
92	-10.7578
この値段でこの	-10.7579
の悪い	-10.7582
〜!	-10.7582
164	-10.7583
サイズ感	-10.7583
があったり	-10.7585
決定	-10.7586
ないですね	-10.7587
ホール	-10.7588
粒が	-10.7589
納品書	-10.759
涼しい	-10.759
残る	-10.7592
安いだけ	-10.7593
置く	-10.7597
一杯	-10.7598
髪の毛が	-10.7598
我が家には	-10.76
騙された	-10.7602
じゃなく	-10.7604
贈り物に	-10.7605
を買い	-10.7606
文句なしです	-10.7607
ただけで	-10.7608
色合いで	-10.761
減	-10.761
レースが	-10.761
っていた	-10.7614
肩の	-10.762
消	-10.7624
イヤ	-10.7625
汚れて	-10.7625
真っ赤	-10.7627
見つけ	-10.7629
座り	-10.763
揚げ	-10.763
少し小さめ	-10.7635
鳥	-10.7635
致しました	-10.7636
を入れても	-10.764
具合が	-10.7644
効果も	-10.7645
りして	-10.7651
UP	-10.7651
それとも	-10.7652
いるような	-10.7653
物と	-10.7656
カラーも	-10.7656
でしょうね	-10.7657
過去	-10.7659
ないのは	-10.7659
シャワー	-10.766
予防	-10.766
相変わらず	-10.766
バルブ	-10.766
いたところ	-10.7661
付いていた	-10.7662
を見たら	-10.7664
こぼれ	-10.7667
われ	-10.7669
を見た	-10.767
誤	-10.7671
わかりました	-10.7671
長くて	-10.7672
完成品	-10.7673
結婚式の	-10.7673
タイム	-10.7675
品を	-10.7675
ブルーの	-10.7676
レバー	-10.7679
感も	-10.768
いただける	-10.7685
組立て	-10.7685
ウエストは	-10.7686
ハリ	-10.7687
放	-10.7687
敷	-10.7689
の部分に	-10.7689
可愛かったので	-10.7692
馴染み	-10.7694
さないと	-10.7696
指輪	-10.7696
するべき	-10.7697
使っても	-10.7698
を受け	-10.77
配送は	-10.77
楽しみにしていたのに	-10.7702
隠れる	-10.7706
取っ手	-10.7707
洗ったら	-10.7707
っぽくて	-10.7708
深さ	-10.7709
も悪く	-10.771
穴の	-10.771
2013	-10.771
直しました	-10.7714
塩分	-10.7714
商品名	-10.7715
リアル	-10.7715
薄かった	-10.7719
ケースは	-10.7719
干して	-10.7726
現物	-10.7728
履きやすく	-10.7731
ハッキリ	-10.7731
落ちました	-10.7731
ふつう	-10.7733
いい商品	-10.7733
んですけどね	-10.7735
職場で	-10.7736
めの	-10.774
存在	-10.7741
以内	-10.7744
画像は	-10.7746
かなあ	-10.7747
大変助かりました	-10.7748
もう一枚	-10.7752
触って	-10.7755
持っていた	-10.7756
だったし	-10.7756
ていない	-10.776
74	-10.7761
レビューは	-10.7765
大切な	-10.7765
神	-10.7766
ごろ	-10.7766
川	-10.7767
通気性	-10.7767
飛んで	-10.7773
必需品です	-10.7777
贈った	-10.7778
円も	-10.7778
キット	-10.778
今年も	-10.7784
購入しようと思います	-10.7788
補強	-10.779
後ろに	-10.7791
おりましたが	-10.7793
ぐらいです	-10.7796
厚みがあり	-10.7796
リピーター	-10.7798
玄関に	-10.78
この価格なら	-10.78
クリーナー	-10.7803
ネーム	-10.7803
インパクト	-10.7803
問題は	-10.7805
おしゃれです	-10.7805
何回	-10.7809
or	-10.7812
ものが届きました	-10.7813
起き	-10.7813
長く使える	-10.7814
広	-10.7815
洗濯物	-10.7817
屋さんで	-10.7817
革が	-10.7819
的にも	-10.782
を送って	-10.7821
する事	-10.7822
たんですが	-10.7822
買ってしまった	-10.7823
気になっていた	-10.7824
きちんとした	-10.7827
違和感なく	-10.7827
になりそう	-10.7833
毎日の	-10.7834
使いやすかったです	-10.7835
を求めて	-10.7837
まつげ	-10.7839
特有の	-10.7839
報告	-10.7839
メンズ	-10.784
グレーの	-10.7841
とても喜んでもらえました	-10.7842
満足のいく	-10.7843
チクチク	-10.7844
買い換え	-10.7844
とかで	-10.7845
品でした	-10.7847
になったら	-10.785
お勧めしません	-10.7851
洋	-10.7854
行った	-10.7856
有る	-10.7858
よって	-10.786
オフホワイト	-10.7862
;;	-10.7863
ぴったりで	-10.7864
いたため	-10.7866
品物が	-10.787
ニオイが	-10.7871
手の	-10.7872
本当に残念です	-10.7876
月下旬	-10.7877
付け心地	-10.7878
よくわかりません	-10.7878
ゆるく	-10.7879
と言うより	-10.788
石の	-10.7881
入れた	-10.7881
リビングに	-10.7883
を期待して	-10.7884
歪み	-10.7887
妥当	-10.7887
になりません	-10.7887
.0	-10.7888
ベージュの	-10.7889
ポリ	-10.7889
着せ	-10.789
これが一番	-10.7891
時間がかかりました	-10.7893
これからの	-10.7894
大きすぎ	-10.7895
これ以上	-10.7898
が有り	-10.79
てました	-10.7901
良いかな	-10.7903
がついていて	-10.7907
無料で	-10.7907
にすればよかった	-10.7908
値段が高い	-10.791
カーディガン	-10.7911
少なめ	-10.7911
ドライヤー	-10.7911
ついつい	-10.7912
横幅	-10.7912
思っていたのと	-10.7912
画	-10.7912
ができない	-10.7915
かく	-10.7917
ちょうどよく	-10.7918
カラーが	-10.792
すごいです	-10.792
日中	-10.792
の感想	-10.7922
といった感じです	-10.7923
してましたが	-10.7924
コンパクトな	-10.7926
欲	-10.7926
オシャレで	-10.7928
次の日に	-10.7935
布団を	-10.7936
自体の	-10.7937
タレ	-10.7937
回数	-10.7937
メッキ	-10.7938
と思うくらい	-10.7938
の時は	-10.794
必須	-10.794
62	-10.7942
業	-10.7942
向いて	-10.7943
分には	-10.7943
つきました	-10.7945
混	-10.7946
オーガニック	-10.7947
優しく	-10.7947
微	-10.7948
洗面所	-10.795
ちがう	-10.795
タッチ	-10.7951
間違いない	-10.7951
価格相応	-10.7953
わからないので	-10.7953
広げて	-10.7953
買ったら	-10.7954
されています	-10.7956
所で	-10.7956
まだ使っていませんが	-10.7956
ないといけない	-10.7956
年の	-10.7957
才	-10.7957
カードが	-10.796
の評価	-10.7965
といっても	-10.7965
忙しい	-10.7968
してない	-10.7974
ワンコ	-10.7975
るのですが	-10.7975
座椅子	-10.7979
間違えた	-10.7979
というよりは	-10.7979
使うこと	-10.7982
が気になって	-10.7982
ザラザラ	-10.7984
固まって	-10.7984
アクリル	-10.7984
(-_-;)	-10.7984
風合い	-10.7985
送料は	-10.7985
黒を購入	-10.7986
迅速に	-10.7986
ビジネス	-10.7987
コー	-10.7988
ずらい	-10.7988
履いています	-10.7989
86	-10.7992
ファンデ	-10.7994
張	-10.7996
先端	-10.7998
旧	-10.8
を入れた	-10.8001
購入しない	-10.8002
次第	-10.8004
スーパーの	-10.8006
閉め	-10.8007
よくない	-10.8008
展開	-10.8009
プチ	-10.8012
レス	-10.8014
商品が届きません	-10.8015
ビタミン	-10.802
くるぶし	-10.802
不味い	-10.8021
かわいらしい	-10.8021
効く	-10.8023
見た感じ	-10.8024
の上から	-10.8024
アダプター	-10.8025
おすすめしません	-10.8025
買いたい	-10.8026
との相性	-10.8026
なんですね	-10.8027
眠れ	-10.8029
品は	-10.803
記	-10.803
似た	-10.8031
をつける	-10.8031
た時に	-10.8033
食べると	-10.8033
がかった	-10.8034
発売日	-10.8036
感じません	-10.8036
とても良く	-10.8036
ったので	-10.8041
揃えて	-10.8042
素早い対応	-10.8042
再購入	-10.8043
店の対応	-10.8048
プレゼントとして	-10.8049
どうしようか	-10.8051
個人	-10.8051
旦那さん	-10.8054
栄養	-10.8056
と言うか	-10.8057
氷	-10.8057
リラックス	-10.8057
お中元	-10.8057
入っていませんでした	-10.8058
の下	-10.8059
さんは	-10.8059
ハム	-10.8059
読	-10.8061
広がって	-10.8061
コピー	-10.8064
が増え	-10.8065
増	-10.8067
開け閉め	-10.8068
で大満足です	-10.8069
156	-10.8069
パンツは	-10.8071
不自然	-10.8071
大きさで	-10.8072
使用で	-10.8074
と書いてある	-10.8074
いつか	-10.8076
飲むと	-10.8077
はいいのですが	-10.808
欲しくて	-10.8081
の物を	-10.8084
いろいろと	-10.8085
ポン	-10.8087
いい買い物ができました	-10.8088
写真と違う	-10.8088
フワフワ	-10.8091
症	-10.8093
伸縮	-10.8093
料理に	-10.8093
書かれている	-10.8094
あり得ない	-10.8095
届きませんでした	-10.8095
▁1,,2	-10.8096
楽しめます	-10.8096
くっきり	-10.8097
困っています	-10.8097
載せ	-10.8098
の方も	-10.8099
ついていました	-10.8101
はないので	-10.8102
上が	-10.8105
続ける	-10.8106
板の	-10.8109
引っ	-10.811
試してみましたが	-10.811
いけ	-10.8111
商品画像	-10.8111
乗る	-10.8111
とれ	-10.8115
感じませんでした	-10.8116
届かなかった	-10.8116
主に	-10.8117
袖口	-10.8118
抑え	-10.8119
安かったです	-10.8119
購入したら	-10.8122
庭	-10.8122
無いです	-10.8124
ときには	-10.8125
フリーサイズ	-10.8131
吸水性	-10.8132
購入したい	-10.8132
あるし	-10.8132
型崩れ	-10.8133
返品する	-10.8136
座り心地	-10.8136
良いのに	-10.8137
用紙	-10.8138
かと思ったら	-10.8138
違うもの	-10.8138
予想より	-10.8138
94	-10.814
かも知れません	-10.8141
回で	-10.8141
座る	-10.8141
とゆう	-10.8142
段階	-10.8143
潰れ	-10.8145
着心地は	-10.8146
はやく	-10.815
利用したいと思います	-10.8151
クール	-10.8151
のようなもの	-10.8151
違うの	-10.8152
72	-10.8153
していません	-10.8153
日目に	-10.8154
なのかもしれませんが	-10.8157
は良かったのですが	-10.8159
回ほど	-10.816
真ん中の	-10.8162
くり	-10.8164
速	-10.8165
減り	-10.8165
オシャレな	-10.8165
だったと思います	-10.8165
緩い	-10.8166
が低い	-10.8167
迷った	-10.8167
防寒	-10.8168
ドキドキ	-10.8169
(;_;)	-10.8169
だいたい	-10.817
とってもかわいいです	-10.817
運動会	-10.817
ノート	-10.8173
弾	-10.8174
ライブ	-10.8174
オレンジ色	-10.8175
それなら	-10.8177
葉っぱ	-10.8178
保温	-10.8179
ショップの対応は	-10.8181
茶色の	-10.8182
ってます	-10.8184
ゴミが	-10.8187
にするか	-10.8187
したくない	-10.8191
されず	-10.8194
良い品	-10.8195
の価値	-10.8196
さい	-10.8198
ホワイトを購入しました	-10.8202
素足で	-10.8202
て良かったです	-10.8203
剥げ	-10.8206
家族が	-10.8208
袋も	-10.8208
悪かった	-10.8209
結	-10.8209
下がり	-10.821
アー	-10.821
毛の	-10.8213
を利用して	-10.8214
とても便利	-10.8215
温かく	-10.8216
窮屈	-10.8217
全体が	-10.822
空いて	-10.8221
でこのお値段は	-10.8222
封筒	-10.8222
色違いも	-10.8224
妊婦	-10.8224
入っているので	-10.8227
ちゃっちい	-10.8227
した所	-10.8227
即納	-10.8229
なにか	-10.8231
チュ	-10.8231
をすると	-10.8232
は必要	-10.8233
頑丈	-10.8233
トラ	-10.8234
たが	-10.8237
しかなく	-10.8239
にくかった	-10.8239
つもりで	-10.8239
ヒーター	-10.8241
問合せ	-10.8243
軸	-10.8243
定期的に	-10.8244
離	-10.825
の使用で	-10.825
支払い	-10.8252
柔らかさ	-10.8254
たくさんの	-10.8255
やった	-10.8255
注文してみました	-10.8257
位で	-10.8258
よくわからない	-10.8259
箱は	-10.8261
であること	-10.8263
ップ	-10.8268
製品は	-10.827
糖	-10.8271
夫	-10.8272
このサイズ	-10.8273
薄手で	-10.8275
かかとの	-10.8275
の私でも	-10.8279
分からず	-10.8279
入らなかった	-10.8281
私に	-10.8281
実用性	-10.8282
ビックリです	-10.8282
同封	-10.8286
が大好きな	-10.8286
持ち歩く	-10.8286
た方が	-10.8288
持て	-10.8289
辛	-10.829
クラ	-10.8295
都合	-10.8296
良い買い物でした	-10.8296
違っていました	-10.8297
袋の	-10.8298
きいて	-10.8298
入れると	-10.8301
いいか	-10.8306
大人の	-10.8306
うちの子は	-10.8313
寝室	-10.8317
宣伝	-10.8319
商品説明に	-10.8319
眼鏡	-10.8319
落	-10.832
サイズと	-10.832
たしかに	-10.832
楽しんで	-10.8323
はできない	-10.8323
十分に	-10.8324
×2	-10.8324
リピはありません	-10.8328
ぶかぶか	-10.833
着ています	-10.833
なかったり	-10.8333
靴底	-10.8334
組み	-10.834
語	-10.8342
考えた	-10.8342
黄	-10.8344
風呂	-10.8346
しっかりしていました	-10.8349
赤色	-10.8351
真ん中に	-10.8351
を取る	-10.8351
その日に	-10.8351
様で	-10.8353
アルコール	-10.8356
しっかりしたもの	-10.8356
も簡単で	-10.8357
破けて	-10.8357
好き嫌い	-10.836
脱げ	-10.8361
臭く	-10.8361
こそ	-10.8362
1500	-10.8362
値段相応です	-10.8363
クオリティー	-10.8364
加	-10.8366
涼しく	-10.8368
紺色	-10.8369
られず	-10.837
数字	-10.8376
使用中	-10.8382
本が	-10.8382
近所で	-10.8385
美味しいので	-10.8387
こんなものかな	-10.8387
けば	-10.8388
症状	-10.8388
のせい	-10.839
伝	-10.839
という感じで	-10.8392
ってしまいました	-10.8393
フィットする	-10.8394
徐々に	-10.8394
裁縫	-10.8394
限界	-10.8394
見事に	-10.8395
頼む	-10.8395
にしか	-10.8396
のケース	-10.8397
カッコいい	-10.8397
別途	-10.8399
^)/	-10.84
何が	-10.84
とてもよい	-10.8403
おう	-10.8404
しすぎ	-10.8405
たし	-10.8407
合わせやすい	-10.8408
*)	-10.8411
66	-10.8421
引	-10.8424
体質	-10.8425
相性	-10.8426
払い	-10.8426
足は	-10.8426
夜に	-10.8426
減ら	-10.8429
が高く	-10.843
んじゃ	-10.843
困難	-10.8432
ブレーキ	-10.8432
むくみ	-10.8433
(≧∇≦)	-10.8433
スティック	-10.8434
私の場合	-10.8435
も少し	-10.8437
念	-10.8437
を希望	-10.8437
食べやすい	-10.8438
製の	-10.8439
台所	-10.8442
が好き	-10.8442
箱に入って	-10.8443
は一切	-10.8443
おかず	-10.8443
布地	-10.8446
書く	-10.8448
なきゃ	-10.8451
ふわふわで	-10.8453
週	-10.8454
シミが	-10.8454
着心地が	-10.8455
聞こえ	-10.8458
耳に	-10.8458
の対応は	-10.8462
そうでした	-10.8465
られるので	-10.8467
2.5	-10.8468
スキニー	-10.8471
弟	-10.8471
キムチ	-10.8471
ピカピカ	-10.8471
&#10071;	-10.8471
欲を言えば	-10.8471
パターン	-10.8471
デビュー	-10.8474
も大変	-10.8476
太って	-10.8476
補充	-10.8478
とセットで	-10.8479
サイズが小さい	-10.848
ゆるゆる	-10.848
つま	-10.8484
体系	-10.8484
食べても	-10.8485
払って	-10.8485
気持ちが	-10.8486
ピンクを購入	-10.8488
追加購入	-10.8488
付属品	-10.8489
量を	-10.8489
初期	-10.8491
いいのかな	-10.8492
で満足しています	-10.8496
華やか	-10.8498
er	-10.8498
つもりでしたが	-10.8499
コードが	-10.85
られている	-10.85
紛失	-10.8503
ページに	-10.8504
裏に	-10.8505
脚の	-10.8506
言うと	-10.8506
どっち	-10.851
確認メール	-10.8511
地域	-10.8512
物より	-10.8512
ホームページ	-10.8514
母親	-10.8515
気に入ったようです	-10.8515
本を	-10.8516
それまで	-10.8517
ガン	-10.8517
質は	-10.8519
靴が	-10.8521
されます	-10.8526
ではなかったので	-10.8527
案内	-10.8528
ラップ	-10.8528
黒く	-10.8529
生産	-10.8534
クリスマスプレゼントに	-10.8534
飾る	-10.8534
粉が	-10.8535
衣装	-10.8538
って思って	-10.8542
買って正解でした	-10.8543
気にせず	-10.8544
お土産	-10.8544
似て	-10.8545
つぶ	-10.8546
柄で	-10.8546
丁寧でした	-10.8547
可もなく不可もなく	-10.8549
エンジン	-10.8549
花束	-10.8549
を履いて	-10.855
だから仕方ない	-10.8556
とても美味しい	-10.8558
が原因	-10.8558
喜び	-10.8559
してくれ	-10.856
自然に	-10.856
合っている	-10.856
父の	-10.856
使用したら	-10.8562
素敵で	-10.8563
ひび割れ	-10.8564
ショップから	-10.8565
ことです	-10.8567
送られてきました	-10.8567
とてもよく	-10.8568
業務用	-10.8568
注意が必要です	-10.8569
レビューを書く	-10.8571
均の	-10.8572
に入れ	-10.8572
縦に	-10.8577
のかしら	-10.858
来年も	-10.858
した時に	-10.8581
以前使っていた	-10.8584
選べて	-10.8586
ジャージ	-10.8587
挑戦	-10.8588
と思ってましたが	-10.8588
ピリピリ	-10.8588
ショ	-10.859
トイレに	-10.8591
休み	-10.8593
てしまった	-10.8593
完璧	-10.8596
すき	-10.8597
サイズでも	-10.8598
ラッキー	-10.8598
脚が	-10.8599
700	-10.8599
上着	-10.8602
ので残念です	-10.8605
は良いのですが	-10.8607
発送も早くて	-10.8608
センチくらい	-10.8609
使い始め	-10.861
加減	-10.8613
41	-10.8615
中には	-10.8615
安かったので購入しました	-10.8616
グラグラ	-10.8617
連絡して	-10.8618
気泡	-10.862
単品で	-10.8621
すのこ	-10.8621
リクエスト	-10.8625
モコモコ	-10.8626
おしり	-10.8628
作りで	-10.8628
荷物を	-10.8629
154	-10.863
保護フィルム	-10.8631
伸ばして	-10.8632
枚は	-10.8632
値段が値段なので	-10.8633
勧め	-10.8634
!!!!	-10.8637
がないと	-10.8638
気にしない	-10.864
に出	-10.8641
初めから	-10.8642
高価	-10.8642
買ったもの	-10.8644
メモ	-10.865
ジー	-10.8651
切れた	-10.8652
迷わず	-10.8654
と言った	-10.8654
途中	-10.8656
他の人	-10.8657
伸びない	-10.8659
激	-10.8659
購入できる	-10.866
フラワー	-10.8665
ポリエステル	-10.8665
ワイド	-10.8665
るようになりました	-10.8666
小学	-10.8666
部分と	-10.8667
見ましたが	-10.8668
同様	-10.8671
かわからない	-10.8671
ることなく	-10.8672
自宅に	-10.8672
遠	-10.8673
ないようです	-10.8676
歩きやすい	-10.8676
感じがして	-10.8676
取付け	-10.8677
ちょうど良いです	-10.8685
写真の通り	-10.8685
他のお店で	-10.8686
遊んで	-10.8689
とても素敵な	-10.869
香りで	-10.8692
買わなきゃよかった	-10.8695
あったのですが	-10.8697
背面	-10.8697
入学	-10.8697
入金	-10.8699
ねー	-10.8704
アーモンド	-10.8704
栗	-10.8704
キャラクター	-10.8705
どう見ても	-10.8705
困っていました	-10.8705
内の	-10.8707
不備	-10.8708
返	-10.871
塗装が	-10.8713
脂身	-10.8715
到着が	-10.8715
が気になります	-10.8716
ロール	-10.8716
高さも	-10.8717
皆さんが	-10.8718
かさ	-10.8719
開けた	-10.8719
ようになって	-10.8721
大きすぎました	-10.8722
生き	-10.8722
安心感	-10.8723
急	-10.8726
見せて	-10.8727
ホック	-10.873
に惹かれ	-10.8733
音質	-10.8733
はできません	-10.8735
過ぎず	-10.8736
梅雨	-10.874
になってしまう	-10.8741
遠く	-10.8741
目立ち	-10.8741
以来	-10.8742
も無い	-10.8742
結婚式用に	-10.8742
無しで	-10.8743
接着剤で	-10.8744
デカイ	-10.8746
つま先が	-10.8746
ダイ	-10.8747
他は	-10.8747
日以上	-10.8748
アーム	-10.8748
にくかったです	-10.8748
口の	-10.875
2、3	-10.8755
多めに	-10.876
ラム	-10.8762
持ち手が	-10.8762
ひどいです	-10.8766
わずか	-10.8766
感があります	-10.8768
−1	-10.8768
が出来る	-10.8773
折れました	-10.8773
167	-10.8773
縫って	-10.8775
使い分け	-10.8775
ング	-10.8775
んですか	-10.8777
首に	-10.8778
二回目	-10.8779
の発送	-10.878
しかありません	-10.878
かす	-10.8782
にすれば良かった	-10.8782
に買いました	-10.8782
オモチャ	-10.8783
彼氏	-10.8783
和室	-10.8783
売る	-10.8784
対応を	-10.8784
はいい	-10.8785
発送の連絡	-10.8787
物なので	-10.8789
梅干し	-10.8795
るの	-10.8798
まだ届かない	-10.8798
書類	-10.8799
コップ	-10.8805
この商品に	-10.8805
もちもち	-10.8805
レベルです	-10.8805
つめ	-10.8807
ように感じました	-10.8811
の様に	-10.8818
効き目	-10.8819
低価格	-10.882
メールも	-10.882
ばっかり	-10.8823
いいんですが	-10.8824
..\	-10.8827
お店の方	-10.8828
苦笑	-10.8828
洗った	-10.8828
していると	-10.883
にはちょっと	-10.8831
失敗です	-10.8832
開けた瞬間	-10.8833
お花が	-10.8836
するし	-10.8837
黒と	-10.8837
3.	-10.8837
ビン	-10.8837
繰り返し	-10.8839
落とした	-10.8841
キツい	-10.8841
穴が空いて	-10.8844
キャラ	-10.8844
ゼ	-10.8846
二個	-10.8847
自分でも	-10.8849
よかったかも	-10.885
布の	-10.8852
跡が	-10.8853
できたので	-10.8856
方を	-10.8857
ポチ	-10.8857
気になり	-10.8858
カワイイです	-10.8858
スカートの	-10.8858
はないと思います	-10.8859
掛けて	-10.8861
伝票	-10.8861
トレーニング	-10.8862
おしっこ	-10.8862
検査	-10.8863
なかったのに	-10.8863
になっていたので	-10.8863
丸見え	-10.8863
早い対応	-10.8864
キラキラして	-10.8865
のプレゼント	-10.8866
残った	-10.8866
確か	-10.8866
l	-10.8867
ショップの対応	-10.8868
思った通りの	-10.8869
格	-10.8871
クローゼット	-10.8872
といえば	-10.8873
月の	-10.8874
レビュー通り	-10.8874
皆さんの	-10.8875
するもの	-10.8876
に混ぜて	-10.8876
よいのですが	-10.8876
抜ける	-10.8877
側面	-10.8881
片手で	-10.8882
とれる	-10.8883
に送りました	-10.8883
お味	-10.8885
ばら	-10.8886
プレゼントした	-10.8889
が来る	-10.8891
包み	-10.8891
断念	-10.8892
をつけ	-10.8893
が届き	-10.8894
赤ちゃんの	-10.8895
活	-10.8897
端子	-10.8897
値段に	-10.89
くせ	-10.8901
ぎりぎり	-10.8902
佐川急便	-10.8902
ダメージ	-10.8902
ファンデーション	-10.8902
日は	-10.8903
すぎた	-10.8905
注	-10.8906
最低です	-10.8908
揃って	-10.891
合計	-10.8911
も付いて	-10.8911
してもらいました	-10.8912
この本	-10.8914
与え	-10.8915
するなら	-10.8916
と一緒に購入	-10.8918
いないのですが	-10.892
が入った	-10.892
弾力	-10.8922
期待しすぎた	-10.8923
購入時に	-10.8924
使っていましたが	-10.8925
大正解でした	-10.8927
美味しいと	-10.8931
ぽい	-10.8933
義母	-10.8934
かしら	-10.8937
ジャスト	-10.8938
とともに	-10.8941
うっかり	-10.8942
一目ぼれ	-10.8942
こだわり	-10.8943
だなぁ	-10.8943
苦手	-10.8943
美容液	-10.8943
ているので	-10.8948
固まり	-10.8948
速度	-10.8949
パンパン	-10.895
の組み合わせ	-10.8952
大喜びでした	-10.8955
止めて	-10.8958
母は	-10.8958
やめ	-10.8958
絵柄	-10.8958
ar	-10.8959
迷惑	-10.896
かからない	-10.8963
しただけで	-10.8964
幸い	-10.8965
申し訳ない	-10.8968
根元	-10.8968
またリピートします	-10.8971
ラッキーでした	-10.8973
蓋を	-10.8976
に決めました	-10.8977
どうやって	-10.898
入園	-10.8981
頼みました	-10.8981
きれ	-10.8982
思いのほか	-10.8983
コーナー	-10.8983
チョ	-10.899
してみたら	-10.8993
いいと思いました	-10.8993
XS	-10.8994
臭さ	-10.8996
やすそうです	-10.8997
キツく	-10.8997
リーズナブル	-10.8998
商品が届く	-10.8999
透明の	-10.9
方なら	-10.9001
はよく	-10.9002
作れる	-10.9004
の場合	-10.9006
贅沢	-10.9006
商品ページに	-10.9007
金額が	-10.9008
トイレの	-10.9009
結果は	-10.9011
着れ	-10.9012
芋	-10.9012
とって	-10.9014
のを見て	-10.9015
抱っこ	-10.9015
優	-10.9016
幅も	-10.9017
のところに	-10.902
r	-10.902
滴	-10.9021
だめでした	-10.9021
まわ	-10.9022
盤	-10.9022
シーン	-10.9022
入りの	-10.9023
リットル	-10.9023
〇	-10.9023
楽天ブックス	-10.9023
ときも	-10.9024
そこに	-10.9024
りんご	-10.9024
`*)	-10.9024
散々	-10.9025
父に	-10.9025
数珠	-10.9025
入ってない	-10.9027
本来	-10.9027
かぶって	-10.9028
に驚きました	-10.9028
と購入しました	-10.9029
が欲しくて購入しました	-10.903
良いと思いました	-10.903
が結構	-10.9032
素材感	-10.9034
回って	-10.9038
が弱く	-10.904
義	-10.9041
レースの	-10.9043
袖の	-10.9044
この商品が	-10.9047
サイズなので	-10.9047
取り付ける	-10.9053
縫製が雑	-10.9054
もいいので	-10.9056
一瞬	-10.9056
,6	-10.9059
きれいでした	-10.9059
楽しいです	-10.9061
と連絡	-10.9064
商売	-10.9064
直径	-10.9064
リンゴ	-10.9065
顔の	-10.9066
エアー	-10.9066
どこ	-10.9067
コスパは	-10.9067
丁度良かったです	-10.9071
いるため	-10.9072
ボア	-10.9072
割には	-10.9072
重視	-10.9072
カバーも	-10.9075
右側	-10.9077
ショップの方	-10.9077
あき	-10.9077
余	-10.9082
段差	-10.9084
知人	-10.9084
割れていました	-10.9085
やわらかくて	-10.9087
水の	-10.9089
全体	-10.909
小柄な	-10.909
カラーの	-10.9092
画像が	-10.9092
とは思えません	-10.9093
ぺ	-10.9094
かね	-10.9098
購入できました	-10.91
ダボ	-10.9104
七五三	-10.9105
痒み	-10.9105
お高い	-10.9106
効いて	-10.9107
おいしくない	-10.911
であった	-10.9113
変わりません	-10.9113
変えて	-10.9115
イメージ通りで	-10.9116
日にち	-10.9117
は結構	-10.9119
くすんだ	-10.9119
量が少ない	-10.9126
格好	-10.9127
ばっちり	-10.9129
倒	-10.913
しちゃいました	-10.9134
派	-10.9135
平気	-10.9136
苦労	-10.9136
たりする	-10.9137
感があり	-10.9138
主人は	-10.914
タイミング	-10.9142
オリーブ	-10.9144
重ね	-10.9145
始めました	-10.9146
清潔	-10.9146
遮光	-10.9146
引き出しの	-10.9148
売ってる	-10.9149
白髪	-10.915
小さめで	-10.9151
レット	-10.9152
おススメです	-10.9153
終わった	-10.9157
探していたら	-10.916
周りに	-10.916
不安定	-10.9162
残って	-10.9165
いい感じでした	-10.9167
いただけ	-10.9168
ダニ	-10.9168
結構な	-10.9169
もつ	-10.917
の名前	-10.917
画面が	-10.9174
と比べ	-10.9175
ないよう	-10.9176
るから	-10.9176
返品不可	-10.9176
上品	-10.9177
いいの	-10.9178
とう	-10.9179
実家	-10.9182
いるの	-10.9182
が壊れたので	-10.9182
振	-10.9185
連絡なし	-10.9186
設計	-10.9186
寝返り	-10.9187
帰省	-10.9187
おまかせ	-10.9187
正しい	-10.9187
シッカリ	-10.9187
ためか	-10.9187
ワンシーズン	-10.9188
しようか	-10.9193
薄かったです	-10.9194
意味で	-10.9196
旦那に	-10.9197
いつもより	-10.9197
比べ	-10.9198
が良くて	-10.9198
見栄え	-10.9201
ステ	-10.9201
リピートしています	-10.9205
良いかもしれません	-10.9207
キレイです	-10.9208
購入でき	-10.9209
79	-10.9211
普段着	-10.9211
家族も	-10.9213
落ちた	-10.9213
同じもの	-10.9215
白っぽい	-10.9216
お安くて	-10.9216
いるうちに	-10.9219
樹脂	-10.9219
他のレビュー	-10.922
目立って	-10.9221
買え	-10.9221
もあるし	-10.9223
他の方も	-10.9223
節	-10.9224
載って	-10.9225
ような感じ	-10.9225
お店の対応が	-10.9225
部屋で	-10.9227
良好	-10.9228
試し履き	-10.9229
ヨガ	-10.923
残念でなりません	-10.923
開けてみると	-10.9231
こんな事	-10.9233
ために購入	-10.9234
赤く	-10.9236
▁;	-10.9237
半袖	-10.9238
こちらのショップは	-10.9238
ナビ	-10.9239
お知らせ	-10.924
低め	-10.924
目は	-10.9242
機能が	-10.9245
されているので	-10.9245
は難しい	-10.9246
ので良かったです	-10.925
マル	-10.925
にプレゼントしました	-10.9253
苦しい	-10.9254
はやはり	-10.9255
のいい	-10.9256
電車	-10.9257
ほこり	-10.9257
装	-10.926
速い	-10.9263
まっ	-10.9265
とは違い	-10.9266
ケースも	-10.9268
してしまったので	-10.927
尿	-10.927
肌荒れ	-10.927
の事	-10.9271
つかえ	-10.9271
ボールペン	-10.9272
また購入します	-10.9272
キズが	-10.9275
分かりやすく	-10.9275
と考えて	-10.9278
お花の	-10.9279
はないですが	-10.9279
割れた	-10.9281
状態の	-10.9281
それにしても	-10.9282
かは	-10.9283
組み立てが	-10.9283
履いてみると	-10.9283
吹き	-10.9286
緑色	-10.9289
丁度良く	-10.9292
すが	-10.9292
全然違います	-10.9294
マンション	-10.9294
考え中です	-10.9295
マルチ	-10.9298
見られ	-10.9299
確認したら	-10.93
そうに	-10.9303
あるのですが	-10.9305
これじゃ	-10.9306
ルー	-10.9307
61	-10.9308
県	-10.9309
苦味	-10.931
割れました	-10.9311
size	-10.9311
とどきました	-10.9312
つかい	-10.9312
早急に	-10.9312
新たに	-10.9312
内容量	-10.9314
消費者	-10.9314
合いません	-10.9315
感謝しています	-10.9316
代金	-10.9317
も早く	-10.9319
引っかかり	-10.9319
電池が	-10.932
子供たち	-10.9321
大量	-10.9323
触れ	-10.9324
写真を見て	-10.933
はいけない	-10.9331
良かったかも	-10.9331
妻が	-10.9332
斜め	-10.9334
木製	-10.9335
157	-10.9335
人も	-10.9336
外し	-10.9337
昔の	-10.9338
馬	-10.9341
ーン	-10.9341
ホット	-10.9342
外観	-10.9342
してた	-10.9343
れている	-10.9343
買わ	-10.9343
紙の	-10.9346
と思いながら	-10.9349
となると	-10.935
電動	-10.9352
SHOP	-10.9353
ハロウィン	-10.9353
近くに	-10.9353
誠意	-10.9353
メーカーに	-10.9354
ドリンク	-10.9354
動かない	-10.9355
服の	-10.9355
貰え	-10.9357
書きます	-10.9358
のでしょうね	-10.9359
金具の	-10.936
が悪いので	-10.936
を使っています	-10.9363
乾いて	-10.9366
ピッタリで	-10.9367
当初	-10.9367
今回で	-10.9374
病気	-10.9374
を購入してみました	-10.9376
いるもの	-10.9379
消える	-10.9384
発送予定	-10.9389
ピンクゴールド	-10.939
とのことです	-10.9392
雑で	-10.9393
使ってみたら	-10.9393
カッコイイ	-10.9393
ブラックと	-10.9393
尚	-10.9393
〜♪	-10.9394
ちゃって	-10.9394
商品として	-10.9394
島	-10.9395
飲みやすく	-10.9395
仏壇	-10.9395
沖縄	-10.9395
エプロン	-10.9395
マウス	-10.9395
チュニック	-10.9396
他の物	-10.9396
パーカー	-10.9396
たくさん入って	-10.9397
デジカメ	-10.94
押入れ	-10.94
と言ってました	-10.94
たもの	-10.9407
解決	-10.9408
午後	-10.9408
ターコイズ	-10.9412
再入荷	-10.9412
付かない	-10.9413
購入したもの	-10.9413
カッター	-10.9413
だからか	-10.9414
みたいですが	-10.9415
素晴らしいです	-10.9416
気になっていました	-10.9418
づらいです	-10.9421
仕方ないので	-10.9422
しめ	-10.9425
お願いして	-10.9426
トリ	-10.9426
底に	-10.9428
顔を	-10.943
とかは	-10.9434
ハーフ	-10.9435
滑って	-10.9435
電話を	-10.9436
透けて	-10.9436
幸せ	-10.9437
案の定	-10.9437
パンツの	-10.9439
個セット	-10.9439
メッセージカード	-10.9441
急ぎで	-10.9441
このシリーズ	-10.9444
つま先	-10.9444
つば	-10.9444
きつかったです	-10.9445
ーっと	-10.9448
年末	-10.9449
対	-10.9449
私だけ	-10.9452
入れても	-10.9453
はしっかり	-10.9453
をお勧めします	-10.9458
今回のは	-10.9458
上がった	-10.9461
お手ごろ	-10.9462
とても綺麗な	-10.9463
るため	-10.9464
内部	-10.9465
のせいで	-10.9467
お願いした	-10.947
この価格は	-10.9473
が多かった	-10.9474
細身の	-10.9475
冷蔵庫に	-10.9478
ぶり	-10.9478
眼	-10.9479
柔軟剤	-10.948
キチンと	-10.948
登録	-10.948
めちゃめちゃ	-10.948
失礼	-10.948
入院	-10.948
家族全員	-10.948
98	-10.948
待った	-10.9481
付近	-10.9483
かなと思い	-10.9483
は特に	-10.9484
をしっかり	-10.9486
わたしは	-10.9486
入れ替え	-10.9486
縫製は	-10.9487
と思ってしまいました	-10.9488
取引	-10.9488
ほんの少し	-10.9489
足裏	-10.9489
自身	-10.949
指の	-10.9494
(1	-10.9494
に期待	-10.9495
ょ	-10.95
US	-10.95
小学生	-10.95
重さも	-10.95
とは思って	-10.9501
に戻	-10.9501
黒色	-10.9503
すごくいいです	-10.9505
荒い	-10.9506
覆	-10.9506
面で	-10.9507
無くて	-10.9507
使用方法	-10.9508
なじみ	-10.9515
振動	-10.9516
ネジを	-10.9521
王	-10.9522
領収書	-10.9522
テロテロ	-10.9522
株	-10.9523
の対応も	-10.9523
上部	-10.9524
まとまり	-10.9525
楽チン	-10.9527
の息子に	-10.9527
入力	-10.9532
降	-10.9532
干す	-10.9534
備考欄に	-10.9535
こども	-10.9537
,10	-10.954
店頭	-10.954
透明感	-10.9541
売り切れで	-10.9541
セン	-10.9545
あた	-10.9545
適	-10.9546
易く	-10.9546
意味が	-10.9547
祖母	-10.9548
エル	-10.9549
ウィ	-10.955
棚板	-10.9551
みえます	-10.9551
代の	-10.9552
わかりませんでした	-10.9553
痛くない	-10.9556
にしようか	-10.9556
年前に	-10.9556
扱って	-10.9556
買えた	-10.9556
一品	-10.9557
いけません	-10.9558
キン	-10.9559
ってる	-10.9562
良いですよ	-10.9563
理由は	-10.9564
中途半端な	-10.9565
鉛筆	-10.9565
可能な	-10.9566
豆乳	-10.9566
はき心地	-10.957
しっかりしてて	-10.957
なくなったので	-10.9572
回しか	-10.9574
包んで	-10.9579
室内で	-10.9579
ンと	-10.958
▁T	-10.958
先生	-10.9588
円と	-10.9588
わけではない	-10.9589
まとめ	-10.9589
無くなる	-10.9589
が多かったので	-10.959
な感じでした	-10.9591
しょ	-10.9591
分かります	-10.9594
満点	-10.9594
とれました	-10.9596
こんなもんかな	-10.9597
購入から	-10.9598
輸入	-10.9598
つかず	-10.9601
穴に	-10.9603
んと	-10.9603
使用を	-10.9604
していないので	-10.9606
対応に	-10.9606
にはならない	-10.9607
土日	-10.9607
グローブ	-10.9608
ついに	-10.9608
名前が	-10.9608
タイマー	-10.9609
の割に	-10.9611
昼間	-10.9611
旅行用に	-10.9613
が雑	-10.9614
いいと思う	-10.9614
せん	-10.9616
交換しました	-10.9616
敷き	-10.9619
ようなもの	-10.9619
製品の	-10.962
めんどくさい	-10.9622
歳の子供	-10.9624
画像通り	-10.9624
飲んでいる	-10.9626
一口	-10.9627
垂れ	-10.9628
悪すぎ	-10.9632
母へのプレゼント	-10.9633
を外して	-10.9634
第	-10.9636
買っても	-10.9637
こたつ	-10.9638
まとめ買いしました	-10.9643
パーマ	-10.9644
自分では	-10.9645
買い直し	-10.9645
付け替え	-10.9645
届いていません	-10.9647
胃	-10.9651
殻	-10.9651
復活	-10.9651
サクサク	-10.9651
不信感	-10.9651
ヘルメット	-10.9651
に向けて	-10.9653
確認した	-10.9655
あま	-10.9655
なったら	-10.9658
言われ	-10.9658
お薦め	-10.9659
美味	-10.9659
食べない	-10.966
何年も	-10.9662
の状態で	-10.9664
と聞いて	-10.9667
職場	-10.9667
かき	-10.9668
も良いし	-10.9671
長期	-10.9674
方がいいと思います	-10.9674
こんで	-10.9675
さない	-10.9677
破れました	-10.9679
リピート購入です	-10.9679
代わり	-10.9681
厚めの	-10.9682
頃に	-10.9683
ることができました	-10.9684
いい加減	-10.9687
底の	-10.9688
ポケットも	-10.9688
対象	-10.9689
も欲しくなりました	-10.9689
難しいです	-10.9691
チワワ	-10.9694
施工	-10.9694
佐川	-10.9695
なるほど	-10.9696
の種類	-10.9697
多め	-10.9698
の生地	-10.97
しまいましたが	-10.9704
バランスが	-10.9704
・・・?	-10.9705
取れず	-10.9706
このショップで	-10.9707
辛さ	-10.9708
るだけ	-10.9711
香水	-10.9711
外側の	-10.9712
よー	-10.9712
当日に	-10.9712
に最適	-10.9713
この量	-10.9713
あいて	-10.9714
みたのですが	-10.9714
寒く	-10.9715
がいっぱい	-10.9716
座布団	-10.9718
かどうかは	-10.9719
ーい	-10.9721
ないような	-10.9721
青い	-10.9725
決め手	-10.9725
状態に	-10.9725
小銭	-10.9726
と後悔しています	-10.9726
〜〜〜	-10.9727
柔らかいので	-10.9728
着てみると	-10.9729
仕方ないかな	-10.9732
ヶ月の	-10.9732
画質	-10.9733
気に入っているので	-10.9733
良いのか	-10.9734
運送会社	-10.9735
全ての	-10.9736
センチですが	-10.9737
分けて	-10.9737
姪っ子	-10.9738
一人暮らし	-10.9738
ヤマト	-10.9739
脱ぐ	-10.9739
値段相当	-10.9741
5%	-10.9747
か心配です	-10.975
変形	-10.9754
おいしくて	-10.9754
のですか	-10.9761
植物	-10.9762
は非常に	-10.9762
どうせ	-10.9763
ガラスの	-10.9764
タンクトップ	-10.9766
大丈夫な	-10.9767
だね	-10.9769
感想です	-10.9769
本も	-10.9769
ため購入しました	-10.9772
めちゃ	-10.9772
焼	-10.9773
ってこと	-10.9776
違う商品	-10.9776
位置に	-10.9776
ぶら	-10.9777
履かない	-10.9779
カサカサ	-10.9782
おにぎり	-10.9782
ビニール袋	-10.9782
落下	-10.9783
はるかに	-10.9784
んですかね	-10.9785
の匂いが	-10.9787
本棚	-10.9787
子どもに	-10.9787
リピ買い	-10.9789
たくて購入しました	-10.9794
ちょ	-10.9796
画像で	-10.9796
買うなら	-10.9802
厚みも	-10.9803
^_^;	-10.9804
ける	-10.9805
したかったので	-10.9805
あきらめました	-10.9807
がイマイチ	-10.9809
過ぎた	-10.981
リボンの	-10.9811
切れない	-10.9811
私の場合は	-10.9811
最近の	-10.9813
と言い	-10.9813
在庫あり	-10.9816
だか	-10.9816
かわり	-10.9817
販売している	-10.9819
時から	-10.982
商品が届いた	-10.9821
割に	-10.9824
宅急便	-10.9825
値段通り	-10.9825
生姜	-10.9825
酸っぱい	-10.9825
よろこんで	-10.9825
ヒリヒリ	-10.9826
有料	-10.9826
馴染む	-10.9827
オーバー	-10.9827
買うこと	-10.983
える	-10.9832
の一言	-10.9834
まん	-10.9834
値段以上の	-10.9834
身体	-10.9837
はく	-10.9838
かばん	-10.9839
皆様	-10.984
6000	-10.9842
がっちり	-10.9846
してもらい	-10.9847
月中旬	-10.9847
内で	-10.9848
を切って	-10.985
贈る	-10.985
明るくて	-10.985
になるし	-10.9852
折り返し	-10.9857
枯れ	-10.9857
するのも	-10.9858
筒	-10.986
感じられませんでした	-10.9861
使いたいです	-10.9863
実際には	-10.9865
どのくらい	-10.9865
が届いて	-10.9867
になると思います	-10.9869
南	-10.9869
バニラ	-10.9869
特徴	-10.9869
小さ目	-10.9869
サングラス	-10.9871
また買います	-10.9871
こちらに決めました	-10.9872
なってきた	-10.9874
かもしれないです	-10.9877
ヒビ	-10.9878
ローション	-10.988
やす	-10.988
..,	-10.988
ストッパー	-10.9882
週間くらい	-10.9883
ぉ	-10.9885
気に入っている	-10.9885
屋で	-10.9885
酸	-10.9885
してくれた	-10.9886
鮮やかな	-10.9888
いたします	-10.9888
親戚	-10.9889
中古品	-10.989
枚購入しました	-10.989
っとした	-10.9891
入っています	-10.9891
想像していたより	-10.9891
何でも	-10.9892
あくまで	-10.9893
へん	-10.9893
より少し	-10.9893
等を	-10.9894
25.5	-10.9897
隠し	-10.9897
チャン	-10.9897
うえ	-10.99
期待しましたが	-10.9902
してもらえる	-10.9904
手触りが	-10.991
時間に	-10.9911
履き心地が	-10.9912
したかったのですが	-10.9913
リクライニング	-10.9913
重宝	-10.9914
矯正	-10.9914
糊	-10.9914
エナメル	-10.9914
紫外線	-10.9914
BOX	-10.9914
長男	-10.9915
無駄な	-10.9915
サイズ選び	-10.9915
早いし	-10.9919
おきます	-10.9919
175	-10.9919
返品しました	-10.992
前回購入した	-10.992
足も	-10.9922
本物の	-10.9923
迅速な対応ありがとうございました	-10.9923
入っており	-10.9924
色合いは	-10.9926
プリ	-10.9927
てから	-10.9927
にとっては	-10.9928
台目	-10.9928
位置が	-10.9929
止める	-10.9929
友達にも	-10.9931
の部分の	-10.9932
書いてあった	-10.9935
柔らか	-10.9937
しばらくは	-10.9937
いつまでも	-10.9937
着心地も	-10.9938
と書いてあった	-10.9942
固定する	-10.9944
だとおもいます	-10.9945
出来ないので	-10.9945
分を	-10.9947
入れられる	-10.9949
おススメ	-10.995
立てて	-10.9952
をオススメします	-10.9953
海外旅行	-10.9955
半日	-10.9956
上げて	-10.9957
波	-10.9958
キャンペーン	-10.9958
多すぎ	-10.9958
浸透	-10.9958
ざんねん	-10.9958
イニシャル	-10.9958
遊ぶ	-10.9959
塗る	-10.9959
裁断	-10.996
勿論	-10.9962
うちの子	-10.9963
希望の	-10.9963
棚の	-10.9963
に置く	-10.9969
ばかりなので	-10.9971
終わって	-10.9971
どれだけ	-10.9972
走行	-10.9973
盛	-10.9975
写真も	-10.9975
梱包の	-10.9976
と思って購入しました	-10.9978
スタ	-10.9979
使うの	-10.998
純正の	-10.998
早々に	-10.998
交換する	-10.998
が大好きなので	-10.998
おいしさ	-10.9981
では無い	-10.9983
と感じます	-10.9984
をしても	-10.9985
ほうがいい	-10.9986
レー	-10.9987
こま	-10.9988
が違います	-10.999
着やすい	-10.999
SD	-10.999
使いこなせ	-10.9991
が楽しみ	-10.9991
股下	-10.9993
目隠し	-10.9994
可愛いくて	-10.9995
コネクタ	-10.9996
入荷待ち	-10.9999
一緒に買った	-11
飲み物	-11
終わりました	-11
結婚式で	-11
を想像して	-11.0001
クラブ	-11.0002
の確認	-11.0002
管	-11.0002
仮	-11.0003
すばらしい	-11.0003
ウッド	-11.0004
写真に	-11.0004
無かったので	-11.0004
卒業式	-11.0004
は何	-11.0005
粉末	-11.0005
我が家	-11.0007
カーブ	-11.0008
なんだろう	-11.0008
にしたい	-11.0009
大変な	-11.0009
して頂きました	-11.0009
個で	-11.001
購入時	-11.0012
選	-11.0012
を置いて	-11.0012
短いです	-11.0013
今の時期	-11.0013
大体	-11.0014
とのことですが	-11.0015
トレー	-11.0016
いった	-11.0016
汚く	-11.0016
黄色い	-11.0017
帰り	-11.0018
ラバー	-11.0019
驚きです	-11.0019
よかったのに	-11.0022
東京	-11.0023
状の	-11.0025
お店から	-11.0027
を置く	-11.0028
溶けて	-11.0029
のではないかと思います	-11.0029
本体を	-11.003
はなかった	-11.003
片方の	-11.003
を見る	-11.0033
リピしたいです	-11.0034
82	-11.0034
サビ	-11.0035
のだろう	-11.0035
降り	-11.0036
のところ	-11.0037
させてもらいました	-11.0037
今回購入した	-11.0039
どこの	-11.0039
明るいです	-11.0039
押	-11.0039
品が	-11.0042
がほしい	-11.0043
購入していましたが	-11.0043
どんなに	-11.0043
返し	-11.0047
予算	-11.0048
ストーリー	-11.0048
てしまって	-11.0048
人参	-11.0049
期待してた	-11.005
ことにします	-11.0051
許容範囲	-11.0052
頂く	-11.0052
妊娠中	-11.0052
だったので購入しました	-11.0054
まない	-11.0055
プレゼントの	-11.0057
お手頃価格	-11.0059
ご連絡	-11.0059
個体差	-11.006
気に入っていたので	-11.0061
あげた	-11.0062
感じも	-11.0063
とっても可愛い	-11.0063
食べたら	-11.0064
箱を開けて	-11.0064
リップ	-11.0065
強め	-11.0066
とろ	-11.0067
錆び	-11.0068
会社に	-11.0069
入っておらず	-11.0071
使いたかったので	-11.0071
うす	-11.0071
ネットショッピング	-11.0072
に少し	-11.0072
迷い	-11.0072
疑問です	-11.0072
痩せて	-11.0074
使いやすいと思います	-11.0074
をしたら	-11.0074
あきらめて	-11.0075
もう一	-11.0075
大事な	-11.0075
仕	-11.0077
取り替え	-11.0078
そこ	-11.0079
お正月	-11.0082
見てみると	-11.0085
透け感	-11.0085
のはずが	-11.0086
錆	-11.0087
冷たく	-11.0087
順	-11.009
開梱	-11.0093
コサージュ	-11.0093
提供	-11.0093
ヽ	-11.0093
運ぶ	-11.0093
にくいので	-11.0094
裏側	-11.0095
釣り	-11.0096
冬場	-11.0097
似合う	-11.0098
の表記	-11.0101
難点	-11.0105
たくなりました	-11.0106
見た目の	-11.0107
なのと	-11.0107
磨き	-11.0108
テープで	-11.0109
日に届きました	-11.0109
空き	-11.011
もせず	-11.0113
銀	-11.0114
気に入りましたが	-11.0115
確認しなかった	-11.0116
同様の	-11.0117
同じサイズ	-11.0118
高いと思います	-11.0119
人なら	-11.0119
かみ	-11.0122
とても綺麗で	-11.0122
SS	-11.0123
はいつも	-11.0124
置いた	-11.0126
!?,	-11.0128
もなし	-11.0128
国内	-11.013
巻く	-11.0131
が若干	-11.0132
載せて	-11.0134
期待して購入しましたが	-11.0134
紐を	-11.0136
着丈	-11.0137
Q	-11.0138
ケージ	-11.0139
貧弱	-11.0139
済む	-11.014
とても早く	-11.014
切ら	-11.014
もらいましたが	-11.0142
干	-11.0143
とても残念	-11.0143
慣れれば	-11.0145
したまま	-11.015
短いので	-11.015
作りに	-11.015
立つ	-11.0151
まつ毛	-11.0154
やわらか	-11.0154
ブラウンを購入しました	-11.0156
食べ物	-11.016
壁紙	-11.0161
電池の	-11.0164
分は	-11.0165
が付いている	-11.0166
がなかなか	-11.0171
粘着力	-11.0174
紙が	-11.0177
歯磨き	-11.018
きって	-11.0182
箱を	-11.0183
イヤホン	-11.0183
気がして	-11.0184
ベビーカー	-11.0184
一晩	-11.0187
かっこよく	-11.0188
方がいい	-11.0189
ナイ	-11.019
ブラウンを購入	-11.0191
総	-11.0191
作りもしっかりしていて	-11.0191
保証書	-11.0192
カフェ	-11.0192
でこの価格は	-11.0194
音量	-11.0197
可愛いですが	-11.0198
値段を考えると	-11.02
まい	-11.02
模様が	-11.0207
日ほど	-11.0208
気持ち良く	-11.0208
シートを	-11.0209
飲め	-11.021
冬に	-11.0211
のイメージ	-11.0212
∀`)	-11.0212
本体と	-11.0212
使いづらいです	-11.0213
うえに	-11.0217
と言っても	-11.0219
感じですが	-11.022
ランク	-11.0221
擦れて	-11.0221
ジム	-11.0222
強力	-11.0222
が入っていた	-11.0223
シンプルなデザイン	-11.0223
安いですが	-11.0224
流れ	-11.0225
見えるので	-11.0226
すごくいい	-11.0227
おむつ	-11.0229
なじんで	-11.0229
使えないので	-11.023
プッシュ	-11.023
何処	-11.0232
と書いてありましたが	-11.0232
ありえません	-11.0233
夏場は	-11.0233
かっこ	-11.0234
後悔してます	-11.0235
この夏	-11.0236
隠れて	-11.0236
が苦手な	-11.0236
育	-11.0237
どこが	-11.0238
生地です	-11.024
^*)	-11.0241
数時間	-11.0243
親指	-11.0245
傷がありました	-11.0245
全面	-11.0246
気分が	-11.0248
首元	-11.025
ョ	-11.025
横幅が	-11.0253
個は	-11.0253
余裕がある	-11.0256
大正解	-11.0256
少し小さい	-11.0257
数年	-11.0262
なっていました	-11.0262
独	-11.0263
初めての購入	-11.0263
再生	-11.0265
合います	-11.0265
51	-11.0266
価格も安く	-11.0267
実家の	-11.0268
(2	-11.0268
コンパクトに	-11.027
の臭い	-11.0271
た瞬間	-11.0272
人と	-11.0274
アジャスター	-11.0275
ゴージャス	-11.0275
甥っ子	-11.0275
ガサガサ	-11.0275
いいなぁ	-11.0275
おばさん	-11.0275
イチゴ	-11.0275
状態が	-11.0275
な気がします	-11.0276
器具	-11.0276
大きさの	-11.0276
お返し	-11.0278
日常	-11.0278
んだり	-11.0279
手首	-11.028
できそう	-11.028
ルーム	-11.028
押せ	-11.0283
水玉	-11.0285
固さ	-11.0286
商品到着まで	-11.0287
中身の	-11.0287
だったんですが	-11.0288
トライ	-11.0289
買い物を	-11.0293
が取れて	-11.0293
黒を購入しました	-11.0293
きめ	-11.0294
廃棄	-11.0294
すべり	-11.0294
安く購入できて	-11.0295
怒り	-11.0296
があまり	-11.0297
足の甲	-11.0298
届いて早速	-11.0299
気持ち悪い	-11.03
ピンクが	-11.03
検討中	-11.0302
えっ	-11.0305
ないで	-11.0305
有りません	-11.0307
精度	-11.031
電源が	-11.0311
とおもって	-11.0311
記載されて	-11.0316
長持ちする	-11.0316
楽になりました	-11.0317
子が	-11.0318
はもう	-11.0318
決め	-11.0318
着圧	-11.0319
目安	-11.032
信じられない	-11.0321
もう少し大きい	-11.0321
程度です	-11.0322
日々	-11.0322
縫われて	-11.0324
少し高い	-11.0324
には向かない	-11.0328
丈が短い	-11.0329
合わせる	-11.033
納得です	-11.033
落ち着いた色で	-11.0331
考えます	-11.0334
使えそうな	-11.0334
時期に	-11.0335
嬉しいですね	-11.0337
を聞いて	-11.0337
▁1,,"	-11.0338
緩め	-11.0339
円なら	-11.0339
気になりますが	-11.0342
の内容	-11.0342
ノー	-11.0342
最悪の	-11.0347
したこと	-11.0349
ないまま	-11.0349
の花	-11.035
つまり	-11.0351
服を	-11.0352
カバー力	-11.0352
てしまうので	-11.0352
支障	-11.0353
ノリ	-11.0353
エン	-11.0355
小指	-11.0358
比べて	-11.0358
やすそう	-11.0359
押さえ	-11.0362
かける	-11.0362
除	-11.0363
だったかな	-11.0363
数ヶ月	-11.0367
バッチリです	-11.0367
補助	-11.0367
スケスケ	-11.0367
ゲット	-11.0368
そっち	-11.0368
テスト	-11.0369
水筒	-11.037
何となく	-11.037
次も	-11.0373
たまりません	-11.0374
きませんでした	-11.0375
好みです	-11.0376
ものすごい	-11.0376
記念	-11.0377
られませんでした	-11.038
これはこれで	-11.0381
おお	-11.0382
届いてみたら	-11.0385
頂ける	-11.0386
塗料	-11.0388
とメール	-11.0388
たれ	-11.039
ではないですが	-11.0392
プリン	-11.0393
円くらい	-11.0396
赤の	-11.0396
菓子	-11.0399
友人が	-11.0399
本です	-11.0399
・`)	-11.04
第一	-11.0403
グレーを購入しました	-11.0403
残念なことに	-11.0405
幅は	-11.0405
機能的	-11.0405
と感じる	-11.0406
の場合は	-11.0407
のほうは	-11.0408
他の方のレビューで	-11.0409
消耗品なので	-11.0411
バッグに	-11.0411
オール	-11.0412
原材料	-11.0414
スチーム	-11.0414
思ってた以上に	-11.0414
いつの間にか	-11.0416
いまひとつ	-11.0416
プリンター	-11.0417
気付いた	-11.0417
どうやら	-11.0418
かゆみ	-11.0418
ウール	-11.0419
感じられません	-11.0419
すり	-11.0419
週末	-11.042
ふち	-11.042
縫い付け	-11.0422
良ければ	-11.0423
二度	-11.0424
ランド	-11.0427
ベージュを購入しました	-11.0432
期待は	-11.0433
するとき	-11.0434
小粒	-11.0436
方が良いと思います	-11.0437
この品質	-11.0437
拭いて	-11.0438
たかったのですが	-11.0438
左側	-11.0438
回目です	-11.0439
可愛かった	-11.044
というところ	-11.044
を食べて	-11.0443
喜んでくれて	-11.0444
椅子の	-11.0445
肉が	-11.0445
フィット感が	-11.0445
っていました	-11.0448
怖いです	-11.045
らないと	-11.0451
に当たって	-11.0452
来ません	-11.0453
あん	-11.0455
裏面	-11.0456
難い	-11.0456
購入致しました	-11.0457
老	-11.0457
絶賛	-11.0458
美容	-11.0459
アメリカ	-11.0459
だと感じました	-11.046
人目	-11.046
栓	-11.046
シフォン	-11.046
世界	-11.046
取り付けは	-11.046
レッスン	-11.0461
アンテナ	-11.0461
さりげなく	-11.0461
宜しくお願いします	-11.0461
旦那の	-11.0461
お蔵入り	-11.0461
ライトが	-11.0462
ガードル	-11.0464
子供には	-11.0464
手放せません	-11.0464
が出来	-11.0465
父の日に	-11.0466
が沢山	-11.0466
対応で	-11.0466
Kg	-11.0468
大きくなって	-11.0469
と比較して	-11.0469
結び	-11.0469
ようか	-11.0472
こちらのお店は	-11.0472
みかん	-11.0473
品の	-11.0474
もちゃんと	-11.0474
の品	-11.0479
わけではないので	-11.0481
も十分	-11.0481
ちゃった	-11.0482
そのような	-11.0485
がいいので	-11.0489
履いている	-11.0492
の製品	-11.0493
交換の	-11.0499
注文時に	-11.05
つまみ	-11.05
犬の	-11.0505
ゆう	-11.0506
には合いませんでした	-11.0507
遅延	-11.0507
になれば	-11.0507
硬化	-11.0508
確保	-11.0508
ウェスト	-11.0508
下半身	-11.0508
シワシワ	-11.051
着替え	-11.051
困った	-11.0511
もしかして	-11.0512
水漏れ	-11.0514
こちらの商品を購入しました	-11.0514
いただく	-11.0515
わけで	-11.0516
かからず	-11.0518
感度	-11.0519
段階で	-11.0522
どこにも	-11.0524
かも知れませんが	-11.0525
ひざ	-11.0526
実用	-11.0527
ご対応	-11.0528
混ぜて	-11.053
ぜ	-11.053
買えない	-11.0531
の割には	-11.0532
影響	-11.0533
も豊富で	-11.0536
ばかりです	-11.0536
お手軽	-11.0537
吸盤	-11.0538
ブランドの	-11.0539
星一つ	-11.0539
がほしくて	-11.054
買った方が	-11.0543
着ない	-11.0544
二度と買わない	-11.0545
たま	-11.0547
色味は	-11.0547
不評でした	-11.055
(^^;)	-11.0551
荒れ	-11.0551
持続	-11.0553
真冬	-11.0554
戸	-11.0554
肘	-11.0554
z	-11.0554
貝	-11.0554
カバーに	-11.0554
にびっくり	-11.0556
くすんで	-11.0556
数日で	-11.0556
モード	-11.0556
履きます	-11.056
結果的に	-11.056
急な	-11.0561
と言えば	-11.0561
曲がり	-11.0562
色目	-11.0564
糸の	-11.0569
ーーー	-11.0569
するときに	-11.057
このお値段でこの	-11.0571
との事でした	-11.0571
商品レビュー	-11.0574
待ちました	-11.0577
らなくて	-11.0579
鼻の	-11.0583
破	-11.0584
受け取りました	-11.0585
接	-11.0585
購入してます	-11.0587
があるのか	-11.0587
開始	-11.0597
中途半端	-11.0598
層	-11.0599
使い物になりませんでした	-11.0601
とても喜んで	-11.0601
Good	-11.0602
竹	-11.0602
ネクタイ	-11.0602
ハーブ	-11.0602
すんなり	-11.0603
こまめに	-11.0603
を確認	-11.0603
ネイビーを購入しました	-11.0605
もっちり	-11.0607
んど	-11.0608
ウェア	-11.0609
部分だけ	-11.0613
説明が	-11.0613
の購入は	-11.0616
の上で	-11.0616
を探し	-11.0618
他の方が	-11.0619
画像とは	-11.0619
を着て	-11.0619
使っているうちに	-11.062
いたのが	-11.0625
封	-11.0627
は大変	-11.0629
ちょうどいいサイズ	-11.0629
のだと思います	-11.0629
試してみました	-11.0629
その間	-11.0631
をお	-11.0634
終わる	-11.0635
交換してもらいました	-11.0635
履かせ	-11.0637
他店より	-11.0637
うすい	-11.0638
間に合わない	-11.0638
年くらい	-11.0638
はまったく	-11.0638
違うので	-11.0638
リピートは	-11.0639
どれくらい	-11.0644
てよかったです	-11.0645
撥水	-11.0648
ウレタン	-11.0649
漢字	-11.065
珈琲	-11.065
桃	-11.065
良い買い物をしました	-11.065
ゼリー	-11.0652
安いので仕方ない	-11.0653
ボン	-11.0654
カップが	-11.0656
洗い上がり	-11.0656
トル	-11.0656
○○	-11.0658
滑る	-11.0662
着たら	-11.0663
包	-11.0664
ないかも	-11.0665
脇の	-11.0668
均で	-11.0669
をおすすめします	-11.0671
状態で届きました	-11.0673
以前も	-11.0673
大好きで	-11.0674
は確かに	-11.0674
サイズ違い	-11.0676
、100	-11.0676
だと思うので	-11.0678
傷み	-11.0678
ほどけて	-11.0678
着ます	-11.0679
即購入	-11.068
きたら	-11.068
まさかの	-11.068
なかったけど	-11.0681
動物	-11.0683
あると思います	-11.0683
仕方ないのかな	-11.0684
初購入	-11.0685
つ購入しました	-11.0686
シン	-11.0686
スマホの	-11.069
相手に	-11.069
二週間	-11.069
大きかったので	-11.0693
回も	-11.0693
カウンター	-11.0697
裏が	-11.0698
昆布	-11.0698
並み	-11.0699
不良品で	-11.0699
機器	-11.07
へこみ	-11.07
不安でした	-11.0702
見れば	-11.0704
があったのですが	-11.0704
できるし	-11.0705
お得に	-11.0706
てくれる	-11.0706
数分	-11.0707
返って	-11.0707
お腹の	-11.0709
が有る	-11.071
ばかりの	-11.071
一度に	-11.071
こちらでは	-11.0711
このお店	-11.0711
品で	-11.0713
確認したところ	-11.0714
発送した	-11.0714
急ぎ	-11.0715
不向き	-11.0715
しているのですが	-11.0719
末	-11.072
に入った	-11.0721
に入る	-11.0721
合わなくて	-11.0722
晩	-11.0722
端が	-11.0723
閉める	-11.0723
かもしれませんね	-11.0723
使用してみて	-11.0723
メールの	-11.0724
肩紐	-11.0728
最高の	-11.0732
持	-11.0733
はいいけど	-11.0733
落ち着いた色	-11.0734
かもしれないが	-11.0734
んでしょうね	-11.0736
余って	-11.0736
キツイです	-11.0737
誰も	-11.0738
あったのに	-11.074
敷き布団	-11.0741
ッツ	-11.0742
休	-11.0742
大事	-11.0743
車で	-11.0744
あう	-11.0745
郵便	-11.0745
乾燥して	-11.0746
熨斗	-11.0746
計算	-11.0746
出てきて	-11.0753
かに	-11.0753
質も	-11.0754
こんな感じ	-11.0754
とても喜んでいました	-11.0754
華奢な	-11.0755
しょうが	-11.0757
を探していましたが	-11.0758
土台	-11.0758
使おう	-11.0759
サイズ表記	-11.076
を確認して	-11.0761
まえ	-11.0762
ずーっと	-11.0762
スの	-11.0765
大変満足	-11.0765
よっぽど	-11.0765
茹で	-11.077
在庫がない	-11.0771
ずれる	-11.0772
あけて	-11.0777
置ける	-11.0778
が酷く	-11.0779
日本人	-11.0781
臭が	-11.0782
BB	-11.0782
伝え	-11.0783
速く	-11.0785
を使い	-11.0786
腐	-11.0786
ぽっちゃり	-11.0788
とても美味しいです	-11.0788
届いたのですが	-11.079
ボリュームが	-11.0792
リピは	-11.0792
がちょっと	-11.0793
インクが	-11.0793
膨らみ	-11.0794
記憶	-11.0794
アウター	-11.0794
羽織	-11.0794
但し	-11.0795
とてもかわいくて	-11.0796
デザインはとても	-11.0796
プレゼントとして購入しました	-11.0797
は初めてでした	-11.0797
購入すればよかった	-11.0799
た時	-11.08
この安さ	-11.0802
愛用してます	-11.0802
浸	-11.0804
お湯で	-11.0805
夜間	-11.0808
なっていて	-11.0809
高かったので	-11.0812
面倒で	-11.0813
内祝い	-11.0815
健康に	-11.0815
購入は	-11.0817
不便です	-11.0818
思い出	-11.0818
タイプのもの	-11.0818
飲み始めて	-11.0821
望	-11.0822
私には合わなかった	-11.0823
お歳暮	-11.0823
と思うほど	-11.0823
らせて	-11.0824
着ける	-11.0825
お盆	-11.0825
最高でした	-11.0826
お肌	-11.0827
ずっと欲しかった	-11.083
中国産	-11.0831
円位	-11.0831
嬉しかった	-11.0831
馬鹿	-11.0834
くれるので	-11.0835
本品	-11.0835
美味しくいただきました	-11.0837
大好きなので	-11.0839
まらない	-11.084
宅配便	-11.0841
るのが楽しみです	-11.0842
ワクワク	-11.0842
踵	-11.0842
催促	-11.0842
と購入しましたが	-11.0843
グル	-11.0843
がなかった	-11.0844
していませんが	-11.0845
入れられ	-11.0846
表示され	-11.0846
一般	-11.0848
邪魔にならない	-11.0851
好評です	-11.0851
また利用させていただきます	-11.0852
サイズにしました	-11.0852
ステキ	-11.0853
誤差	-11.0854
慣れるまで	-11.0855
工夫して	-11.0856
たため	-11.0857
商品を見て	-11.0858
費	-11.086
てきました	-11.0863
が増えて	-11.0863
新品の	-11.0863
めくれ	-11.0865
どー	-11.0866
かぶり	-11.0867
める	-11.0868
息	-11.0868
という点	-11.0868
そこから	-11.0869
耳の	-11.0871
ヶ月ほど	-11.0872
違っていて	-11.0873
も問題なく	-11.0874
黒は	-11.0874
商品の到着	-11.0874
ことと	-11.0875
ワンサイズ大きめ	-11.0875
気にいってます	-11.0877
くらいなら	-11.0877
遅いです	-11.0878
レンズが	-11.0878
じゃん	-11.0878
街	-11.0878
ヶ月以上	-11.0879
できますが	-11.0879
傷んで	-11.0881
数が	-11.0882
差し	-11.0883
個購入	-11.0883
につられて	-11.0884
画像で見るより	-11.0886
は絶対	-11.0886
だして	-11.0886
オフィス	-11.0887
シュー	-11.0888
しようと思って	-11.0889
になってました	-11.089
がよかったので	-11.0891
外反母趾	-11.0891
センチほど	-11.0891
フォーマル	-11.0891
泣き寝入り	-11.0891
エルゴ	-11.0892
のではないか	-11.0892
点滅	-11.0892
薄いし	-11.0892
経ちましたが	-11.0894
着ている	-11.0895
キーボード	-11.0895
000	-11.0895
思ってたよりも	-11.0895
思っていた通り	-11.0898
の形が	-11.09
手間が	-11.09
泣き	-11.09
色味も	-11.0901
規格	-11.0901
決済	-11.0901
着たい	-11.0903
できたら	-11.0905
において	-11.0906
まくって	-11.0907
取っ手が	-11.0913
押す	-11.0916
なにも	-11.0918
取り付けが	-11.0919
パイ	-11.092
とは言えない	-11.092
フリース	-11.0922
終え	-11.0925
基本的に	-11.0925
見ても	-11.0925
二本	-11.0927
受注	-11.0928
本人は	-11.0929
留	-11.093
はじめは	-11.0931
の商品を	-11.0933
厚手で	-11.0938
スマート	-11.0939
ふき	-11.0939
同僚	-11.094
のがいいですね	-11.094
ソーラー	-11.094
あす楽対応	-11.0941
レインブーツ	-11.0942
たつ	-11.0942
ることも	-11.0944
内容も	-11.0944
防止に	-11.0945
皮膚	-11.0947
タグが	-11.0947
シールを	-11.0948
お値段で	-11.0949
の穴が	-11.095
座り心地は	-11.095
となります	-11.0952
シートが	-11.0954
送料も無料	-11.0955
確認を	-11.0958
したのは	-11.0958
常備	-11.0959
ダイニング	-11.0959
が出ます	-11.0962
チャレンジ	-11.0964
www	-11.0965
有効	-11.0968
絵が	-11.097
点セット	-11.0971
利用して	-11.0971
届くのに	-11.0971
試す	-11.0972
ジャン	-11.0972
されておらず	-11.0974
子供達	-11.0974
良い買い物が出来ました	-11.0974
の意味	-11.0978
小さめでした	-11.098
整	-11.098
作り方	-11.0981
はなさそうです	-11.0981
魅力的	-11.0983
見えました	-11.0983
夫の	-11.0985
なと	-11.0985
可愛いデザイン	-11.0985
とってもかわいい	-11.0985
食パン	-11.0986
お香	-11.0987
友人から	-11.0989
ヨレヨレ	-11.099
主張	-11.099
歯ごたえ	-11.099
ワー	-11.099
値下げ	-11.099
何にでも	-11.099
する時に	-11.099
対応の	-11.0992
受信	-11.0993
あいませんでした	-11.0993
届くのも	-11.0993
このお店で	-11.0994
頃から	-11.0995
も多い	-11.0996
楽しみにしていた	-11.0998
といわれ	-11.0999
効果あり	-11.1
どこか	-11.1003
回目の購入	-11.1004
縮み	-11.1006
クマ	-11.1006
削り	-11.1007
秋冬	-11.1008
濡れた	-11.1009
不快	-11.1011
指先	-11.1013
度も	-11.1013
No	-11.1013
サイズが合わず	-11.1013
乾か	-11.1014
回目で	-11.1014
タンス	-11.1014
ながらも	-11.1014
なると	-11.1016
フラ	-11.1017
取った	-11.1019
映り	-11.102
が来て	-11.1021
実用的	-11.1022
衣	-11.1024
ままです	-11.1024
箇所が	-11.1025
イメージと違いました	-11.1025
位です	-11.1027
この大きさ	-11.1028
買うべき	-11.1028
ポイントも	-11.1028
手前	-11.103
変に	-11.1031
あわない	-11.1032
使うのは	-11.1032
お薦めです	-11.1032
手頃な	-11.1033
少量で	-11.1034
もないです	-11.1035
▁2,,3	-11.1037
かと思った	-11.1038
茎	-11.1039
AC	-11.1039
皺	-11.1039
舌	-11.1039
ボコボコ	-11.1039
お花を	-11.1039
八	-11.1039
硬め	-11.1039
セーター	-11.1039
普段使いには	-11.1039
ココア	-11.104
パーツが	-11.1042
以下の	-11.1044
積	-11.1044
しまったり	-11.1045
付いていて	-11.1045
と同時に	-11.1045
すぎました	-11.1045
また機会がありましたら	-11.1045
出来そうです	-11.1046
ショップの対応も	-11.1047
正面	-11.1054
を使っていて	-11.1056
誕生日プレゼントとして	-11.1056
のもので	-11.1056
無しです	-11.1057
いだ	-11.1057
また購入	-11.1057
楽でした	-11.1062
被	-11.1063
不明です	-11.1063
に問題がある	-11.1065
少しは	-11.1068
石油	-11.107
わけでもなく	-11.1072
を通す	-11.1073
買物	-11.1076
個入り	-11.1076
ようとしたら	-11.1077
とても助かります	-11.1077
出ません	-11.1078
雑です	-11.1078
餅	-11.1079
できている	-11.1081
を信じて	-11.1081
とても喜ばれました	-11.1081
家庭用	-11.1083
イライラ	-11.1084
安定して	-11.1085
たび	-11.1085
たか	-11.1087
低く	-11.1088
お店は	-11.1088
地震	-11.1089
パツパツ	-11.1089
為に購入しました	-11.109
で見て	-11.1091
面倒な	-11.1091
の一つ	-11.1092
ッカ	-11.1092
お任せ	-11.1092
欲しくなり	-11.1093
の付け根	-11.1093
っても	-11.1093
考慮	-11.1093
キッチンの	-11.1093
オススメできません	-11.1094
昔から	-11.1094
ジン	-11.1095
美しく	-11.1095
値上げ	-11.1095
席	-11.1097
せば	-11.1097
まともに	-11.11
ぺらぺら	-11.1102
単品	-11.1103
問題なかったです	-11.1103
見たい	-11.1104
同じ色	-11.1105
ダサい	-11.1106
私としては	-11.1106
淡い	-11.1107
可愛らしく	-11.1109
距離	-11.1109
裂けて	-11.1109
朝の	-11.111
人それぞれ	-11.1113
オススメしません	-11.1117
チェ	-11.1118
仕方ないですが	-11.1118
もついていて	-11.1118
モデルさんのように	-11.1119
楽天市場	-11.1119
分かりにくい	-11.1121
お安かったので	-11.1122
もなかなか	-11.1122
ポロポロ	-11.1123
いいね	-11.1123
も良いので	-11.1124
みえる	-11.1124
良さそうなので	-11.1125
ムリ	-11.1127
かといって	-11.1127
始めた	-11.1128
蒸し	-11.1129
いまいちです	-11.113
205	-11.1132
買	-11.1133
違いが	-11.1133
使用していません	-11.1134
駄目でした	-11.1137
―	-11.1138
ぼろぼろ	-11.1139
ステッカー	-11.1139
全体的には	-11.1139
指定日	-11.1139
高いですが	-11.114
密着	-11.114
くん	-11.1141
概ね	-11.1142
一品です	-11.1146
カラーで	-11.1148
抜け毛	-11.1148
た後	-11.1148
いるのが	-11.1149
売り切れだったので	-11.1152
生地を	-11.1152
妻の	-11.1153
字体	-11.1153
発送して	-11.1153
ことをお勧めします	-11.1154
鮮やかで	-11.1156
守	-11.1158
セル	-11.1158
とれません	-11.1159
自己	-11.1161
まれ	-11.1163
店舗に	-11.1163
と思えば	-11.1164
つ目	-11.1164
注文したので	-11.1169
購入したんですが	-11.117
発送しました	-11.1171
はないかと	-11.1171
染	-11.1171
れるので	-11.1172
ささ	-11.1172
にも使える	-11.1172
を付ける	-11.1175
午前中に	-11.1175
と考えています	-11.1176
こん	-11.1177
面が	-11.1179
工場	-11.1181
のですから	-11.1181
実物を見	-11.1182
の質	-11.1183
沈み	-11.1183
若い	-11.1184
が出来ない	-11.1186
市	-11.1187
触った	-11.1187
よけ	-11.119
台座	-11.1191
案外	-11.1191
利用させていただきました	-11.1193
評価が	-11.1193
活躍してくれそうです	-11.1194
この値段では	-11.1195
してほしかったです	-11.1197
測って	-11.1197
としての	-11.1197
虫が	-11.12
販売して	-11.12
方法が	-11.12
使用できません	-11.12
がすごい	-11.1204
食べます	-11.1204
をかけ	-11.1205
ブラウンの	-11.1206
胸元	-11.1208
るところ	-11.1209
ほか	-11.1209
友人へのプレゼント	-11.1211
ボー	-11.1212
痛みが	-11.1213
仕方ないですね	-11.1214
たのは	-11.1214
繊維が	-11.1214
なんでしょう	-11.1215
ゅ	-11.1216
二回	-11.1217
の時期	-11.1218
細いので	-11.122
他の方	-11.1221
が小さく	-11.1223
商品ページ	-11.1225
並	-11.1225
商品としては	-11.1226
使わず	-11.1226
ストラップが	-11.1229
チラ	-11.123
焼く	-11.123
明記	-11.1231
静か	-11.1233
二度と利用しません	-11.1234
グリーンの	-11.1235
指紋	-11.1235
葉が	-11.1235
菜	-11.1236
(*^	-11.1236
する予定です	-11.1238
ちょうど良く	-11.1238
錠	-11.1239
ホイール	-11.1239
病院で	-11.1239
ブラウス	-11.1239
時間がかかります	-11.124
ってしまう	-11.1243
▁1	-11.1244
湿疹	-11.1246
本人	-11.1246
午前中	-11.1247
かと思いきや	-11.1247
大きすぎず	-11.1247
売れ	-11.1247
105	-11.1248
をかける	-11.1249
しすぎて	-11.125
の中でも	-11.1252
ww	-11.1254
派手な	-11.1254
高い買い物でした	-11.1254
次の日には	-11.1254
組み立ても簡単で	-11.1254
何よりも	-11.1257
ちょっとがっかり	-11.1259
正月	-11.126
袋は	-11.126
かず	-11.1262
良くないです	-11.1263
隠れ	-11.1263
定期	-11.1263
剥がし	-11.1265
こみ	-11.1265
あくまでも	-11.1265
は全然	-11.1266
買おうか	-11.1266
使うのに	-11.1266
購入しようか	-11.1267
程で	-11.1267
わんこ	-11.1267
とても良いと思います	-11.1268
たのか	-11.127
反省	-11.127
レベルの	-11.1271
いっ	-11.1271
を間違えて	-11.1272
発送が遅い	-11.1275
ショップは	-11.1276
死	-11.128
しっかりしているし	-11.1282
何で	-11.1282
151	-11.1283
音がします	-11.1284
寄	-11.1285
に取り付け	-11.1288
ませんでしたが	-11.1289
松	-11.129
オプション	-11.129
マタニティ	-11.129
荷	-11.1292
そのままでは	-11.1292
番組	-11.1293
取れます	-11.1293
誰か	-11.1296
残りは	-11.1296
現	-11.1301
したような	-11.1303
あす楽で	-11.1305
形に	-11.1308
余計な	-11.1308
つけても	-11.1308
れず	-11.1308
風邪	-11.1309
信	-11.1312
走り	-11.1313
ベタ	-11.1315
品物でした	-11.1315
安いの	-11.1315
有難いです	-11.1316
方で	-11.1317
▁1,,1	-11.1321
わり	-11.1321
使う予定	-11.1321
it	-11.1325
シェ	-11.1326
を作りました	-11.1326
食べさせ	-11.1327
それより	-11.133
入れられて	-11.133
安かったから	-11.1331
いい商品だと思います	-11.1334
においも	-11.1335
然	-11.1338
何とも	-11.1339
値段的に	-11.134
タバコ	-11.134
背中が	-11.134
使いますが	-11.134
くれれば	-11.1341
あるけど	-11.1341
ことはない	-11.1341
モチーフ	-11.1341
姪	-11.1341
サプライズ	-11.1341
不在	-11.1341
パリパリ	-11.1341
マンゴー	-11.1341
ピザ	-11.1343
チェックして	-11.1344
湿	-11.1345
日目で	-11.1346
にくくて	-11.1347
イカ	-11.1347
\(^	-11.1348
グレーを購入	-11.1349
りする	-11.1351
女子	-11.1353
要らない	-11.1355
コシ	-11.1357
つや	-11.1357
注文します	-11.1358
継続して	-11.1358
感じられず	-11.1359
にあった	-11.136
だったようです	-11.1362
持ち手の	-11.1362
ヒモ	-11.1363
たくなります	-11.1364
高額	-11.1364
ro	-11.1365
つけられ	-11.1365
変化なし	-11.1366
か心配でしたが	-11.1366
発表会	-11.1367
合わ	-11.137
心配していましたが	-11.137
歳の娘に	-11.1371
再販	-11.1371
増え	-11.1375
を覚え	-11.1376
発送の	-11.1376
交換を	-11.1376
しょう	-11.1378
のバランス	-11.1379
きれない	-11.1381
路	-11.1386
なぁと思いました	-11.1387
つと	-11.1389
商品ですが	-11.1391
新居の	-11.1391
はちみつ	-11.1392
七	-11.1392
詳しい	-11.1392
(*_*)	-11.1393
交換品	-11.1393
殺	-11.1393
制限	-11.1393
剥がす	-11.1393
スーパーセール	-11.1393
いい買い物でした	-11.1393
ヘタ	-11.1396
のが難点	-11.1397
操作性	-11.1397
プラグ	-11.1397
着きました	-11.1398
となる	-11.1398
足りなかった	-11.1402
造	-11.1403
との連絡	-11.1404
開封した	-11.1404
制服	-11.1408
が良いので	-11.1408
月末	-11.141
を着る	-11.1411
になっており	-11.1411
して欲しかったです	-11.1412
なのでしょう	-11.1416
とれない	-11.1418
荒	-11.1418
天板の	-11.1418
届いてみて	-11.1419
写真通りの	-11.1419
の値段	-11.1421
を変え	-11.1422
利用したいです	-11.1424
利用します	-11.1425
半分くらい	-11.1425
気に入ってくれました	-11.1426
置くと	-11.1426
が悪くて	-11.1426
暗め	-11.1427
ーと	-11.1428
またお願いします	-11.1431
問題はない	-11.1437
アダプタ	-11.1438
指に	-11.1438
カットして	-11.1439
くれません	-11.1442
みれば	-11.1443
ケット	-11.1444
離乳食	-11.1444
揃え	-11.1444
自立	-11.1445
日焼け止め	-11.1445
のものより	-11.1445
お尻の	-11.1447
仲間	-11.1447
折角	-11.1449
時間がかかり	-11.145
くなる	-11.1452
はきやすい	-11.1452
ブロック	-11.1452
ベージュを購入	-11.1453
同時購入	-11.1455
車内	-11.1456
の臭いが	-11.1459
が多いです	-11.146
内容で	-11.1463
余裕があります	-11.1465
クル	-11.1466
ホコリが	-11.1471
品質に	-11.1471
週間も	-11.1474
即購入しました	-11.1475
現在は	-11.1476
明け	-11.1476
感じなので	-11.1476
を探す	-11.1476
ための	-11.1478
立派	-11.1479
この製品	-11.1479
眠	-11.1479
はみ出て	-11.148
希望通り	-11.1481
このセット	-11.1481
再度購入	-11.1483
洗うと	-11.1483
ような感じです	-11.1483
ブログ	-11.1486
にして正解でした	-11.1486
しようと思い	-11.1487
念のため	-11.1488
チャコール	-11.1488
疑	-11.1489
買いなおし	-11.149
のようでした	-11.149
が無かった	-11.1491
が悪かったのか	-11.1493
ゾ	-11.1493
すご	-11.1494
かたい	-11.1495
にしています	-11.1495
やり方	-11.1495
マラソン	-11.1496
だら	-11.1496
なれ	-11.1496
月上旬	-11.1496
知識	-11.1496
バルーン	-11.1496
じっくり	-11.1496
兄	-11.1496
明るさは	-11.1496
大活躍です	-11.1496
----------------	-11.1496
適度に	-11.1496
するのですが	-11.1497
イメージしていた	-11.1497
キーホルダー	-11.1497
つけたら	-11.1497
再び	-11.1499
ネット購入	-11.1499
ウエスト部分	-11.15
寿命	-11.1502
事故	-11.1503
検索して	-11.151
きつかった	-11.1512
中身も	-11.1514
ないこと	-11.1514
自宅の	-11.1515
を求める	-11.1515
ネイビーの	-11.1519
にくそう	-11.1519
追記します	-11.1523
履いてます	-11.1524
書体	-11.1524
を飲んで	-11.1525
遊んでいます	-11.1527
で売っている	-11.1528
扉の	-11.1529
してみて	-11.1531
写真で見た	-11.1537
鳴	-11.1538
が変わって	-11.1538
別物	-11.1539
パッと見	-11.154
しないし	-11.1541
使っていない	-11.1541
に合わせ	-11.1546
買っています	-11.1547
園	-11.1547
治療	-11.1547
マスカラ	-11.1548
溶接	-11.1549
なんといっても	-11.1549
ハゲ	-11.1549
半額で	-11.1549
悔しい	-11.1551
大判	-11.1552
続	-11.1553
寝る前に	-11.1553
マッチ	-11.1553
体を	-11.1554
サイズ交換	-11.1556
浅	-11.1557
やめて	-11.1558
探していて	-11.1558
を知り	-11.1558
枯れて	-11.1559
のときに	-11.1559
に挑戦	-11.156
好みの問題	-11.156
二の腕	-11.1564
最大	-11.1566
かったのですが	-11.1567
寄せ	-11.1569
楽しみにしていたので	-11.1569
経済的	-11.1569
も購入	-11.157
甘すぎ	-11.1571
あがり	-11.1572
キツくて	-11.1572
の厚み	-11.1573
のみの	-11.1574
サイズでした	-11.1575
思っています	-11.1575
時間がかかった	-11.1578
見やすい	-11.1579
父親	-11.1579
同じく	-11.158
たべ	-11.158
パーティ	-11.1581
た感じ	-11.1583
くれない	-11.1583
説明書に	-11.1586
僕	-11.1587
で買いました	-11.1588
やすいし	-11.1591
購入すれば良かった	-11.1595
普通でした	-11.1598
の対応が	-11.1599
送料込で	-11.16
ボレロ	-11.1601
カッコ	-11.1601
薄すぎて	-11.1601
対処	-11.1602
ドラマ	-11.1603
探す	-11.1603
ント	-11.1604
ゲル	-11.1604
そうと	-11.1604
嬉しく	-11.1605
組み立てた	-11.1605
もあった	-11.1605
所は	-11.1606
思いっきり	-11.1606
程よく	-11.1606
事情	-11.1607
あっ	-11.1608
買いたいです	-11.161
暑さ	-11.1612
PS	-11.1612
問題ないのですが	-11.1612
布団の	-11.1617
にはなりません	-11.162
の方の	-11.1622
収納できる	-11.1622
は無いです	-11.1624
靴下を	-11.1624
いい感じで	-11.1624
鮮度	-11.1625
一つは	-11.1628
みえ	-11.1631
返事が	-11.1631
タオルを	-11.1631
炊き	-11.1632
中も	-11.1633
ゴールドの	-11.1635
なりますが	-11.1636
よりかなり	-11.1637
要注意	-11.1637
様々な	-11.1638
しっかりしてる	-11.1639
合った	-11.164
初日	-11.1641
は買いません	-11.1642
ではないと思います	-11.1642
を飲む	-11.1644
を見ながら	-11.1644
意識	-11.1645
便利でした	-11.1645
直後	-11.1649
袖丈	-11.1652
これだと	-11.1653
オーブン	-11.1653
それ以上	-11.1653
蜜	-11.1653
ビジュー	-11.1653
ひっくり返	-11.1653
お話	-11.1653
助かる	-11.1653
部分から	-11.1654
欲しいな	-11.1655
ハウス	-11.1657
かと思っていましたが	-11.1657
代引き	-11.1658
さず	-11.1658
いろ	-11.1659
雨の日に	-11.1659
千	-11.1663
ウチの	-11.1663
空間	-11.1664
充実	-11.1664
くと	-11.1664
00	-11.1665
おいしそう	-11.1666
てしまったので	-11.1667
知人に	-11.1668
洗濯後	-11.167
度目の	-11.167
素材なので	-11.1672
ありませんが	-11.1673
も含めて	-11.1674
そこだけ	-11.1674
頼んだのに	-11.1674
願	-11.1676
はいいですが	-11.1676
と書いてありますが	-11.1677
風で	-11.1679
2012	-11.168
^^,	-11.1681
賞	-11.1682
なりましたが	-11.1682
ッド	-11.1683
香りです	-11.1684
聞く	-11.1684
ここは	-11.1685
生地が薄くて	-11.1687
狭く	-11.1688
やる	-11.1692
書いている	-11.1692
枚も	-11.1694
する時	-11.1694
スタッフ	-11.17
記事	-11.1701
すぐに届いて	-11.1704
してもらった	-11.1704
品物も	-11.1705
わたしには	-11.1705
恐らく	-11.1706
あきらめ	-11.1706
上半身	-11.1706
券	-11.1706
引っ張って	-11.1706
いい感じに	-11.1708
するつもりです	-11.1708
頼りない	-11.1708
腰の	-11.1709
を探していたのですが	-11.171
につける	-11.171
懐かしい	-11.1715
いきました	-11.1717
ポイントで	-11.1717
の強い	-11.1719
者の	-11.1721
なだけに	-11.1721
寄り	-11.1727
紐の	-11.1727
キャリー	-11.1728
食い	-11.1729
対応して	-11.1731
文字盤	-11.1731
ステッチ	-11.1734
贈	-11.1738
外箱	-11.1741
増えて	-11.1743
わず	-11.1743
と考え	-11.1744
アプリ	-11.1744
に装着	-11.1744
開かない	-11.1746
方々	-11.1746
来客	-11.1746
悪くないです	-11.1747
が出た	-11.1747
説明文	-11.1748
しわが	-11.1751
が入ってる	-11.1751
悲しいです	-11.1753
義父	-11.1753
に贈りました	-11.1753
今日は	-11.1755
みたいと思います	-11.1756
入ってなかった	-11.1757
旅	-11.1758
テカテカ	-11.1758
リキッド	-11.1759
害	-11.1759
更新	-11.1759
ラウンド	-11.1759
良かったら	-11.176
ところどころ	-11.1761
大丈夫か	-11.1761
を開けて	-11.1761
着やすいです	-11.1762
着用する	-11.1762
はほぼ	-11.1762
枚購入	-11.1763
気にいりました	-11.1763
驚くほど	-11.1765
厚め	-11.1766
かもしれないけど	-11.1766
薄い生地	-11.1768
確認不足	-11.1769
ハン	-11.1769
光って	-11.1771
とても丁寧で	-11.1773
一冊	-11.1773
で注文しました	-11.1774
効いている	-11.1776
付けました	-11.1778
使用しない	-11.1779
いれて	-11.1782
ワインレッド	-11.1783
工	-11.1785
相	-11.1785
痛かった	-11.1785
入ってて	-11.1786
しっとり感	-11.1787
しそうです	-11.1787
見た瞬間	-11.1788
ちょっと高い	-11.1789
なかったため	-11.179
した時	-11.179
が付いていて	-11.179
付着	-11.1792
リビングの	-11.1794
値段のわりには	-11.1794
食べれる	-11.1796
使い心地が	-11.1797
太くて	-11.18
ことが出来ました	-11.1802
なんでも	-11.1803
後悔しました	-11.1804
152	-11.1804
こちらのお店の	-11.1804
学生	-11.1808
元気に	-11.1809
お部屋	-11.1809
付いてる	-11.1809
本セット	-11.1811
維持	-11.1812
花粉症	-11.1813
ツヤツヤ	-11.1813
を使っている	-11.1814
注文から到着まで	-11.1814
予想外	-11.1815
ホールド	-11.1815
ので満足です	-11.1817
安く購入でき	-11.1818
サンド	-11.1818
ナイト	-11.1819
オレンジの	-11.1819
育て	-11.182
だよ	-11.182
た状態で	-11.1825
試してみた	-11.1826
師	-11.1826
いったい	-11.1826
デザインも良く	-11.1828
絶	-11.183
とても素敵です	-11.1831
他の人のレビュー	-11.1834
使い心地も	-11.1836
棚に	-11.1836
長めの	-11.1837
IH	-11.1838
分解	-11.1838
あるの	-11.1839
曲げ	-11.1839
また利用します	-11.184
年生	-11.1841
塩味	-11.1842
らなかった	-11.1843
格安で	-11.1843
ミー	-11.1844
気になったので	-11.1845
縫い合わせ	-11.1846
履きたい	-11.1849
の購入でしたが	-11.185
にあたり	-11.185
161	-11.1852
なってしまう	-11.1854
してあり	-11.1854
引き締め	-11.1854
着られる	-11.1857
ハサミで	-11.1857
したのか	-11.1858
を敷いて	-11.1859
してくれるので	-11.1859
リブ	-11.186
かけた	-11.186
てくる	-11.1861
問	-11.1863
渋い	-11.1863
塗	-11.1864
腐って	-11.1864
房	-11.1866
柱	-11.1866
炭	-11.1866
挟む	-11.1866
おばあちゃん	-11.1866
コーディネート	-11.1866
カリカリ	-11.1866
腕の	-11.1868
3〜4	-11.1868
おくと	-11.1868
焼いた	-11.1869
が届く	-11.1869
折れた	-11.187
メールで問い合わせ	-11.1871
の商品で	-11.1872
が大きいので	-11.1873
値段も安いので	-11.1873
初めて購入	-11.1874
とめ	-11.1874
価格と	-11.1875
一点	-11.1876
問題はありません	-11.1878
多かった	-11.1879
穴を	-11.1879
購入を検討	-11.1881
普通体型	-11.1883
アレ	-11.1887
〜」	-11.1887
たくなる	-11.1893
アクア	-11.1894
肌触りも良く	-11.1895
通し	-11.1895
商品の発送	-11.1896
風の	-11.1896
なってきて	-11.1897
を増や	-11.19
営業	-11.19
真夏	-11.1901
してるので	-11.1901
と言うことで	-11.1902
味見	-11.1902
しなくても	-11.1903
をお願いしました	-11.1903
焼酎	-11.1905
勧められ	-11.1906
大きいですが	-11.1906
過ぎます	-11.1906
ようになる	-11.1906
出産内祝い	-11.1907
こういうの	-11.1909
おいしかったので	-11.191
分かりました	-11.191
の方を	-11.1912
インナーとして	-11.1914
記載されている	-11.1914
感じられない	-11.1916
表示が	-11.1916
異	-11.1917
はずが	-11.1917
キッチンに	-11.1919
するほど	-11.1919
コラーゲン	-11.192
ラジオ	-11.192
ホルモン	-11.192
クリスタル	-11.1921
我が子	-11.1921
襟ぐり	-11.1921
意味ない	-11.1922
しないと思います	-11.1922
ろうと	-11.1923
ウォー	-11.1923
短かった	-11.1924
リンス	-11.1925
の人	-11.1926
デザインなので	-11.1926
朝食	-11.1927
分くらい	-11.1927
があっても	-11.1928
不安になりました	-11.1929
する前に	-11.1929
指摘	-11.193
商品について	-11.1931
ワンポイント	-11.1934
反	-11.1935
強度が	-11.1936
購入した方が	-11.1936
手に取って	-11.1937
いつでも	-11.1938
組み立てに	-11.1939
お客さん	-11.1939
高級感があります	-11.1939
長すぎ	-11.1939
着こなせ	-11.1941
長かった	-11.1941
余計	-11.1946
は買わない	-11.1947
自由に	-11.1947
スムーズ	-11.1948
熱い	-11.1948
シア	-11.1949
を使っていたのですが	-11.1949
入るし	-11.1951
なんだけど	-11.1955
よかったですが	-11.1957
台の	-11.1963
した感じで	-11.1966
大きすぎた	-11.1968
かっ	-11.1968
安ければ	-11.197
作りです	-11.197
安いのは	-11.1971
するまで	-11.1972
だと思うのですが	-11.1973
登	-11.1973
使用できない	-11.1974
細身で	-11.1974
(__)	-11.1975
安かろう	-11.1975
&#1285	-11.1975
ランニング	-11.1975
しょっぱい	-11.1975
良かったんですが	-11.1976
というレビュー	-11.1978
楽しみにしていましたが	-11.1979
であろう	-11.1981
寝ている	-11.1981
肌が弱い	-11.1982
羽毛	-11.1987
していただいて	-11.199
感じますが	-11.199
はまって	-11.1992
ホーム	-11.1992
らしいので	-11.1994
▁2,,[	-11.1995
越し	-11.1995
糸くず	-11.1996
寒さ	-11.1996
控え	-11.1998
みたり	-11.1998
全然違いました	-11.1999
あげたい	-11.2
お願いしたいです	-11.2
る時	-11.2001
我が家に	-11.2002
送れ	-11.2002
だった為	-11.2003
肉の	-11.2003
持ち歩き	-11.2004
みなさんのレビュー	-11.2004
部屋着に	-11.2005
▁M	-11.2006
吸引力	-11.2006
わかった	-11.2007
在庫が	-11.2007
腕に	-11.2008
小型犬	-11.2009
消し	-11.2009
ハズレでした	-11.201
だろうな	-11.2011
新築	-11.2012
送信	-11.2012
は使えません	-11.2013
妹に	-11.2015
内容でした	-11.2016
茶色い	-11.2016
が面倒	-11.2016
なので星	-11.2017
には見えません	-11.2017
使ってみた	-11.2018
店頭に	-11.2022
一見	-11.2023
配送も早く	-11.2024
以外にも	-11.2026
*\	-11.2026
なりませんでした	-11.2026
喉	-11.2027
の幅が	-11.2029
スエード	-11.2029
周囲	-11.2029
まな板	-11.203
サプリメント	-11.203
ペダル	-11.203
ってしまい	-11.203
値段相応かな	-11.2031
座面の	-11.2032
んだと思います	-11.2032
食材	-11.2033
両面	-11.2033
甘かった	-11.2033
内側が	-11.2034
画像よりも	-11.2034
ネジ穴	-11.2034
広がる	-11.2035
洗濯すると	-11.2035
困って	-11.2037
個も	-11.2039
お試しに	-11.2042
止まって	-11.2042
無事届きました	-11.2043
するように	-11.2043
っく	-11.2044
06-0	-11.2045
と言われた	-11.2046
空気が	-11.2046
消え	-11.2047
飛び出して	-11.2048
ものではない	-11.2048
大きい方	-11.2049
なってしまい	-11.2051
同じように	-11.2051
トー	-11.2051
大喜びです	-11.2051
他の方のレビューを見て	-11.2052
貼	-11.2052
タイプが	-11.2054
210	-11.2054
の件	-11.2056
に取り付けました	-11.2056
頼みましたが	-11.2056
この値段なので	-11.2057
買ったんですが	-11.2058
気分で	-11.2058
かいました	-11.2061
欲しいと	-11.2063
過ぎました	-11.2064
作られている	-11.2068
なったり	-11.2069
セットを	-11.207
いいと思いますが	-11.2072
探しましたが	-11.2073
チャー	-11.2073
はないかな	-11.2074
沈	-11.2076
くれたら	-11.2079
部品の	-11.2079
を注文したのですが	-11.208
値段相応の	-11.208
年ほど	-11.2081
ぐちゃぐちゃ	-11.2084
プラセンタ	-11.2084
の大きさが	-11.2085
ランキング	-11.2085
サドル	-11.2085
気にならなくなりました	-11.2085
に変えて	-11.2086
ソン	-11.2086
キャミ	-11.2086
チーズケーキ	-11.2087
制	-11.2087
な商品	-11.2087
間に合わず	-11.2087
接触不良	-11.2088
は無く	-11.2088
緩く	-11.2089
落ちません	-11.2089
イマイチです	-11.209
お供え	-11.209
車種	-11.209
印字	-11.2092
安くていい	-11.2096
を買ったので	-11.2099
ジャストフィット	-11.2099
はいらない	-11.2101
入っていない	-11.2101
はないのですが	-11.2104
出た	-11.2105
ネジの	-11.2105
は良く	-11.2105
力は	-11.2108
検討して	-11.2109
痛くなります	-11.211
となって	-11.2111
届くのか	-11.2111
時間の	-11.2112
安いだけあって	-11.2112
無地の	-11.2115
使えると思います	-11.2115
購入すると	-11.2117
説明書き	-11.2117
とても満足	-11.2118
も大きく	-11.2118
つなぎ	-11.2119
あったか	-11.2119
好評	-11.212
そちらは	-11.212
???,	-11.2121
広め	-11.2122
イイです	-11.2122
ュ	-11.2124
吸	-11.2125
どういうこと	-11.2128
すぐに発送	-11.213
中央	-11.213
もっと安い	-11.213
みたけど	-11.2131
試しに購入	-11.2133
下げて	-11.2133
が必要な	-11.2134
っぽ	-11.2134
安く買えた	-11.2134
良心的	-11.2138
一粒	-11.2138
在	-11.2138
渡せ	-11.2139
事態	-11.214
手のひら	-11.214
実物を	-11.214
ノーマル	-11.214
捨てた	-11.2141
チキン	-11.2141
入学式	-11.2141
ていましたが	-11.2146
がしっかり	-11.2146
添加物	-11.2147
方へ	-11.2147
プレゼントに購入しました	-11.2147
自分用に購入しました	-11.2148
いいのかも	-11.2148
を頼みましたが	-11.2149
も入って	-11.2149
は十分	-11.2151
必須です	-11.2153
サイズが合わない	-11.2159
妻に	-11.2159
両方とも	-11.2161
両親に	-11.2161
ついています	-11.2163
フレア	-11.2168
おち	-11.2168
年に	-11.2168
がいまいち	-11.2168
・・・・。	-11.2169
色なので	-11.217
なければならない	-11.217
お水	-11.2172
量が多い	-11.2173
減って	-11.2173
生地は薄い	-11.2174
午前	-11.2175
プル	-11.2175
指定した	-11.2175
辛く	-11.2183
ch	-11.2183
思えない	-11.2183
与えて	-11.2184
開けてみたら	-11.2184
破れた	-11.2185
はずの	-11.2186
ほどです	-11.2186
はめて	-11.2187
肉厚	-11.2187
残りの	-11.2191
使うのが	-11.2194
仕事に	-11.2194
雑貨	-11.2195
勿体ない	-11.2195
皮膚が	-11.2196
ものだと	-11.2197
ハンコ	-11.2197
納期が	-11.2199
社の	-11.2201
届かないので	-11.2202
飛び出て	-11.2204
大きさです	-11.2204
間違った	-11.2204
出来なかった	-11.2206
最低な	-11.2207
現品	-11.2208
あー	-11.2208
座り心地も	-11.2208
大変喜ばれました	-11.2209
書かれた	-11.2209
後味	-11.221
は高い	-11.221
代物	-11.221
為か	-11.2212
デザインはかわいい	-11.2213
バッグの	-11.2214
新鮮な	-11.2214
三角	-11.2214
行け	-11.2215
しまっている	-11.2216
反射	-11.2216
ピンクは	-11.2217
値段が安かったので	-11.2218
読んだ	-11.2218
買わないと	-11.2218
机の	-11.2219
非常に残念	-11.222
に入れた	-11.222
紐で	-11.2221
トレ	-11.2221
良いものを	-11.2221
こんなもんか	-11.2222
物です	-11.2222
揺れ	-11.2223
母へ	-11.2224
つけている	-11.2224
あったり	-11.2224
大きいもの	-11.2224
ちょうど良い大きさ	-11.2224
商品発送	-11.2225
致します	-11.2225
良いと思いますが	-11.2227
おかしく	-11.2228
る方	-11.2232
らん	-11.2233
まらず	-11.2234
るまで	-11.2235
も大丈夫	-11.2239
安心して使えます	-11.224
旅行で	-11.2241
炒め	-11.2241
試しに購入してみました	-11.2242
進め	-11.2242
フカフカ	-11.2244
まだ届いてませんが	-11.2245
に使います	-11.2246
は普通	-11.2248
かわいいですが	-11.2249
めくれて	-11.225
買おうと思います	-11.225
確実	-11.225
ごこち	-11.225
ディズニー	-11.2251
退	-11.2251
おもしろい	-11.2251
ウサギ	-11.2251
ファッション	-11.2251
レディース	-11.2251
延長	-11.2251
クルクル	-11.2251
担当者	-11.2252
下手	-11.2252
ダル	-11.2253
中華	-11.2253
むき出し	-11.2254
写真通りで	-11.2254
度の	-11.2255
くっ	-11.2255
シンク	-11.2256
無駄な買い物	-11.2256
パッケージが	-11.2257
勧められて	-11.2259
届いた商品の	-11.226
凹んで	-11.2261
手触りも	-11.2262
即買い	-11.2264
日にちが	-11.2264
に見えて	-11.2265
はやっぱり	-11.2266
!(	-11.2268
一つ一つ	-11.227
一日中	-11.2272
やり取り	-11.2272
にくいし	-11.2272
成分が	-11.2275
大手	-11.2278
充分です	-11.2278
専門	-11.228
が目立ち	-11.2281
だなと思いました	-11.2281
に使用しています	-11.2282
ねじが	-11.2282
無理な	-11.2283
写り	-11.2284
ふかふかで	-11.2284
安かったし	-11.2285
いましたので	-11.229
早かったので	-11.2291
の感想です	-11.2291
自信	-11.2292
危ない	-11.2293
みたいでした	-11.2293
の評判	-11.2294
ことができ	-11.2296
が早い	-11.2297
写	-11.2298
アウト	-11.23
使いません	-11.23
が発生し	-11.2302
容量が	-11.2302
フォ	-11.2302
ベルトは	-11.2303
ちゃちい	-11.2303
言われて	-11.2304
法事	-11.2304
径	-11.2304
大粒	-11.2305
いきたいと思います	-11.2306
使えるように	-11.2306
アドバイス	-11.2307
うっすら	-11.2307
使	-11.2308
衝動買い	-11.2308
ポイントが	-11.2308
ダックス	-11.2308
サポーター	-11.2308
洗車	-11.2309
タイル	-11.2309
余裕があり	-11.231
、『	-11.231
ジャム	-11.231
が好きです	-11.2311
るために	-11.2311
くれています	-11.2311
肌色	-11.2311
常識	-11.2312
能力	-11.2312
めん	-11.2313
初めて購入しましたが	-11.2314
豊富	-11.2314
か分からない	-11.2314
大人が	-11.2315
想像通り	-11.2315
お礼	-11.2316
削	-11.2317
半分以上	-11.2318
だけに残念	-11.2319
無事に届きました	-11.2319
良い商品でした	-11.232
画像通りの	-11.2321
してませんが	-11.2321
14-0	-11.2322
私には合わない	-11.2323
気にいっています	-11.2323
感じに	-11.2324
みたいなもの	-11.2325
みよう	-11.2327
お散歩	-11.2327
喜んでくれる	-11.2327
まち	-11.2328
ヶ月も	-11.2328
座った	-11.2329
覚え	-11.2329
できませんが	-11.233
安っぽくなく	-11.233
入れに	-11.2331
がひどい	-11.2332
級品	-11.2333
スーパーセールで	-11.2336
差し込み	-11.234
うん	-11.234
周	-11.2342
残念な結果	-11.2343
買えば	-11.2345
どうにも	-11.2347
あまり期待	-11.2348
気を付け	-11.2348
作業が	-11.235
取り付けた	-11.235
おまけは	-11.2351
汚れは	-11.2352
マットを	-11.2354
ダメですね	-11.2355
美容院で	-11.2355
いたもの	-11.2356
良いと	-11.2357
だっただけに	-11.2358
落ち着き	-11.2358
リと	-11.2361
・・・(	-11.2361
加湿	-11.2363
をいれて	-11.2363
◯	-11.2363
メートル	-11.2364
↑	-11.2364
保障	-11.2364
沸	-11.2364
小さすぎ	-11.2364
確認してから	-11.2365
夫に	-11.2366
自分用にも	-11.2366
カメラの	-11.2366
名前を	-11.2368
産地	-11.2369
離れ	-11.2369
ナン	-11.237
靴底が	-11.2371
不思議な	-11.2371
カラーボックス	-11.2372
使用できませんでした	-11.2372
に感じます	-11.2372
引っかかる	-11.2374
便利だ	-11.2374
セルフ	-11.2376
食べている	-11.2376
残念なのは	-11.2377
丁寧な梱包	-11.238
が強くて	-11.2381
光が	-11.2382
上げる	-11.2384
下から	-11.2384
後も	-11.2385
キャップが	-11.2386
楽しみにしていただけに	-11.2387
継ぎ目	-11.2387
は良いが	-11.2388
楽しめ	-11.2389
お値段以上の	-11.2389
る時に	-11.239
持ってる	-11.2391
が入り	-11.2391
と聞き	-11.2391
可愛いのに	-11.2392
回す	-11.2394
手にとって	-11.2394
なに	-11.2395
せない	-11.2396
マジック	-11.2398
になりましたが	-11.2402
女性でも	-11.2402
......,	-11.2404
初めての購入です	-11.2405
▁S	-11.2406
際は	-11.2407
面に	-11.2407
使ってた	-11.2407
が少ないので	-11.2407
166	-11.2408
上は	-11.2408
元に戻	-11.241
っち	-11.2411
履いても	-11.2412
製作	-11.2412
のがいいです	-11.2413
奥行き	-11.2413
首回り	-11.2414
チャチ	-11.2416
上部の	-11.2416
もきちんと	-11.2418
かわいかった	-11.242
を注文した	-11.242
使用でき	-11.242
無洗米	-11.242
メンテナンス	-11.242
応対	-11.242
スピーカー	-11.2421
陶器	-11.2421
ほうが良い	-11.2421
表札	-11.2421
裾上げ	-11.2421
約束	-11.2422
枕カバー	-11.2423
一回で	-11.2424
適当に	-11.2425
台紙	-11.2425
回る	-11.2426
が気に入って	-11.2427
でもなく	-11.2427
▁2,,"	-11.2429
少し重い	-11.243
172	-11.243
のサイズが	-11.243
種類が	-11.2431
花を	-11.2433
下部	-11.2433
ラインストーン	-11.2435
集め	-11.2437
トーン	-11.2439
夫が	-11.244
同じ商品を	-11.2444
ベッドの	-11.2444
ずら	-11.2445
堅い	-11.2445
娘と	-11.2446
着せて	-11.2447
着けた	-11.2447
リニューアル	-11.2447
ボンドで	-11.2448
遅すぎる	-11.2448
サイズ的には	-11.2449
の効果	-11.2451
私の足	-11.2453
日程	-11.2456
味と	-11.2457
モデルさんの	-11.2457
問題無く	-11.2458
読め	-11.2459
サンプルを	-11.2462
こちらを選びました	-11.2464
意味がありません	-11.2465
想定	-11.2465
お洒落な	-11.2466
ことを考えると	-11.2468
お箸	-11.2468
ボタンも	-11.247
お料理	-11.2472
お願いしましたが	-11.2472
ぇ	-11.2473
メールは	-11.2474
マス	-11.2474
中止	-11.2475
こり	-11.2477
玉ねぎ	-11.2478
が甘い	-11.2478
ワンデー	-11.2478
中から	-11.2479
生理	-11.2479
ヒット	-11.248
楽しみにしてます	-11.248
りで	-11.248
がもう少し	-11.248
ある程度の	-11.2482
お子さん	-11.2482
今まで使用していた	-11.2485
が来た	-11.2485
物凄く	-11.2486
員	-11.2486
大変満足しております	-11.2487
場所で	-11.2489
発送前に	-11.249
わたしの	-11.249
友人の結婚式	-11.249
帰宅	-11.249
贈り物として	-11.2493
は無かった	-11.2493
値段も安いし	-11.2494
しそう	-11.2494
勝	-11.2495
ることができ	-11.2496
お詫び	-11.2497
用として購入しました	-11.2498
の季節	-11.2498
し過ぎ	-11.2499
書いてありましたが	-11.2499
音がする	-11.25
傷があり	-11.2501
返品できない	-11.2501
のだから	-11.2501
全く同じ	-11.2503
透明な	-11.2503
服は	-11.2503
売り切れて	-11.2504
って事	-11.2504
が無かったので	-11.2505
買い換えました	-11.2506
置	-11.2506
遅くなる	-11.2507
いつも使っている	-11.251
こちらのショップさん	-11.2511
検品して	-11.2511
の話	-11.2512
無くなりました	-11.2513
円は高い	-11.2514
買おうかな	-11.2515
付着して	-11.2515
記載して	-11.2516
替	-11.2516
不安な	-11.2516
配送の	-11.2516
固	-11.2517
痛んで	-11.2519
ことになりました	-11.252
家内	-11.252
簡単にできました	-11.2521
お勧めします	-11.2521
スク	-11.2523
4000	-11.2524
ることもなく	-11.2525
マジ	-11.2527
もすぐ	-11.2527
ぐらつき	-11.2528
いけなかった	-11.2529
光る	-11.2531
も悪い	-11.2532
使う事	-11.2533
いるようで	-11.2534
目的で	-11.2534
⇒	-11.2535
モチモチ	-11.2535
おそろい	-11.2535
弱いです	-11.2535
ピアノ	-11.2535
HID	-11.2536
お安いです	-11.2536
所の	-11.2537
を入れたら	-11.2538
トナー	-11.2538
巾着	-11.2539
しなくなりました	-11.2541
に使いました	-11.2541
欠点	-11.2542
通学	-11.2543
いるところ	-11.2545
ステキな	-11.2546
違ったので	-11.2547
リピートしたいです	-11.2549
モデルさんが	-11.2549
無難な	-11.255
暗	-11.2553
グリ	-11.2553
お通じ	-11.2554
いたけど	-11.2556
雰囲気が	-11.2558
ワイヤーが	-11.2561
ちぎれ	-11.2562
他の商品も	-11.2562
本当にありがとうございました	-11.2564
家庭	-11.2566
とても嬉しいです	-11.2566
切れます	-11.2566
緑の	-11.2567
する際に	-11.2569
ができます	-11.2569
小さい方	-11.2569
金属アレルギー	-11.2569
場所が	-11.257
を付け	-11.2571
見ました	-11.2573
これほど	-11.2573
くるくる	-11.2574
下の子	-11.2575
指で	-11.2576
なら大丈夫	-11.2577
持たせ	-11.2578
圧縮	-11.2581
の数	-11.2581
での使用	-11.2581
こんな商品	-11.2581
衛生的	-11.2583
年中	-11.2583
感謝しております	-11.2585
考えれば	-11.2585
字が	-11.2588
!!!!!	-11.2589
遊	-11.2589
成功	-11.259
不器用な	-11.2591
受け取った	-11.2591
バナナ	-11.2592
技	-11.2593
企画	-11.2593
その辺	-11.2595
ペア	-11.2597
購入していた	-11.2601
の値段で	-11.2603
ということは	-11.2604
こういうもの	-11.2604
グルー	-11.2604
支	-11.2606
ような感じで	-11.2606
っちゃ	-11.2607
セットの	-11.2608
サイズ表	-11.2608
分からなかった	-11.2608
イメージ通りでした	-11.2609
夜の	-11.2609
すべての	-11.261
やり直し	-11.261
難しいですね	-11.2613
歩いた	-11.2614
備え	-11.2618
友人も	-11.2622
気持ち良いです	-11.2623
手に入り	-11.2625
便利だと思います	-11.2626
旦那が	-11.2628
にも合う	-11.2628
デザインは良い	-11.2628
針が	-11.2631
外には	-11.2635
痛くなり	-11.2638
言えない	-11.2638
コース	-11.2639
グリーンを購入しました	-11.2639
ていたので	-11.2639
くださり	-11.2644
期待してましたが	-11.2644
遠目	-11.2645
を頼んだ	-11.2646
に直接	-11.2647
脂肪	-11.265
胴	-11.2651
留めて	-11.2651
コンディショナー	-11.2651
母乳	-11.2652
足袋	-11.2653
円以下	-11.2653
くなった	-11.2654
商品については	-11.2655
詰まって	-11.2656
お安く買えて	-11.2656
つきません	-11.2656
言われました	-11.2658
108	-11.266
を開けると	-11.266
だまされた	-11.266
家族にも	-11.2662
にあたって	-11.2663
痛くなりました	-11.2663
事で	-11.2663
おける	-11.2664
いい商品です	-11.2665
気泡が	-11.2665
みたいなのが	-11.2666
良さそうな	-11.2667
こちらのほうが	-11.2668
コチラ	-11.2668
生後	-11.267
頭痛	-11.2671
抜	-11.2673
埋め	-11.2674
お返事	-11.2675
ペラペラの	-11.2676
使用感も	-11.2677
求め	-11.2678
水洗い	-11.2678
横から	-11.2679
買おう	-11.2682
充電が	-11.2682
頭を	-11.2683
レビューします	-11.2685
ガラ	-11.2687
ナチュラルな	-11.2688
たほうが	-11.2691
開けた時	-11.2692
てき	-11.2692
te	-11.2693
いつも通り	-11.2693
デザインに	-11.2694
は問題なく	-11.2695
してきた	-11.2695
はちゃんと	-11.2695
あたし	-11.2696
分かりやすい	-11.2697
おけば	-11.2698
使えています	-11.2699
価格の	-11.2699
ごわごわ	-11.2699
新鮮	-11.2699
休日	-11.27
追加購入しました	-11.2702
残念な買い物でした	-11.2702
このフード	-11.2703
どこも	-11.2703
ボトム	-11.2706
折り畳み	-11.2707
六	-11.2707
使用していましたが	-11.2708
ふく	-11.2708
シャツの	-11.2709
フェルト	-11.2709
戸惑	-11.271
|	-11.271
泥	-11.271
あたりが	-11.271
加湿器	-11.271
にしたので	-11.2713
ピタッと	-11.2713
上記	-11.2714
逃げ	-11.2714
起毛	-11.2716
歩きやすいです	-11.2716
のお祝いに	-11.2717
欠けて	-11.2718
外側に	-11.2723
白は	-11.2724
入っていなかった	-11.2724
申し分ない	-11.2725
デザインです	-11.2726
高いもの	-11.2728
お掃除	-11.2729
子どもも	-11.2729
製品を	-11.2729
茶葉	-11.273
重要	-11.2731
毛玉ができ	-11.2731
先ほど	-11.2731
テーブルの	-11.2733
前面	-11.2733
組み立てました	-11.2733
くっつき	-11.2734
の部分も	-11.2734
メールが来ました	-11.2735
に使用しました	-11.2736
専門店	-11.2738
世	-11.2739
写真と違い	-11.2739
その時は	-11.2739
しませんが	-11.274
ホワイトを購入	-11.2743
ほどで	-11.2743
大丈夫そうです	-11.2744
が変わった	-11.2745
の後	-11.2745
作りもしっかりして	-11.2746
AN	-11.2748
るなら	-11.2749
使用してみましたが	-11.2749
といいなぁ	-11.275
肌触りもよく	-11.2751
デザイン性	-11.2751
新居に	-11.2752
並べ	-11.2753
感じて	-11.2753
とても使いやすい	-11.2755
愛犬の	-11.2756
ネットの	-11.2759
たのが	-11.2759
着用で	-11.2761
戻って	-11.2762
好みではありませんでした	-11.2762
にいれて	-11.2763
頻度	-11.2763
着た感じ	-11.2765
ふりかけ	-11.2766
凍	-11.2767
ゲージ	-11.2768
参加	-11.2768
無理矢理	-11.2769
蛍光灯	-11.2769
気に入る	-11.277
が残る	-11.2771
気配	-11.2771
噛んで	-11.2772
良くなる	-11.2774
小ぶりで	-11.2774
何年	-11.2777
ってしまいます	-11.2778
がま口	-11.2778
ゴマ	-11.2779
仕立て	-11.2779
今使っている	-11.278
扱いやすい	-11.2781
間に合う	-11.2783
短すぎ	-11.2785
予定日	-11.2786
工事	-11.2786
ハマ	-11.2786
っぽさ	-11.2786
スムーズで	-11.279
喜んでもらえて	-11.279
ジョイント	-11.279
オス	-11.2792
太めの	-11.2793
替えて	-11.2795
ドライブ	-11.2796
付きます	-11.2797
されていたので	-11.2797
使いやすいので	-11.2798
しっとりして	-11.2799
百	-11.28
使い易い	-11.2801
届いた時は	-11.2801
不愉快	-11.2801
パッと	-11.2803
は出来ません	-11.2803
その日	-11.2804
謎	-11.2805
貼れ	-11.2805
と喜んでいました	-11.2806
(_	-11.2808
紹介されて	-11.2808
の電話	-11.2808
リード	-11.2808
好きですが	-11.2809
人気の	-11.281
の方が良かった	-11.2811
画面の	-11.2812
お粗末	-11.2812
毛先	-11.2815
掛かり	-11.2815
倍の	-11.2817
くらいは	-11.2817
お札	-11.2819
本当に助かりました	-11.2821
というもの	-11.2821
ふわっと	-11.2821
夏場	-11.2822
私ですが	-11.2823
百均	-11.2824
なってる	-11.2824
購入していますが	-11.2824
の交換	-11.2825
時間ほど	-11.2825
と感じた	-11.2826
習	-11.2827
ゴミ箱行き	-11.2827
飲み続け	-11.2827
キャラメル	-11.2828
明太子	-11.2828
爪先	-11.2828
毛羽立ち	-11.2828
ヴィ	-11.2828
針金	-11.283
GB	-11.2831
シルバーの	-11.2831
日差し	-11.2833
張る	-11.2834
正規	-11.2835
をしています	-11.2835
を少し	-11.2835
使用出来	-11.2837
隣	-11.2838
中学生	-11.2839
ふたが	-11.2842
も欲しい	-11.2842
性能は	-11.2843
小さいもの	-11.2844
ウエストの	-11.2848
カードも	-11.2849
円で売って	-11.2853
一枚で	-11.2853
商品だったので	-11.2855
サッと	-11.2859
入手	-11.2859
ご飯が	-11.286
そうだったので	-11.2863
お肉が	-11.2864
さら	-11.2864
そうだし	-11.2865
留め具	-11.2866
いたんですが	-11.2866
お値段の割に	-11.2868
済	-11.2868
はげて	-11.2869
返品したいです	-11.287
無かったです	-11.287
種類も	-11.2871
くま	-11.2871
が壊れて	-11.2871
商品が届かない	-11.2871
生地もしっかりして	-11.2872
いると思います	-11.2873
悪くはない	-11.2873
安くなって	-11.2875
コストパフォーマンスは	-11.2876
家の中で	-11.2876
の心配	-11.2877
留め具が	-11.2878
ままで	-11.2878
日本製で	-11.2878
麦	-11.2884
最終	-11.2885
>_<	-11.2886
九州	-11.2887
惜しい	-11.2887
気長に	-11.2887
リネン	-11.2887
因みに	-11.2887
226	-11.2889
一生	-11.289
試しに買ってみました	-11.2891
束	-11.2892
についている	-11.2894
重いもの	-11.2895
爽やかな	-11.2895
ンド	-11.2895
ほどよい	-11.2896
到着も早く	-11.2897
全身	-11.2897
マイナスです	-11.2898
経っても	-11.2899
切りっぱなし	-11.2899
楽しんでいます	-11.29
届いてびっくり	-11.2901
解り	-11.2902
ところを	-11.2904
と言うので	-11.2904
おまけが	-11.2907
利用した	-11.2909
が出来ました	-11.291
動きやすい	-11.2911
特に問題	-11.2911
到着が楽しみです	-11.2911
若	-11.2914
人工	-11.2917
がんばって	-11.292
先方	-11.292
機能も	-11.2923
はけ	-11.2926
追	-11.2926
とは思います	-11.2927
母から	-11.2928
クラス	-11.2928
届いた時	-11.293
いらなかった	-11.293
曇り	-11.2931
とても早かったです	-11.2932
せません	-11.2933
喜んでます	-11.2933
着け心地	-11.2935
が出てきて	-11.2937
着れます	-11.2938
使用したいと思います	-11.294
ボタンは	-11.294
スキー	-11.2941
期待していたので	-11.2942
メン	-11.2942
出会い	-11.2945
刺し	-11.2945
も結構	-11.2946
囲	-11.2946
よろしく	-11.2947
摂取	-11.2947
ハンバーグ	-11.2947
飴	-11.2947
セミダブル	-11.2947
可愛	-11.2947
マスタード	-11.2947
用なので	-11.2948
他の方のレビューにもありましたが	-11.2948
合成	-11.2948
実印	-11.2949
節約	-11.2949
持続性	-11.2949
味わえ	-11.2949
使用してますが	-11.295
冷え性	-11.295
そういった	-11.2951
出汁	-11.2952
ずらく	-11.2952
のが気になります	-11.2952
しておりました	-11.2952
出かける	-11.2953
ピンク購入	-11.2953
デザインもシンプルで	-11.2953
大根	-11.2954
今の所	-11.2955
あわなかった	-11.2956
損した	-11.2956
留守	-11.2958
にぴったりです	-11.2958
腰に	-11.2961
どういう	-11.2962
かわいいのに	-11.2963
を切る	-11.2964
するような	-11.2965
一週間で	-11.2965
くなって	-11.2966
等も	-11.2966
超え	-11.2967
に不満	-11.2969
赤ちゃんが	-11.297
いこうと思います	-11.2971
反応が	-11.2972
お願いする	-11.2974
を使うと	-11.2978
おすすめ度	-11.2981
したほうが	-11.2984
ネタ	-11.2984
感想を	-11.2984
よかったけど	-11.2984
なってきました	-11.2985
に使える	-11.2986
印象が	-11.2987
の縫い目が	-11.2988
地元の	-11.2988
お試しセット	-11.299
布団が	-11.299
ココ	-11.2992
待ってました	-11.2992
ひき	-11.2994
できるように	-11.2994
それよりも	-11.3
取り出す	-11.3
くれると	-11.3
支え	-11.3004
帳	-11.3005
△	-11.3007
井	-11.3007
カパカパ	-11.3007
計測	-11.3007
視界	-11.3007
驚いた	-11.3007
単価	-11.3007
解説	-11.3007
濃厚	-11.3008
近くで	-11.3009
調整して	-11.3009
ホン	-11.301
すぎると	-11.301
買い足し	-11.3011
座ると	-11.3011
袋から	-11.3012
として使う	-11.3012
雑な作り	-11.3013
使用頻度	-11.3014
身幅	-11.3014
始ま	-11.3015
腕時計	-11.3015
ついており	-11.3016
炊いて	-11.3016
を取り付ける	-11.3018
タイムセールで	-11.3018
甘さが	-11.3018
人向け	-11.302
がうまく	-11.3021
かわかりませんが	-11.3022
したとき	-11.3022
の為に購入	-11.3022
もあったので	-11.3022
同色	-11.3022
いいし	-11.3023
使用していませんが	-11.3024
かぶる	-11.3026
近所のスーパーで	-11.3027
両サイド	-11.3027
発色が	-11.3028
バッ	-11.3028
いずれ	-11.3029
グリーンを購入	-11.3029
西	-11.3031
には少し	-11.3032
喜ばれ	-11.3032
太り	-11.3032
なった気がします	-11.3033
るのを	-11.3033
ここのお店	-11.3036
にひかれて	-11.3037
切れてしまいました	-11.3037
実店舗で	-11.3037
地味な	-11.3038
商品が届くまで	-11.304
スナップ	-11.304
るほど	-11.3041
が送られてきました	-11.3042
フレ	-11.3045
履きやすくて	-11.3045
わからなかった	-11.3045
度目の購入	-11.3046
薄い色	-11.3048
仕方	-11.3049
と言っています	-11.3049
到着し	-11.305
思いを	-11.3051
星二つ	-11.3052
使いたかった	-11.3055
にくさ	-11.3056
児	-11.3057
充電でき	-11.3057
漏れて	-11.3058
も購入しましたが	-11.306
サイズが大きい	-11.3061
208	-11.3061
学校で	-11.3063
太ももが	-11.3063
のだけど	-11.3064
メール便対応	-11.3067
凹凸	-11.3068
あきらかに	-11.3068
頬	-11.3068
高反発	-11.3068
明細書	-11.3068
人形	-11.3069
派手すぎず	-11.3069
白で	-11.3069
持っていますが	-11.3069
食べれ	-11.3072
インナーに	-11.3072
スイッチが	-11.3073
トレイ	-11.3073
でも大丈夫	-11.3074
好みで	-11.3074
以前使用していた	-11.3075
けどね	-11.3075
寄って	-11.3076
くず	-11.3077
届くのを	-11.3077
知りました	-11.3077
被って	-11.3078
ダマ	-11.3079
またリピしたいと思います	-11.308
形を	-11.3082
-2	-11.3082
らないので	-11.3083
イオン	-11.3083
だけではなく	-11.3083
先方に	-11.3085
良いと思う	-11.3085
いらっしゃ	-11.3086
他のお店	-11.3086
のあるもの	-11.3088
この価格でこの	-11.3089
ローラー	-11.309
出ず	-11.3092
撮り	-11.3093
頂きましたが	-11.3094
掛	-11.3095
離れて	-11.3097
以外で	-11.3097
外見	-11.3097
,8	-11.3098
欄に	-11.31
魅力です	-11.3101
大きさや	-11.3102
なかなか良い	-11.3103
錆びて	-11.3108
,7	-11.3109
ささくれ	-11.311
お揃い	-11.3113
が欲しかったです	-11.3113
しておいて	-11.3114
落とす	-11.3114
ブック	-11.3114
感じない	-11.3115
んじゃない	-11.3116
常温	-11.3118
分厚く	-11.3119
フローリングに	-11.3119
減りました	-11.312
尻	-11.312
と混ぜて	-11.3122
であり	-11.3123
伸縮性が	-11.3125
借り	-11.3126
思ってたのと	-11.3127
士	-11.3128
香料	-11.3128
セクシー	-11.3129
結論	-11.3129
録画	-11.3129
左足	-11.3129
支柱	-11.3129
悩む	-11.3129
モーター	-11.313
注意が必要	-11.313
引っ張り	-11.313
捨てて	-11.313
端っこ	-11.313
ポスター	-11.313
何個か	-11.313
日から	-11.3131
出費	-11.3131
仕上がって	-11.3132
と悩みましたが	-11.3133
初め	-11.3133
ダイヤル	-11.3133
色移り	-11.3133
が気になりました	-11.3133
予想以上	-11.3135
が良くない	-11.3137
ハサミ	-11.3139
翌日の	-11.3139
んじゃないかな	-11.314
年末に	-11.3143
なっています	-11.3143
部屋の中	-11.3144
作りました	-11.3145
今ひとつ	-11.3145
真っ	-11.3145
楽しみにしていたのですが	-11.3146
買ってます	-11.3146
なため	-11.3147
屋さんに	-11.3147
総合的に	-11.3148
本当に良かったです	-11.3148
来月	-11.315
229	-11.3151
女性の	-11.3151
猫砂	-11.3153
すぎです	-11.3155
を機に	-11.3155
申し分ありません	-11.3155
浮気	-11.3156
目立つので	-11.3156
カ所	-11.3157
シンプルなので	-11.3158
ごま	-11.3159
丈夫そうです	-11.3161
高校	-11.3162
早々	-11.3162
折って	-11.3163
ER	-11.3163
隅	-11.3164
の中で一番	-11.3165
だけなら	-11.3166
としか	-11.3166
友人にも	-11.3167
ありましたので	-11.3169
見た目より	-11.3169
を買えばよかった	-11.317
改	-11.317
すると思います	-11.3171
お気に入りで	-11.3173
壊れてしまった	-11.3173
信頼できる	-11.3173
をイメージして	-11.3175
携帯に	-11.3175
生地なので	-11.3177
糸が出て	-11.3178
たた	-11.3178
年前	-11.3179
有名	-11.3179
股上	-11.3179
物自体は	-11.3179
厚みがある	-11.318
設置して	-11.3183
壊れそう	-11.3183
マッチして	-11.3183
クレ	-11.3184
蛍光	-11.3185
と思いきや	-11.3185
になるのか	-11.3187
ホールド感	-11.3187
に問題あり	-11.3188
がっかりした	-11.3188
カラフルで	-11.3189
してきました	-11.319
ユー	-11.319
どちらかというと	-11.319
含まれて	-11.319
英	-11.319
▁とても	-11.3191
でも十分	-11.3191
リフォーム	-11.3191
連結	-11.3191
←	-11.3191
メニュー	-11.3191
引っ掛かり	-11.3192
サテン	-11.3192
配合	-11.3192
買って後悔	-11.3193
外から	-11.3193
じゃないの	-11.3194
一方	-11.3194
入っていたので	-11.3194
したく	-11.3197
でもない	-11.3197
仕事を	-11.3197
多くて	-11.32
良くなりました	-11.32
譲	-11.3202
じわ	-11.3204
郵送	-11.3205
気をつけてください	-11.3206
これからの時期	-11.3207
板に	-11.3208
安っぽく見え	-11.321
イメージ通りの	-11.3211
痛かったです	-11.3214
ベリー	-11.3214
使えた	-11.3215
のコメント	-11.3215
一か月	-11.3216
産の	-11.3217
先で	-11.3218
には見えない	-11.3218
気にならない程度	-11.3219
あがって	-11.322
破損して	-11.3221
十分だと思います	-11.3223
またリピしたいです	-11.3225
マグ	-11.3226
しようかな	-11.3226
梱包を	-11.3227
しましょう	-11.3228
白っぽく	-11.3229
を送る	-11.3233
への誕生日プレゼント	-11.3233
割れる	-11.3234
主人と	-11.3234
電池を	-11.3236
物が届きました	-11.3237
は必ず	-11.3238
電話して	-11.3239
辛いです	-11.3239
式で	-11.324
使用は	-11.324
誰かに	-11.3245
ランチ	-11.3245
日付	-11.3248
いくつも	-11.325
毛羽	-11.325
旨い	-11.325
ことがあります	-11.3251
尾	-11.3252
一向に	-11.3252
ウォーキング	-11.3252
基準	-11.3252
大量の	-11.3252
よろしくお願いいたします	-11.3252
ダメな	-11.3252
カットソー	-11.3253
小さかったので	-11.3253
努力	-11.3254
乳液	-11.3255
をもって	-11.3255
彫り	-11.3255
230	-11.3256
的なもの	-11.3257
手書き	-11.3257
いいなと思います	-11.3257
訳で	-11.3257
も全然	-11.3257
大き過ぎ	-11.3257
芽	-11.3259
汚れた	-11.326
注文してすぐに届きました	-11.3261
痩せ型	-11.3262
小さすぎる	-11.3263
濃いめ	-11.3263
白を購入	-11.3264
リッチ	-11.3264
スタイリッシュ	-11.3267
があるため	-11.3268
家事	-11.3269
悩みました	-11.3271
半月	-11.3271
外の	-11.3273
につき	-11.3275
はじめての	-11.3275
使ったこと	-11.3277
がよくて	-11.3277
気にならず	-11.3278
見えず	-11.3278
悪かったです	-11.3279
は無理です	-11.3279
ショッピング	-11.328
税	-11.3282
するつもり	-11.3283
閉まらない	-11.3283
パンツを	-11.3286
触ると	-11.3286
を試して	-11.3288
が良かっただけに	-11.3288
購入で	-11.329
来るの	-11.3292
発売日に	-11.3293
うちの猫	-11.3294
ほどではない	-11.3295
息子用に	-11.3297
遠い	-11.3298
が早く	-11.3299
あるのか	-11.3299
気もしますが	-11.33
集めて	-11.3302
情	-11.3303
らずに	-11.3303
を注文したのに	-11.3303
買わなきゃ良かった	-11.3304
自然で	-11.3306
食べられない	-11.3307
ネジ穴が	-11.3308
両手	-11.3308
SH	-11.3309
陰	-11.3309
色違いの	-11.331
予感	-11.3311
も簡単に	-11.3314
幼児	-11.3314
技術	-11.3314
釘	-11.3314
キツキツ	-11.3314
浄化	-11.3314
具合は	-11.3314
かさばる	-11.3315
着いた	-11.3315
ナイフ	-11.3315
谷間	-11.3315
通信	-11.3315
貼りました	-11.3316
止まる	-11.3316
同封されて	-11.3317
体重が	-11.3318
引き出しが	-11.3319
孫の	-11.332
満足して	-11.3321
ってくらい	-11.3322
高品質	-11.3324
を履いています	-11.3324
拝見	-11.3327
ショップレビュー	-11.3328
こんな物	-11.3329
の文字	-11.3329
定価で	-11.3331
評価を	-11.3334
送料無料の	-11.3334
で使用する	-11.3335
を読み	-11.3335
同じ物を	-11.3336
のが嬉しいです	-11.3337
使えないです	-11.3337
テープが	-11.3337
も購入しました	-11.3338
がわからない	-11.3339
の人は	-11.334
値段を	-11.3342
どころ	-11.3344
ブルーを購入しました	-11.3345
引っかかって	-11.3346
どちらか	-11.3348
問題無い	-11.3348
le	-11.3349
のものでした	-11.335
NO	-11.335
思っていた通りの	-11.3352
営業日	-11.3352
してもらって	-11.3353
は出来ない	-11.3353
ところの	-11.3353
ァ	-11.3356
四角	-11.336
注文を	-11.3365
とは言えません	-11.3365
しましました	-11.3365
はみ出	-11.3367
で残念でした	-11.3367
ことがあり	-11.3367
回目は	-11.3369
触り心地	-11.3369
この冬	-11.3369
きれず	-11.337
またリピ	-11.3371
買って正解	-11.3372
答え	-11.3372
参	-11.3372
るのかな	-11.3372
ということもあり	-11.3374
買えません	-11.3374
保育園の	-11.3375
体験	-11.3375
上記の	-11.3375
▁1,,3	-11.3376
バル	-11.3377
さわり心地	-11.3377
起動	-11.3377
アウトドア	-11.3377
乗り心地	-11.3378
とても親切	-11.3378
男性用	-11.3379
つらい	-11.3379
解凍して	-11.3385
お店が	-11.3385
程度に	-11.3388
うつ	-11.3389
に見えますが	-11.3391
倒れて	-11.3391
ことがないので	-11.3392
断念しました	-11.3393
このタイプ	-11.3394
単に	-11.3395
もあれば	-11.3396
が付いているので	-11.3396
アップル	-11.3397
これまた	-11.3397
なくなるので	-11.3397
乾かす	-11.3398
薄型	-11.3398
下の方	-11.3401
なくてはならない	-11.3402
おつまみ	-11.3403
でなければ	-11.3403
使っているので	-11.3405
を変える	-11.3405
の所が	-11.3406
背中に	-11.3407
円でも	-11.3407
上手	-11.3408
トゥ	-11.3409
教室	-11.3411
履き口	-11.3411
レンズの	-11.3412
すぐに届き	-11.3413
値段も手頃で	-11.3413
少ないです	-11.3414
こな	-11.3416
普段のサイズ	-11.3416
モノは	-11.3418
偶然	-11.3418
税込	-11.3419
さも	-11.342
ツル	-11.3421
したかった	-11.3423
が入ってました	-11.3424
もすぐに	-11.3424
といった感じ	-11.3426
に見えた	-11.3428
日頃	-11.3429
あるため	-11.3429
も良くて	-11.343
考	-11.343
処分しました	-11.3431
利用させていただきます	-11.3432
を使用しています	-11.3433
シートの	-11.3434
フェイス	-11.3435
泡が	-11.3436
美味しく頂きました	-11.3437
お直し	-11.3437
つが	-11.3438
居る	-11.3438
苦い	-11.3439
睡眠	-11.3439
もほとんど	-11.3439
下痢	-11.3439
養	-11.3439
シックな	-11.3439
ガバガバ	-11.344
ガイド	-11.344
しわしわ	-11.344
▁_)	-11.344
まともな	-11.344
何枚か	-11.344
酸化	-11.344
みんなで	-11.3441
服装	-11.3441
ついてました	-11.3442
いちご	-11.3442
粗	-11.3443
切りました	-11.3443
っているので	-11.3443
かも知れない	-11.3444
ドル	-11.3445
についても	-11.3445
を持つ	-11.3445
頼まれて購入しました	-11.3446
この店	-11.3447
とは違って	-11.3448
ラインも	-11.345
油が	-11.345
TO	-11.3451
探しました	-11.3451
の服	-11.3454
にひかれ	-11.3455
しまっていました	-11.346
糸がほつれて	-11.346
かわいかったので	-11.346
当分	-11.3462
のメールを	-11.3462
213	-11.3463
IN	-11.3464
かんじです	-11.3465
と反省	-11.3465
お品物	-11.3467
充電して	-11.3467
お店側	-11.3467
カリ	-11.3467
もうすこし	-11.3468
見やすく	-11.3469
たちますが	-11.347
だと思った	-11.3471
このタイプの	-11.3473
のだろうか	-11.3473
言わ	-11.3474
んじゃないか	-11.3474
これだったら	-11.3474
対応でした	-11.3476
だとは思いますが	-11.3476
足で	-11.3477
ご飯に	-11.3477
高いけど	-11.348
吹	-11.348
宅配業者	-11.3481
三つ	-11.3481
半分に	-11.3482
場所を	-11.3483
たから	-11.3484
使う予定です	-11.3485
分だけ	-11.3486
っぽいです	-11.3487
みたいですね	-11.3487
星を	-11.3487
使用してみました	-11.3488
どり	-11.3488
▁L	-11.3488
(3	-11.3489
ソー	-11.3489
送られて	-11.3489
付け方	-11.3489
できるのは	-11.3493
ゴムを	-11.3493
店側	-11.3494
おすすめします	-11.3495
この色	-11.3499
本格的な	-11.3499
最低の	-11.35
部に	-11.35
価格から	-11.3501
純	-11.3502
サッパリ	-11.3503
スイーツ	-11.3503
スキ	-11.3503
彩	-11.3503
まだ使ってませんが	-11.3504
なしの	-11.3505
プレーン	-11.3506
ましたので	-11.3506
を履く	-11.3506
連絡したら	-11.3506
in	-11.3507
糸のほつれ	-11.3508
は少ない	-11.3509
お値段的に	-11.3509
220	-11.3509
4.	-11.3509
知り	-11.3511
選べない	-11.3512
送られてくる	-11.3514
早いので	-11.3514
の音	-11.3516
届きます	-11.3517
たいので	-11.3517
にたどり着きました	-11.3518
来週	-11.3518
とてもよかったので	-11.3518
日に注文	-11.3519
商品自体	-11.352
取れませんでした	-11.3521
傘を	-11.3526
ないでしょう	-11.3532
もしない	-11.3533
父が	-11.3533
1980	-11.3534
このクオリティ	-11.3535
申し訳ありません	-11.3535
なくていい	-11.3536
マイク	-11.3536
果物	-11.3536
手触りは	-11.3536
渡して	-11.3536
仕事の	-11.3537
使ってみようと思います	-11.3538
いきたいです	-11.3539
あたりの	-11.3539
30-0	-11.354
袋に入って	-11.354
(*^_^*)\	-11.3542
の代わりに	-11.3542
さらっと	-11.3544
何日か	-11.3544
平ら	-11.3545
リピート買い	-11.3547
そうにありません	-11.3548
たときに	-11.3548
入れ物	-11.355
届いたのが	-11.3552
使う分には	-11.3552
を考えたら	-11.3552
刺身	-11.3553
確定	-11.3554
とても軽くて	-11.3554
危	-11.3554
がついているので	-11.3556
ヒールが	-11.3556
組立は	-11.3557
作りたい	-11.3557
使用したい	-11.3557
▁2,,【	-11.3559
その旨	-11.356
みようかな	-11.356
着よう	-11.356
紅	-11.3562
食べさせて	-11.3564
書かれていた	-11.3564
が良かった	-11.3565
ラブ	-11.3565
まあまあです	-11.3565
夏には	-11.3565
緩衝材	-11.3566
犬が	-11.3566
デジタル	-11.3566
ちょっぴり	-11.3566
蜂蜜	-11.3566
震災	-11.3567
◆	-11.3567
ので便利です	-11.3567
苦情	-11.3567
当時	-11.3567
ジェルネイル	-11.3568
単なる	-11.3568
飛	-11.3569
見えてしまいます	-11.3569
が出ました	-11.357
聞いた	-11.3571
いらっしゃる	-11.3572
届け	-11.3573
これはちょっと	-11.3573
一目で	-11.3573
評判が	-11.3574
履けます	-11.3574
をお願いします	-11.3575
変わりました	-11.3575
その通り	-11.3575
をさがして	-11.3576
予定でしたが	-11.3576
かかるので	-11.3577
つとも	-11.3577
優先	-11.3577
酷く	-11.3578
カップの	-11.3579
福	-11.3579
159	-11.3579
くれませんでした	-11.358
薬品	-11.358
不満はありません	-11.358
容器に	-11.3581
ほんの	-11.3583
届くと	-11.3583
わけでもない	-11.3584
ことはないと思います	-11.3584
安く購入できました	-11.3584
点灯し	-11.3589
っていたので	-11.359
できるのが	-11.3592
発送する	-11.3592
にして良かったです	-11.3593
二度目	-11.3593
良かったと思いました	-11.3593
タオルは	-11.3594
ではなくて	-11.3594
楽しめました	-11.3595
いいのでは	-11.3596
があるのですが	-11.3597
サラ	-11.3598
破け	-11.36
早い対応で	-11.36
割って	-11.3601
気を付けて	-11.3602
別の商品	-11.3602
やっと届いた	-11.3603
EX	-11.3604
かなと思って	-11.3604
ネットショップ	-11.3607
残量	-11.3607
経った	-11.3607
いくと	-11.361
が見えて	-11.361
うけ	-11.361
誕生	-11.3611
方がいいです	-11.3612
怪我	-11.3614
すっきりしました	-11.3615
を取って	-11.3617
喜ぶ	-11.3618
感がある	-11.3618
ミル	-11.3619
春夏	-11.3621
とにかく安い	-11.3622
使おうと思って	-11.3622
のですね	-11.3624
ズボンの	-11.3624
敬老の日	-11.3625
を待って	-11.3625
鶏	-11.3625
追い	-11.3625
になるか	-11.3626
手紙	-11.3627
フライ	-11.3627
重量感	-11.3628
フィー	-11.3629
暑く	-11.3629
って書いて	-11.3629
宮	-11.363
予防に	-11.363
にんにく	-11.3631
まみれ	-11.3631
破棄	-11.3631
ナンバー	-11.3631
問わず	-11.3631
チェスト	-11.3631
にビックリ	-11.3631
同じものが	-11.3632
24.0	-11.3632
ドリップ	-11.3632
メインの	-11.3633
のメールが	-11.3633
お弁当箱	-11.3633
安定性	-11.3634
はいませんが	-11.3636
あんなに	-11.3637
じゃありません	-11.3637
側が	-11.3638
静	-11.3638
に近い色	-11.364
しているのに	-11.364
の配送	-11.3641
向	-11.3642
すればよかった	-11.3643
ヶ月くらい	-11.3644
大豆	-11.3644
開封後	-11.3644
このお店は	-11.3645
名前の	-11.3645
負け	-11.3649
日曜	-11.365
よほど	-11.365
上段	-11.3651
ミスト	-11.3653
流し	-11.3654
枚入り	-11.3654
見えてしまう	-11.3656
の練習	-11.3656
お友達の	-11.3656
暖	-11.3657
今一	-11.3657
寝心地は	-11.3658
収納も	-11.3659
潰	-11.366
花粉	-11.3662
オマケの	-11.3662
丸く	-11.3662
ことになり	-11.3662
カードを	-11.3663
はわかりません	-11.3663
とてもかわいく	-11.3664
慣れない	-11.3664
覚悟	-11.3664
を作った	-11.3665
まらなかった	-11.3666
下着が	-11.3667
を合わせて	-11.3667
椅子に	-11.3668
音声	-11.3669
浅く	-11.3676
適当	-11.3679
角質	-11.3683
履こう	-11.3684
少ないので	-11.3685
点で	-11.3685
設置しました	-11.3686
今までに	-11.3688
イメージより	-11.369
って言う	-11.3691
も何も	-11.3691
値段の安さ	-11.3692
とても綺麗です	-11.3692
売っていないので	-11.3692
地方	-11.3692
の一部が	-11.3692
ダン	-11.3693
題	-11.3693
軟	-11.3693
スカートが	-11.3694
ペンダント	-11.3694
ごごち	-11.3695
除去	-11.3695
選択肢	-11.3695
冷蔵	-11.3695
今更	-11.3696
タッチペン	-11.3696
手術	-11.3696
と思うけど	-11.3696
の利用	-11.3696
首輪	-11.3697
フランス	-11.3697
キープ	-11.3697
信じられません	-11.3698
を考えれば	-11.3699
?)\	-11.3699
まじ	-11.37
経ちました	-11.37
りませんでした	-11.3702
買うより	-11.3703
初の	-11.3703
容量も	-11.3705
時間で	-11.3706
とお	-11.3706
商品紹介	-11.3707
脱げる	-11.3708
人もいる	-11.3709
唇	-11.3709
果	-11.371
気になりましたが	-11.3712
リピしています	-11.3713
埃が	-11.3714
へたって	-11.3714
色も形も	-11.3715
要注意です	-11.3716
戻	-11.3717
クス	-11.3717
女性には	-11.3717
フタが	-11.3718
をチョイス	-11.372
黄色の	-11.3721
お風呂に	-11.3721
乾いた	-11.3722
マンションの	-11.3722
コーヒーを	-11.3723
私の髪	-11.3724
で見た	-11.3725
運送	-11.3725
現物は	-11.373
しているのか	-11.373
とのことなので	-11.3731
お誕生日	-11.3732
お手頃価格で	-11.3734
売られている	-11.3734
家族みんな	-11.3735
液が	-11.3737
安っぽいし	-11.3737
まれて	-11.3738
ウエストのゴム	-11.374
するのか	-11.374
128	-11.3741
濃厚な	-11.3742
内容を	-11.3742
避け	-11.3744
しづらい	-11.3745
首周り	-11.3747
決まり	-11.3748
シャンパン	-11.375
ヒビが入って	-11.375
その点は	-11.3752
することにしました	-11.3754
使用には	-11.3755
届くまでに	-11.3756
鼻に	-11.3758
梱包されて	-11.3759
大変でしたが	-11.3759
オープン	-11.3759
暖房	-11.376
皮膚科	-11.376
ステップ	-11.376
ソケット	-11.376
コール	-11.376
いわゆる	-11.3761
こりゃ	-11.3761
いい買い物をしました	-11.3761
効果のほどは	-11.3761
注文から発送まで	-11.3761
初日に	-11.3762
が変わる	-11.3763
有った	-11.3764
19-0	-11.3764
感激です	-11.3764
皆さんのレビューを見て	-11.3765
代替品	-11.3766
少なくとも	-11.3767
みないと	-11.3767
ゴムで	-11.3768
買っちゃいました	-11.3769
お店では	-11.377
外れました	-11.3772
大失敗でした	-11.3773
ヘナ	-11.3774
スライス	-11.3774
期待したのですが	-11.3775
考えたら	-11.3775
肩から	-11.3778
問題ありませんが	-11.3778
様子を見	-11.3778
上の子	-11.3779
試着した	-11.378
連絡があり	-11.3782
中を	-11.3783
ではないのですが	-11.3786
傷も	-11.3787
ーンと	-11.3787
足の裏	-11.3788
リピートはないです	-11.3791
身長が	-11.3792
ところから	-11.3795
楽な	-11.3795
のかどうか	-11.3796
らす	-11.3798
等が	-11.3798
くなり	-11.3799
スカ	-11.38
フードを	-11.3801
使いやすいし	-11.3803
ーム	-11.3804
膝が	-11.3804
お品でした	-11.3804
締める	-11.3806
面積	-11.3806
クリーム色	-11.3807
という印象です	-11.3808
返品を	-11.3812
かわいいデザイン	-11.3812
感じがする	-11.3812
勢い	-11.3813
購入すること	-11.3815
たようです	-11.3816
タイプを購入しました	-11.3817
は若干	-11.3817
差し上げ	-11.3817
デイ	-11.3817
子は	-11.3818
苦しく	-11.3819
丈の	-11.3819
娘用に	-11.382
しっかりしており	-11.3822
ポケットは	-11.3824
ミネラル	-11.3825
ブレ	-11.3825
ウォーター	-11.3825
君	-11.3825
もいいかな	-11.3826
浴室	-11.3826
左右で	-11.3826
明るすぎ	-11.3827
小説	-11.3827
寝れ	-11.3828
手帳型	-11.3828
お世話になっている	-11.383
取り付けやすさ	-11.3831
豆腐	-11.3832
に応じて	-11.3832
◎,	-11.3832
大活躍しそうです	-11.3832
ばり	-11.3833
靴に	-11.3834
しようと思っています	-11.3835
くれたので	-11.3835
騙されました	-11.3836
歳児	-11.3836
欠かせない	-11.3837
入ってた	-11.3837
メールにて	-11.384
個購入しました	-11.384
持っていて	-11.384
TA	-11.3841
なかったのが	-11.3842
枚重ね	-11.3842
の金具が	-11.3842
したんですが	-11.3844
に入れると	-11.3844
ブラウン購入	-11.3844
迷いました	-11.3845
ベランダに	-11.3845
気に入っていました	-11.3846
買いに行く	-11.3847
比べると	-11.3847
載っている	-11.385
...)	-11.385
大丈夫だと思います	-11.385
プラスチック製	-11.3852
安い買い物	-11.3852
いいかもしれませんが	-11.3852
他店で購入した	-11.3853
皆さんも	-11.3853
苦労して	-11.3853
削れ	-11.3854
購入して良かった	-11.3855
と思ったのに	-11.3855
画像のように	-11.3857
このまま使います	-11.3857
楽しみにしてた	-11.3859
細かな	-11.386
GW	-11.3861
試してみます	-11.3862
というわけで	-11.3863
塗ると	-11.3863
実に	-11.3863
実物も	-11.3863
テーブルに	-11.3864
を頼みました	-11.3865
観て	-11.3866
着こなし	-11.3867
待っていました	-11.3867
と記載されて	-11.3868
送り先	-11.3868
ポストに	-11.387
も高く	-11.3871
履いてる	-11.3871
2011	-11.3873
襟の	-11.3873
掛かる	-11.3873
商品到着しました	-11.3874
いただけました	-11.3874
外に出	-11.3875
していただきたいです	-11.3875
あけ	-11.3875
間に合い	-11.3877
右足	-11.3877
音沙汰	-11.3877
もろ	-11.3877
!!」	-11.3878
!!!!!!	-11.3879
また違う	-11.3879
を入れるのに	-11.3879
たのしみです	-11.388
をいれ	-11.3881
のバランスが	-11.3881
不安で	-11.3882
として使用	-11.3883
安心できる	-11.3884
ツリー	-11.3885
無理に	-11.3887
前日に	-11.3888
満足感	-11.3889
ポーター	-11.389
祝いに	-11.389
デブ	-11.3891
試験	-11.3891
突起	-11.3891
マイクロファイバー	-11.3891
ヒドイ	-11.3891
ケーブルが	-11.3892
注文時	-11.3892
保冷	-11.3892
ギター	-11.3893
腰回り	-11.3894
新米	-11.3895
星ひとつ	-11.3895
湿度	-11.3895
に惹かれて購入しました	-11.3896
気も	-11.3899
画像の色	-11.39
ランプが	-11.39
手頃で	-11.39
美味しくなかった	-11.3901
だけですが	-11.3901
入荷予定	-11.3905
プレゼントする	-11.3906
ジャー	-11.3907
がつく	-11.3908
こし	-11.3908
グッド	-11.3909
元気な	-11.391
書きましたが	-11.391
箱から	-11.3913
面倒くさい	-11.3915
高校生	-11.3915
春先	-11.3916
at	-11.3916
中学	-11.3916
もすごく	-11.3916
日時	-11.3917
たっても	-11.3918
連絡もなく	-11.3919
好感	-11.392
この味	-11.392
伝えて	-11.392
が目立って	-11.3921
のかわかりませんが	-11.3922
市販	-11.3924
届いた商品	-11.3926
日時指定	-11.3928
食べられ	-11.393
を初めて	-11.393
いい加減な	-11.3932
オシャレです	-11.3933
カツ	-11.3934
夜中に	-11.3935
この店で	-11.3936
マンガ	-11.3938
ネイビーを購入	-11.3942
越	-11.3943
無くなり	-11.3944
おやつに	-11.3944
はないけど	-11.3945
他の方も書いて	-11.3945
このサイズで	-11.3947
回くらい	-11.3948
丁度いいです	-11.3949
許容範囲です	-11.395
していたのに	-11.395
の財布	-11.395
使い続け	-11.395
同様に	-11.3951
間に合いました	-11.3952
暖かそう	-11.3953
良さが	-11.3953
ディスク	-11.3953
良さ	-11.3955
もらえました	-11.3956
と比べても	-11.3956
紫色	-11.3956
連絡は	-11.3956
プレミアム	-11.3957
防犯	-11.3957
貧相	-11.3957
が遅い	-11.3957
優秀	-11.3957
及び	-11.3957
ノズル	-11.3957
つやつや	-11.3958
収まる	-11.3958
寂しい	-11.3958
んだな	-11.3958
丸まって	-11.3959
のラインが	-11.3959
歩きにくい	-11.396
ダボダボ	-11.396
変形して	-11.396
自体に	-11.3961
具合も	-11.3963
通学用に	-11.3963
枚セット	-11.3963
荒く	-11.3966
ガムテープ	-11.3966
も含め	-11.3966
素晴らしく	-11.3966
片方が	-11.3966
割れてしまいました	-11.3967
胸元の	-11.3967
らし	-11.3967
耳が	-11.3967
異なり	-11.3968
事もなく	-11.3968
高級感があって	-11.3968
イヤー	-11.3969
続けてみます	-11.397
女性一人で	-11.397
説明書は	-11.3971
言うこと	-11.3971
入金確認	-11.3971
輸入品	-11.3972
新築の	-11.3972
旨味	-11.3975
防音	-11.3975
いいなと思いました	-11.3975
外れた	-11.3976
前で	-11.3977
数枚	-11.3977
か何か	-11.3978
-201507	-11.3978
分かりませんでした	-11.3982
走って	-11.3982
しばらくすると	-11.3983
承知	-11.3983
話し	-11.3984
が欲しく	-11.3986
壊	-11.3986
食感が	-11.3987
の前に	-11.3988
わるい	-11.3988
やせ	-11.3989
友達が	-11.399
送料無料なので	-11.399
利用しません	-11.399
折れてしまいました	-11.3992
を知って	-11.3992
Wi	-11.3995
を使っていますが	-11.3996
乾燥する	-11.3996
お洒落で	-11.3996
との事でしたが	-11.3997
ような気がしました	-11.3997
日には	-11.3997
連続	-11.3999
ほかに	-11.4
こず	-11.4001
食べてくれます	-11.4001
送りましたが	-11.4002
裂け	-11.4003
汚れる	-11.4003
問題なさそうです	-11.4004
方や	-11.4004
履いていて	-11.4005
を通して	-11.4006
個人差	-11.4007
が気に入り	-11.4009
シリーズは	-11.4009
処	-11.4009
IC	-11.4009
ないのでしょうか	-11.4009
押して	-11.401
夫婦で	-11.401
友人への	-11.401
▁in	-11.401
食べられます	-11.4011
リピート購入	-11.4014
ーター	-11.4014
効果を感じ	-11.4015
しないといけない	-11.4016
くると	-11.4017
とても楽しみです	-11.402
入れたら	-11.402
透けない	-11.4022
サーモン	-11.4022
痕	-11.4024
テレビの	-11.4024
レーズン	-11.4024
研究	-11.4024
しなやか	-11.4024
入浴剤	-11.4024
エッジ	-11.4024
真空パック	-11.4025
以外と	-11.4025
田舎	-11.4025
遅かったです	-11.4026
手順	-11.4026
自分的には	-11.4028
おいしくいただきました	-11.4028
しかしながら	-11.4028
がはっきり	-11.4028
合いました	-11.4029
良くなった	-11.403
寝ています	-11.4031
配色	-11.4031
想像していたよりも	-11.4033
近所に	-11.4033
品揃え	-11.4034
イヤリング	-11.4036
なってしまいます	-11.4036
腫れ	-11.4037
長く使えそう	-11.4037
も入っていて	-11.4037
伸ばし	-11.4038
備	-11.4038
平日	-11.4038
が狭く	-11.4039
173	-11.4039
るかな	-11.4039
はまり	-11.404
多くの	-11.404
と一緒	-11.4042
と購入	-11.4043
コルク	-11.4043
よかったな	-11.4043
のが一番	-11.4044
付けると	-11.4044
考えています	-11.4046
期待していただけに残念です	-11.4046
おいても	-11.4048
確かめ	-11.4048
買ってから	-11.4048
ができるので	-11.4048
とてもよいです	-11.4048
色柄	-11.4049
袖も	-11.4049
想像通りの	-11.4051
丸み	-11.4051
レビューを書き	-11.4052
カチカチ	-11.4052
他人	-11.4053
ミン	-11.4053
綿の	-11.4053
違和感が	-11.4054
のとき	-11.4054
真っ直ぐ	-11.4056
じゃないので	-11.4056
レビューがよかったので	-11.4057
織り	-11.4057
梱包も丁寧	-11.4058
クズ	-11.4061
購入したものの	-11.4063
-201408	-11.4063
お腹周り	-11.4064
必要ない	-11.4066
実寸	-11.4066
可愛くて気に入りました	-11.4069
これくらい	-11.4072
子の	-11.4073
2,3	-11.4075
どこかに	-11.4076
実際の商品	-11.4076
解消され	-11.4077
分丈	-11.4077
販売店	-11.4078
大き目の	-11.4079
つ購入	-11.4079
出ていて	-11.4082
の差	-11.4085
とは違いました	-11.4085
付いていました	-11.4086
せいで	-11.4086
を止める	-11.4087
豪華な	-11.4087
浮か	-11.409
度と買いません	-11.4091
了承	-11.4091
スパッツ	-11.4091
暇	-11.4091
勿体無い	-11.4091
ゞ	-11.4091
兄弟	-11.4091
廊下	-11.4091
静音性	-11.4091
雑巾	-11.4092
赤み	-11.4092
過去に	-11.4093
べたべた	-11.4093
我慢します	-11.4093
に興味	-11.4094
リピしたいと思います	-11.4094
にしろ	-11.4095
テント	-11.4095
あげよう	-11.4095
の多さ	-11.4095
様子を見て	-11.4097
ょう	-11.4097
悩んだ	-11.4099
値段は安い	-11.4099
梱包も丁寧でした	-11.41
骨が	-11.4102
それぞれの	-11.4103
贈り	-11.4103
履いた感じ	-11.4104
ダブ	-11.4106
に対し	-11.4106
書いてあったので	-11.4106
座れ	-11.4107
届くのは	-11.4107
サイズ調整	-11.411
でこの値段	-11.411
がちな	-11.411
期待をこめて	-11.411
お安く購入でき	-11.4111
別で	-11.4112
を求め	-11.4112
箱で	-11.4112
熟	-11.4113
傾いて	-11.4113
塗れ	-11.4113
つる	-11.4114
∀	-11.4116
来年は	-11.412
ていますが	-11.4121
ed	-11.4122
かわいさ	-11.4124
お布団	-11.4125
出てきます	-11.4125
画像を見て	-11.4125
ストーンが	-11.4126
効いてる	-11.4127
来たので	-11.4127
いらず	-11.4127
4.5	-11.4128
拭いても	-11.4129
振込	-11.4131
あまり良くない	-11.4132
沢山の	-11.4133
裏側の	-11.4135
靴下を履いて	-11.4135
確認しましたが	-11.4137
が全然	-11.4137
過ごせ	-11.414
洗い替え	-11.4141
とは思いません	-11.4142
寒	-11.4142
ほうがいいです	-11.4143
淡	-11.4145
このショップは	-11.4145
下まで	-11.4145
キリ	-11.4147
なところ	-11.4147
切り落とし	-11.4148
問題なく使えています	-11.4149
方が良かった	-11.4149
もらおう	-11.4149
と思って購入	-11.415
直に	-11.4151
仕方ありませんが	-11.4151
が高いので	-11.4151
さて	-11.4152
適当な	-11.4156
歩け	-11.4158
北	-11.4158
ないかと	-11.4158
結露	-11.4159
歴	-11.4159
ボルドー	-11.4159
ぬいぐるみ	-11.4159
汗をかく	-11.4159
蕾	-11.4159
いびつ	-11.4159
低刺激	-11.416
ボタンホール	-11.416
小さ過ぎ	-11.416
チタン	-11.4162
面白いです	-11.4162
予約して	-11.4164
スタイ	-11.4166
握り	-11.4166
日現在	-11.4167
カラフルな	-11.4167
歳の息子に	-11.4168
写真どおり	-11.4168
ウン	-11.4169
心が	-11.4169
食欲	-11.417
問題無し	-11.417
てっきり	-11.4171
080	-11.4171
お餅	-11.4172
贈って	-11.4172
見ていたら	-11.4173
ブルーを購入	-11.4173
水切り	-11.4176
に当たる	-11.4176
仕方ないのかもしれませんが	-11.4177
違うし	-11.4177
手軽で	-11.4177
画像のような	-11.4179
材質が	-11.4179
ーん	-11.4179
他のメーカーの	-11.4179
品物です	-11.4179
奥まで	-11.418
もう二度と買いません	-11.418
されません	-11.4181
全てが	-11.4181
みようと	-11.4186
欠かせません	-11.4187
を注文して	-11.4188
をしたのですが	-11.4188
黒を	-11.4189
シェル	-11.4189
ることが出来	-11.4189
咲いて	-11.419
大きなサイズ	-11.419
国産の	-11.419
価格が安い	-11.4191
粗い	-11.4192
できると思います	-11.4192
まー	-11.4192
安い物	-11.4192
手に入る	-11.4193
アウトレット品	-11.4193
本当の	-11.4193
26.5	-11.4194
年で	-11.4194
どうなるか	-11.4195
が多かったです	-11.4198
音がして	-11.4198
シンプルなデザインで	-11.4199
ゆったりめ	-11.4201
必要なもの	-11.4201
いつ届く	-11.4202
なぁと	-11.4205
ひもが	-11.4205
はなかったのですが	-11.4206
このシリーズは	-11.4206
だろ	-11.4206
お値段のわりに	-11.4209
プリントが	-11.4209
決めた	-11.4209
する際	-11.421
ここに	-11.4211
バラの	-11.4211
気づいた	-11.4213
そろって	-11.4214
っとして	-11.4214
ちゃんの	-11.4215
定番の	-11.4216
安く買える	-11.4217
欲しくなりました	-11.4218
損した気分	-11.4218
おりません	-11.4218
に使用する	-11.4219
飲みたい	-11.4219
保温性	-11.422
表面は	-11.422
来年の	-11.4222
きつすぎ	-11.4222
おしりが	-11.4224
#	-11.4225
学習	-11.4225
気づき	-11.4226
@	-11.4227
予定通り	-11.4227
倉庫	-11.4227
アンパンマン	-11.4227
淵	-11.4227
納豆	-11.4227
食洗機	-11.4227
明細	-11.4227
温かさ	-11.4227
配置	-11.4227
-201407	-11.4228
バンパー	-11.4228
加熱	-11.4228
に注意	-11.4228
液漏れ	-11.4228
表情	-11.4228
倍以上	-11.423
包装が	-11.423
にはなりませんでした	-11.423
んだから	-11.4231
投げ	-11.4231
メタル	-11.4232
落ち着いていて	-11.4232
ピンク系	-11.4233
締まり	-11.4234
値段も安くて	-11.4235
別の色	-11.4236
問題ないですが	-11.4236
購入して正解でした	-11.4237
癒され	-11.4238
座面が	-11.4238
上がります	-11.4238
傷は	-11.4241
私にとって	-11.4241
服が	-11.4241
とめる	-11.4241
手書きのメッセージ	-11.4245
一目惚れして	-11.4245
りします	-11.4247
との回答	-11.4248
は分かりませんが	-11.4249
左右に	-11.425
チビ	-11.425
.8	-11.4252
着られません	-11.4253
送料無料は	-11.4253
肌着	-11.4253
気に入らない	-11.4253
祝い	-11.4256
はずです	-11.4258
分量	-11.4258
思えません	-11.4259
つ星	-11.4259
8000	-11.426
したくて購入しました	-11.4261
試しに購入しました	-11.4264
またリピート	-11.4265
ネル	-11.4265
用に購入したのですが	-11.4266
and	-11.4266
パッケージに	-11.4267
丈夫です	-11.4267
もでき	-11.4269
な商品です	-11.4271
ないといけません	-11.4272
冬場は	-11.4272
と言う感じ	-11.4275
思ったより小さい	-11.4276
良いかと思います	-11.4277
手元	-11.4278
まだわかりませんが	-11.4278
詰めて	-11.4279
を頂きました	-11.428
連休	-11.428
が出ない	-11.4281
外れてしまいました	-11.4283
厳	-11.4285
合っていない	-11.4285
まります	-11.4286
は感じませんでした	-11.429
美味しくなかったです	-11.429
やたら	-11.4291
同士	-11.4291
悪いし	-11.4291
青色	-11.4292
購入予定です	-11.4293
数値	-11.4294
扇風機	-11.4295
調味料	-11.4295
格段に	-11.4295
発芽	-11.4296
ボウル	-11.4296
珍しく	-11.4296
気に入ったようで	-11.4297
はいけません	-11.4297
が外れて	-11.4297
ばかりでした	-11.4297
ゃ	-11.4298
があるのは	-11.43
ライトの	-11.43
201504	-11.4301
敏感な	-11.4301
横向き	-11.4301
持った	-11.4302
購入出来て	-11.4302
購入している	-11.4303
部分で	-11.4304
日に発送	-11.4304
リピはしません	-11.4306
毛糸	-11.4307
全色	-11.4307
の量が	-11.4307
テープを	-11.4309
ルの	-11.4309
染まり	-11.431
床が	-11.431
コロン	-11.4313
購入される	-11.4313
123	-11.4314
のせいなのか	-11.4314
のよう	-11.4316
癒し	-11.4317
置け	-11.4317
生えて	-11.4318
よくわかりませんが	-11.4318
画面に	-11.4319
大きめなので	-11.432
ぐり	-11.432
硬	-11.432
食べ過ぎ	-11.432
コミック	-11.4322
薄すぎ	-11.4322
羽織る	-11.4322
か月で	-11.4322
朝晩	-11.4322
は問題ない	-11.4323
デザインが気に入って	-11.4324
スカートは	-11.4325
ついていたので	-11.4328
▁a	-11.4328
を作り	-11.4329
いいや	-11.4329
底板	-11.433
使うなら	-11.433
不評	-11.4331
妥協	-11.4331
冷蔵庫で	-11.4331
子猫	-11.4331
とても気に入ったので	-11.4332
強烈	-11.4333
ふさ	-11.4335
最後	-11.4335
厚みのある	-11.4335
ワーク	-11.4337
かれ	-11.4337
冬用	-11.4337
れませんでした	-11.4337
うちの子には	-11.4338
疑い	-11.4339
ラインは	-11.4339
しておきます	-11.434
の入った	-11.434
だったが	-11.434
足首の	-11.434
夏用	-11.434
だる	-11.4342
縫い方	-11.4343
探してた	-11.4346
押し入れ	-11.4346
ムートン	-11.4349
似合わない	-11.4349
ウチ	-11.4351
故	-11.4351
飛び出	-11.4351
面白かった	-11.4352
折り目	-11.4352
堂	-11.4353
価格が安いので	-11.4353
この季節	-11.4354
ガッチリ	-11.4356
とても使いやすく	-11.4358
カンジ	-11.4359
不能	-11.4359
求めていた	-11.4361
バックの	-11.4362
影	-11.4364
わくわく	-11.4364
密閉	-11.4364
蕎麦	-11.4364
主婦	-11.4364
除菌	-11.4365
登山	-11.4365
クロックス	-11.4365
化学	-11.4366
ませんか	-11.4367
車輪	-11.4367
名前入り	-11.4367
オリーブオイル	-11.4367
いつまで	-11.4368
分からないので	-11.4368
となっていますが	-11.4368
になってから	-11.4369
スペースが	-11.4369
外では	-11.4369
この金額	-11.4372
楽しみに待って	-11.4372
毛玉だらけ	-11.4372
ずり落ちて	-11.4372
週間ほどで	-11.4374
発送連絡	-11.4375
の形状	-11.4376
グレージュ	-11.4377
投入	-11.4377
マジックテープが	-11.438
個人差がある	-11.4383
歯が	-11.4383
植え替え	-11.4383
開封したら	-11.4383
のものと	-11.4384
デパート	-11.4384
つけれ	-11.4385
時にも	-11.4386
仕方ないか	-11.4386
お値段が安いので	-11.4391
持ち歩いて	-11.4393
あたる	-11.4393
通勤用に	-11.4394
ショップに連絡	-11.4394
の調整	-11.4395
ので購入	-11.4395
つきやすい	-11.4396
楽ちん	-11.4397
すごく残念です	-11.4398
てん	-11.4399
当たって	-11.44
時など	-11.4403
ヒールの	-11.4403
食べてくれ	-11.4403
上品な感じ	-11.4404
-201412	-11.4404
ふと	-11.4405
増えた	-11.4405
,12	-11.4407
いただきたいです	-11.441
の変更	-11.441
感じられる	-11.441
ごく	-11.4411
デパートで	-11.4414
気持ちがいいです	-11.4416
日経っても	-11.4416
はっきりと	-11.4417
ヒールの高さ	-11.4419
つもりだった	-11.4419
って言って	-11.442
ガタ	-11.4421
CO	-11.4421
を探していたら	-11.4421
ついてくる	-11.4421
袋で	-11.4424
しっかりとした作り	-11.4424
知らせ	-11.4425
気になっていたので	-11.4425
たとき	-11.4426
下段	-11.4426
薄味	-11.4427
輸送	-11.4428
この評価です	-11.4428
満足いく	-11.4429
うま	-11.443
設	-11.4431
届いた商品を	-11.4431
買いたいと思います	-11.4432
というくらい	-11.4432
差し込む	-11.4433
出会え	-11.4433
丼	-11.4433
お風呂で	-11.4433
レヴュー	-11.4434
披露宴	-11.4434
トイプードル	-11.4434
レイアウト	-11.4434
が割れて	-11.4434
では無く	-11.4435
してみようと思います	-11.4435
踏み	-11.4435
るときに	-11.4435
とても良かった	-11.4435
迷う	-11.4435
していただける	-11.4436
リスク	-11.4436
二つ折り	-11.4436
81	-11.4437
近所	-11.4437
でしたし	-11.4437
嫌なので	-11.4437
外れます	-11.4437
快く	-11.4437
友達も	-11.4437
疲れます	-11.4438
お昼寝	-11.4439
大変気に入っています	-11.4439
毛質	-11.444
弱すぎ	-11.4441
このデザイン	-11.4443
接続部分	-11.4445
使い続ける	-11.4445
していただけました	-11.4445
▁また	-11.4447
が心配です	-11.4447
現物を見て	-11.4447
破れてしまいました	-11.445
ブー	-11.4452
少し不安	-11.4454
貰った	-11.4454
早くて助かりました	-11.4454
が違うので	-11.4455
納得の	-11.4455
サブ	-11.4456
義理	-11.4458
4〜5	-11.4458
スパ	-11.446
わら	-11.446
私と	-11.4463
保護シート	-11.4463
広げ	-11.4464
の予定	-11.4464
気に入っていたのですが	-11.4464
動かし	-11.4465
量販店で	-11.4466
収納に	-11.4466
からなのか	-11.4467
木が	-11.4468
連絡したところ	-11.4468
か楽しみです	-11.4468
探した	-11.4468
消えません	-11.4469
のつもりで	-11.4473
人生	-11.4473
華やかな	-11.4474
るくらい	-11.4474
なりそう	-11.4474
両端	-11.4475
行きます	-11.4476
がないため	-11.4476
207	-11.4476
内ポケット	-11.4477
部屋着として	-11.4479
広げる	-11.448
たこと	-11.448
記念に	-11.4481
堅	-11.4482
シルエットも	-11.4483
デン	-11.4483
これだ	-11.4485
しっかりした生地で	-11.4487
キーケース	-11.4488
使うことにしました	-11.4489
以前にも	-11.449
ダメだ	-11.449
すごく可愛いです	-11.4493
つもりが	-11.4494
当てて	-11.4494
の商品は	-11.4495
良かったな	-11.4495
パッドが	-11.4496
手頃	-11.4496
値段以上に	-11.4497
当たり外れがある	-11.4498
大きくなる	-11.45
数本	-11.4502
過剰	-11.4503
アニメ	-11.4503
寿司	-11.4503
クーラー	-11.4503
ございます	-11.4503
お母さん	-11.4503
インスタント	-11.4503
年末年始	-11.4504
完売	-11.4504
してもらう	-11.4504
j	-11.4504
変換	-11.4504
キャベツ	-11.4504
とってもいいです	-11.4504
良しとします	-11.4504
野球	-11.4504
ラメが	-11.4506
込まれて	-11.4506
座っている	-11.4506
こうと	-11.4507
お金が	-11.4507
に行き	-11.4508
前提	-11.4508
日まで	-11.4508
サイズ的に	-11.4508
安い商品	-11.4508
ないとダメ	-11.4508
が入っていない	-11.4509
ポート	-11.451
方が良いです	-11.451
とても美味しく	-11.4511
追記です	-11.4511
通話	-11.4511
面の	-11.4511
頂	-11.4513
履けば	-11.4513
バッグを	-11.4514
力も	-11.4515
配送会社	-11.4515
パンダ	-11.4516
には合わない	-11.4518
まだ届いていません	-11.4519
粉々	-11.4519
も出	-11.4519
レビューを見ると	-11.4524
注文してから届くまで	-11.4524
希望を	-11.4525
のかも知れませんが	-11.4527
伸びるので	-11.4527
ビニールの	-11.4529
すぎで	-11.4529
あげく	-11.453
として使っています	-11.453
デザインは可愛い	-11.453
華やかで	-11.453
自転車の	-11.4533
の充電	-11.4533
さび	-11.4535
夢	-11.4536
お取り寄せ	-11.4536
タイプも	-11.4537
時間くらい	-11.4538
とっても気に入りました	-11.4538
自由	-11.4538
買ったほうが	-11.454
リーズナブルで	-11.4541
いただけた	-11.4542
こともある	-11.4544
パッケージの	-11.4546
装着感	-11.4549
リピートしてます	-11.455
113	-11.455
着付け	-11.4551
硬いです	-11.4551
があること	-11.4553
嫌いな	-11.4553
調整できる	-11.4554
使用するには	-11.4554
安くて良い	-11.4554
ニング	-11.4554
とも思いましたが	-11.4555
説明書通りに	-11.4557
イー	-11.4557
大満足の	-11.4558
レイン	-11.4558
なのでしょうが	-11.4558
食べたこと	-11.4561
は絶対に	-11.4562
してほしかった	-11.4563
かと思ったのですが	-11.4563
われて	-11.4564
説明に	-11.4564
大人用	-11.4564
安っぽく見えます	-11.4564
私好み	-11.4565
パステル	-11.4565
写真のイメージ	-11.4565
丈夫そう	-11.4565
レビューを書くと	-11.4566
al	-11.4567
袖は	-11.4569
必	-11.4571
バリエーション	-11.4571
ており	-11.4572
天日干し	-11.4574
関東	-11.4574
カーネーション	-11.4574
レギュラー	-11.4574
桐	-11.4574
部屋の雰囲気	-11.4574
銀行印	-11.4574
着てる	-11.4575
スムース	-11.4575
仕上がりも	-11.4575
あか	-11.4576
買ってみた	-11.4577
歳の誕生日	-11.4578
メールが来た	-11.4578
間に合いませんでした	-11.4578
用を	-11.4578
仕方がないので	-11.4579
おりますが	-11.4581
信頼して	-11.4582
財布を	-11.4582
カードの	-11.4583
すっきりして	-11.4584
のが難点です	-11.4585
予備の	-11.4585
ふとん	-11.4586
気にいった	-11.4587
を検討	-11.4587
落ち着いた感じ	-11.4587
おもったより	-11.4587
のにおい	-11.4589
音沙汰なし	-11.4589
かいて	-11.459
水分が	-11.459
明るくなりました	-11.459
赤と	-11.4591
の所に	-11.4592
ボディー	-11.4593
。。。。。	-11.4593
ようになったので	-11.4593
美味い	-11.4593
10%	-11.4594
スジ	-11.4594
ついてて	-11.4596
耐	-11.4596
見つけられ	-11.4596
布団に	-11.4598
拭く	-11.4598
見にくい	-11.46
使えるもの	-11.46
対応が早く	-11.46
プレゼント用に購入	-11.4601
異常に	-11.4602
気になるので	-11.4602
マットの	-11.4602
おっ	-11.4603
買ってしまい	-11.4604
激しい	-11.4607
お揃いで	-11.4607
暗めの	-11.4609
お茶を	-11.461
メールに	-11.4611
容器の	-11.4612
昨日届きました	-11.4613
良いな	-11.4613
想像と	-11.4614
に傷が	-11.4614
買い替えました	-11.4614
買うか	-11.4616
週間程	-11.4618
ぐら	-11.4619
低価格で	-11.4619
重さは	-11.4623
使い方を	-11.4624
で作って	-11.4625
バッチリでした	-11.4625
とてもきれいで	-11.4626
酷いです	-11.4626
印象でした	-11.4628
若干の	-11.4628
ふたつ	-11.4631
一週間以上	-11.4632
ちょっとだけ	-11.4633
帰って	-11.4633
給	-11.4634
を外す	-11.4635
買えたので	-11.4635
学校の	-11.4636
一度洗濯	-11.4637
着れました	-11.4638
隠せ	-11.464
珠	-11.4642
そうな感じです	-11.4642
履けませんでした	-11.4642
願い	-11.4644
交	-11.4644
ダウニー	-11.4645
プラチナ	-11.4645
しまうこと	-11.4645
藤	-11.4645
膜	-11.4645
新鮮で	-11.4645
おっしゃって	-11.4645
今も	-11.4645
樹	-11.4646
テカリ	-11.4647
浮く	-11.4647
ものではありません	-11.4648
(><)	-11.4648
私の肌には	-11.4648
今の季節	-11.4649
運べ	-11.4649
回は	-11.465
次回からは	-11.465
甲の部分	-11.4652
メーカーさん	-11.4653
当たり外れ	-11.4653
もう少し安ければ	-11.4653
さし	-11.4653
甘すぎず	-11.4654
使われている	-11.4654
☆−1	-11.4654
他の店で	-11.4655
どうなのか	-11.4656
絞り	-11.4657
秒針	-11.4657
代用	-11.4659
作ろう	-11.4659
履けました	-11.466
使用するので	-11.4662
時計の	-11.4664
襟元	-11.4664
天板に	-11.4665
買えました	-11.4665
ほこりが	-11.4667
滑らか	-11.4667
安く買えたので	-11.4667
リピ決定です	-11.4667
事実	-11.4669
SA	-11.4669
以前の問題	-11.4669
だろうと思い	-11.467
信じて	-11.467
に最適です	-11.4671
またまた	-11.4671
同じ物	-11.4673
快適な	-11.4673
届いたとき	-11.4674
信用して	-11.4674
とても重宝しています	-11.4674
しつつ	-11.4676
文字の	-11.4676
ちょうどよかった	-11.4677
で使用しています	-11.4677
その時	-11.4678
ないのかな	-11.468
たまには	-11.468
甘みが	-11.468
リース	-11.4681
遅くて	-11.4681
えない	-11.4682
いいんだけど	-11.4682
がすぐに	-11.4682
東	-11.4683
熱が	-11.4683
本とも	-11.4685
シルエットは	-11.4687
商品自体も	-11.4688
角度が	-11.469
安っぽかったです	-11.4692
加えて	-11.4692
大丈夫そう	-11.4693
全体を	-11.4696
締めて	-11.4696
ますよね	-11.4697
のよい	-11.4697
がついていました	-11.4697
屋外	-11.4697
前回も	-11.4699
消臭効果	-11.47
お店の方の	-11.4701
丈夫そうで	-11.4702
膝下	-11.4702
もらえ	-11.4704
並んで	-11.4705
も綺麗で	-11.4705
アラ	-11.4705
お鍋	-11.4706
生地感	-11.4706
使用感が	-11.4707
親切で	-11.471
交換をお願い	-11.471
しますね	-11.471
アイロンで	-11.471
らく	-11.4711
...」	-11.4711
問い合わせて	-11.4711
往復	-11.4712
の布	-11.4714
菌	-11.4716
せんべい	-11.4716
トッピング	-11.4716
念願の	-11.4716
眺めて	-11.4716
視認性	-11.4716
介護	-11.4716
伝わって	-11.4716
消毒	-11.4716
狂	-11.4717
クリームを	-11.4717
伝票番号	-11.4718
硬いので	-11.4718
ラフ	-11.4719
毛が抜け	-11.4719
るには	-11.4719
使えるし	-11.4719
を変えた	-11.472
飲まない	-11.472
まーす	-11.472
理想	-11.4721
になったり	-11.4721
紛らわしい	-11.4722
今から楽しみです	-11.4722
スウェット	-11.4722
簡易包装	-11.4723
バレ	-11.4723
ホワイト購入	-11.4725
長い間	-11.4726
着ても	-11.4727
戻り	-11.4727
放送	-11.4727
置いておく	-11.4728
拭き取り	-11.4729
安価なので	-11.473
スマホを	-11.473
週間後	-11.4731
が見える	-11.4732
しまいそうです	-11.4735
一足	-11.4735
良かったが	-11.4736
されてない	-11.4736
パンツが	-11.4736
着れそうです	-11.4736
個数	-11.4737
最終的に	-11.4737
心地よい	-11.4737
すすめ	-11.474
明日から	-11.474
お買い得な	-11.474
探	-11.4741
安っぽかった	-11.4742
連絡しても	-11.4743
安く買えました	-11.4744
する為に	-11.4746
の太さ	-11.4746
当店	-11.4747
ドラッグストアで	-11.4747
採	-11.4747
電話しても	-11.4748
178	-11.4748
パパ	-11.4749
とっても可愛くて	-11.4749
一つだけ	-11.4749
均一	-11.4749
を開け	-11.4749
値段より	-11.475
冷凍庫に	-11.475
お肌に	-11.4751
あんな	-11.4755
値段が値段	-11.4756
封筒に	-11.4756
とめて	-11.4759
際には	-11.4759
書け	-11.476
とあり	-11.4762
お洗濯	-11.4763
酷かった	-11.4763
っす	-11.4765
ませんね	-11.4765
めんどくさいので	-11.4765
高齢	-11.4766
ブラックを	-11.4766
が豊富で	-11.4769
書けません	-11.477
与えています	-11.4771
いけます	-11.4772
フックが	-11.4773
パッチ	-11.4773
ハードケース	-11.4774
:23	-11.4774
テー	-11.4775
こちらを購入してみました	-11.4776
はダメ	-11.4777
用にと	-11.4777
ほどよく	-11.4778
味噌汁	-11.4778
手放せない	-11.4779
届いた時に	-11.4779
たくありません	-11.478
布を	-11.478
受	-11.478
頼み	-11.478
合格	-11.4781
快	-11.4783
対応していただき	-11.4784
開けられ	-11.4785
垢	-11.4785
インクの	-11.4785
月から	-11.4786
年近く	-11.4787
を選んだのですが	-11.4788
氏	-11.4788
館	-11.4788
人気商品	-11.4788
全員	-11.4788
検品を	-11.4788
ちょこっと	-11.4788
温泉	-11.4788
すべすべ	-11.4788
返却	-11.4788
トレーナー	-11.4789
値段も手頃	-11.4789
ジョン	-11.4789
食べ応え	-11.479
鮮やか	-11.479
ピーチ	-11.4791
足首が	-11.4792
気のせい	-11.4792
まだ使用していないので	-11.4794
の言葉	-11.4794
繊細な	-11.4794
合わないのか	-11.4794
残っている	-11.4794
着く	-11.4795
お手頃な	-11.4797
だけを	-11.4797
地の	-11.4798
つけよう	-11.4799
交換した	-11.48
使っていると	-11.4801
雨が	-11.4802
変化が	-11.4804
早く届き	-11.4804
送料が無料	-11.4804
日傘	-11.4805
玄関の	-11.4806
サイズ感は	-11.4806
ゆるめ	-11.4808
日くらい	-11.4809
下がる	-11.481
板を	-11.481
したのが	-11.481
感激しました	-11.4812
覚悟して	-11.4815
便利ですね	-11.4815
踵が	-11.4816
下さり	-11.4816
仕方ありません	-11.4819
ゆったりと	-11.4819
一時	-11.482
初心者には	-11.482
発注して	-11.4821
のかわからない	-11.4821
添え	-11.4821
表に	-11.4822
方がいいかも	-11.4824
価格の割に	-11.4825
届いた物は	-11.4826
走	-11.4827
丁度よく	-11.4828
の風味	-11.4828
家用	-11.4828
頭皮	-11.4829
かないと	-11.4829
足りません	-11.4829
保湿力	-11.483
別売り	-11.483
嫌がる	-11.483
絶対買わない	-11.4831
という印象	-11.4831
なので仕方ない	-11.4832
が折れて	-11.4833
がなければ	-11.4833
難しかったです	-11.4835
人でも	-11.4835
そうな感じ	-11.4837
できるもの	-11.4837
履いてみて	-11.4837
ふれ	-11.4838
スポ	-11.4838
消耗	-11.4838
美味しいし	-11.4839
小さいですが	-11.4839
出てる	-11.484
ェ	-11.4841
不思議です	-11.4842
幅が広い	-11.4842
ニュー	-11.4843
必要があります	-11.4845
四つ	-11.4845
234	-11.4847
明るめ	-11.4848
とてもいいと思います	-11.4849
わりには	-11.4851
TT	-11.4852
が入っているので	-11.4853
また買いたいです	-11.4853
より安く	-11.4854
送料がかかる	-11.4854
みたくて	-11.4854
言えませんが	-11.4854
ものとは	-11.4855
買わなくて	-11.4856
私にはちょっと	-11.4858
願います	-11.4859
違	-11.4859
蝶	-11.486
たくさん入る	-11.4861
っちゃう	-11.4861
shop	-11.4861
大好評	-11.4861
よろしい	-11.4861
測定	-11.4861
じゃないです	-11.4861
おさまり	-11.4862
ジップ	-11.4862
撃	-11.4862
ばらつき	-11.4863
毎度	-11.4863
汚れが落ち	-11.4863
1,000	-11.4865
サイズアップ	-11.4865
納	-11.4866
このお値段なので	-11.4866
が残ります	-11.4867
ことはありませんでした	-11.4867
入れました	-11.4867
な印象	-11.4868
も入れて	-11.4868
接着剤が	-11.4869
水草	-11.4869
聴いて	-11.4869
りするので	-11.4869
文字も	-11.487
こちらを見つけました	-11.4872
お出掛け	-11.4873
予約商品	-11.4873
もそんなに	-11.4873
着色	-11.4874
ありますね	-11.4877
此方	-11.4877
形や	-11.4877
子供用の	-11.4878
コレは	-11.488
-201406	-11.4881
使わずに	-11.4881
喜んでいただけました	-11.4881
厚みがあって	-11.4881
服用	-11.4884
ラッピングを	-11.4889
手元に届きました	-11.4889
自然な感じ	-11.489
〜?	-11.489
まんま	-11.489
口を	-11.489
ボリュームも	-11.4891
花は	-11.4891
写メ	-11.4893
併用	-11.4893
ri	-11.4893
リピしてます	-11.4894
欄	-11.4894
所も	-11.4894
油を	-11.4895
がり	-11.4896
出てきた	-11.4901
としました	-11.4901
翌日に届きました	-11.4902
家族から	-11.4902
到着する	-11.4903
見たこと	-11.4903
期待通りの	-11.4903
シック	-11.4903
日数	-11.4903
回し	-11.4904
喜んでくれたので	-11.4904
前回購入	-11.4904
気になるところ	-11.4905
自分好み	-11.4905
ビーズが	-11.4905
♪♪	-11.4905
もらいたい	-11.4906
かわかりません	-11.4908
高いし	-11.4908
包装は	-11.4909
ここのショップ	-11.4911
パンを	-11.4911
待て	-11.4912
も付いていて	-11.4913
インド	-11.4914
置いています	-11.4914
の連絡が	-11.4918
まあまあかな	-11.492
隣の	-11.492
送ってくる	-11.492
独特な	-11.4922
るとき	-11.4922
見栄えが	-11.4923
1/3	-11.4923
はめる	-11.4927
演	-11.4928
天気	-11.4929
度数	-11.4929
比	-11.493
出来ている	-11.493
と違いました	-11.4931
お客	-11.4931
フォルム	-11.4933
修学旅行	-11.4934
シャープ	-11.4934
精米	-11.4934
パーフェクト	-11.4934
可動	-11.4934
炊飯器	-11.4934
お友達に	-11.4934
羽根	-11.4935
運び	-11.4935
ぐらぐら	-11.4936
近々	-11.4936
スマホに	-11.4937
死着	-11.4937
ゆえ	-11.4938
どうぞ	-11.4939
驚いて	-11.494
でしたら	-11.494
くっつく	-11.4941
お風呂場	-11.4942
で作った	-11.4943
って思う	-11.4945
を作るのに	-11.4945
小さいし	-11.4945
ことがある	-11.4946
まだ使っていないので	-11.4947
デザインも可愛い	-11.4947
人から	-11.4948
がなくなりました	-11.4952
辞め	-11.4952
頼り	-11.4952
使わないと	-11.4952
をいただきました	-11.4953
爪の	-11.4953
と言う事	-11.4955
ような気がする	-11.4955
個が	-11.4956
オレンジを購入しました	-11.4958
ばっちりです	-11.4959
大変なので	-11.496
するだけで	-11.496
付きました	-11.496
のためか	-11.4961
頼みたい	-11.4961
使用しても	-11.4962
イメージと違った	-11.4963
濃くて	-11.4963
イチ	-11.4964
にすれば	-11.4965
げて	-11.4965
軽量で	-11.4966
やっても	-11.4967
伝えた	-11.4968
3.5	-11.4969
日ほどで	-11.4969
感じたので	-11.4972
に時間がかかる	-11.4972
ライトは	-11.4972
致	-11.4972
サイズ感が	-11.4972
が激しい	-11.4975
聞け	-11.4976
使用してから	-11.4976
変色して	-11.4977
照ら	-11.4977
もろい	-11.4978
のは難しい	-11.4979
ノイズ	-11.498
問い合わせても	-11.498
お詫びの	-11.4982
付いていない	-11.4982
普段履き	-11.4983
ダンボールに	-11.4983
の少ない	-11.4983
直後に	-11.4984
送ってきた	-11.4984
薄くなって	-11.4985
ない限り	-11.4986
枚とも	-11.4986
レビュー見て	-11.499
ケチ	-11.499
美容室で	-11.4993
次第で	-11.4994
ぽく	-11.4994
締	-11.4995
ちゃっち	-11.4996
申し分ないです	-11.4996
ものばかり	-11.4997
の早さ	-11.4998
おいた	-11.4998
使用するため	-11.5
得意	-11.5001
希望で	-11.5001
レイ	-11.5003
丈が短く	-11.5003
ワンサイズ下	-11.5004
公	-11.5005
友人へ	-11.5006
写真だと	-11.5006
264548-201	-11.5007
スワロ	-11.5007
談	-11.5007
マニュアル	-11.5007
羊	-11.5007
あわてて	-11.5007
カプセル	-11.5007
泣く泣く	-11.5007
周辺	-11.5007
グレープフルーツ	-11.5007
ディスプレイ	-11.5007
上司	-11.5007
グラデーション	-11.5007
真珠	-11.5008
無農薬	-11.5008
断線	-11.5008
いくら安くても	-11.5009
ライム	-11.5011
スリムな	-11.5011
半額以下	-11.5013
をつけた	-11.5013
ドン	-11.5013
裏表	-11.5014
のとおり	-11.5014
集中	-11.5016
暗い色	-11.5018
洗濯機で	-11.502
しっかりとしていて	-11.5021
ああ	-11.5021
もいいかも	-11.5022
気に入ってる	-11.5022
問い合わせたら	-11.5022
へのプレゼントに	-11.5023
電話対応	-11.5025
襟が	-11.5026
の衣装	-11.5026
際の	-11.5026
許	-11.5026
込	-11.5027
本購入	-11.5036
しっかりした生地	-11.5036
こぼし	-11.5037
を塗って	-11.5039
迅速丁寧	-11.5039
落ち着いた感じで	-11.504
年保証	-11.504
の高さが	-11.5041
注文の	-11.5043
滑らない	-11.5045
薄めの	-11.5045
していれば	-11.5046
夢中	-11.5046
タル	-11.5047
ジャストサイズでした	-11.5048
をたくさん	-11.505
使用できます	-11.505
費用	-11.5051
ゆとりがあり	-11.5051
急いでいたので	-11.5051
円ショップで	-11.5051
事が出来	-11.5051
もスムーズで	-11.5052
持ち上げ	-11.5054
子供たちも	-11.5054
遅くなりました	-11.5054
デザインもよく	-11.5055
レア	-11.5056
裏側に	-11.5056
の内	-11.5058
無視され	-11.5058
いただきましたが	-11.5058
キャップを	-11.5059
二度目の購入です	-11.5059
あると便利	-11.5059
映	-11.506
ことが多い	-11.5061
かなり大きい	-11.5061
住	-11.5069
間の	-11.507
サイトの	-11.507
ができた	-11.507
においは	-11.507
があると思います	-11.5071
文句無し	-11.5071
不良品だった	-11.5072
面白く	-11.5072
予定より	-11.5073
hi	-11.5076
戴	-11.5077
勇気が	-11.5078
マキシ	-11.5078
濃いめの	-11.5079
省	-11.508
目覚め	-11.5081
電話が	-11.5081
スプリング	-11.5081
バケツ	-11.5081
惚れ	-11.5081
冷やして	-11.5081
姫	-11.5081
閉めて	-11.5081
何とも言えない	-11.5081
ギシギシ	-11.5081
ハワイ	-11.5082
とうとう	-11.5082
こちらにたどり着きました	-11.5083
を着ている	-11.5083
送料無料に	-11.5083
効果はまだ	-11.5084
マイクロ	-11.5084
良心的な	-11.5084
に切り替え	-11.5085
履かせて	-11.5085
相性が	-11.5085
203	-11.5086
ワイ	-11.5086
フォーク	-11.5086
壊れやすい	-11.5089
.........	-11.5089
待っていた	-11.5089
と比較	-11.5091
死んで	-11.5091
出席	-11.5091
造花	-11.5091
シールの	-11.5091
はまらない	-11.5092
子どもたち	-11.5092
部屋を	-11.5094
ずり	-11.5095
が遅く	-11.5095
出ています	-11.5096
が少なくて	-11.5096
にもよる	-11.5097
干せ	-11.5097
ぱっと見	-11.5097
と言う事で	-11.5097
は持って	-11.5098
ヨレ	-11.5098
損した気分です	-11.5098
すみ	-11.5099
付けている	-11.5099
期待していたのに	-11.51
肩ひも	-11.5101
飲めます	-11.5101
は初めてですが	-11.5102
内祝いに	-11.5105
つくりが	-11.5105
ra	-11.5106
にもなる	-11.5106
と言われる	-11.5107
ウニ	-11.5109
めで	-11.511
が残って	-11.511
だけだと	-11.511
混ぜる	-11.5111
この点	-11.5112
蒸気	-11.5112
いい色	-11.5112
高級感もあり	-11.5112
もあると	-11.5113
試してみよう	-11.5113
その他の	-11.5113
ご注意を	-11.5113
強烈な	-11.5116
放置して	-11.5117
躊躇して	-11.5118
状に	-11.512
出かけ	-11.5121
に付けて	-11.5123
1200	-11.5124
連絡する	-11.5124
人によって	-11.5125
つけています	-11.513
480	-11.513
年半	-11.5133
爽やか	-11.5134
スタッフの方	-11.5134
余った	-11.5135
正常に	-11.5135
AR	-11.5136
ペリ	-11.5137
迷ったのですが	-11.5138
ショボ	-11.5139
ニア	-11.5139
浮いた	-11.514
紙を	-11.5141
今時	-11.5141
の影響	-11.5142
排	-11.5145
日数が	-11.5146
注意して	-11.5146
悔	-11.5147
異常	-11.5147
飼い	-11.5147
のため購入しました	-11.5147
してしまうので	-11.5148
はげ	-11.5148
ハンド	-11.5149
親戚の	-11.5151
うるさく	-11.5155
りましたが	-11.5155
おそ	-11.5156
鯛	-11.5156
触れる	-11.5156
コタツ	-11.5156
コントロール	-11.5156
メロン	-11.5156
つぼみ	-11.5156
糞	-11.5156
報	-11.5156
云々	-11.5156
▁この	-11.5156
時間がかかって	-11.5156
コスメ	-11.5156
濁	-11.5157
発想	-11.5157
サークル	-11.5157
期間限定	-11.5157
怪しい	-11.5157
点検	-11.5158
未開封	-11.5158
の連絡を	-11.5158
値引き	-11.5159
円形	-11.5159
すいません	-11.5159
に難あり	-11.5159
st	-11.516
すか	-11.5162
半分は	-11.5164
がほしかった	-11.5165
とほぼ同じ	-11.5165
生まれ	-11.5165
したものを	-11.5166
ちょっと違う	-11.5167
天然石	-11.5167
スタッフの対応	-11.5167
あまりよくない	-11.5167
肩幅が	-11.5167
*****	-11.5168
クリスマスに	-11.517
こともありません	-11.5171
利用してます	-11.5171
感じましたが	-11.5171
感じられます	-11.5172
パットが	-11.5175
年目	-11.5176
購入履歴	-11.518
残念だった	-11.518
値段的には	-11.5181
~,	-11.5182
購入したほうが	-11.5183
届いてビックリ	-11.5184
ホックが	-11.5184
ポイント消化	-11.5186
にあわせて	-11.5186
別のお店で	-11.5186
を書く	-11.5186
止	-11.5187
よれ	-11.5187
はしていませんが	-11.5187
気に入っております	-11.5188
苦労します	-11.5189
期待以上	-11.519
父の日のプレゼント	-11.5192
には全く	-11.5192
段ボールに	-11.5195
壊れてしまい	-11.5195
手ごろな	-11.5195
(^^	-11.5196
スムーズでした	-11.5196
ようだ	-11.5197
見えた	-11.5197
生地や	-11.5198
履いていた	-11.5199
に合わせる	-11.52
とても可愛かったです	-11.5202
みたいな感じ	-11.5202
センチを購入しました	-11.5205
流行	-11.5206
購入したところ	-11.5206
十分でした	-11.5207
使っていました	-11.5209
安さに	-11.521
ひどかった	-11.521
想	-11.5212
出力	-11.5217
嫁さん	-11.5219
ようですね	-11.522
じゃないですか	-11.5221
合わせやすく	-11.5221
いい物	-11.5223
ものではありませんでした	-11.5224
ヶ月半	-11.5224
がとれ	-11.5226
対応して頂き	-11.5226
とお揃いで	-11.5227
なければいけない	-11.5228
使用していて	-11.5228
コイン	-11.5229
一段	-11.5229
怖	-11.5229
目立たなく	-11.523
もバッチリ	-11.523
後悔です	-11.523
を変更	-11.5231
激しく	-11.5231
なじむ	-11.5231
栽培	-11.5231
決まって	-11.5231
土踏まず	-11.5231
頃には	-11.5231
発泡スチロール	-11.5231
効率	-11.5231
散らか	-11.5232
同時に購入した	-11.5233
前に購入した	-11.5234
毎月	-11.5234
が来ました	-11.5234
痛くなって	-11.5235
コーム	-11.5235
すごく気に入りました	-11.5237
香りを	-11.5238
してしまって	-11.524
(^-^)/	-11.524
二日	-11.5241
ゆず	-11.5242
になってしまったので	-11.5243
気に入ってくれて	-11.5245
粘着力が	-11.5245
as	-11.5245
見た目で	-11.5246
にしようと	-11.5246
満足していました	-11.5248
この度	-11.5248
はやや	-11.5248
なっちゃう	-11.5249
突	-11.5252
販売されて	-11.5252
画面で	-11.5252
ちょっと大きめ	-11.5253
薄っぺらい	-11.5253
扉が	-11.5254
満足している	-11.5255
息子へ	-11.5255
?(	-11.5256
シールは	-11.5256
方向に	-11.5257
してくれない	-11.5259
気持ち良い	-11.526
とてもおいしかったです	-11.5262
着るには	-11.5264
いじ	-11.5268
ok	-11.5268
なかったし	-11.527
この程度の	-11.5271
ので助かりました	-11.5271
月末に	-11.5272
されてました	-11.5272
統一	-11.5273
家の中	-11.5274
同等	-11.5275
として購入しましたが	-11.5276
ちょっとガッカリ	-11.5278
書かれていますが	-11.5279
今一つ	-11.528
ねば	-11.5283
この金額で	-11.5283
ひっかかり	-11.5285
デザインを	-11.5285
入りで	-11.5288
ものを探して	-11.5288
理由が	-11.5289
底面	-11.5289
女性用	-11.5291
色が濃い	-11.5291
水は	-11.5293
無くなって	-11.5294
大きめでした	-11.5294
もらえて	-11.5295
安全な	-11.5295
とてもきれいな	-11.5296
あるもの	-11.5296
ないくらい	-11.5298
着てみたら	-11.5298
濃	-11.5299
だけなのに	-11.5299
一箇所	-11.53
頂けて	-11.5301
好きな色	-11.5305
を使用する	-11.5306
ポカポカ	-11.5307
裸	-11.5307
主人公	-11.5307
シャフト	-11.5307
シロップ	-11.5307
ヴァ	-11.5307
&#13213;	-11.5307
いちばん	-11.5307
膨らんで	-11.5307
ユーザー	-11.5307
公園	-11.5307
サッカー	-11.5307
アマゾン	-11.5307
入園準備	-11.5307
卒園式	-11.5308
持たない	-11.5308
必要だったので	-11.5309
何種類か	-11.5309
も綺麗に	-11.5311
デー	-11.5313
発色も	-11.5317
スケ	-11.5317
非常に残念でした	-11.5317
調度	-11.5319
ゴムも	-11.5319
脱毛	-11.532
色を購入しました	-11.532
なんです	-11.5321
また利用したい	-11.5321
香りの	-11.5322
しにくいです	-11.5323
他社製品	-11.5323
入っていましたが	-11.5324
痩せる	-11.5326
もど	-11.533
商品の説明	-11.5331
気がしますが	-11.5331
履いてみたら	-11.5332
レンチ	-11.5333
光り	-11.5333
見た時	-11.5333
縫い目の	-11.5333
はさみ	-11.5334
残し	-11.5335
とのことだったので	-11.5335
そんな事	-11.5335
以前のもの	-11.5336
感があって	-11.5337
好きな香り	-11.5337
サイズはぴったり	-11.5337
価格に	-11.5338
夜は	-11.5339
は有りません	-11.5339
のお祝い	-11.534
飲みましたが	-11.5343
してません	-11.5344
et	-11.5344
などには	-11.5345
金額で	-11.5347
目立ちません	-11.5347
デザイン的に	-11.5347
縮	-11.5349
一回目	-11.535
デザインはいい	-11.535
の良さに	-11.5353
できています	-11.5354
安いからしょうがない	-11.5354
足のサイズは	-11.5354
くらいしか	-11.5355
最新	-11.5355
ほうがよかった	-11.5356
だという	-11.5357
買い替えです	-11.5357
で買うより	-11.5359
出てきました	-11.536
値段から	-11.536
いかず	-11.536
止まり	-11.5361
型が	-11.5362
弁当	-11.5362
説明書を	-11.5363
お味は	-11.5365
と思っていたところ	-11.5365
利用したい	-11.5366
後半	-11.5367
寒いので	-11.5368
あきらめます	-11.5368
携帯用	-11.5369
トリー	-11.5371
個体	-11.5371
ハートの	-11.5371
お金の無駄	-11.5372
はいいが	-11.5372
つけてみると	-11.5373
通りで	-11.5374
おこう	-11.5376
人家族	-11.5379
明るさも	-11.538
の色と	-11.538
ショップの対応が	-11.538
ちょっと安っぽい	-11.5382
その後は	-11.5382
芝	-11.5382
は全て	-11.5382
存	-11.5382
算	-11.5383
М	-11.5383
肝心な	-11.5383
在住	-11.5383
とてもじゃないけど	-11.5383
ジョ	-11.5383
風呂敷	-11.5384
ソープ	-11.5384
心遣い	-11.5384
パンが	-11.5385
酸味が	-11.5385
お買いもの	-11.5386
[...]
